{
  "version": "1.0",
  "truncation": null,
  "padding": null,
  "added_tokens": [
    {
      "id": 0,
      "content": "[PAD]",
      "single_word": false,
      "lstrip": false,
      "rstrip": false,
      "normalized": false,
      "special": true
    },
    {
      "id": 1,
      "content": "[UNK]",
      "single_word": false,
      "lstrip": false,
      "rstrip": false,
      "normalized": false,
      "special": true
    },
    {
      "id": 2,
      "content": "[CLS]",
      "single_word": false,
      "lstrip": false,
      "rstrip": false,
      "normalized": false,
      "special": true
    },
    {
      "id": 3,
      "content": "[SEP]",
      "single_word": false,
      "lstrip": false,
      "rstrip": false,
      "normalized": false,
      "special": true
    },
    {
      "id": 4,
      "content": "[MASK]",
      "single_word": false,
      "lstrip": false,
      "rstrip": false,
      "normalized": false,
      "special": true
    },
    {
      "id": 5,
      "content": "[LB]",
      "single_word": false,
      "lstrip": false,
      "rstrip": false,
      "normalized": false,
      "special": true
    }
  ],
  "normalizer": {
    "type": "BertNormalizer",
    "clean_text": true,
    "handle_chinese_chars": true,
    "strip_accents": null,
    "lowercase": false
  },
  "pre_tokenizer": {
    "type": "BertPreTokenizer"
  },
  "post_processor": {
    "type": "TemplateProcessing",
    "single": [
      {
        "SpecialToken": {
          "id": "[CLS]",
          "type_id": 0
        }
      },
      {
        "Sequence": {
          "id": "A",
          "type_id": 0
        }
      },
      {
        "SpecialToken": {
          "id": "[SEP]",
          "type_id": 0
        }
      }
    ],
    "pair": [
      {
        "SpecialToken": {
          "id": "[CLS]",
          "type_id": 0
        }
      },
      {
        "Sequence": {
          "id": "A",
          "type_id": 0
        }
      },
      {
        "SpecialToken": {
          "id": "[SEP]",
          "type_id": 0
        }
      },
      {
        "Sequence": {
          "id": "B",
          "type_id": 1
        }
      },
      {
        "SpecialToken": {
          "id": "[SEP]",
          "type_id": 1
        }
      }
    ],
    "special_tokens": {
      "[CLS]": {
        "id": "[CLS]",
        "ids": [
          2
        ],
        "tokens": [
          "[CLS]"
        ]
      },
      "[SEP]": {
        "id": "[SEP]",
        "ids": [
          3
        ],
        "tokens": [
          "[SEP]"
        ]
      }
    }
  },
  "decoder": {
    "type": "WordPiece",
    "prefix": "##",
    "cleanup": true
  },
  "model": {
    "type": "WordPiece",
    "unk_token": "[UNK]",
    "continuing_subword_prefix": "##",
    "max_input_chars_per_word": 100,
    "vocab": {
      "[PAD]": 0,
      "[UNK]": 1,
      "[CLS]": 2,
      "[SEP]": 3,
      "[MASK]": 4,
      "[LB]": 5,
      "!": 6,
      "\"": 7,
      "#": 8,
      "$": 9,
      "%": 10,
      "&": 11,
      "'": 12,
      "(": 13,
      ")": 14,
      "*": 15,
      "+": 16,
      ",": 17,
      "-": 18,
      ".": 19,
      "/": 20,
      "0": 21,
      "1": 22,
      "2": 23,
      "3": 24,
      "4": 25,
      "5": 26,
      "6": 27,
      "7": 28,
      "8": 29,
      "9": 30,
      ":": 31,
      ";": 32,
      "<": 33,
      "=": 34,
      ">": 35,
      "?": 36,
      "@": 37,
      "A": 38,
      "B": 39,
      "C": 40,
      "D": 41,
      "E": 42,
      "F": 43,
      "G": 44,
      "H": 45,
      "I": 46,
      "J": 47,
      "K": 48,
      "L": 49,
      "M": 50,
      "N": 51,
      "O": 52,
      "P": 53,
      "Q": 54,
      "R": 55,
      "S": 56,
      "T": 57,
      "U": 58,
      "V": 59,
      "W": 60,
      "X": 61,
      "Y": 62,
      "Z": 63,
      "[": 64,
      "\\": 65,
      "]": 66,
      "^": 67,
      "_": 68,
      "`": 69,
      "a": 70,
      "b": 71,
      "c": 72,
      "d": 73,
      "e": 74,
      "f": 75,
      "g": 76,
      "h": 77,
      "i": 78,
      "j": 79,
      "k": 80,
      "l": 81,
      "m": 82,
      "n": 83,
      "o": 84,
      "p": 85,
      "q": 86,
      "r": 87,
      "s": 88,
      "t": 89,
      "u": 90,
      "v": 91,
      "w": 92,
      "x": 93,
      "y": 94,
      "z": 95,
      "{": 96,
      "|": 97,
      "}": 98,
      "~": 99,
      "": 100,
      "": 101,
      "": 102,
      "": 103,
      "": 104,
      "": 105,
      "": 106,
      "": 107,
      "": 108,
      "": 109,
      "": 110,
      "": 111,
      "": 112,
      "£": 113,
      "¦": 114,
      "§": 115,
      "¨": 116,
      "ª": 117,
      "«": 118,
      "¬": 119,
      "­": 120,
      "¯": 121,
      "°": 122,
      "±": 123,
      "²": 124,
      "³": 125,
      "´": 126,
      "¶": 127,
      "·": 128,
      "¸": 129,
      "¹": 130,
      "»": 131,
      "½": 132,
      "¿": 133,
      "Á": 134,
      "Ä": 135,
      "Æ": 136,
      "È": 137,
      "É": 138,
      "Ë": 139,
      "Ì": 140,
      "Í": 141,
      "Ò": 142,
      "Ó": 143,
      "Ö": 144,
      "×": 145,
      "Ú": 146,
      "Ü": 147,
      "ß": 148,
      "à": 149,
      "á": 150,
      "â": 151,
      "ä": 152,
      "æ": 153,
      "ç": 154,
      "è": 155,
      "é": 156,
      "ë": 157,
      "ì": 158,
      "í": 159,
      "ï": 160,
      "ò": 161,
      "ó": 162,
      "ô": 163,
      "ö": 164,
      "÷": 165,
      "ù": 166,
      "ú": 167,
      "ü": 168,
      "ý": 169,
      "ÿ": 170,
      "Ā": 171,
      "ā": 172,
      "ć": 173,
      "Ď": 174,
      "ď": 175,
      "ĕ": 176,
      "ě": 177,
      "ī": 178,
      "Ĺ": 179,
      "ō": 180,
      "Œ": 181,
      "œ": 182,
      "ŕ": 183,
      "š": 184,
      "ū": 185,
      "ŭ": 186,
      "ź": 187,
      "Ƒ": 188,
      "ǁ": 189,
      "ȳ": 190,
      "ɛ": 191,
      "ʰ": 192,
      "ʳ": 193,
      "ʹ": 194,
      "ʼ": 195,
      "ʽ": 196,
      "˘": 197,
      "˙": 198,
      "˝": 199,
      "ˡ": 200,
      "ˢ": 201,
      "ˣ": 202,
      "̀": 203,
      "́": 204,
      "̄": 205,
      "̅": 206,
      "̆": 207,
      "̇": 208,
      "̈": 209,
      "̊": 210,
      "̓": 211,
      "̔": 212,
      "̠": 213,
      "̣": 214,
      "͂": 215,
      "̈́": 216,
      "ͅ": 217,
      "͎": 218,
      "͞": 219,
      "ʹ": 220,
      "͵": 221,
      ";": 222,
      "΄": 223,
      "΅": 224,
      "Ά": 225,
      "·": 226,
      "Έ": 227,
      "Ή": 228,
      "Ί": 229,
      "Ό": 230,
      "Ύ": 231,
      "Ώ": 232,
      "ΐ": 233,
      "Α": 234,
      "Β": 235,
      "Γ": 236,
      "Δ": 237,
      "Ε": 238,
      "Ζ": 239,
      "Η": 240,
      "Θ": 241,
      "Ι": 242,
      "Κ": 243,
      "Λ": 244,
      "Μ": 245,
      "Ν": 246,
      "Ξ": 247,
      "Ο": 248,
      "Π": 249,
      "Ρ": 250,
      "Σ": 251,
      "Τ": 252,
      "Υ": 253,
      "Φ": 254,
      "Χ": 255,
      "Ψ": 256,
      "Ω": 257,
      "Ϊ": 258,
      "Ϋ": 259,
      "ά": 260,
      "έ": 261,
      "ή": 262,
      "ί": 263,
      "ΰ": 264,
      "α": 265,
      "β": 266,
      "γ": 267,
      "δ": 268,
      "ε": 269,
      "ζ": 270,
      "η": 271,
      "θ": 272,
      "ι": 273,
      "κ": 274,
      "λ": 275,
      "μ": 276,
      "ν": 277,
      "ξ": 278,
      "ο": 279,
      "π": 280,
      "ρ": 281,
      "ς": 282,
      "σ": 283,
      "τ": 284,
      "υ": 285,
      "φ": 286,
      "χ": 287,
      "ψ": 288,
      "ω": 289,
      "ϊ": 290,
      "ϋ": 291,
      "ό": 292,
      "ύ": 293,
      "ώ": 294,
      "ϐ": 295,
      "ϖ": 296,
      "Ϙ": 297,
      "ϙ": 298,
      "Ϛ": 299,
      "ϛ": 300,
      "ϝ": 301,
      "Ϟ": 302,
      "ϟ": 303,
      "Ϡ": 304,
      "ϡ": 305,
      "ϥ": 306,
      "ϲ": 307,
      "Ϲ": 308,
      "І": 309,
      "З": 310,
      "О": 311,
      "П": 312,
      "С": 313,
      "б": 314,
      "ё": 315,
      "ј": 316,
      "Ҁ": 317,
      "ҁ": 318,
      "ҏ": 319,
      "Җ": 320,
      "ҝ": 321,
      "Ҫ": 322,
      "Ү": 323,
      "ұ": 324,
      "Ҷ": 325,
      "ӄ": 326,
      "Ӕ": 327,
      "ӕ": 328,
      "Ө": 329,
      "ө": 330,
      "ֹ": 331,
      "ל": 332,
      "܎": 333,
      "ݲ": 334,
      "ត": 335,
      "ហ": 336,
      "ឲ": 337,
      "ា": 338,
      "ិ": 339,
      "េ": 340,
      "ᵃ": 341,
      "ᵅ": 342,
      "ᵇ": 343,
      "ᵈ": 344,
      "ᵉ": 345,
      "ᵊ": 346,
      "ᵍ": 347,
      "ᵏ": 348,
      "ᵐ": 349,
      "ᵒ": 350,
      "ᵖ": 351,
      "ᵗ": 352,
      "ᵘ": 353,
      "ᵛ": 354,
      "ᵝ": 355,
      "ᶜ": 356,
      "ᶠ": 357,
      "ᶦ": 358,
      "ᶹ": 359,
      "ḍ": 360,
      "ḿ": 361,
      "ṃ": 362,
      "Ẃ": 363,
      "ẃ": 364,
      "ẉ": 365,
      "ạ": 366,
      "ụ": 367,
      "ỳ": 368,
      "ἀ": 369,
      "ἁ": 370,
      "ἂ": 371,
      "ἃ": 372,
      "ἄ": 373,
      "ἅ": 374,
      "ἆ": 375,
      "ἇ": 376,
      "Ἀ": 377,
      "Ἁ": 378,
      "Ἂ": 379,
      "Ἃ": 380,
      "Ἄ": 381,
      "Ἅ": 382,
      "Ἆ": 383,
      "Ἇ": 384,
      "ἐ": 385,
      "ἑ": 386,
      "ἒ": 387,
      "ἓ": 388,
      "ἔ": 389,
      "ἕ": 390,
      "Ἐ": 391,
      "Ἑ": 392,
      "Ἒ": 393,
      "Ἓ": 394,
      "Ἔ": 395,
      "Ἕ": 396,
      "ἠ": 397,
      "ἡ": 398,
      "ἢ": 399,
      "ἣ": 400,
      "ἤ": 401,
      "ἥ": 402,
      "ἦ": 403,
      "ἧ": 404,
      "Ἠ": 405,
      "Ἡ": 406,
      "Ἢ": 407,
      "Ἣ": 408,
      "Ἤ": 409,
      "Ἥ": 410,
      "Ἦ": 411,
      "Ἧ": 412,
      "ἰ": 413,
      "ἱ": 414,
      "ἲ": 415,
      "ἳ": 416,
      "ἴ": 417,
      "ἵ": 418,
      "ἶ": 419,
      "ἷ": 420,
      "Ἰ": 421,
      "Ἱ": 422,
      "Ἲ": 423,
      "Ἳ": 424,
      "Ἴ": 425,
      "Ἵ": 426,
      "Ἶ": 427,
      "Ἷ": 428,
      "ὀ": 429,
      "ὁ": 430,
      "ὂ": 431,
      "ὃ": 432,
      "ὄ": 433,
      "ὅ": 434,
      "Ὀ": 435,
      "Ὁ": 436,
      "Ὂ": 437,
      "Ὃ": 438,
      "Ὄ": 439,
      "Ὅ": 440,
      "ὐ": 441,
      "ὑ": 442,
      "ὒ": 443,
      "ὓ": 444,
      "ὔ": 445,
      "ὕ": 446,
      "ὖ": 447,
      "ὗ": 448,
      "Ὑ": 449,
      "Ὓ": 450,
      "Ὕ": 451,
      "Ὗ": 452,
      "ὠ": 453,
      "ὡ": 454,
      "ὢ": 455,
      "ὣ": 456,
      "ὤ": 457,
      "ὥ": 458,
      "ὦ": 459,
      "ὧ": 460,
      "Ὠ": 461,
      "Ὡ": 462,
      "Ὢ": 463,
      "Ὣ": 464,
      "Ὤ": 465,
      "Ὥ": 466,
      "Ὦ": 467,
      "Ὧ": 468,
      "ὰ": 469,
      "ά": 470,
      "ὲ": 471,
      "έ": 472,
      "ὴ": 473,
      "ή": 474,
      "ὶ": 475,
      "ί": 476,
      "ὸ": 477,
      "ό": 478,
      "ὺ": 479,
      "ύ": 480,
      "ὼ": 481,
      "ώ": 482,
      "ᾀ": 483,
      "ᾁ": 484,
      "ᾂ": 485,
      "ᾃ": 486,
      "ᾄ": 487,
      "ᾅ": 488,
      "ᾆ": 489,
      "ᾇ": 490,
      "ᾈ": 491,
      "ᾌ": 492,
      "ᾍ": 493,
      "ᾎ": 494,
      "ᾐ": 495,
      "ᾑ": 496,
      "ᾒ": 497,
      "ᾓ": 498,
      "ᾔ": 499,
      "ᾕ": 500,
      "ᾖ": 501,
      "ᾗ": 502,
      "ᾘ": 503,
      "ᾙ": 504,
      "ᾜ": 505,
      "ᾞ": 506,
      "ᾟ": 507,
      "ᾠ": 508,
      "ᾡ": 509,
      "ᾢ": 510,
      "ᾣ": 511,
      "ᾤ": 512,
      "ᾥ": 513,
      "ᾦ": 514,
      "ᾧ": 515,
      "ᾨ": 516,
      "ᾩ": 517,
      "ᾬ": 518,
      "ᾮ": 519,
      "ᾯ": 520,
      "ᾰ": 521,
      "ᾱ": 522,
      "ᾲ": 523,
      "ᾳ": 524,
      "ᾴ": 525,
      "ᾶ": 526,
      "ᾷ": 527,
      "Ὰ": 528,
      "Ά": 529,
      "᾽": 530,
      "ι": 531,
      "᾿": 532,
      "῀": 533,
      "ῂ": 534,
      "ῃ": 535,
      "ῄ": 536,
      "ῆ": 537,
      "ῇ": 538,
      "Ὲ": 539,
      "Έ": 540,
      "Ὴ": 541,
      "Ή": 542,
      "ῌ": 543,
      "῍": 544,
      "῎": 545,
      "῏": 546,
      "ῐ": 547,
      "ῑ": 548,
      "ῒ": 549,
      "ΐ": 550,
      "ῖ": 551,
      "ῗ": 552,
      "Ῐ": 553,
      "Ῑ": 554,
      "Ὶ": 555,
      "Ί": 556,
      "῝": 557,
      "῞": 558,
      "῟": 559,
      "ῠ": 560,
      "ῡ": 561,
      "ῢ": 562,
      "ΰ": 563,
      "ῤ": 564,
      "ῥ": 565,
      "ῦ": 566,
      "ῧ": 567,
      "Ῡ": 568,
      "Ὺ": 569,
      "Ύ": 570,
      "Ῥ": 571,
      "΅": 572,
      "`": 573,
      "ῲ": 574,
      "ῳ": 575,
      "ῴ": 576,
      "ῶ": 577,
      "ῷ": 578,
      "Ὸ": 579,
      "Ό": 580,
      "Ὼ": 581,
      "Ώ": 582,
      "ῼ": 583,
      "´": 584,
      "῾": 585,
      "​": 586,
      "‌": 587,
      "‐": 588,
      "‒": 589,
      "–": 590,
      "—": 591,
      "―": 592,
      "‖": 593,
      "‘": 594,
      "’": 595,
      "‚": 596,
      "‛": 597,
      "“": 598,
      "”": 599,
      "„": 600,
      "‟": 601,
      "†": 602,
      "•": 603,
      "…": 604,
      "′": 605,
      "″": 606,
      "‵": 607,
      "‹": 608,
      "›": 609,
      "※": 610,
      "‾": 611,
      "⁄": 612,
      "⁎": 613,
      "⁑": 614,
      "⁠": 615,
      "⁰": 616,
      "ⁱ": 617,
      "⁴": 618,
      "⁵": 619,
      "⁶": 620,
      "⁷": 621,
      "⁸": 622,
      "⁹": 623,
      "⁽": 624,
      "ⁿ": 625,
      "₄": 626,
      "€": 627,
      "№": 628,
      "™": 629,
      "ℵ": 630,
      "Ⅰ": 631,
      "Ⅱ": 632,
      "Ⅲ": 633,
      "Ⅳ": 634,
      "↑": 635,
      "∗": 636,
      "√": 637,
      "∠": 638,
      "∣": 639,
      "∴": 640,
      "∼": 641,
      "∾": 642,
      "⊏": 643,
      "⊔": 644,
      "⊙": 645,
      "⊢": 646,
      "⊣": 647,
      "⊤": 648,
      "⊻": 649,
      "⋃": 650,
      "⋆": 651,
      "⋇": 652,
      "⋖": 653,
      "⌈": 654,
      "⌉": 655,
      "⌊": 656,
      "⌋": 657,
      "⌞": 658,
      "⌟": 659,
      "〈": 660,
      "〉": 661,
      "⎡": 662,
      "⎤": 663,
      "⏑": 664,
      "⏒": 665,
      "⏓": 666,
      "⏔": 667,
      "⏕": 668,
      "⏝": 669,
      "─": 670,
      "═": 671,
      "║": 672,
      "△": 673,
      "○": 674,
      "◻": 675,
      "★": 676,
      "☼": 677,
      "☾": 678,
      "☿": 679,
      "♀": 680,
      "♂": 681,
      "♃": 682,
      "♄": 683,
      "✝": 684,
      "✶": 685,
      "❮": 686,
      "❯": 687,
      "⟦": 688,
      "⟧": 689,
      "⟨": 690,
      "⟩": 691,
      "⥼": 692,
      "⥽": 693,
      "⦵": 694,
      "⨆": 695,
      "⩚": 696,
      "⩹": 697,
      "⫯": 698,
      "⸢": 699,
      "⸣": 700,
      "⸤": 701,
      "⸥": 702,
      "⸨": 703,
      "〈": 704,
      "〉": 705,
      "": 706,
      "ﬀ": 707,
      "ﬁ": 708,
      "﻿": 709,
      "（": 710,
      "）": 711,
      "＊": 712,
      "－": 713,
      "｢": 714,
      "𐅵": 715,
      "𝒢": 716,
      "𝒮": 717,
      "𝔮": 718,
      "𝕷": 719,
      "##α": 720,
      "##ν": 721,
      "##ύ": 722,
      "##χ": 723,
      "##ι": 724,
      "##ο": 725,
      "##ρ": 726,
      "##ά": 727,
      "##σ": 728,
      "##μ": 729,
      "##ε": 730,
      "##π": 731,
      "##ά": 732,
      "##λ": 733,
      "##έ": 734,
      "##κ": 735,
      "##τ": 736,
      "##έ": 737,
      "##ό": 738,
      "##η": 739,
      "##ς": 740,
      "##ϲ": 741,
      "##υ": 742,
      "##ή": 743,
      "##ώ": 744,
      "##ῶ": 745,
      "##̓": 746,
      "##δ": 747,
      "##ω": 748,
      "##́": 749,
      "##ῤ": 750,
      "##ῥ": 751,
      "##φ": 752,
      "##θ": 753,
      "##ῖ": 754,
      "##ψ": 755,
      "##ό": 756,
      "##᾿": 757,
      "##ύ": 758,
      "##ὲ": 759,
      "##Δ": 760,
      "##Γ": 761,
      "##Β": 762,
      "##γ": 763,
      "##r": 764,
      "##a": 765,
      "##e": 766,
      "##n": 767,
      "##o": 768,
      "##s": 769,
      "##c": 770,
      "##ξ": 771,
      "##ί": 772,
      "##ί": 773,
      "##ῳ": 774,
      "##t": 775,
      "##u": 776,
      "##9": 777,
      "##6": 778,
      "##ὺ": 779,
      "##ῆ": 780,
      "##ζ": 781,
      "##ὰ": 782,
      "##j": 783,
      "##ἐ": 784,
      "##ὸ": 785,
      "##ῷ": 786,
      "##ῃ": 787,
      "##b": 788,
      "##ʼ": 789,
      "##ᾳ": 790,
      "##ή": 791,
      "##β": 792,
      "##ὐ": 793,
      "##ώ": 794,
      "##᾽": 795,
      "##ῦ": 796,
      "##̣": 797,
      "##Κ": 798,
      "##i": 799,
      "##ἷ": 800,
      "##ϋ": 801,
      "##ὶ": 802,
      "##p": 803,
      "##h": 804,
      "##y": 805,
      "##l": 806,
      "##d": 807,
      "##ὴ": 808,
      "##Ο": 809,
      "##ἰ": 810,
      "##Π": 811,
      "##ἶ": 812,
      "##ΐ": 813,
      "##g": 814,
      "##V": 815,
      "##Ω": 816,
      "##Ρ": 817,
      "##Τ": 818,
      "##Ε": 819,
      "##Σ": 820,
      "##Ι": 821,
      "##Λ": 822,
      "##Α": 823,
      "##Ὦ": 824,
      "##Μ": 825,
      "##Ν": 826,
      "##ᾶ": 827,
      "##1": 828,
      "##5": 829,
      "##7": 830,
      "##ϊ": 831,
      "##0": 832,
      "##ᵃ": 833,
      "##ἤ": 834,
      "##x": 835,
      "##m": 836,
      "##ὑ": 837,
      "##ἠ": 838,
      "##3": 839,
      "##X": 840,
      "##ῇ": 841,
      "##v": 842,
      "##k": 843,
      "##w": 844,
      "##ä": 845,
      "##ὼ": 846,
      "##f": 847,
      "##ἀ": 848,
      "##ἱ": 849,
      "##Ἀ": 850,
      "##ᾷ": 851,
      "##ŕ": 852,
      "##ἴ": 853,
      "##Η": 854,
      "##ὅ": 855,
      "##ὀ": 856,
      "##͂": 857,
      "##Υ": 858,
      "##4": 859,
      "##̀": 860,
      "##ͅ": 861,
      "##ἡ": 862,
      "##Θ": 863,
      "##ῄ": 864,
      "##ὠ": 865,
      "##̄": 866,
      "##ῒ": 867,
      "##̔": 868,
      "##ἵ": 869,
      "##ü": 870,
      "##Φ": 871,
      "##ὁ": 872,
      "##⎤": 873,
      "##ὔ": 874,
      "##8": 875,
      "##I": 876,
      "##ʹ": 877,
      "##´": 878,
      "##ἔ": 879,
      "##ϛ": 880,
      "##ᾑ": 881,
      "##O": 882,
      "##Χ": 883,
      "##F": 884,
      "##2": 885,
      "##U": 886,
      "##ἄ": 887,
      "##ἑ": 888,
      "##΄": 889,
      "##ῴ": 890,
      "##P": 891,
      "##Ἔ": 892,
      "##⁸": 893,
      "##ᾱ": 894,
      "##ö": 895,
      "##ὖ": 896,
      "##q": 897,
      "##Ζ": 898,
      "##ἦ": 899,
      "##ὤ": 900,
      "##ὡ": 901,
      "##H": 902,
      "##ݲ": 903,
      "##N": 904,
      "##ὕ": 905,
      "##͞": 906,
      "##C": 907,
      "##ᾆ": 908,
      "##E": 909,
      "##M": 910,
      "##R": 911,
      "##✶": 912,
      "##Ψ": 913,
      "##ΰ": 914,
      "##△": 915,
      "##Ἄ": 916,
      "##ᾴ": 917,
      "##A": 918,
      "##B": 919,
      "##Ἦ": 920,
      "##ἢ": 921,
      "##ὄ": 922,
      "##Ἥ": 923,
      "##ὃ": 924,
      "##Ϛ": 925,
      "##⌞": 926,
      "##⌟": 927,
      "##ἥ": 928,
      "##ἅ": 929,
      "##Ἰ": 930,
      "##L": 931,
      "##z": 932,
      "##ἁ": 933,
      "##Ξ": 934,
      "##ῑ": 935,
      "##ὥ": 936,
      "##ὗ": 937,
      "##ᾐ": 938,
      "##∠": 939,
      "##ὂ": 940,
      "##̅": 941,
      "##˝": 942,
      "##ù": 943,
      "##ᾀ": 944,
      "##Q": 945,
      "##T": 946,
      "##ἂ": 947,
      "##ΐ": 948,
      "##͵": 949,
      "##ϟ": 950,
      "##D": 951,
      "##S": 952,
      "##K": 953,
      "##­": 954,
      "##ϝ": 955,
      "##Ὑ": 956,
      "##ᾖ": 957,
      "##ῲ": 958,
      "##𝒢": 959,
      "##é": 960,
      "##ʹ": 961,
      "##Ἐ": 962,
      "##ὧ": 963,
      "##⁷": 964,
      "##Ὤ": 965,
      "##ἒ": 966,
      "##ß": 967,
      "##Ή": 968,
      "##ἲ": 969,
      "##Ἡ": 970,
      "##Ϟ": 971,
      "##῀": 972,
      "##´": 973,
      "##Y": 974,
      "##ἕ": 975,
      "##ᾗ": 976,
      "##²": 977,
      "##Ἕ": 978,
      "##ᾠ": 979,
      "##𝔮": 980,
      "##ě": 981,
      "##ἓ": 982,
      "##˘": 983,
      "##¯": 984,
      "##⁴": 985,
      "##ῗ": 986,
      "##ι": 987,
      "##ΰ": 988,
      "##æ": 989,
      "##á": 990,
      "##Ὄ": 991,
      "##Ἱ": 992,
      "##̈": 993,
      "##¨": 994,
      "##ἣ": 995,
      "##ë": 996,
      "##G": 997,
      "##£": 998,
      "##ò": 999,
      "##J": 1000,
      "##ó": 1001,
      "##∣": 1002,
      "##‌": 1003,
      "##Ῥ": 1004,
      "##ῐ": 1005,
      "##ὣ": 1006,
      "##ἆ": 1007,
      "##ᾧ": 1008,
      "##Z": 1009,
      "##Ὅ": 1010,
      "##Ά": 1011,
      "##¹": 1012,
      "##ὦ": 1013,
      "##ὓ": 1014,
      "##ϥ": 1015,
      "##¬": 1016,
      "##ῡ": 1017,
      "##Ἴ": 1018,
      "##Ϡ": 1019,
      "##῾": 1020,
      "##Ἑ": 1021,
      "##Ò": 1022,
      "##⁰": 1023,
      "##Ὀ": 1024,
      "##ἇ": 1025,
      "##˙": 1026,
      "##Ὴ": 1027,
      "##ᾄ": 1028,
      "##": 1029,
      "##": 1030,
      "##ⁱ": 1031,
      "##ᾲ": 1032,
      "##Ἵ": 1033,
      "##": 1034,
      "##": 1035,
      "##Ἁ": 1036,
      "##W": 1037,
      "##Ί": 1038,
      "##ᾕ": 1039,
      "##ï": 1040,
      "##ἃ": 1041,
      "##Ὠ": 1042,
      "##Ὁ": 1043,
      "##ᾡ": 1044,
      "##ἳ": 1045,
      "##Ἤ": 1046,
      "##Ὡ": 1047,
      "##ᾤ": 1048,
      "##Ἅ": 1049,
      "##⁶": 1050,
      "##ἧ": 1051,
      "##Ί": 1052,
      "##à": 1053,
      "##ὢ": 1054,
      "##ῂ": 1055,
      "##³": 1056,
      "##ῧ": 1057,
      "##Ώ": 1058,
      "##῎": 1059,
      "##ĕ": 1060,
      "##Ὕ": 1061,
      "##Ώ": 1062,
      "##ὒ": 1063,
      "##ú": 1064,
      "##Ϊ": 1065,
      "##Ä": 1066,
      "##Έ": 1067,
      "##Ϲ": 1068,
      "##Ἢ": 1069,
      "##ᾃ": 1070,
      "##⁵": 1071,
      "##⁹": 1072,
      "##Ë": 1073,
      "##ῢ": 1074,
      "##Ú": 1075,
      "##ᾬ": 1076,
      "##í": 1077,
      "##⁄": 1078,
      "##═": 1079,
      "##῟": 1080,
      "##ᾔ": 1081,
      "##ﬀ": 1082,
      "##ῠ": 1083,
      "##Ἃ": 1084,
      "##ᵅ": 1085,
      "##Í": 1086,
      "##ᵇ": 1087,
      "##Ὰ": 1088,
      "##š": 1089,
      "##Ó": 1090,
      "##Ή": 1091,
      "##ᾦ": 1092,
      "##`": 1093,
      "##Ἓ": 1094,
      "##ⁿ": 1095,
      "##ﬁ": 1096,
      "##ϡ": 1097,
      "##ý": 1098,
      "##ᾥ": 1099,
      "##Ὺ": 1100,
      "##": 1101,
      "##ֹ": 1102,
      "##ᵗ": 1103,
      "##ῌ": 1104,
      "##Ẃ": 1105,
      "##Ἠ": 1106,
      "##Ҁ": 1107,
      "##ឲ": 1108,
      "##ិ": 1109,
      "##ត": 1110,
      "##ា": 1111,
      "##Ύ": 1112,
      "##Ü": 1113,
      "##ÿ": 1114,
      "##ᾅ": 1115,
      "##ª": 1116,
      "##̆": 1117,
      "##è": 1118,
      "##Ὸ": 1119,
      "##↑": 1120,
      "##ϐ": 1121,
      "##ạ": 1122,
      "##": 1123,
      "##": 1124,
      "##̇": 1125,
      "##ᾂ": 1126,
      "##ᾣ": 1127,
      "##°": 1128,
      "##ʰ": 1129,
      "##ᵍ": 1130,
      "##ʳ": 1131,
      "##Ἂ": 1132,
      "##ᾇ": 1133,
      "##¦": 1134,
      "##×": 1135,
      "##Ό": 1136,
      "##ç": 1137,
      "##∾": 1138,
      "##Ὃ": 1139,
      "##Ἧ": 1140,
      "##ᾁ": 1141,
      "##ҁ": 1142,
      "##": 1143,
      "##Ὶ": 1144,
      "##ˡ": 1145,
      "##Ἆ": 1146,
      "##¸": 1147,
      "##​": 1148,
      "##ל": 1149,
      "##Ῐ": 1150,
      "##Ὲ": 1151,
      "##ḿ": 1152,
      "##ᵛ": 1153,
      "##Ϋ": 1154,
      "##ᵐ": 1155,
      "##∗": 1156,
      "##Ἒ": 1157,
      "##Ἶ": 1158,
      "##ᾒ": 1159,
      "##ᵝ": 1160,
      "##Ἣ": 1161,
      "##ᾰ": 1162,
      "##ŭ": 1163,
      "##Ӕ": 1164,
      "##Á": 1165,
      "##⁠": 1166,
      "##ј": 1167,
      "##ᶠ": 1168,
      "##⊻": 1169,
      "##ʽ": 1170,
      "##₄": 1171,
      "##Ό": 1172,
      "##ῼ": 1173,
      "##΅": 1174,
      "##○": 1175,
      "##ḍ": 1176,
      "##È": 1177,
      "##ˢ": 1178,
      "##Ὥ": 1179,
      "##῏": 1180,
      "##Ì": 1181,
      "##ć": 1182,
      "##⎡": 1183,
      "##ᵉ": 1184,
      "##΅": 1185,
      "##ǁ": 1186,
      "##Ἷ": 1187,
      "##Έ": 1188,
      "##É": 1189,
      "##ᶜ": 1190,
      "##܎": 1191,
      "##ҏ": 1192,
      "##ď": 1193,
      "##Ď": 1194,
      "##̠": 1195,
      "##Ὢ": 1196,
      "##Ө": 1197,
      "##б": 1198,
      "##Ҫ": 1199,
      "##ё": 1200,
      "##ᵈ": 1201,
      "##῍": 1202,
      "##О": 1203,
      "##ұ": 1204,
      "##ź": 1205,
      "##̊": 1206,
      "##Ү": 1207,
      "##ө": 1208,
      "##№": 1209,
      "##Ὧ": 1210,
      "##ᾨ": 1211,
      "##œ": 1212,
      "##ᾘ": 1213,
      "##ā": 1214,
      "##Æ": 1215,
      "##ẃ": 1216,
      "##": 1217,
      "##Ĺ": 1218,
      "##": 1219,
      "##Œ": 1220,
      "##ẉ": 1221,
      "##Ά": 1222,
      "##ì": 1223,
      "##ᵏ": 1224,
      "##ᵖ": 1225,
      "##Җ": 1226,
      "##ҝ": 1227,
      "##Ҷ": 1228,
      "##П": 1229,
      "##ᾓ": 1230,
      "##√": 1231,
      "##ỳ": 1232,
      "##ᾌ": 1233,
      "##ī": 1234,
      "##⊢": 1235,
      "##̈́": 1236,
      "##ṃ": 1237,
      "##ụ": 1238,
      "##Ā": 1239,
      "##Ὣ": 1240,
      "##ហ": 1241,
      "##": 1242,
      "##І": 1243,
      "LB": 1244,
      "κα": 1245,
      "##ον": 1246,
      "καὶ": 1247,
      "##τα": 1248,
      "το": 1249,
      "##το": 1250,
      "##ει": 1251,
      "##ου": 1252,
      "##ων": 1253,
      "##ῶν": 1254,
      "##αι": 1255,
      "τὸ": 1256,
      "##εν": 1257,
      "##αν": 1258,
      "##ιν": 1259,
      "##τε": 1260,
      "δὲ": 1261,
      "##οι": 1262,
      "##ος": 1263,
      "##τι": 1264,
      "##λλ": 1265,
      "πρ": 1266,
      "##ὴν": 1267,
      "##ρα": 1268,
      "τοῦ": 1269,
      "##εῖ": 1270,
      "ἐπ": 1271,
      "αὐ": 1272,
      "##ερ": 1273,
      "##ῆς": 1274,
      "ἐν": 1275,
      "οὐ": 1276,
      "δι": 1277,
      "##μα": 1278,
      "##στ": 1279,
      "τῶν": 1280,
      "##ται": 1281,
      "εἰ": 1282,
      "##οῦ": 1283,
      "##ας": 1284,
      "τὴν": 1285,
      "##ὸς": 1286,
      "τὰ": 1287,
      "##έν": 1288,
      "##σι": 1289,
      "##σθ": 1290,
      "##μεν": 1291,
      "##ως": 1292,
      "##ὲν": 1293,
      "ἀν": 1294,
      "ἀπ": 1295,
      "αὐτ": 1296,
      "πα": 1297,
      "##ῖς": 1298,
      "τῆς": 1299,
      "##ρι": 1300,
      "##ὸν": 1301,
      "##σιν": 1302,
      "μὲν": 1303,
      "##ὰρ": 1304,
      "γὰρ": 1305,
      "##λε": 1306,
      "##ην": 1307,
      "##υν": 1308,
      "ἐκ": 1309,
      "##όν": 1310,
      "τὸν": 1311,
      "ὑπ": 1312,
      "##των": 1313,
      "τε": 1314,
      "##ης": 1315,
      "##ὺς": 1316,
      "##τος": 1317,
      "##ειν": 1318,
      "πο": 1319,
      "##έν": 1320,
      "με": 1321,
      "προ": 1322,
      "κατ": 1323,
      "##ομ": 1324,
      "τῷ": 1325,
      "##ους": 1326,
      "##σθαι": 1327,
      "περ": 1328,
      "##ρε": 1329,
      "ἀλλ": 1330,
      "τα": 1331,
      "##σα": 1332,
      "##σε": 1333,
      "##κα": 1334,
      "##εῖν": 1335,
      "##λα": 1336,
      "##ρον": 1337,
      "ὡς": 1338,
      "εἶ": 1339,
      "##τον": 1340,
      "##δε": 1341,
      "αὐτο": 1342,
      "##άν": 1343,
      "πρὸς": 1344,
      "##ίν": 1345,
      "##ικ": 1346,
      "τοῖς": 1347,
      "##όν": 1348,
      "##ναι": 1349,
      "εἰς": 1350,
      "##λη": 1351,
      "##τες": 1352,
      "##υμ": 1353,
      "##οις": 1354,
      "ἐπὶ": 1355,
      "##σαν": 1356,
      "τι": 1357,
      "ἐπι": 1358,
      "παρ": 1359,
      "##τη": 1360,
      "κατὰ": 1361,
      "τοὺς": 1362,
      "##ορ": 1363,
      "##αρ": 1364,
      "μὴ": 1365,
      "##μέν": 1366,
      "οἱ": 1367,
      "##εται": 1368,
      "ὅτι": 1369,
      "οὐκ": 1370,
      "τῇ": 1371,
      "##ίν": 1372,
      "##ρο": 1373,
      "##λι": 1374,
      "##κε": 1375,
      "διὰ": 1376,
      "ἐξ": 1377,
      "##ῶς": 1378,
      "##έρ": 1379,
      "δια": 1380,
      "ἔχ": 1381,
      "περὶ": 1382,
      "##ίας": 1383,
      "οὐδ": 1384,
      "##του": 1385,
      "##ρχ": 1386,
      "συν": 1387,
      "ἄλλ": 1388,
      "##να": 1389,
      "##λο": 1390,
      "##θε": 1391,
      "ἐστ": 1392,
      "ἀπο": 1393,
      "##ρη": 1394,
      "ἡμ": 1395,
      "οὖ": 1396,
      "θε": 1397,
      "##στι": 1398,
      "##κο": 1399,
      "##τοι": 1400,
      "##ρί": 1401,
      "εἴ": 1402,
      "τὰς": 1403,
      "##έγ": 1404,
      "##περ": 1405,
      "##σει": 1406,
      "##οῦν": 1407,
      "εἶναι": 1408,
      "εὐ": 1409,
      "χρ": 1410,
      "ἀνα": 1411,
      "##μο": 1412,
      "##ίαν": 1413,
      "##τας": 1414,
      "οὖν": 1415,
      "καθ": 1416,
      "ἄν": 1417,
      "##γα": 1418,
      "ποι": 1419,
      "##άν": 1420,
      "##μέν": 1421,
      "τοῦτο": 1422,
      "##τρ": 1423,
      "##τικ": 1424,
      "##στα": 1425,
      "##υτ": 1426,
      "##πε": 1427,
      "##αλ": 1428,
      "##με": 1429,
      "κατα": 1430,
      "τιν": 1431,
      "##γον": 1432,
      "##θρ": 1433,
      "ἀλλὰ": 1434,
      "##στε": 1435,
      "αἰ": 1436,
      "##σαι": 1437,
      "##μενος": 1438,
      "οὕ": 1439,
      "πολλ": 1440,
      "##τω": 1441,
      "##σχ": 1442,
      "##ησ": 1443,
      "δʼ": 1444,
      "αὐτοῦ": 1445,
      "##γε": 1446,
      "##έρ": 1447,
      "παρα": 1448,
      "##δα": 1449,
      "##μενον": 1450,
      "ἀπὸ": 1451,
      "##υχ": 1452,
      "δε": 1453,
      "ἂν": 1454,
      "γε": 1455,
      "##ῦτα": 1456,
      "##τως": 1457,
      "##ίας": 1458,
      "##θη": 1459,
      "##ού": 1460,
      "ἐγ": 1461,
      "μετ": 1462,
      "##μον": 1463,
      "##πο": 1464,
      "##ομέν": 1465,
      "##υρ": 1466,
      "##πον": 1467,
      "τοι": 1468,
      "##δι": 1469,
      "στ": 1470,
      "##τερον": 1471,
      "πλ": 1472,
      "##ὰς": 1473,
      "##υγ": 1474,
      "##νε": 1475,
      "οὔ": 1476,
      "##λον": 1477,
      "περι": 1478,
      "##σκ": 1479,
      "τού": 1480,
      "συμ": 1481,
      "##ρας": 1482,
      "μη": 1483,
      "ὄν": 1484,
      "πό": 1485,
      "γεν": 1486,
      "##ρά": 1487,
      "##ίων": 1488,
      "βα": 1489,
      "##ῖν": 1490,
      "ὑπὸ": 1491,
      "προσ": 1492,
      "##ελ": 1493,
      "##ίαν": 1494,
      "##θεν": 1495,
      "##λου": 1496,
      "αὐτῶν": 1497,
      "##σεως": 1498,
      "λέγ": 1499,
      "##ωρ": 1500,
      "ἐμ": 1501,
      "##άρ": 1502,
      "##σας": 1503,
      "ταῦτα": 1504,
      "##έγ": 1505,
      "##ᾶς": 1506,
      "##λέ": 1507,
      "##θα": 1508,
      "##υσ": 1509,
      "πάν": 1510,
      "##πα": 1511,
      "πε": 1512,
      "οἷ": 1513,
      "##ημ": 1514,
      "##ία": 1515,
      "##ργ": 1516,
      "##αντ": 1517,
      "##εὶ": 1518,
      "##σις": 1519,
      "αἱ": 1520,
      "##δο": 1521,
      "##εσθαι": 1522,
      "ἐστιν": 1523,
      "##σον": 1524,
      "##ματα": 1525,
      "αὐτῷ": 1526,
      "##ὼν": 1527,
      "##ός": 1528,
      "##υκ": 1529,
      "τρ": 1530,
      "##λει": 1531,
      "##ὶν": 1532,
      "ἀφ": 1533,
      "##ήν": 1534,
      "ἦν": 1535,
      "ἀρχ": 1536,
      "τις": 1537,
      "##σμ": 1538,
      "ὑπο": 1539,
      "λε": 1540,
      "##της": 1541,
      "##τοῦ": 1542,
      "##κρ": 1543,
      "αὐτὸν": 1544,
      "##ματος": 1545,
      "οὗ": 1546,
      "##γν": 1547,
      "παρὰ": 1548,
      "λα": 1549,
      "λό": 1550,
      "##δρ": 1551,
      "##δη": 1552,
      "##λιν": 1553,
      "ἐστι": 1554,
      "##μφ": 1555,
      "οἰ": 1556,
      "τού": 1557,
      "##μι": 1558,
      "κε": 1559,
      "##εῖς": 1560,
      "μετὰ": 1561,
      "δυν": 1562,
      "##την": 1563,
      "##τέ": 1564,
      "δὴ": 1565,
      "##λλον": 1566,
      "δέ": 1567,
      "οὕτως": 1568,
      "##ὰν": 1569,
      "κο": 1570,
      "##μβ": 1571,
      "βασι": 1572,
      "λέγ": 1573,
      "ἐφ": 1574,
      "μέ": 1575,
      "##αγ": 1576,
      "##μενοι": 1577,
      "##ηγ": 1578,
      "ἑα": 1579,
      "##ομέν": 1580,
      "##ίου": 1581,
      "##ία": 1582,
      "##ού": 1583,
      "##κι": 1584,
      "πά": 1585,
      "οὐδὲ": 1586,
      "##που": 1587,
      "κιν": 1588,
      "##ξι": 1589,
      "##ύν": 1590,
      "##ολ": 1591,
      "ταῖς": 1592,
      "##δει": 1593,
      "μα": 1594,
      "ψυχ": 1595,
      "ἀγ": 1596,
      "##ητ": 1597,
      "μετα": 1598,
      "μηδ": 1599,
      "##πτ": 1600,
      "##σης": 1601,
      "##βα": 1602,
      "καλ": 1603,
      "##ουσι": 1604,
      "πᾶ": 1605,
      "##πλ": 1606,
      "##τερ": 1607,
      "##οντα": 1608,
      "##ίζ": 1609,
      "##σπερ": 1610,
      "δο": 1611,
      "##κει": 1612,
      "##φα": 1613,
      "##ωτ": 1614,
      "##γι": 1615,
      "φα": 1616,
      "πάν": 1617,
      "##ουσιν": 1618,
      "ἐλ": 1619,
      "##δος": 1620,
      "ἀκ": 1621,
      "##ὶς": 1622,
      "##αις": 1623,
      "ὑμ": 1624,
      "##πει": 1625,
      "##ῦν": 1626,
      "λό": 1627,
      "##ίᾳ": 1628,
      "τό": 1629,
      "##μά": 1630,
      "ἐκε": 1631,
      "##τῳ": 1632,
      "φι": 1633,
      "ἀνθρ": 1634,
      "##ραν": 1635,
      "μέ": 1636,
      "##ός": 1637,
      "ὥσπερ": 1638,
      "##οφ": 1639,
      "οὔτε": 1640,
      "##χε": 1641,
      "##ηρ": 1642,
      "##ταν": 1643,
      "αὐτοῖς": 1644,
      "##στο": 1645,
      "τί": 1646,
      "πολ": 1647,
      "##πι": 1648,
      "οὐχ": 1649,
      "ἀγα": 1650,
      "##γκ": 1651,
      "Κα": 1652,
      "πά": 1653,
      "ὧν": 1654,
      "ἐς": 1655,
      "ὁμο": 1656,
      "λόγ": 1657,
      "νῦν": 1658,
      "ἔχει": 1659,
      "##άρ": 1660,
      "##ῆναι": 1661,
      "##στιν": 1662,
      "##μν": 1663,
      "##τέρ": 1664,
      "διαφ": 1665,
      "##λος": 1666,
      "##ηκ": 1667,
      "δύ": 1668,
      "##ίων": 1669,
      "##μπ": 1670,
      "##ίκ": 1671,
      "##σεις": 1672,
      "##λων": 1673,
      "##δον": 1674,
      "δεῖ": 1675,
      "μᾶ": 1676,
      "ἔν": 1677,
      "##τοις": 1678,
      "οὕτω": 1679,
      "##σω": 1680,
      "##er": 1681,
      "##ες": 1682,
      "##χθ": 1683,
      "##ειδ": 1684,
      "##εις": 1685,
      "##μενα": 1686,
      "τέ": 1687,
      "##στον": 1688,
      "πλε": 1689,
      "##ματι": 1690,
      "μᾶλλον": 1691,
      "##ησιν": 1692,
      "##ποι": 1693,
      "##ών": 1694,
      "##ίου": 1695,
      "φησ": 1696,
      "πρῶ": 1697,
      "##οντες": 1698,
      "##θος": 1699,
      "ἔτι": 1700,
      "##εῖται": 1701,
      "κακ": 1702,
      "##λί": 1703,
      "στρα": 1704,
      "##τά": 1705,
      "μά": 1706,
      "##υθ": 1707,
      "σφ": 1708,
      "##ληθ": 1709,
      "νε": 1710,
      "οἶ": 1711,
      "##μην": 1712,
      "##λογ": 1713,
      "##τους": 1714,
      "γν": 1715,
      "##βε": 1716,
      "##ονται": 1717,
      "οὐδὲν": 1718,
      "##ριον": 1719,
      "##ξε": 1720,
      "##τί": 1721,
      "ὥστε": 1722,
      "##φθ": 1723,
      "##πος": 1724,
      "ἀγαθ": 1725,
      "##κά": 1726,
      "##ρω": 1727,
      "##σσ": 1728,
      "Θε": 1729,
      "##γεν": 1730,
      "αὐτὸς": 1731,
      "δύ": 1732,
      "##σται": 1733,
      "δέ": 1734,
      "μεγ": 1735,
      "##θρω": 1736,
      "εἰσ": 1737,
      "##ρου": 1738,
      "##εῖσθαι": 1739,
      "##αί": 1740,
      "οἷον": 1741,
      "μοι": 1742,
      "ἑαυτ": 1743,
      "##ίζ": 1744,
      "μόν": 1745,
      "##τʼ": 1746,
      "ἀλλʼ": 1747,
      "##ῆν": 1748,
      "##λά": 1749,
      "πρό": 1750,
      "##ατ": 1751,
      "##όμενος": 1752,
      "##μη": 1753,
      "λόγ": 1754,
      "εἰπ": 1755,
      "ὁρ": 1756,
      "ἐπεὶ": 1757,
      "ἄρα": 1758,
      "κοιν": 1759,
      "##ετο": 1760,
      "##άτων": 1761,
      "##οϲ": 1762,
      "αὐτὸ": 1763,
      "##οὶ": 1764,
      "##αιν": 1765,
      "##en": 1766,
      "##ὲς": 1767,
      "τά": 1768,
      "ἀδ": 1769,
      "##σκε": 1770,
      "φυ": 1771,
      "##εί": 1772,
      "ἰδ": 1773,
      "##τέ": 1774,
      "ἀμφ": 1775,
      "##ττ": 1776,
      "ἐρ": 1777,
      "ἔστι": 1778,
      "ἔφ": 1779,
      "μόν": 1780,
      "τοια": 1781,
      "##έχ": 1782,
      "##οί": 1783,
      "τό": 1784,
      "##σεν": 1785,
      "ἡμῖν": 1786,
      "##άζ": 1787,
      "##ομεν": 1788,
      "##οὺς": 1789,
      "συγ": 1790,
      "##σί": 1791,
      "φύ": 1792,
      "συ": 1793,
      "##θέ": 1794,
      "##μων": 1795,
      "##μοι": 1796,
      "##σεται": 1797,
      "##κν": 1798,
      "##ξα": 1799,
      "##σῃ": 1800,
      "αὑ": 1801,
      "κρ": 1802,
      "ἀκο": 1803,
      "βου": 1804,
      "τούτων": 1805,
      "##άγ": 1806,
      "##πό": 1807,
      "σὺ": 1808,
      "ἐκεῖν": 1809,
      "ὅταν": 1810,
      "ἀρ": 1811,
      "##έχ": 1812,
      "νο": 1813,
      "##ήν": 1814,
      "δοκ": 1815,
      "μή": 1816,
      "μέν": 1817,
      "##μεθα": 1818,
      "τί": 1819,
      "##ξαν": 1820,
      "##ραχ": 1821,
      "αὐτῆς": 1822,
      "ὀν": 1823,
      "##ευ": 1824,
      "##ῆσαι": 1825,
      "##κτ": 1826,
      "##οῖς": 1827,
      "##ίᾳ": 1828,
      "##όντων": 1829,
      "σκ": 1830,
      "ἵνα": 1831,
      "ταύ": 1832,
      "##ηθ": 1833,
      "συνε": 1834,
      "##ττον": 1835,
      "##ειρ": 1836,
      "ἀντ": 1837,
      "αὐτοὺς": 1838,
      "ἐχ": 1839,
      "ἤδη": 1840,
      "φύ": 1841,
      "##ρων": 1842,
      "οἰκ": 1843,
      "##τῶν": 1844,
      "τρι": 1845,
      "##λή": 1846,
      "##όμενον": 1847,
      "##θι": 1848,
      "παντ": 1849,
      "##τέρ": 1850,
      "##δί": 1851,
      "##πων": 1852,
      "γυν": 1853,
      "##λαι": 1854,
      "δη": 1855,
      "αὐτὴν": 1856,
      "##us": 1857,
      "ἀντι": 1858,
      "ἄνθρω": 1859,
      "Δι": 1860,
      "##ρος": 1861,
      "γίν": 1862,
      "##μένων": 1863,
      "##κεν": 1864,
      "##ὲρ": 1865,
      "##μου": 1866,
      "ὀρ": 1867,
      "ὑπὲρ": 1868,
      "##ηται": 1869,
      "##ωμα": 1870,
      "κύ": 1871,
      "##εύ": 1872,
      "οἴ": 1873,
      "βασιλε": 1874,
      "##ικρ": 1875,
      "σχ": 1876,
      "πῶς": 1877,
      "##θει": 1878,
      "##ραμ": 1879,
      "ὑπερ": 1880,
      "##δω": 1881,
      "##ὴς": 1882,
      "##ημα": 1883,
      "ἐκείν": 1884,
      "αἴ": 1885,
      "ἐστὶν": 1886,
      "ἐστὶ": 1887,
      "υἱ": 1888,
      "πέ": 1889,
      "##ριθ": 1890,
      "##οντος": 1891,
      "ἐπειδ": 1892,
      "ἔστιν": 1893,
      "πρῶτον": 1894,
      "##μαρ": 1895,
      "πάντα": 1896,
      "γέν": 1897,
      "##τῃ": 1898,
      "θερ": 1899,
      "##οῦς": 1900,
      "##λω": 1901,
      "##υπ": 1902,
      "##παν": 1903,
      "##νη": 1904,
      "γέν": 1905,
      "##αῖ": 1906,
      "πρό": 1907,
      "πό": 1908,
      "##ίως": 1909,
      "##λαβ": 1910,
      "ἀληθ": 1911,
      "λοι": 1912,
      "ἔσται": 1913,
      "σε": 1914,
      "νό": 1915,
      "αἰσθ": 1916,
      "οὐσ": 1917,
      "μι": 1918,
      "##ουσα": 1919,
      "αἰτ": 1920,
      "##um": 1921,
      "ἡμῶν": 1922,
      "##αιρ": 1923,
      "##ομα": 1924,
      "ἀνθρώ": 1925,
      "δῆ": 1926,
      "##λιστα": 1927,
      "πι": 1928,
      "πρὸ": 1929,
      "##όμενον": 1930,
      "τούτων": 1931,
      "##ραφ": 1932,
      "ἄρ": 1933,
      "##πί": 1934,
      "ἐναντ": 1935,
      "ἀναγ": 1936,
      "ἔχειν": 1937,
      "##κό": 1938,
      "##άρχ": 1939,
      "##άζ": 1940,
      "Αἰ": 1941,
      "##λους": 1942,
      "##ti": 1943,
      "ἄλλων": 1944,
      "##ρετ": 1945,
      "ἅμα": 1946,
      "##ότη": 1947,
      "##εῖον": 1948,
      "ἄλλο": 1949,
      "γιν": 1950,
      "##ᾶν": 1951,
      "##κον": 1952,
      "##μάτων": 1953,
      "##ρισ": 1954,
      "##λέ": 1955,
      "εἴη": 1956,
      "##οῦτον": 1957,
      "##ροφ": 1958,
      "##κου": 1959,
      "##ῶμα": 1960,
      "##βολ": 1961,
      "##γει": 1962,
      "##ξει": 1963,
      "ἀντὶ": 1964,
      "σω": 1965,
      "παρε": 1966,
      "ἕκα": 1967,
      "καρ": 1968,
      "ἐγὼ": 1969,
      "ἐπιστ": 1970,
      "Ἀθ": 1971,
      "##θέν": 1972,
      "εὐθ": 1973,
      "##μαι": 1974,
      "χρόν": 1975,
      "##ύν": 1976,
      "##λυ": 1977,
      "δό": 1978,
      "##θεῖν": 1979,
      "ἐὰν": 1980,
      "##πέ": 1981,
      "μέν": 1982,
      "##πεν": 1983,
      "μὴν": 1984,
      "φαν": 1985,
      "θεοῦ": 1986,
      "τέ": 1987,
      "ἀσ": 1988,
      "νομ": 1989,
      "ἀνά": 1990,
      "ὅλ": 1991,
      "##ῆϲ": 1992,
      "##αυ": 1993,
      "ἑαυ": 1994,
      "##άλλ": 1995,
      "##δας": 1996,
      "##τά": 1997,
      "##λικ": 1998,
      "ὅπ": 1999,
      "φθ": 2000,
      "##ῖον": 2001,
      "παι": 2002,
      "##λεύ": 2003,
      "##μένων": 2004,
      "##τή": 2005,
      "ἱερ": 2006,
      "γίν": 2007,
      "##τερα": 2008,
      "##ρά": 2009,
      "##on": 2010,
      "##λό": 2011,
      "ταύ": 2012,
      "##εσ": 2013,
      "Ἀν": 2014,
      "##χρι": 2015,
      "γάρ": 2016,
      "##μοῦ": 2017,
      "τινα": 2018,
      "##ξιν": 2019,
      "##φαλ": 2020,
      "##δων": 2021,
      "##λοι": 2022,
      "παν": 2023,
      "##λί": 2024,
      "πνε": 2025,
      "ἡμᾶς": 2026,
      "##δρα": 2027,
      "##ίους": 2028,
      "##στη": 2029,
      "##μος": 2030,
      "##ιον": 2031,
      "πλη": 2032,
      "ἀπε": 2033,
      "##ομένων": 2034,
      "κατε": 2035,
      "##θυμ": 2036,
      "##ακ": 2037,
      "οὗτος": 2038,
      "##υρί": 2039,
      "ἐπειδὴ": 2040,
      "##ὼς": 2041,
      "ἐπε": 2042,
      "##ομαι": 2043,
      "μέγ": 2044,
      "ὑπάρχ": 2045,
      "κό": 2046,
      "λο": 2047,
      "##it": 2048,
      "λαβ": 2049,
      "##is": 2050,
      "##έναι": 2051,
      "ἀεὶ": 2052,
      "##ξω": 2053,
      "πόλε": 2054,
      "##κά": 2055,
      "##ουσ": 2056,
      "##πν": 2057,
      "ἔφη": 2058,
      "##ριος": 2059,
      "##φαν": 2060,
      "ἣν": 2061,
      "Καὶ": 2062,
      "ἀριθ": 2063,
      "μόνον": 2064,
      "Περ": 2065,
      "##δό": 2066,
      "λεγ": 2067,
      "καί": 2068,
      "τοῦτον": 2069,
      "##ὴρ": 2070,
      "διε": 2071,
      "σου": 2072,
      "χρη": 2073,
      "κἀ": 2074,
      "##σαντες": 2075,
      "##σκευ": 2076,
      "##σθεν": 2077,
      "σοφ": 2078,
      "οἷς": 2079,
      "πάντα": 2080,
      "##δου": 2081,
      "μή": 2082,
      "##οῦσιν": 2083,
      "##λευ": 2084,
      "ἐκείν": 2085,
      "##ίον": 2086,
      "ἴσ": 2087,
      "μου": 2088,
      "##σασθαι": 2089,
      "##λφ": 2090,
      "αὖ": 2091,
      "##ίως": 2092,
      "φιλο": 2093,
      "##λθ": 2094,
      "##ότη": 2095,
      "τιμ": 2096,
      "##οντο": 2097,
      "##σατο": 2098,
      "##δες": 2099,
      "ἀνδρ": 2100,
      "##ριστ": 2101,
      "πολλὰ": 2102,
      "εὑ": 2103,
      "##ια": 2104,
      "σοι": 2105,
      "##τιον": 2106,
      "πάλιν": 2107,
      "ἀνά": 2108,
      "##όντων": 2109,
      "##ήσ": 2110,
      "δύνα": 2111,
      "βο": 2112,
      "σῶμα": 2113,
      "##ρηται": 2114,
      "εἰπεῖν": 2115,
      "##τὸν": 2116,
      "δύνα": 2117,
      "ἔρ": 2118,
      "σώ": 2119,
      "##οῦσι": 2120,
      "##θέ": 2121,
      "##ρέ": 2122,
      "ὃν": 2123,
      "ὅπερ": 2124,
      "##άτων": 2125,
      "##κλ": 2126,
      "##στερον": 2127,
      "##όντες": 2128,
      "ὅσα": 2129,
      "##χν": 2130,
      "##ίοις": 2131,
      "##οντας": 2132,
      "χρόν": 2133,
      "##es": 2134,
      "λοιπ": 2135,
      "##βου": 2136,
      "ἀναγκα": 2137,
      "και": 2138,
      "δυ": 2139,
      "##γμα": 2140,
      "##ησεν": 2141,
      "πολι": 2142,
      "##σθε": 2143,
      "##θεὶς": 2144,
      "δυνά": 2145,
      "##ηγορ": 2146,
      "σα": 2147,
      "χα": 2148,
      "##δέ": 2149,
      "##τελ": 2150,
      "ἀμ": 2151,
      "##όμενοι": 2152,
      "φί": 2153,
      "μόνον": 2154,
      "πολε": 2155,
      "##ρικ": 2156,
      "##λαμβ": 2157,
      "##ιβ": 2158,
      "ἐπί": 2159,
      "##πω": 2160,
      "##μάτων": 2161,
      "##και": 2162,
      "##χα": 2163,
      "μικρ": 2164,
      "##ρες": 2165,
      "##μψ": 2166,
      "εἶπεν": 2167,
      "τρί": 2168,
      "μά": 2169,
      "##ξαι": 2170,
      "##οῖ": 2171,
      "##μῶν": 2172,
      "##θαν": 2173,
      "δύο": 2174,
      "βαρ": 2175,
      "##κλη": 2176,
      "αὐτὰ": 2177,
      "ἅπαν": 2178,
      "συλλ": 2179,
      "πολὺ": 2180,
      "##λαν": 2181,
      "##μένον": 2182,
      "##λης": 2183,
      "Εὐ": 2184,
      "##βεβ": 2185,
      "##ίον": 2186,
      "##ταῦ": 2187,
      "##πῳ": 2188,
      "##μὸν": 2189,
      "##γων": 2190,
      "##τικὸν": 2191,
      "Ἀθην": 2192,
      "διδ": 2193,
      "ἀνε": 2194,
      "ἀδε": 2195,
      "ἑν": 2196,
      "##em": 2197,
      "γῆς": 2198,
      "##οῦντες": 2199,
      "λέ": 2200,
      "##κις": 2201,
      "##λύ": 2202,
      "ἰσχ": 2203,
      "τουτ": 2204,
      "##έσθαι": 2205,
      "##εῖα": 2206,
      "σώ": 2207,
      "##μιν": 2208,
      "οὐραν": 2209,
      "ἀνθρώ": 2210,
      "ὅπως": 2211,
      "##χον": 2212,
      "##τηρ": 2213,
      "τούτου": 2214,
      "Ῥωμα": 2215,
      "μέρ": 2216,
      "##ξῆς": 2217,
      "##θν": 2218,
      "##τό": 2219,
      "χωρ": 2220,
      "ὀρθ": 2221,
      "πάλιν": 2222,
      "##σθη": 2223,
      "σὺν": 2224,
      "πᾶν": 2225,
      "##at": 2226,
      "##χος": 2227,
      "##έβ": 2228,
      "ὑγ": 2229,
      "##φορ": 2230,
      "##ίῳ": 2231,
      "ἐνερ": 2232,
      "##άμενος": 2233,
      "βουλ": 2234,
      "##λοις": 2235,
      "πατρ": 2236,
      "εἰκ": 2237,
      "φων": 2238,
      "τοσ": 2239,
      "εὔ": 2240,
      "δα": 2241,
      "##ταῦθα": 2242,
      "οὐδε": 2243,
      "εἰρη": 2244,
      "γίνεται": 2245,
      "μηδὲ": 2246,
      "λαμβ": 2247,
      "ἑκά": 2248,
      "##ρια": 2249,
      "ἓν": 2250,
      "##όμενος": 2251,
      "ἁπ": 2252,
      "##in": 2253,
      "σύ": 2254,
      "λόγον": 2255,
      "##or": 2256,
      "ὅτε": 2257,
      "να": 2258,
      "πολεμ": 2259,
      "##ρὸν": 2260,
      "##τὸς": 2261,
      "τρό": 2262,
      "ποτ": 2263,
      "##ωρί": 2264,
      "αὐτῇ": 2265,
      "##ῆσθαι": 2266,
      "##ρασ": 2267,
      "μηδὲν": 2268,
      "πάντων": 2269,
      "##διον": 2270,
      "##an": 2271,
      "ὄντα": 2272,
      "ἀρετ": 2273,
      "##άρχ": 2274,
      "ἁπλ": 2275,
      "προφ": 2276,
      "μάλιστα": 2277,
      "##ύς": 2278,
      "##ϲι": 2279,
      "εἰδ": 2280,
      "##πους": 2281,
      "##ύχ": 2282,
      "Ἀρι": 2283,
      "##καν": 2284,
      "ταὐ": 2285,
      "ἔλε": 2286,
      "νό": 2287,
      "##κος": 2288,
      "ἀδελφ": 2289,
      "##ισ": 2290,
      "##γγ": 2291,
      "##στά": 2292,
      "ἄλλα": 2293,
      "##λῶν": 2294,
      "##ησι": 2295,
      "δικα": 2296,
      "##τερος": 2297,
      "##μῳ": 2298,
      "##δωρ": 2299,
      "δει": 2300,
      "##ψε": 2301,
      "##λην": 2302,
      "κύ": 2303,
      "φησιν": 2304,
      "χρὴ": 2305,
      "##ών": 2306,
      "σημ": 2307,
      "##ωγ": 2308,
      "πυρ": 2309,
      "##μως": 2310,
      "δυνά": 2311,
      "διὸ": 2312,
      "ὃς": 2313,
      "##οιτο": 2314,
      "##ομένων": 2315,
      "##ειαν": 2316,
      "##θεί": 2317,
      "##ῆμα": 2318,
      "##έων": 2319,
      "πατ": 2320,
      "διά": 2321,
      "##οί": 2322,
      "γάρ": 2323,
      "δῆλον": 2324,
      "πρώ": 2325,
      "τότε": 2326,
      "##ραγ": 2327,
      "##κοπ": 2328,
      "τά": 2329,
      "ἔξω": 2330,
      "##φε": 2331,
      "τελε": 2332,
      "##μή": 2333,
      "ἡγ": 2334,
      "in": 2335,
      "κά": 2336,
      "##φυ": 2337,
      "μεγά": 2338,
      "κρα": 2339,
      "##έναι": 2340,
      "τοῖ": 2341,
      "##δαι": 2342,
      "κά": 2343,
      "ἁμαρ": 2344,
      "εἶτα": 2345,
      "ἄνω": 2346,
      "ἀπέ": 2347,
      "ἕτερον": 2348,
      "θέ": 2349,
      "##θʼ": 2350,
      "Πα": 2351,
      "προσε": 2352,
      "##ίσ": 2353,
      "ὑμῖν": 2354,
      "##δης": 2355,
      "##τιν": 2356,
      "λευκ": 2357,
      "ἄγ": 2358,
      "δοκεῖ": 2359,
      "ἄρχ": 2360,
      "πέ": 2361,
      "δίκ": 2362,
      "Ἑλλ": 2363,
      "σι": 2364,
      "##θή": 2365,
      "##όρ": 2366,
      "μον": 2367,
      "##στικ": 2368,
      "##μοὶ": 2369,
      "ἐκεῖ": 2370,
      "##τεῖ": 2371,
      "πόλιν": 2372,
      "ἤτοι": 2373,
      "##κων": 2374,
      "##ριβ": 2375,
      "τούτοις": 2376,
      "ἀξι": 2377,
      "##μένου": 2378,
      "##οχ": 2379,
      "##ρόν": 2380,
      "##άσ": 2381,
      "ἀνάγκ": 2382,
      "κεφαλ": 2383,
      "##λά": 2384,
      "##οσ": 2385,
      "ἐνταῦθα": 2386,
      "##μένους": 2387,
      "##ίῳ": 2388,
      "ζη": 2389,
      "##τυχ": 2390,
      "##αβ": 2391,
      "##λασ": 2392,
      "##ξεν": 2393,
      "##κοντα": 2394,
      "ἑκα": 2395,
      "ἑαυτοῦ": 2396,
      "ὅσ": 2397,
      "γυναι": 2398,
      "λι": 2399,
      "qu": 2400,
      "ὑμῶν": 2401,
      "ἀλλή": 2402,
      "Οὐ": 2403,
      "αὑτ": 2404,
      "ἐσ": 2405,
      "##οῦσα": 2406,
      "βασιλέ": 2407,
      "##ic": 2408,
      "λόγον": 2409,
      "σπ": 2410,
      "εἶδος": 2411,
      "τοιαῦτα": 2412,
      "##θους": 2413,
      "φρον": 2414,
      "δή": 2415,
      "##χι": 2416,
      "φιλ": 2417,
      "ἔχων": 2418,
      "##ωϲ": 2419,
      "##μει": 2420,
      "ὄνομα": 2421,
      "κατηγορ": 2422,
      "##τί": 2423,
      "γοῦν": 2424,
      "ἄνθρωπος": 2425,
      "πρά": 2426,
      "ποτα": 2427,
      "##άγ": 2428,
      "##am": 2429,
      "##λού": 2430,
      "τρό": 2431,
      "Ἀρ": 2432,
      "##ὕτη": 2433,
      "##έον": 2434,
      "##υφ": 2435,
      "##ήσεως": 2436,
      "##ακε": 2437,
      "γῆν": 2438,
      "##λακ": 2439,
      "ἔκ": 2440,
      "τούτου": 2441,
      "ἑτέρ": 2442,
      "ἐπʼ": 2443,
      "##αί": 2444,
      "ψυχῆς": 2445,
      "ἐλε": 2446,
      "##ωσιν": 2447,
      "δό": 2448,
      "οἵ": 2449,
      "ἕκαστον": 2450,
      "##ζον": 2451,
      "διαφορ": 2452,
      "εἰρ": 2453,
      "##τέον": 2454,
      "ἐξε": 2455,
      "##μένον": 2456,
      "ἵπ": 2457,
      "δύο": 2458,
      "##πη": 2459,
      "ἀμφο": 2460,
      "##οβ": 2461,
      "ἐδ": 2462,
      "οἰκε": 2463,
      "πρώ": 2464,
      "##τει": 2465,
      "##νατον": 2466,
      "##στή": 2467,
      "φύσιν": 2468,
      "##σθω": 2469,
      "χώ": 2470,
      "τινὰ": 2471,
      "##βά": 2472,
      "##αρχ": 2473,
      "ποτε": 2474,
      "αὕτη": 2475,
      "πραγ": 2476,
      "εἴρηται": 2477,
      "τινος": 2478,
      "##μόν": 2479,
      "##ήσει": 2480,
      "ὀξ": 2481,
      "ὀλί": 2482,
      "ἄνδ": 2483,
      "##ηϲ": 2484,
      "ζω": 2485,
      "et": 2486,
      "##μασιν": 2487,
      "λέγει": 2488,
      "μέρ": 2489,
      "##μένου": 2490,
      "##τοϲ": 2491,
      "Ἰου": 2492,
      "ποιεῖν": 2493,
      "##ρακ": 2494,
      "##ίνει": 2495,
      "##κρα": 2496,
      "τετ": 2497,
      "##μό": 2498,
      "διά": 2499,
      "ἀπό": 2500,
      "ἕνε": 2501,
      "δυσ": 2502,
      "##σεων": 2503,
      "μερ": 2504,
      "γεγον": 2505,
      "ὕδα": 2506,
      "ὑφ": 2507,
      "ὅσον": 2508,
      "ἑκά": 2509,
      "τοιοῦτον": 2510,
      "ποιεῖ": 2511,
      "ὀργ": 2512,
      "εἴτε": 2513,
      "##καλ": 2514,
      "##βαλ": 2515,
      "##δυν": 2516,
      "##λκ": 2517,
      "εὖ": 2518,
      "##όλου": 2519,
      "πρότερον": 2520,
      "##φων": 2521,
      "παῖ": 2522,
      "γρά": 2523,
      "##ποις": 2524,
      "τροφ": 2525,
      "δί": 2526,
      "λέγειν": 2527,
      "##ξας": 2528,
      "##τέρα": 2529,
      "κυ": 2530,
      "πλῆ": 2531,
      "δί": 2532,
      "θα": 2533,
      "##ίοις": 2534,
      "##πλη": 2535,
      "##λας": 2536,
      "##ἂν": 2537,
      "##δόν": 2538,
      "##ήσει": 2539,
      "##ῶσιν": 2540,
      "##όμενα": 2541,
      "##οῦντα": 2542,
      "##ρει": 2543,
      "στρατι": 2544,
      "##μασι": 2545,
      "καλῶς": 2546,
      "θη": 2547,
      "εἰϲ": 2548,
      "δ᾿": 2549,
      "##φρον": 2550,
      "ταῦ": 2551,
      "##σπ": 2552,
      "ὕδωρ": 2553,
      "τῆϲ": 2554,
      "ἀρχὴν": 2555,
      "##άντων": 2556,
      "ἡδον": 2557,
      "διʼ": 2558,
      "##ομένου": 2559,
      "χεῖ": 2560,
      "##ῦμα": 2561,
      "##λή": 2562,
      "##ξις": 2563,
      "ἀπορ": 2564,
      "ἀκού": 2565,
      "δυνατ": 2566,
      "μυ": 2567,
      "##μένη": 2568,
      "στα": 2569,
      "λέγει": 2570,
      "##λλα": 2571,
      "παρʼ": 2572,
      "##τατον": 2573,
      "##ορε": 2574,
      "ἔπει": 2575,
      "##ρυ": 2576,
      "##μης": 2577,
      "##σιον": 2578,
      "##θον": 2579,
      "##ur": 2580,
      "ἄλλως": 2581,
      "##θαι": 2582,
      "##δῶν": 2583,
      "##οιαν": 2584,
      "δειν": 2585,
      "##μους": 2586,
      "##τρον": 2587,
      "κἂν": 2588,
      "γα": 2589,
      "πον": 2590,
      "ἁρ": 2591,
      "κεν": 2592,
      "κό": 2593,
      "λόγος": 2594,
      "##λῳ": 2595,
      "##βεβηκ": 2596,
      "##ησις": 2597,
      "##ανα": 2598,
      "οὐδʼ": 2599,
      "##αρκ": 2600,
      "##ζε": 2601,
      "ὄντος": 2602,
      "##άς": 2603,
      "##όμενα": 2604,
      "##μά": 2605,
      "ὀφθ": 2606,
      "##δεί": 2607,
      "##τηγ": 2608,
      "λόγος": 2609,
      "παντὸς": 2610,
      "ὢν": 2611,
      "##σσα": 2612,
      "##έα": 2613,
      "##ιος": 2614,
      "##ρό": 2615,
      "ὄντων": 2616,
      "##στου": 2617,
      "##βο": 2618,
      "ἐνδ": 2619,
      "ὑμᾶς": 2620,
      "##χει": 2621,
      "βραχ": 2622,
      "φησὶν": 2623,
      "##σονται": 2624,
      "##ar": 2625,
      "##ήσας": 2626,
      "ἀρχῆς": 2627,
      "##ήσεται": 2628,
      "##στά": 2629,
      "Αἰγ": 2630,
      "συνεχ": 2631,
      "ἀδικ": 2632,
      "γίνεται": 2633,
      "κω": 2634,
      "##ουσαν": 2635,
      "##st": 2636,
      "ἕως": 2637,
      "##ξεως": 2638,
      "οὗτοι": 2639,
      "##έον": 2640,
      "##φέ": 2641,
      "##σθέν": 2642,
      "πεν": 2643,
      "δευτ": 2644,
      "##γνω": 2645,
      "πολλῶν": 2646,
      "##σὶ": 2647,
      "##μένην": 2648,
      "##θεῖ": 2649,
      "ὅλως": 2650,
      "εἰσιν": 2651,
      "ἐγέν": 2652,
      "γεγ": 2653,
      "πάντων": 2654,
      "βού": 2655,
      "##λιον": 2656,
      "ἀπό": 2657,
      "##ταις": 2658,
      "##μέ": 2659,
      "πόλει": 2660,
      "ἡμεῖς": 2661,
      "θεὸς": 2662,
      "στε": 2663,
      "##ae": 2664,
      "ζῷ": 2665,
      "κίν": 2666,
      "ταύτην": 2667,
      "##σεσθαι": 2668,
      "καθʼ": 2669,
      "##ουν": 2670,
      "Ἀριστο": 2671,
      "##αρτ": 2672,
      "τούτοις": 2673,
      "ὀνομ": 2674,
      "ἔγ": 2675,
      "συλλο": 2676,
      "##φερ": 2677,
      "μήτε": 2678,
      "ἅπα": 2679,
      "##λεί": 2680,
      "ἢν": 2681,
      "ἐγγ": 2682,
      "##οῦνται": 2683,
      "ὕστερον": 2684,
      "γενέσθαι": 2685,
      "##δὸν": 2686,
      "πρεσ": 2687,
      "##θῆναι": 2688,
      "##ήματα": 2689,
      "##νο": 2690,
      "##ρῶν": 2691,
      "##σοφ": 2692,
      "χει": 2693,
      "##ρώ": 2694,
      "##δικ": 2695,
      "##χωρ": 2696,
      "τρί": 2697,
      "##θησαν": 2698,
      "φησι": 2699,
      "τούτῳ": 2700,
      "ἐλα": 2701,
      "ἑτέρ": 2702,
      "ὅμοι": 2703,
      "πολέ": 2704,
      "ἀπα": 2705,
      "γενέ": 2706,
      "##μένα": 2707,
      "Ἰησ": 2708,
      "ἄπει": 2709,
      "##τεύ": 2710,
      "εὑρ": 2711,
      "##ητικ": 2712,
      "##ομένους": 2713,
      "##ρους": 2714,
      "ὂν": 2715,
      "κατέ": 2716,
      "##τοῖς": 2717,
      "##ποτε": 2718,
      "εἷ": 2719,
      "##παρ": 2720,
      "χρυσ": 2721,
      "##γισμ": 2722,
      "φανερ": 2723,
      "##εῦ": 2724,
      "##δους": 2725,
      "τοιού": 2726,
      "ἡμέρ": 2727,
      "ἧς": 2728,
      "ὑπάρχ": 2729,
      "γυναικ": 2730,
      "πλῆθος": 2731,
      "##λις": 2732,
      "ἐνε": 2733,
      "##υγχ": 2734,
      "##ῤῥ": 2735,
      "συνα": 2736,
      "##ίνει": 2737,
      "τινες": 2738,
      "γλ": 2739,
      "θυμ": 2740,
      "τίς": 2741,
      "ποτὲ": 2742,
      "ὁμοίως": 2743,
      "##εί": 2744,
      "##έρας": 2745,
      "Κύ": 2746,
      "##πί": 2747,
      "ἐπικ": 2748,
      "θεῶν": 2749,
      "##κατα": 2750,
      "πυ": 2751,
      "ὀφθαλ": 2752,
      "##ραπε": 2753,
      "γυναῖ": 2754,
      "μάχ": 2755,
      "##φρο": 2756,
      "ἀλλή": 2757,
      "##τεῖν": 2758,
      "##θέν": 2759,
      "τοιοῦ": 2760,
      "γνώ": 2761,
      "εὐθὺς": 2762,
      "##κρά": 2763,
      "αἵ": 2764,
      "μαν": 2765,
      "σπου": 2766,
      "δεί": 2767,
      "μέντοι": 2768,
      "οὓ": 2769,
      "ἐπί": 2770,
      "##ότι": 2771,
      "##ωπ": 2772,
      "##λιπ": 2773,
      "φυσι": 2774,
      "μορ": 2775,
      "πλεῖ": 2776,
      "Εἰ": 2777,
      "##υμα": 2778,
      "ζῴ": 2779,
      "καί": 2780,
      "σύ": 2781,
      "##ξεις": 2782,
      "##μένοις": 2783,
      "κυρ": 2784,
      "Θεοῦ": 2785,
      "ἔστ": 2786,
      "οἳ": 2787,
      "##ότητα": 2788,
      "##όντα": 2789,
      "##ρῳ": 2790,
      "παλαι": 2791,
      "Ἰουδα": 2792,
      "##ῦρ": 2793,
      "που": 2794,
      "Περὶ": 2795,
      "##ληθε": 2796,
      "##ταί": 2797,
      "καθόλου": 2798,
      "σαφ": 2799,
      "θυ": 2800,
      "γραμ": 2801,
      "ἔργ": 2802,
      "ἑξῆς": 2803,
      "ἦσαν": 2804,
      "##οικ": 2805,
      "ὅθεν": 2806,
      "##δαιμον": 2807,
      "θεωρ": 2808,
      "Με": 2809,
      "##τρε": 2810,
      "ἀνάγκ": 2811,
      "ἄλλοις": 2812,
      "συμβεβηκ": 2813,
      "##ικὸν": 2814,
      "ὡϲ": 2815,
      "##un": 2816,
      "παντὶ": 2817,
      "##ψα": 2818,
      "θαν": 2819,
      "##μένος": 2820,
      "λέ": 2821,
      "##φει": 2822,
      "ὁμολογ": 2823,
      "##ϲιν": 2824,
      "##ιστ": 2825,
      "θερμ": 2826,
      "##πέ": 2827,
      "μεταξ": 2828,
      "αὐτοὶ": 2829,
      "ἀκριβ": 2830,
      "δραχ": 2831,
      "ἀνθρώπων": 2832,
      "##ροῦ": 2833,
      "##λεγ": 2834,
      "##εῖτο": 2835,
      "οὐδεν": 2836,
      "λύ": 2837,
      "##ελθ": 2838,
      "ἀνέ": 2839,
      "##ίνεται": 2840,
      "##υσεν": 2841,
      "κατʼ": 2842,
      "##κρά": 2843,
      "##ίνυν": 2844,
      "ὅλον": 2845,
      "##βά": 2846,
      "οὓς": 2847,
      "γραφ": 2848,
      "##κεί": 2849,
      "##οπ": 2850,
      "λί": 2851,
      "##ομένη": 2852,
      "σημα": 2853,
      "καθά": 2854,
      "##ασ": 2855,
      "μέχρι": 2856,
      "φησὶ": 2857,
      "Χριστ": 2858,
      "ὁμοίως": 2859,
      "##λλων": 2860,
      "##ίστ": 2861,
      "τοίνυν": 2862,
      "##σου": 2863,
      "##μεναι": 2864,
      "δυνα": 2865,
      "στρατηγ": 2866,
      "##ψιν": 2867,
      "##ch": 2868,
      "βά": 2869,
      "ἑαυτὸν": 2870,
      "##στος": 2871,
      "##δέ": 2872,
      "ἐλά": 2873,
      "αὖθι": 2874,
      "ἱκαν": 2875,
      "πλὴν": 2876,
      "##ημι": 2877,
      "##τό": 2878,
      "δικαι": 2879,
      "χαλ": 2880,
      "θά": 2881,
      "##δια": 2882,
      "##ητῶν": 2883,
      "ἐκκλη": 2884,
      "ἔδει": 2885,
      "θαλ": 2886,
      "ἀνδ": 2887,
      "##ίνεται": 2888,
      "χρε": 2889,
      "##νή": 2890,
      "##υμέν": 2891,
      "##ούσης": 2892,
      "##όντος": 2893,
      "συμβα": 2894,
      "##βάλλ": 2895,
      "##ίους": 2896,
      "πᾶσαν": 2897,
      "τοὐ": 2898,
      "##ύειν": 2899,
      "λέγεται": 2900,
      "ἱπ": 2901,
      "##li": 2902,
      "ἐπιθυμ": 2903,
      "##φέρ": 2904,
      "εἰσι": 2905,
      "##τεροι": 2906,
      "10": 2907,
      "πρᾶ": 2908,
      "μακρ": 2909,
      "##ουργ": 2910,
      "##ρέ": 2911,
      "##σια": 2912,
      "##ϲα": 2913,
      "λέγων": 2914,
      "ἡγε": 2915,
      "λογ": 2916,
      "ἄξι": 2917,
      "πολλά": 2918,
      "Σα": 2919,
      "ἔμπ": 2920,
      "πει": 2921,
      "##τὰ": 2922,
      "ἐνδε": 2923,
      "καρδ": 2924,
      "##κας": 2925,
      "##έως": 2926,
      "##σίας": 2927,
      "διαν": 2928,
      "##ομένης": 2929,
      "βασιλεὺς": 2930,
      "##τις": 2931,
      "##οῦντας": 2932,
      "##ις": 2933,
      "##τοῦν": 2934,
      "##σαντος": 2935,
      "##ραπ": 2936,
      "τοίν": 2937,
      "κοι": 2938,
      "τοίνυν": 2939,
      "πῦρ": 2940,
      "##ήσεται": 2941,
      "πάντες": 2942,
      "##θεί": 2943,
      "ἐπα": 2944,
      "ἄνθρωπον": 2945,
      "στοι": 2946,
      "ἔχον": 2947,
      "ἁμαρτ": 2948,
      "χρόνον": 2949,
      "μάλιστα": 2950,
      "ταχ": 2951,
      "##ρή": 2952,
      "τρόπον": 2953,
      "##ιοι": 2954,
      "ἁπλῶς": 2955,
      "##ίαϲ": 2956,
      "λέγεται": 2957,
      "τίν": 2958,
      "##ψαν": 2959,
      "λέγειν": 2960,
      "##ήρ": 2961,
      "τουτέ": 2962,
      "##ὺν": 2963,
      "ἐπέ": 2964,
      "##πειν": 2965,
      "ὑγι": 2966,
      "κύκ": 2967,
      "##όνων": 2968,
      "πόλεως": 2969,
      "##τυ": 2970,
      "ψευ": 2971,
      "##χαν": 2972,
      "ἀλλ᾿": 2973,
      "##οιν": 2974,
      "αὐτόν": 2975,
      "##ωσ": 2976,
      "##κό": 2977,
      "##as": 2978,
      "μεθ": 2979,
      "αἰσχ": 2980,
      "##ίνειν": 2981,
      "ἀστ": 2982,
      "μέρος": 2983,
      "##κρι": 2984,
      "##κνυ": 2985,
      "##ομένου": 2986,
      "##φάν": 2987,
      "##ροι": 2988,
      "χειρ": 2989,
      "##os": 2990,
      "##πτον": 2991,
      "καθάπερ": 2992,
      "##ῆλ": 2993,
      "ἔσχ": 2994,
      "##μερ": 2995,
      "##ττειν": 2996,
      "##σῶν": 2997,
      "##et": 2998,
      "τἀ": 2999,
      "μαρτ": 3000,
      "##αὶ": 3001,
      "ἔργον": 3002,
      "##οῦμεν": 3003,
      "##βη": 3004,
      "##ιλ": 3005,
      "##δεί": 3006,
      "##οῦντος": 3007,
      "ἐϲ": 3008,
      "πεπ": 3009,
      "πρότερον": 3010,
      "τʼ": 3011,
      "ἀληθε": 3012,
      "βε": 3013,
      "ἀργ": 3014,
      "μείζ": 3015,
      "παρά": 3016,
      "θεὸν": 3017,
      "##πτε": 3018,
      "διδα": 3019,
      "γί": 3020,
      "##ύειν": 3021,
      "ἔχοντα": 3022,
      "##λῃ": 3023,
      "##ιζ": 3024,
      "##γέ": 3025,
      "##ταῖς": 3026,
      "##κέ": 3027,
      "##δην": 3028,
      "γι": 3029,
      "αἷ": 3030,
      "ἐνεργε": 3031,
      "##ῶμεν": 3032,
      "##μένης": 3033,
      "κομ": 3034,
      "δεξι": 3035,
      "ἄνευ": 3036,
      "##μεως": 3037,
      "##qu": 3038,
      "##ρισμ": 3039,
      "##λοῖ": 3040,
      "μεταξὺ": 3041,
      "Ἰσ": 3042,
      "πί": 3043,
      "ἐμοὶ": 3044,
      "##ῦσαι": 3045,
      "αὖθις": 3046,
      "καθαρ": 3047,
      "τελευτ": 3048,
      "εἴπερ": 3049,
      "##λαμβάν": 3050,
      "##εὶς": 3051,
      "ΑΒ": 3052,
      "ἕν": 3053,
      "##ρὸς": 3054,
      "ἐφε": 3055,
      "τύχ": 3056,
      "##σιος": 3057,
      "ἐφʼ": 3058,
      "αἴτιον": 3059,
      "μαθη": 3060,
      "##σος": 3061,
      "ἐπαν": 3062,
      "##εύ": 3063,
      "ἰσ": 3064,
      "##κτικ": 3065,
      "πράγ": 3066,
      "ξηρ": 3067,
      "##λεῖ": 3068,
      "παρέ": 3069,
      "νοσ": 3070,
      "θεραπε": 3071,
      "##ᾶται": 3072,
      "ἀγν": 3073,
      "##ωμεν": 3074,
      "##ῖοι": 3075,
      "κατασκευ": 3076,
      "##δομ": 3077,
      "ἀμε": 3078,
      "Ἕλλ": 3079,
      "##ύχ": 3080,
      "##μοὺς": 3081,
      "ἱστο": 3082,
      "##αῖς": 3083,
      "ἔπειτα": 3084,
      "φέρ": 3085,
      "##αυμα": 3086,
      "##ὸϲ": 3087,
      "##όμενοι": 3088,
      "γενν": 3089,
      "χαλε": 3090,
      "πιστε": 3091,
      "##νί": 3092,
      "τοιαύ": 3093,
      "κατο": 3094,
      "ὀλί": 3095,
      "##ρόν": 3096,
      "##έρα": 3097,
      "##κεί": 3098,
      "μήτε": 3099,
      "τοιαύ": 3100,
      "τούτῳ": 3101,
      "σώματος": 3102,
      "ἄλλοι": 3103,
      "##μὸς": 3104,
      "##τοὺς": 3105,
      "ἴσον": 3106,
      "ἴσως": 3107,
      "##ήματα": 3108,
      "ἐντε": 3109,
      "ἐποί": 3110,
      "##ϲθαι": 3111,
      "ἕνεκα": 3112,
      "##πά": 3113,
      "πρὶν": 3114,
      "##σαντο": 3115,
      "ἔλα": 3116,
      "χωρὶς": 3117,
      "παιδ": 3118,
      "ἀγαθὸν": 3119,
      "ἀδύ": 3120,
      "φύσιν": 3121,
      "τοσοῦτον": 3122,
      "##ττε": 3123,
      "##ότα": 3124,
      "ἀναγκαῖον": 3125,
      "##ᾶσθαι": 3126,
      "##ονα": 3127,
      "##ησε": 3128,
      "##ηφ": 3129,
      "##θεσιν": 3130,
      "##έρα": 3131,
      "μέρος": 3132,
      "##σκειν": 3133,
      "κατά": 3134,
      "ἐμοῦ": 3135,
      "##λώ": 3136,
      "συμβ": 3137,
      "γυμ": 3138,
      "##ίαις": 3139,
      "##νου": 3140,
      "πολλοὶ": 3141,
      "##ρίαν": 3142,
      "##πεσ": 3143,
      "ἀξ": 3144,
      "##τικο": 3145,
      "κακο": 3146,
      "##ριστοῦ": 3147,
      "ὑποκει": 3148,
      "θέ": 3149,
      "##ίνων": 3150,
      "##πό": 3151,
      "##μένα": 3152,
      "##ύς": 3153,
      "##ρεσιν": 3154,
      "##μειν": 3155,
      "##αγγε": 3156,
      "##ησαν": 3157,
      "##τια": 3158,
      "πᾶσι": 3159,
      "αὔ": 3160,
      "ταύτην": 3161,
      "τότε": 3162,
      "ζῷον": 3163,
      "λέγων": 3164,
      "##πτου": 3165,
      "##κται": 3166,
      "ἁγ": 3167,
      "ὑπό": 3168,
      "##φον": 3169,
      "προει": 3170,
      "ἐλά": 3171,
      "οὐδεὶς": 3172,
      "νέ": 3173,
      "οἶμαι": 3174,
      "λοιπὸν": 3175,
      "ἀνάγκη": 3176,
      "λά": 3177,
      "ἀθ": 3178,
      "ἐγένετο": 3179,
      "##σὶν": 3180,
      "##ότητα": 3181,
      "##ότι": 3182,
      "φυσικ": 3183,
      "##ψαι": 3184,
      "ἑνὸς": 3185,
      "ἔστω": 3186,
      "κατά": 3187,
      "##τή": 3188,
      "##ρεν": 3189,
      "γιγν": 3190,
      "φορ": 3191,
      "##τρου": 3192,
      "##λῆς": 3193,
      "##ρν": 3194,
      "τρόπον": 3195,
      "##μένοι": 3196,
      "##λύ": 3197,
      "##ῖος": 3198,
      "##ομένην": 3199,
      "Σω": 3200,
      "ἀποδ": 3201,
      "11": 3202,
      "ἄνδρες": 3203,
      "πολλοὺς": 3204,
      "δεῖν": 3205,
      "##μοις": 3206,
      "##μῷ": 3207,
      "τυγχ": 3208,
      "##im": 3209,
      "λόγου": 3210,
      "ὅμως": 3211,
      "##εῖναι": 3212,
      "εἰσὶ": 3213,
      "ἧττον": 3214,
      "τινὶ": 3215,
      "##ττα": 3216,
      "##ικῶν": 3217,
      "Λακε": 3218,
      "κοινων": 3219,
      "δύναμιν": 3220,
      "μέντοι": 3221,
      "##μῃ": 3222,
      "ἐκεῖνο": 3223,
      "##τέρων": 3224,
      "##om": 3225,
      "##ταχ": 3226,
      "##μένοις": 3227,
      "μό": 3228,
      "##τόν": 3229,
      "##λό": 3230,
      "##ίαις": 3231,
      "##μοῖς": 3232,
      "##χρ": 3233,
      "##πορ": 3234,
      "ἀνδρῶν": 3235,
      "##λλει": 3236,
      "##ομένοις": 3237,
      "##ῖα": 3238,
      "##ψας": 3239,
      "σκε": 3240,
      "##σίαν": 3241,
      "πρεσβ": 3242,
      "##ῶσι": 3243,
      "##λογον": 3244,
      "εἰπὼν": 3245,
      "##όϲ": 3246,
      "λέγον": 3247,
      "##ντων": 3248,
      "##μαν": 3249,
      "##τικῆς": 3250,
      "εἶπε": 3251,
      "##ότητος": 3252,
      "καθά": 3253,
      "πᾶσιν": 3254,
      "ἀποστ": 3255,
      "ἄνδρα": 3256,
      "μνη": 3257,
      "##σαις": 3258,
      "τοιού": 3259,
      "ἐκεῖνος": 3260,
      "σκοπ": 3261,
      "##μένην": 3262,
      "τυχ": 3263,
      "##ύων": 3264,
      "##δά": 3265,
      "##ρεται": 3266,
      "##ec": 3267,
      "τινὸς": 3268,
      "γέγ": 3269,
      "φοβ": 3270,
      "##σαντα": 3271,
      "##ὺϲ": 3272,
      "##ὴλ": 3273,
      "ἀγνο": 3274,
      "γένος": 3275,
      "##αχ": 3276,
      "##σκει": 3277,
      "##el": 3278,
      "κρε": 3279,
      "##κρο": 3280,
      "##ηκεν": 3281,
      "##ξατο": 3282,
      "ψυχὴν": 3283,
      "οὐχὶ": 3284,
      "διέ": 3285,
      "λαβεῖν": 3286,
      "λόγῳ": 3287,
      "##άκις": 3288,
      "Ἰσρα": 3289,
      "ἄτο": 3290,
      "##id": 3291,
      "##άς": 3292,
      "νυκ": 3293,
      "Φι": 3294,
      "τρο": 3295,
      "##πλα": 3296,
      "##ρᾳ": 3297,
      "ἄλλη": 3298,
      "λαμβάν": 3299,
      "πατρὸς": 3300,
      "##σῳ": 3301,
      "##ούμενος": 3302,
      "δίκαι": 3303,
      "ἐξα": 3304,
      "##δʼ": 3305,
      "τοσα": 3306,
      "χωρί": 3307,
      "λαμπ": 3308,
      "##χεν": 3309,
      "μεγά": 3310,
      "##ύκ": 3311,
      "##θειαν": 3312,
      "Χριστοῦ": 3313,
      "Πο": 3314,
      "##ταγ": 3315,
      "τίς": 3316,
      "αὐτὴ": 3317,
      "ταύτης": 3318,
      "##άμενοι": 3319,
      "##δοκ": 3320,
      "##φος": 3321,
      "τρεῖς": 3322,
      "##οντι": 3323,
      "##κειται": 3324,
      "##λιος": 3325,
      "πάνυ": 3326,
      "##στην": 3327,
      "##ήσεις": 3328,
      "μεταβολ": 3329,
      "13": 3330,
      "πᾶσα": 3331,
      "πνεῦμα": 3332,
      "χάρ": 3333,
      "##ήσ": 3334,
      "πάντας": 3335,
      "λέγω": 3336,
      "##δοξ": 3337,
      "ἔνθα": 3338,
      "12": 3339,
      "βού": 3340,
      "πρά": 3341,
      "##μις": 3342,
      "##τέρα": 3343,
      "ὑπε": 3344,
      "ἄλλους": 3345,
      "##ίσ": 3346,
      "ἕνα": 3347,
      "##ed": 3348,
      "γέ": 3349,
      "χαλεπ": 3350,
      "##ενε": 3351,
      "ὑπʼ": 3352,
      "##τρέ": 3353,
      "##τικὴν": 3354,
      "βασιλέως": 3355,
      "χι": 3356,
      "##όμεθα": 3357,
      "##πεται": 3358,
      "νοῦν": 3359,
      "##τέρας": 3360,
      "μῆ": 3361,
      "ξυν": 3362,
      "τίν": 3363,
      "κἀκ": 3364,
      "προσα": 3365,
      "καθάπερ": 3366,
      "Ἀλε": 3367,
      "ὑψ": 3368,
      "##θαρ": 3369,
      "μηδεν": 3370,
      "##ίνειν": 3371,
      "θεῷ": 3372,
      "##ῃς": 3373,
      "##αιρε": 3374,
      "ἐλευθ": 3375,
      "##γραφ": 3376,
      "ἐσθ": 3377,
      "πολλάκις": 3378,
      "##άνα": 3379,
      "θά": 3380,
      "ἑαυτῷ": 3381,
      "##ορα": 3382,
      "##φά": 3383,
      "##στῳ": 3384,
      "φά": 3385,
      "ἀδύνατον": 3386,
      "μείζ": 3387,
      "τόν": 3388,
      "ἐποι": 3389,
      "##νυ": 3390,
      "πολυ": 3391,
      "ἐπιστή": 3392,
      "Αἴ": 3393,
      "σαρκ": 3394,
      "##έτι": 3395,
      "ὕδατος": 3396,
      "εἰσὶν": 3397,
      "##ήσεως": 3398,
      "##ίη": 3399,
      "μέγα": 3400,
      "##κειν": 3401,
      "##όλου": 3402,
      "##ίω": 3403,
      "τυρ": 3404,
      "κλ": 3405,
      "##ol": 3406,
      "##ταί": 3407,
      "##μένη": 3408,
      "##έρας": 3409,
      "σμ": 3410,
      "##έρων": 3411,
      "##τικῶν": 3412,
      "πορε": 3413,
      "ἐκείνου": 3414,
      "ὑπάρχειν": 3415,
      "κάλλ": 3416,
      "##τρο": 3417,
      "ἀπει": 3418,
      "##τρί": 3419,
      "ἐσχ": 3420,
      "ἐνεργ": 3421,
      "##στασιν": 3422,
      "##θων": 3423,
      "ἔοι": 3424,
      "ὥς": 3425,
      "ἀνὴρ": 3426,
      "##ούς": 3427,
      "##ιδ": 3428,
      "##λού": 3429,
      "γίνεσθαι": 3430,
      "##ίζειν": 3431,
      "##μένῳ": 3432,
      "##σεβ": 3433,
      "ἐξέ": 3434,
      "φιλοσοφ": 3435,
      "##μένης": 3436,
      "##δρος": 3437,
      "##ψει": 3438,
      "ἅπαντα": 3439,
      "φαρ": 3440,
      "##τός": 3441,
      "δυνάμει": 3442,
      "##τύ": 3443,
      "##όμα": 3444,
      "μικρὸν": 3445,
      "##άντων": 3446,
      "##εὺς": 3447,
      "##λεύ": 3448,
      "γενέσθαι": 3449,
      "##ίχ": 3450,
      "##φελ": 3451,
      "γῆ": 3452,
      "Ἰω": 3453,
      "21": 3454,
      "σελ": 3455,
      "##σί": 3456,
      "##θου": 3457,
      "##χειρ": 3458,
      "##μμα": 3459,
      "πλή": 3460,
      "##κού": 3461,
      "ὑπό": 3462,
      "δυνατὸν": 3463,
      "χάριν": 3464,
      "##τόν": 3465,
      "λόγῳ": 3466,
      "θαυμα": 3467,
      "##ῦθεν": 3468,
      "ἐπισ": 3469,
      "##θῶν": 3470,
      "##ρην": 3471,
      "ὀδ": 3472,
      "ἄπειρον": 3473,
      "σύν": 3474,
      "ποσ": 3475,
      "βιβ": 3476,
      "##οισι": 3477,
      "##μετρ": 3478,
      "##od": 3479,
      "##ούσης": 3480,
      "πολιτε": 3481,
      "σώματος": 3482,
      "φυγ": 3483,
      "##τρα": 3484,
      "ϲυν": 3485,
      "κάτω": 3486,
      "##οδ": 3487,
      "ἡμέρας": 3488,
      "θαυμ": 3489,
      "22": 3490,
      "##στις": 3491,
      "δοῦ": 3492,
      "ἔπ": 3493,
      "15": 3494,
      "πέν": 3495,
      "καρπ": 3496,
      "πί": 3497,
      "λαμβάν": 3498,
      "##εια": 3499,
      "##ήσας": 3500,
      "ὀλίγ": 3501,
      "ἑαυτῶν": 3502,
      "##II": 3503,
      "ἔθ": 3504,
      "εἷς": 3505,
      "Τα": 3506,
      "##οδον": 3507,
      "Ἀντι": 3508,
      "##σθῆναι": 3509,
      "ἔχοντες": 3510,
      "οὖσα": 3511,
      "##ψεν": 3512,
      "##φύ": 3513,
      "ἡμέρ": 3514,
      "##λαμβάν": 3515,
      "##ούμενον": 3516,
      "17": 3517,
      "τινὲς": 3518,
      "##γέν": 3519,
      "pr": 3520,
      "##ότα": 3521,
      "λεπτ": 3522,
      "##ρύ": 3523,
      "Μα": 3524,
      "Ἐν": 3525,
      "χρή": 3526,
      "##μένῳ": 3527,
      "ἴδιον": 3528,
      "κεκ": 3529,
      "##τρὸς": 3530,
      "##οῦσαν": 3531,
      "πονηρ": 3532,
      "##θῇ": 3533,
      "##νης": 3534,
      "Ῥωμαίων": 3535,
      "##υλ": 3536,
      "##βρα": 3537,
      "##εσιν": 3538,
      "##ut": 3539,
      "##στρα": 3540,
      "γρά": 3541,
      "γεγεν": 3542,
      "αὑτοῦ": 3543,
      "##ολογ": 3544,
      "14": 3545,
      "##μὴν": 3546,
      "##τωρ": 3547,
      "ὁδ": 3548,
      "##όντες": 3549,
      "ὅπου": 3550,
      "ἀσθεν": 3551,
      "ἰσχυρ": 3552,
      "ὑπάρχει": 3553,
      "##λεν": 3554,
      "##έχεται": 3555,
      "φύσει": 3556,
      "φέ": 3557,
      "##ζειν": 3558,
      "διαιρ": 3559,
      "ἄλλου": 3560,
      "Ἀλλ": 3561,
      "λύ": 3562,
      "οὔσης": 3563,
      "##ιστα": 3564,
      "περί": 3565,
      "ψευδ": 3566,
      "προειρη": 3567,
      "##ητε": 3568,
      "ὑμεῖς": 3569,
      "τήν": 3570,
      "γά": 3571,
      "ἀκολου": 3572,
      "##ρού": 3573,
      "ἐστίν": 3574,
      "τουτέ": 3575,
      "ποιή": 3576,
      "##ριζ": 3577,
      "ἀποφα": 3578,
      "ταύτῃ": 3579,
      "σχε": 3580,
      "##λγ": 3581,
      "συλλογισμ": 3582,
      "##ati": 3583,
      "##μένους": 3584,
      "##ττων": 3585,
      "##κες": 3586,
      "##ρθ": 3587,
      "##γαγ": 3588,
      "τούτους": 3589,
      "ση": 3590,
      "##φυκ": 3591,
      "αὐτὰς": 3592,
      "σπουδ": 3593,
      "##λαγ": 3594,
      "##χθη": 3595,
      "φαντα": 3596,
      "ἐφεξῆς": 3597,
      "##έτι": 3598,
      "##ότης": 3599,
      "##μί": 3600,
      "αἰσθητ": 3601,
      "##στὸν": 3602,
      "##άμενος": 3603,
      "ἐκεῖνον": 3604,
      "##όνων": 3605,
      "##άσ": 3606,
      "γένος": 3607,
      "##σταν": 3608,
      "ἐλθ": 3609,
      "##φι": 3610,
      "ῥᾳ": 3611,
      "Ἱπ": 3612,
      "##όμεθα": 3613,
      "πᾶς": 3614,
      "περιε": 3615,
      "διανο": 3616,
      "φησίν": 3617,
      "##υρίου": 3618,
      "σημεῖον": 3619,
      "##ῶδες": 3620,
      "##τολ": 3621,
      "##κη": 3622,
      "ἀ": 3623,
      "μό": 3624,
      "##ρεσθαι": 3625,
      "δεικν": 3626,
      "##ομένη": 3627,
      "##τρά": 3628,
      "γαστ": 3629,
      "Il": 3630,
      "πεί": 3631,
      "##ροϲ": 3632,
      "νικ": 3633,
      "πως": 3634,
      "##ηλ": 3635,
      "16": 3636,
      "τέλος": 3637,
      "τύ": 3638,
      "ὑγρ": 3639,
      "θυγα": 3640,
      "δικαιοσ": 3641,
      "##ροσθεν": 3642,
      "##οιο": 3643,
      "##νεσθαι": 3644,
      "ἐνέρ": 3645,
      "##πτει": 3646,
      "##αμ": 3647,
      "αὐτό": 3648,
      "ὁπο": 3649,
      "συνέ": 3650,
      "προτά": 3651,
      "πάσχ": 3652,
      "φερ": 3653,
      "##ῶνα": 3654,
      "Τὸ": 3655,
      "πολλάκις": 3656,
      "λει": 3657,
      "ὁμοι": 3658,
      "##λίου": 3659,
      "λόγου": 3660,
      "an": 3661,
      "γων": 3662,
      "δείκνυ": 3663,
      "##βι": 3664,
      "προε": 3665,
      "ἔχουσι": 3666,
      "##λεται": 3667,
      "##πτειν": 3668,
      "##ῶσαι": 3669,
      "πατρί": 3670,
      "γνώ": 3671,
      "κηρ": 3672,
      "χερ": 3673,
      "ὁρῶν": 3674,
      "σχῆμα": 3675,
      "ἔξωθεν": 3676,
      "δύναμιν": 3677,
      "##ῶϲ": 3678,
      "ἐνέργει": 3679,
      "δρ": 3680,
      "##ομένης": 3681,
      "λί": 3682,
      "##ήνων": 3683,
      "βι": 3684,
      "ἄλλος": 3685,
      "##κτον": 3686,
      "ἀποκ": 3687,
      "ὀρθῶς": 3688,
      "##καὶ": 3689,
      "##σύν": 3690,
      "καλου": 3691,
      "##ότερον": 3692,
      "κακῶς": 3693,
      "##ές": 3694,
      "##ίνου": 3695,
      "βαρβ": 3696,
      "οὐδέν": 3697,
      "##ταὶ": 3698,
      "ἡμε": 3699,
      "##τιμ": 3700,
      "##λθον": 3701,
      "##δεν": 3702,
      "##κην": 3703,
      "##γρά": 3704,
      "th": 3705,
      "##ροῖς": 3706,
      "ὁπό": 3707,
      "στά": 3708,
      "πολλοῖς": 3709,
      "πυκ": 3710,
      "καθε": 3711,
      "ἵν": 3712,
      "##ροὺς": 3713,
      "φυλά": 3714,
      "Ἑρ": 3715,
      "##ῆται": 3716,
      "##τικὴ": 3717,
      "πεποι": 3718,
      "ἃς": 3719,
      "##λεί": 3720,
      "##λόγ": 3721,
      "πανταχ": 3722,
      "νη": 3723,
      "##θά": 3724,
      "##δή": 3725,
      "##al": 3726,
      "ἰα": 3727,
      "##ϲε": 3728,
      "ὀστ": 3729,
      "##υμέν": 3730,
      "##ιστον": 3731,
      "δύναται": 3732,
      "ἐπαιν": 3733,
      "φαιν": 3734,
      "εἴδη": 3735,
      "##σμα": 3736,
      "προσθ": 3737,
      "Ἱερ": 3738,
      "χαλκ": 3739,
      "πάντως": 3740,
      "##μῆς": 3741,
      "δηλοῖ": 3742,
      "##ροις": 3743,
      "πνεύ": 3744,
      "##ῦς": 3745,
      "πλέον": 3746,
      "ὄντες": 3747,
      "τινι": 3748,
      "##νον": 3749,
      "##γνεται": 3750,
      "##έων": 3751,
      "ταὐτὸν": 3752,
      "##τρι": 3753,
      "##πτο": 3754,
      "κίν": 3755,
      "ἀρι": 3756,
      "ἔργα": 3757,
      "##ψεως": 3758,
      "##λειαν": 3759,
      "χορ": 3760,
      "##ονε": 3761,
      "ἐγκ": 3762,
      "πύ": 3763,
      "μεῖ": 3764,
      "λόγων": 3765,
      "ἐργ": 3766,
      "##εργ": 3767,
      "ἐμὲ": 3768,
      "λόγους": 3769,
      "μέχρι": 3770,
      "ἐπιτη": 3771,
      "ἐναρ": 3772,
      "θύ": 3773,
      "##αντι": 3774,
      "ταύτης": 3775,
      "##λατ": 3776,
      "##ραι": 3777,
      "ὅσοι": 3778,
      "##χου": 3779,
      "οὖσαν": 3780,
      "ἐ": 3781,
      "φῶς": 3782,
      "Ἀθηναῖ": 3783,
      "##φέ": 3784,
      "μην": 3785,
      "##φά": 3786,
      "##ότητος": 3787,
      "##σκων": 3788,
      "ποιητ": 3789,
      "δεύ": 3790,
      "ἔμπροσθεν": 3791,
      "18": 3792,
      "##όντας": 3793,
      "ὁμοῦ": 3794,
      "πολλῷ": 3795,
      "##ναντ": 3796,
      "χαρ": 3797,
      "δηλον": 3798,
      "##κείμενον": 3799,
      "##μαχ": 3800,
      "##έλ": 3801,
      "οἰκο": 3802,
      "##ωρη": 3803,
      "##θὲν": 3804,
      "οὐδέ": 3805,
      "##ήσεις": 3806,
      "ὠν": 3807,
      "##βρ": 3808,
      "##ημάτων": 3809,
      "Δη": 3810,
      "##ώς": 3811,
      "##τέρων": 3812,
      "##δεκα": 3813,
      "##ίαι": 3814,
      "ἐκείνων": 3815,
      "εἶνα": 3816,
      "ὀνό": 3817,
      "ἰδι": 3818,
      "νομίζ": 3819,
      "τοῦτ": 3820,
      "πλευρ": 3821,
      "οὐκοῦν": 3822,
      "ὑπομ": 3823,
      "##ήγ": 3824,
      "βίον": 3825,
      "κοινὸν": 3826,
      "βοηθ": 3827,
      "##γεσθαι": 3828,
      "ἑπ": 3829,
      "ἀπέ": 3830,
      "##ταρ": 3831,
      "σωτ": 3832,
      "##ελθεῖν": 3833,
      "κακῶν": 3834,
      "##θάν": 3835,
      "##θετο": 3836,
      "σκλη": 3837,
      "τοῖϲ": 3838,
      "##ξῃ": 3839,
      "##υτὸν": 3840,
      "πατὴρ": 3841,
      "##κριν": 3842,
      "σοῦ": 3843,
      "κόσμ": 3844,
      "δι᾿": 3845,
      "εὐχ": 3846,
      "##σμον": 3847,
      "##βαλλ": 3848,
      "##όνα": 3849,
      "φησί": 3850,
      "ἀγαθῶν": 3851,
      "Ἀπο": 3852,
      "##τευ": 3853,
      "μεγα": 3854,
      "ὕλης": 3855,
      "##μπε": 3856,
      "##σίας": 3857,
      "νεκρ": 3858,
      "Τοῦ": 3859,
      "κλη": 3860,
      "ἀνάγκη": 3861,
      "τέχν": 3862,
      "##ές": 3863,
      "Ἀριστοτέ": 3864,
      "20": 3865,
      "υἱὸς": 3866,
      "τοιούτων": 3867,
      "ἄκρ": 3868,
      "μετε": 3869,
      "δαι": 3870,
      "##ονο": 3871,
      "τινας": 3872,
      "δημο": 3873,
      "##ότερον": 3874,
      "ἀκρο": 3875,
      "μει": 3876,
      "τῆ": 3877,
      "19": 3878,
      "##σων": 3879,
      "ξύ": 3880,
      "##ib": 3881,
      "δεσ": 3882,
      "##έρει": 3883,
      "##ῆλθεν": 3884,
      "ΣΩ": 3885,
      "##στή": 3886,
      "φό": 3887,
      "πόν": 3888,
      "ἄλλην": 3889,
      "νοῦς": 3890,
      "πόλεμον": 3891,
      "##ληφ": 3892,
      "δεί": 3893,
      "καίτοι": 3894,
      "di": 3895,
      "λαβὼν": 3896,
      "##νι": 3897,
      "##ϲαν": 3898,
      "##σά": 3899,
      "##ψις": 3900,
      "##λλά": 3901,
      "φύσει": 3902,
      "δή": 3903,
      "τόπον": 3904,
      "##άρων": 3905,
      "##δί": 3906,
      "ἐλπί": 3907,
      "χρόνον": 3908,
      "##έως": 3909,
      "##μφω": 3910,
      "Fl": 3911,
      "##έντα": 3912,
      "χώραν": 3913,
      "ἐντεῦθεν": 3914,
      "##ητον": 3915,
      "ἀνάγκης": 3916,
      "##βάλλ": 3917,
      "γυμν": 3918,
      "ἡλικ": 3919,
      "γλυκ": 3920,
      "##τεϲ": 3921,
      "ἔτη": 3922,
      "τόπον": 3923,
      "##ηκό": 3924,
      "ἀπʼ": 3925,
      "Ἀχ": 3926,
      "##σταται": 3927,
      "##ul": 3928,
      "##στει": 3929,
      "##πεί": 3930,
      "εὕ": 3931,
      "δώ": 3932,
      "##λιϲ": 3933,
      "πρῶτος": 3934,
      "αἷμα": 3935,
      "Πολ": 3936,
      "Πε": 3937,
      "φασιν": 3938,
      "ψυχὴ": 3939,
      "##ώτερον": 3940,
      "##λυμ": 3941,
      "##κυ": 3942,
      "σφα": 3943,
      "##άνδρ": 3944,
      "πόλις": 3945,
      "ἐνδεχ": 3946,
      "ἐμα": 3947,
      "κτ": 3948,
      "φεύ": 3949,
      "ἀκριβῶς": 3950,
      "##θή": 3951,
      "##φειν": 3952,
      "του": 3953,
      "Παρ": 3954,
      "λη": 3955,
      "ad": 3956,
      "##δό": 3957,
      "##έντες": 3958,
      "ἐπιμε": 3959,
      "Ὅτι": 3960,
      "ἀνθρώπων": 3961,
      "χυμ": 3962,
      "##οῦσαι": 3963,
      "ἔπε": 3964,
      "παχ": 3965,
      "ἀρχὰς": 3966,
      "ζῆν": 3967,
      "ἑπτ": 3968,
      "ὁρισμ": 3969,
      "##ημιουργ": 3970,
      "Μακε": 3971,
      "##έα": 3972,
      "##ώτα": 3973,
      "ἀρχὴ": 3974,
      "##ής": 3975,
      "ξέν": 3976,
      "##υπτ": 3977,
      "ἀνὰ": 3978,
      "ὥστ": 3979,
      "ἐκέ": 3980,
      "##ξασθαι": 3981,
      "μαρτυρ": 3982,
      "μεσ": 3983,
      "ἀληθὲς": 3984,
      "προσέ": 3985,
      "##ικῆς": 3986,
      "Διον": 3987,
      "διπλ": 3988,
      "σαφῶς": 3989,
      "##αίων": 3990,
      "κινήσεως": 3991,
      "οὐσίας": 3992,
      "##οῦται": 3993,
      "παρασκευ": 3994,
      "ἐγέν": 3995,
      "##ωτῶν": 3996,
      "ὀνό": 3997,
      "παιδε": 3998,
      "ἄμφω": 3999,
      "μετʼ": 4000,
      "πεπο": 4001,
      "δω": 4002,
      "##ent": 4003,
      "##ύτερον": 4004,
      "##τέρας": 4005,
      "ἔθν": 4006,
      "χά": 4007,
      "κελεύ": 4008,
      "##άζειν": 4009,
      "##δύ": 4010,
      "γέ": 4011,
      "##λέγ": 4012,
      "##λιγ": 4013,
      "ἄλλον": 4014,
      "βελ": 4015,
      "φλε": 4016,
      "##λως": 4017,
      "οὑ": 4018,
      "ὅμοιον": 4019,
      "ἱστορ": 4020,
      "Ἰησοῦ": 4021,
      "καλὸν": 4022,
      "##γιον": 4023,
      "πόλεις": 4024,
      "συμπ": 4025,
      "υἱὸν": 4026,
      "##que": 4027,
      "ἔχουσιν": 4028,
      "πρᾶγμα": 4029,
      "##χώ": 4030,
      "##κης": 4031,
      "βρα": 4032,
      "οἴκ": 4033,
      "##κλῳ": 4034,
      "κίνησις": 4035,
      "##νω": 4036,
      "##κί": 4037,
      "##ούμενον": 4038,
      "Μω": 4039,
      "αὐτό": 4040,
      "πυρὸς": 4041,
      "Ἕλλην": 4042,
      "##ρία": 4043,
      "διότι": 4044,
      "Σικ": 4045,
      "ἄξιον": 4046,
      "##μματα": 4047,
      "χρόνῳ": 4048,
      "ἤγ": 4049,
      "##δρον": 4050,
      "ἡμερ": 4051,
      "ἐθν": 4052,
      "Ἡρακ": 4053,
      "ζῶν": 4054,
      "##ομένῳ": 4055,
      "Διὸς": 4056,
      "##ήρ": 4057,
      "Ἰν": 4058,
      "25": 4059,
      "##ξης": 4060,
      "##λετο": 4061,
      "ἐπιδ": 4062,
      "χω": 4063,
      "αἰτίαν": 4064,
      "ἄχρι": 4065,
      "σύν": 4066,
      "ἀδι": 4067,
      "##θερ": 4068,
      "λυπ": 4069,
      "##μεις": 4070,
      "##ρίου": 4071,
      "δου": 4072,
      "πρός": 4073,
      "##ζει": 4074,
      "ἔμε": 4075,
      "##χεται": 4076,
      "##ετε": 4077,
      "κακὸν": 4078,
      "##δωκεν": 4079,
      "αἰτίαν": 4080,
      "Ἀτ": 4081,
      "πλέον": 4082,
      "γέγον": 4083,
      "##νή": 4084,
      "ἀναιρ": 4085,
      "##εῖσα": 4086,
      "στο": 4087,
      "πρέ": 4088,
      "##φρα": 4089,
      "##ρις": 4090,
      "ὡσα": 4091,
      "χρῆσθαι": 4092,
      "##μό": 4093,
      "##λίαν": 4094,
      "##θύ": 4095,
      "ἕκαστος": 4096,
      "ἀλλο": 4097,
      "ἐγώ": 4098,
      "κέν": 4099,
      "τυγχάν": 4100,
      "τη": 4101,
      "μεῖζον": 4102,
      "##οξ": 4103,
      "ἐβ": 4104,
      "ἡσ": 4105,
      "ἀρετῆς": 4106,
      "ἐστίν": 4107,
      "φύσεως": 4108,
      "πραγμα": 4109,
      "##ρεπ": 4110,
      "οὐσίαν": 4111,
      "##ίκα": 4112,
      "Τι": 4113,
      "##ῶνος": 4114,
      "##τιος": 4115,
      "ἥτις": 4116,
      "Ἀχι": 4117,
      "ἄνδρας": 4118,
      "##δῳ": 4119,
      "##ωνται": 4120,
      "ἐχθρ": 4121,
      "##κτο": 4122,
      "εἶχε": 4123,
      "24": 4124,
      "##ρίων": 4125,
      "δηλ": 4126,
      "πόλε": 4127,
      "est": 4128,
      "de": 4129,
      "##ρευ": 4130,
      "ζῴων": 4131,
      "ἄλλῳ": 4132,
      "δύναται": 4133,
      "λέγω": 4134,
      "κίνησιν": 4135,
      "##σσον": 4136,
      "παρά": 4137,
      "κινεῖσθαι": 4138,
      "##φη": 4139,
      "στοιχ": 4140,
      "##ίη": 4141,
      "κορ": 4142,
      "ποιῆσαι": 4143,
      "κἀν": 4144,
      "##λίας": 4145,
      "ἀνδρὸς": 4146,
      "##φύ": 4147,
      "φθορ": 4148,
      "ἔφα": 4149,
      "ἅπερ": 4150,
      "πλεῖστον": 4151,
      "##άτου": 4152,
      "διηγ": 4153,
      "##έραν": 4154,
      "βεβ": 4155,
      "Κορ": 4156,
      "23": 4157,
      "τοῖσι": 4158,
      "νῆ": 4159,
      "ἀτ": 4160,
      "##έβη": 4161,
      "δημιουργ": 4162,
      "μύ": 4163,
      "Ἀγ": 4164,
      "Θεὸς": 4165,
      "αὗ": 4166,
      "##ώτερον": 4167,
      "εἴρη": 4168,
      "τεχν": 4169,
      "##ῖϲ": 4170,
      "##τείν": 4171,
      "##σατε": 4172,
      "ἰδεῖν": 4173,
      "βά": 4174,
      "ἡμέραν": 4175,
      "θάνα": 4176,
      "τρα": 4177,
      "τρέ": 4178,
      "εἶχεν": 4179,
      "πορ": 4180,
      "Γα": 4181,
      "ῥη": 4182,
      "ποιη": 4183,
      "γυναῖκα": 4184,
      "καιρὸν": 4185,
      "ὕλην": 4186,
      "βασιλέ": 4187,
      "##όντα": 4188,
      "διδασ": 4189,
      "##ττω": 4190,
      "δόξαν": 4191,
      "Gr": 4192,
      "κρι": 4193,
      "##χων": 4194,
      "διαφέρ": 4195,
      "πρὸϲ": 4196,
      "##il": 4197,
      "##ὰμ": 4198,
      "##ικὴν": 4199,
      "ἀφικ": 4200,
      "πη": 4201,
      "ἐποί": 4202,
      "Ὀδ": 4203,
      "##unt": 4204,
      "πολλὴν": 4205,
      "κόσμ": 4206,
      "##ήθη": 4207,
      "ἀποθαν": 4208,
      "##ομένοις": 4209,
      "γνω": 4210,
      "τεκ": 4211,
      "μισθ": 4212,
      "##σχε": 4213,
      "##ούντων": 4214,
      "Ἀνα": 4215,
      "##λυθ": 4216,
      "##μένος": 4217,
      "##ίζειν": 4218,
      "σοὶ": 4219,
      "ἐκείνων": 4220,
      "##σδε": 4221,
      "##φου": 4222,
      "Τὰ": 4223,
      "##σθαί": 4224,
      "##έρων": 4225,
      "προσαγ": 4226,
      "Ἀλεξ": 4227,
      "##πην": 4228,
      "##σασα": 4229,
      "συγγεν": 4230,
      "##σθεὶς": 4231,
      "##ομένην": 4232,
      "ἰατ": 4233,
      "χεῖρας": 4234,
      "τέχ": 4235,
      "##ῖνος": 4236,
      "Πλά": 4237,
      "##όντος": 4238,
      "ἰχθ": 4239,
      "##ίω": 4240,
      "ἐπιστή": 4241,
      "##ρῷ": 4242,
      "μηδε": 4243,
      "##οῦσθαι": 4244,
      "ἦλ": 4245,
      "##λμ": 4246,
      "##ίδων": 4247,
      "##ρειν": 4248,
      "γίνονται": 4249,
      "##λῶς": 4250,
      "ἀθρ": 4251,
      "ῥητ": 4252,
      "Σκ": 4253,
      "δ΄": 4254,
      "ὕλη": 4255,
      "οὐκέτι": 4256,
      "προσή": 4257,
      "τέλος": 4258,
      "μίαν": 4259,
      "##ματ": 4260,
      "##καρ": 4261,
      "ex": 4262,
      "##τικοῦ": 4263,
      "ἐργα": 4264,
      "διδά": 4265,
      "πάντες": 4266,
      "ταύτῃ": 4267,
      "πεζ": 4268,
      "μέσον": 4269,
      "##ήνης": 4270,
      "πραγμάτων": 4271,
      "ἁπάντων": 4272,
      "##ωσι": 4273,
      "στεν": 4274,
      "σχεδὸν": 4275,
      "Ἀθηναῖοι": 4276,
      "ἀδύ": 4277,
      "##εῖαν": 4278,
      "un": 4279,
      "οὐρανοῦ": 4280,
      "χώ": 4281,
      "ἀναστ": 4282,
      "τετρ": 4283,
      "ἑβ": 4284,
      "ἐκείνου": 4285,
      "##υρα": 4286,
      "οὐκέτι": 4287,
      "##τέον": 4288,
      "##ριά": 4289,
      "##σαντας": 4290,
      "φέ": 4291,
      "ἀντιστ": 4292,
      "γί": 4293,
      "ἐπισκ": 4294,
      "μίαν": 4295,
      "ἄτοπον": 4296,
      "πυκν": 4297,
      "ἐχρ": 4298,
      "##ριστον": 4299,
      "ἀνθρώποις": 4300,
      "αὐταῖς": 4301,
      "τάδε": 4302,
      "##ξειν": 4303,
      "ἐθέ": 4304,
      "ἑρ": 4305,
      "##θην": 4306,
      "ἐξουσ": 4307,
      "ἄνθρωποι": 4308,
      "κεφαλὴν": 4309,
      "σωτηρ": 4310,
      "καιν": 4311,
      "Λακεδαιμον": 4312,
      "προσκ": 4313,
      "πράγ": 4314,
      "##ονος": 4315,
      "καθ᾿": 4316,
      "##ίαι": 4317,
      "φαίνεται": 4318,
      "Λε": 4319,
      "##μονα": 4320,
      "ἄκ": 4321,
      "ἅτε": 4322,
      "##μένας": 4323,
      "##ορεύ": 4324,
      "Πλ": 4325,
      "ἐπιφαν": 4326,
      "ἀκού": 4327,
      "ὅστις": 4328,
      "θαλά": 4329,
      "βασιλέα": 4330,
      "ἀφαν": 4331,
      "ξυμ": 4332,
      "φαίνεται": 4333,
      "26": 4334,
      "##ῶνται": 4335,
      "αἰχ": 4336,
      "εὐδαιμον": 4337,
      "##οισιν": 4338,
      "##τικὰ": 4339,
      "γʼ": 4340,
      "ἐντὸς": 4341,
      "ὕπν": 4342,
      "##ικοῦ": 4343,
      "##λαβὼν": 4344,
      "##γεί": 4345,
      "ἑκ": 4346,
      "##τειν": 4347,
      "τελει": 4348,
      "##ῆρος": 4349,
      "##σμὸν": 4350,
      "##δύν": 4351,
      "##βον": 4352,
      "##σωμεν": 4353,
      "##στασθαι": 4354,
      "σὲ": 4355,
      "ἔνιοι": 4356,
      "fr": 4357,
      "ἀμφὶ": 4358,
      "ἴσα": 4359,
      "προϲ": 4360,
      "ἀληθῶς": 4361,
      "##μπαν": 4362,
      "##ττει": 4363,
      "##οποι": 4364,
      "Αὐ": 4365,
      "Δημ": 4366,
      "ὑπέ": 4367,
      "κεχ": 4368,
      "κυν": 4369,
      "ἔλεγεν": 4370,
      "##οια": 4371,
      "τουτέστι": 4372,
      "βασιλεῖ": 4373,
      "##έας": 4374,
      "Ἱππο": 4375,
      "ἀληθῆ": 4376,
      "##πλή": 4377,
      "Ῥώ": 4378,
      "σημε": 4379,
      "##ab": 4380,
      "ἐλευθερ": 4381,
      "##χους": 4382,
      "##γεγ": 4383,
      "##μιον": 4384,
      "Ἰτα": 4385,
      "γον": 4386,
      "πάσχ": 4387,
      "διαι": 4388,
      "αὐτούς": 4389,
      "##διδ": 4390,
      "##έχεται": 4391,
      "ἔχουσα": 4392,
      "ἀριστε": 4393,
      "Υἱ": 4394,
      "προστ": 4395,
      "##τικῶς": 4396,
      "Πλάτων": 4397,
      "κρί": 4398,
      "##βλη": 4399,
      "Ἀλέ": 4400,
      "##τηϲ": 4401,
      "λευκὸν": 4402,
      "αὗται": 4403,
      "##μέ": 4404,
      "ἐξηγ": 4405,
      "ἐπιν": 4406,
      "##ύντων": 4407,
      "##ικα": 4408,
      "##υσι": 4409,
      "κι": 4410,
      "##οιεν": 4411,
      "θυσ": 4412,
      "##λλαγ": 4413,
      "τριῶν": 4414,
      "ἔϲ": 4415,
      "ἀνέ": 4416,
      "δυνάμεως": 4417,
      "##εικ": 4418,
      "ὀνομα": 4419,
      "##έχει": 4420,
      "##ήνην": 4421,
      "ἤγουν": 4422,
      "δευτέρ": 4423,
      "##οῖν": 4424,
      "μέλλον": 4425,
      "ὠφελ": 4426,
      "ἀρετὴν": 4427,
      "##μας": 4428,
      "φύσις": 4429,
      "##έχειν": 4430,
      "##αγωγ": 4431,
      "##ικῶς": 4432,
      "μουσι": 4433,
      "##ουσαι": 4434,
      "μέσον": 4435,
      "##δοὺς": 4436,
      "κρά": 4437,
      "μνημον": 4438,
      "##δοὺ": 4439,
      "Κύ": 4440,
      "27": 4441,
      "##γέ": 4442,
      "##eg": 4443,
      "ὅλων": 4444,
      "##ac": 4445,
      "Ἑλλήνων": 4446,
      "##μετρον": 4447,
      "##σίαν": 4448,
      "##οῦντο": 4449,
      "Δημο": 4450,
      "con": 4451,
      "ἡδ": 4452,
      "##σκο": 4453,
      "πολεμίων": 4454,
      "##λλι": 4455,
      "εἶπον": 4456,
      "βλέ": 4457,
      "φωτ": 4458,
      "Ἀρχ": 4459,
      "##στης": 4460,
      "##κλῆς": 4461,
      "33": 4462,
      "μέγε": 4463,
      "Θη": 4464,
      "οὐδενὶ": 4465,
      "Ἀχιλλ": 4466,
      "##ωτά": 4467,
      "μαλακ": 4468,
      "##στων": 4469,
      "##οδρ": 4470,
      "κινεῖται": 4471,
      "ἀγορ": 4472,
      "ἀνθρώπου": 4473,
      "##πης": 4474,
      "##γὼ": 4475,
      "##ρίζ": 4476,
      "ἐνδέχεται": 4477,
      "##όντι": 4478,
      "##ραπται": 4479,
      "##γος": 4480,
      "φασι": 4481,
      "χρώ": 4482,
      "ἐπιτηδε": 4483,
      "στό": 4484,
      "ἔργων": 4485,
      "κει": 4486,
      "πρα": 4487,
      "##λεις": 4488,
      "χρόνῳ": 4489,
      "##άσας": 4490,
      "γίνεσθαι": 4491,
      "χρή": 4492,
      "πνεύ": 4493,
      "##ημάτων": 4494,
      "σεμν": 4495,
      "μετρ": 4496,
      "μαχ": 4497,
      "σχή": 4498,
      "ἐπιχειρ": 4499,
      "##ir": 4500,
      "φί": 4501,
      "εἶχον": 4502,
      "ἀγαπ": 4503,
      "δά": 4504,
      "##ομένους": 4505,
      "##στοι": 4506,
      "##ίην": 4507,
      "μέγ": 4508,
      "οὐδενὸς": 4509,
      "##είας": 4510,
      "##πτω": 4511,
      "πρός": 4512,
      "ἀλλήλους": 4513,
      "ἀκρ": 4514,
      "παντο": 4515,
      "##μή": 4516,
      "##θεται": 4517,
      "##στῶ": 4518,
      "##σωπον": 4519,
      "αἴσθ": 4520,
      "φησίν": 4521,
      "##οτε": 4522,
      "##ριμ": 4523,
      "Κυρ": 4524,
      "συντε": 4525,
      "ἐκτὸς": 4526,
      "μέρη": 4527,
      "εὐθε": 4528,
      "##σῃς": 4529,
      "τοὺϲ": 4530,
      "κάτω": 4531,
      "##ονομ": 4532,
      "ὧδε": 4533,
      "##ϊκ": 4534,
      "##δηλον": 4535,
      "καίτοι": 4536,
      "##λαις": 4537,
      "##κτειν": 4538,
      "##ίσα": 4539,
      "οὔτʼ": 4540,
      "Ἀλέξαν": 4541,
      "θεοὺς": 4542,
      "##υλλ": 4543,
      "Ἀγα": 4544,
      "##ρώ": 4545,
      "Ὀδυσ": 4546,
      "χολ": 4547,
      "λή": 4548,
      "##ίκνυ": 4549,
      "πλει": 4550,
      "φιλό": 4551,
      "##δεικν": 4552,
      "ψεῦ": 4553,
      "αὐτόν": 4554,
      "πλά": 4555,
      "ἡσυχ": 4556,
      "ὅρ": 4557,
      "χαί": 4558,
      "αὐξ": 4559,
      "αἵματος": 4560,
      "δίκαι": 4561,
      "ὄντας": 4562,
      "##φασιν": 4563,
      "ἀγων": 4564,
      "##σειν": 4565,
      "ταῦτʼ": 4566,
      "Ἀπό": 4567,
      "πρῶτα": 4568,
      "##καμεν": 4569,
      "ἄνωθεν": 4570,
      "β΄": 4571,
      "ἡγεμον": 4572,
      "μιᾶς": 4573,
      "νυν": 4574,
      "ἔδο": 4575,
      "##ϲει": 4576,
      "##άζειν": 4577,
      "προηγ": 4578,
      "θεοῖς": 4579,
      "δεῖξαι": 4580,
      "λογι": 4581,
      "##γου": 4582,
      "καλεῖται": 4583,
      "Gu": 4584,
      "ἀλλήλων": 4585,
      "ἐπιστο": 4586,
      "##σθαί": 4587,
      "γενε": 4588,
      "##ούμενοι": 4589,
      "ἀριθμὸν": 4590,
      "εἵ": 4591,
      "ἐθε": 4592,
      "μουσικ": 4593,
      "##άτου": 4594,
      "τύχ": 4595,
      "τοὔ": 4596,
      "γενέ": 4597,
      "ἕλ": 4598,
      "ἀφορ": 4599,
      "Ἀχαι": 4600,
      "##ῖνον": 4601,
      "ἕτερα": 4602,
      "φύσεως": 4603,
      "α΄": 4604,
      "##ανον": 4605,
      "εἰκὸς": 4606,
      "διδασκαλ": 4607,
      "##λουν": 4608,
      "##ττου": 4609,
      "##χη": 4610,
      "Ἰσραὴλ": 4611,
      "τινων": 4612,
      "##άδος": 4613,
      "γεγραμ": 4614,
      "##ωθ": 4615,
      "θεῖον": 4616,
      "Ἀφρο": 4617,
      "##ῳδ": 4618,
      "##λείας": 4619,
      "κἀκεῖν": 4620,
      "οἷα": 4621,
      "ἀνθρωπ": 4622,
      "φά": 4623,
      "παντελ": 4624,
      "γεγενη": 4625,
      "μέγεθος": 4626,
      "ὀλιγ": 4627,
      "ἔφην": 4628,
      "διδά": 4629,
      "ὅλου": 4630,
      "##ροὶ": 4631,
      "μί": 4632,
      "δεδ": 4633,
      "κύριος": 4634,
      "μῆκος": 4635,
      "##ση": 4636,
      "Λιβ": 4637,
      "##θης": 4638,
      "καταφα": 4639,
      "##λαιον": 4640,
      "ἐνέ": 4641,
      "ἐδό": 4642,
      "οὐδεμ": 4643,
      "μέγε": 4644,
      "τοιοῦτος": 4645,
      "##oc": 4646,
      "ἀλλήλων": 4647,
      "ἀχ": 4648,
      "##ξεται": 4649,
      "##ορκ": 4650,
      "##σίων": 4651,
      "σπέρ": 4652,
      "περιττ": 4653,
      "ὄντι": 4654,
      "##γνεσθαι": 4655,
      "ἐκεῖνα": 4656,
      "ἀντί": 4657,
      "ἀρχι": 4658,
      "τινὰς": 4659,
      "γῇ": 4660,
      "ἠξ": 4661,
      "##στεως": 4662,
      "ζητ": 4663,
      "κατ᾿": 4664,
      "ἐθνῶν": 4665,
      "δέκα": 4666,
      "θερμα": 4667,
      "ἀνθρώπους": 4668,
      "τροφῆς": 4669,
      "##έντων": 4670,
      "30": 4671,
      "ἐκά": 4672,
      "ἄλλας": 4673,
      "οὐσία": 4674,
      "ῥή": 4675,
      "##πῃ": 4676,
      "##εστ": 4677,
      "Νικ": 4678,
      "Τί": 4679,
      "##άδα": 4680,
      "##ot": 4681,
      "##τομ": 4682,
      "διελ": 4683,
      "μαθ": 4684,
      "##γιν": 4685,
      "Ἐπ": 4686,
      "ὅς": 4687,
      "ἐρωτ": 4688,
      "στερε": 4689,
      "##νί": 4690,
      "##ig": 4691,
      "αὑτὸ": 4692,
      "ἔλαττον": 4693,
      "Πνε": 4694,
      "##οιϲ": 4695,
      "δακτ": 4696,
      "κἄ": 4697,
      "##λίου": 4698,
      "ἡμέρας": 4699,
      "δυνάμει": 4700,
      "##σίον": 4701,
      "##ώσεως": 4702,
      "##γωγ": 4703,
      "ἴση": 4704,
      "κατέ": 4705,
      "ἑαυτοὺς": 4706,
      "τυραν": 4707,
      "διώ": 4708,
      "ἑπτὰ": 4709,
      "μοί": 4710,
      "εὐερ": 4711,
      "##λια": 4712,
      "Αἰγύ": 4713,
      "κερ": 4714,
      "θερμὸν": 4715,
      "##έτω": 4716,
      "στοιχε": 4717,
      "##ριῶν": 4718,
      "εἴποι": 4719,
      "ἐγένετο": 4720,
      "θν": 4721,
      "καταστ": 4722,
      "ἐκεῖνοι": 4723,
      "ἐναντία": 4724,
      "οἷόν": 4725,
      "χάρ": 4726,
      "##μω": 4727,
      "##χθαι": 4728,
      "the": 4729,
      "σμικρ": 4730,
      "ἐπεί": 4731,
      "ποῦ": 4732,
      "μερῶν": 4733,
      "τοῦτʼ": 4734,
      "μία": 4735,
      "##ᾷς": 4736,
      "δυνάμεως": 4737,
      "δίκην": 4738,
      "##βος": 4739,
      "##ογ": 4740,
      "##λὴν": 4741,
      "##συ": 4742,
      "οἶδα": 4743,
      "συνέ": 4744,
      "εἰκό": 4745,
      "Πυ": 4746,
      "ἀσφαλ": 4747,
      "ἅπαντας": 4748,
      "πολέμου": 4749,
      "Μι": 4750,
      "##ρασμα": 4751,
      "##se": 4752,
      "ἀποκρ": 4753,
      "νυκτὸς": 4754,
      "πάσης": 4755,
      "σφοδρ": 4756,
      "##υται": 4757,
      "φυλακ": 4758,
      "ἀκα": 4759,
      "##σθέν": 4760,
      "μέγεθος": 4761,
      "##μενοϲ": 4762,
      "κέ": 4763,
      "ζωῆς": 4764,
      "ταπειν": 4765,
      "χρήματα": 4766,
      "βλά": 4767,
      "συμβεβηκὸς": 4768,
      "τελευ": 4769,
      "εἱ": 4770,
      "##σφ": 4771,
      "ὕδατι": 4772,
      "29": 4773,
      "28": 4774,
      "μεν": 4775,
      "##τός": 4776,
      "κυρί": 4777,
      "βάρ": 4778,
      "##λαβεῖν": 4779,
      "κεφαλῆς": 4780,
      "κατοικ": 4781,
      "πρω": 4782,
      "Κύριος": 4783,
      "δαί": 4784,
      "παῖς": 4785,
      "μικ": 4786,
      "Ἀθηναίων": 4787,
      "##βολὴν": 4788,
      "πέντε": 4789,
      "σκι": 4790,
      "ὑπα": 4791,
      "Φα": 4792,
      "συμφορ": 4793,
      "χειμῶν": 4794,
      "##ίς": 4795,
      "##τέρου": 4796,
      "εἴκο": 4797,
      "ἀπι": 4798,
      "οὐδαμ": 4799,
      "##ρης": 4800,
      "##μηρ": 4801,
      "##στῶν": 4802,
      "ἐπιφ": 4803,
      "ὀλίγον": 4804,
      "31": 4805,
      "##θεσθαι": 4806,
      "##άγων": 4807,
      "γ΄": 4808,
      "##σεσιν": 4809,
      "οὔτ": 4810,
      "πραγματε": 4811,
      "Κων": 4812,
      "##λαβεν": 4813,
      "##ήσειν": 4814,
      "##εσις": 4815,
      "##δεις": 4816,
      "Ἐπι": 4817,
      "##ιῶν": 4818,
      "##ίνεσθαι": 4819,
      "ξη": 4820,
      "σφυγ": 4821,
      "ἔγνω": 4822,
      "ἱδρ": 4823,
      "##πιν": 4824,
      "πράγματα": 4825,
      "τροπ": 4826,
      "##ρρω": 4827,
      "##βας": 4828,
      "##ίνεσθαι": 4829,
      "##τῆ": 4830,
      "πληγ": 4831,
      "Ἐκ": 4832,
      "##υϲ": 4833,
      "Βα": 4834,
      "τραχ": 4835,
      "πλησίον": 4836,
      "##θρον": 4837,
      "ἐπιβου": 4838,
      "ψυχῇ": 4839,
      "##μνη": 4840,
      "##ηθε": 4841,
      "##ωθεν": 4842,
      "σφί": 4843,
      "γραμμα": 4844,
      "τοῦδε": 4845,
      "τοσού": 4846,
      "κρί": 4847,
      "πόλιϲ": 4848,
      "πολλοῦ": 4849,
      "ποιεῖσθαι": 4850,
      "##γνώ": 4851,
      "##ύνεται": 4852,
      "ἔγρα": 4853,
      "##ανθ": 4854,
      "προκει": 4855,
      "οἶκον": 4856,
      "παῖδας": 4857,
      "##ττο": 4858,
      "##δρε": 4859,
      "τόδε": 4860,
      "σφό": 4861,
      "ἔσεσθαι": 4862,
      "ὤν": 4863,
      "κυρίως": 4864,
      "πολλὰς": 4865,
      "ἁπάντων": 4866,
      "ἔρχ": 4867,
      "##ηρε": 4868,
      "##γαγεν": 4869,
      "οἰκοδομ": 4870,
      "##ωτέρ": 4871,
      "ἀρχῇ": 4872,
      "πικρ": 4873,
      "πλή": 4874,
      "γυναικῶν": 4875,
      "ἀναι": 4876,
      "μέρη": 4877,
      "ἔσχα": 4878,
      "ἐπειδὰν": 4879,
      "ἠρε": 4880,
      "ἀνι": 4881,
      "ἔλεγον": 4882,
      "##μορ": 4883,
      "##κασιν": 4884,
      "##κοῖς": 4885,
      "διότι": 4886,
      "πάντως": 4887,
      "βασιλικ": 4888,
      "πολύ": 4889,
      "σκο": 4890,
      "##άλ": 4891,
      "λαλ": 4892,
      "##χθῆναι": 4893,
      "Ἀθηναί": 4894,
      "δῶ": 4895,
      "ἐχθ": 4896,
      "ὅν": 4897,
      "##μὰς": 4898,
      "οὔπω": 4899,
      "σωμάτων": 4900,
      "χάριν": 4901,
      "ἄμειν": 4902,
      "ἐπέ": 4903,
      "##τικὸς": 4904,
      "δ᾽": 4905,
      "ψεῦδος": 4906,
      "ὀφ": 4907,
      "##κολου": 4908,
      "πειρ": 4909,
      "##ίης": 4910,
      "##κτα": 4911,
      "ἐνεργείᾳ": 4912,
      "τοιούτων": 4913,
      "##γματα": 4914,
      "λέγουσιν": 4915,
      "ὀπ": 4916,
      "Πλάτων": 4917,
      "λόγοις": 4918,
      "γίνονται": 4919,
      "ἑνὶ": 4920,
      "##σιμον": 4921,
      "##σαμεν": 4922,
      "χρω": 4923,
      "χώρας": 4924,
      "##ότως": 4925,
      "##ere": 4926,
      "##ής": 4927,
      "##κιν": 4928,
      "##ελά": 4929,
      "ποιητικ": 4930,
      "αὑτὸν": 4931,
      "ἀλλήλοις": 4932,
      "πεπε": 4933,
      "δοκεῖν": 4934,
      "##σάμενος": 4935,
      "λογισμ": 4936,
      "##ρὰ": 4937,
      "##ρουν": 4938,
      "πατέρα": 4939,
      "νοῦ": 4940,
      "##έλ": 4941,
      "βίου": 4942,
      "ἀντικ": 4943,
      "στό": 4944,
      "ἐνα": 4945,
      "μάλα": 4946,
      "##ητὸν": 4947,
      "##άναι": 4948,
      "θαρ": 4949,
      "ὄχ": 4950,
      "##τὲ": 4951,
      "ἀνθρώπου": 4952,
      "##ῆλθον": 4953,
      "αἰτι": 4954,
      "##ήνη": 4955,
      "λεί": 4956,
      "ἔτυχ": 4957,
      "##οῦντι": 4958,
      "##ant": 4959,
      "ὁδὸν": 4960,
      "φανερὸν": 4961,
      "κινου": 4962,
      "##οειδ": 4963,
      "γενόμενος": 4964,
      "##όνα": 4965,
      "##δεικται": 4966,
      "σκην": 4967,
      "##σιῶν": 4968,
      "##δρομ": 4969,
      "##θρα": 4970,
      "##ξεων": 4971,
      "Καίσα": 4972,
      "εἰσε": 4973,
      "##δαί": 4974,
      "δεύτερον": 4975,
      "##ζυγ": 4976,
      "ἑορ": 4977,
      "σφόδρα": 4978,
      "32": 4979,
      "##κιον": 4980,
      "ἕτερος": 4981,
      "παῖδα": 4982,
      "##ίνων": 4983,
      "##ίζεσθαι": 4984,
      "ὑπαρχ": 4985,
      "##ότος": 4986,
      "πλείον": 4987,
      "τελευτα": 4988,
      "##ηθῆναι": 4989,
      "νομο": 4990,
      "##νος": 4991,
      "34": 4992,
      "##σκον": 4993,
      "πάθος": 4994,
      "μεγέ": 4995,
      "ἐναργ": 4996,
      "γένηται": 4997,
      "su": 4998,
      "##τέραν": 4999,
      "ἀλλοι": 5000,
      "ἀφʼ": 5001,
      "ὅπλ": 5002,
      "##πας": 5003,
      "ἄλληλα": 5004,
      "ξύ": 5005,
      "ἐλθεῖν": 5006,
      "ὕψ": 5007,
      "##ανοῦ": 5008,
      "##σίν": 5009,
      "##ήσαντες": 5010,
      "πρεσβε": 5011,
      "ἐλέγ": 5012,
      "Ἀπόλλων": 5013,
      "ἰατρ": 5014,
      "ἀρε": 5015,
      "##σιοι": 5016,
      "##υμον": 5017,
      "διαβ": 5018,
      "αἴσθησιν": 5019,
      "νεν": 5020,
      "##στημα": 5021,
      "Αἰγυπτ": 5022,
      "##ποδ": 5023,
      "μορφ": 5024,
      "##χῶς": 5025,
      "##ώμεθα": 5026,
      "##ψυχ": 5027,
      "δεύτερον": 5028,
      "πάλαι": 5029,
      "ὅλην": 5030,
      "διαλε": 5031,
      "##κω": 5032,
      "Σικελ": 5033,
      "φαρμά": 5034,
      "ἠν": 5035,
      "Οἱ": 5036,
      "##έντος": 5037,
      "##σεβε": 5038,
      "σπουδα": 5039,
      "##νην": 5040,
      "##εϲ": 5041,
      "τέκν": 5042,
      "ἄμεινον": 5043,
      "εἰκότως": 5044,
      "##μαρτ": 5045,
      "πηγ": 5046,
      "Ἰησοῦς": 5047,
      "##λὴ": 5048,
      "##θεσις": 5049,
      "ἔνδον": 5050,
      "καλεῖ": 5051,
      "ἕκαστα": 5052,
      "##ῶναι": 5053,
      "κεῖται": 5054,
      "##τὴν": 5055,
      "εἴδει": 5056,
      "ἰδοὺ": 5057,
      "##λεια": 5058,
      "##σεσι": 5059,
      "##αρχη": 5060,
      "##νῳ": 5061,
      "##οῦμαι": 5062,
      "συλλογι": 5063,
      "ὁμ": 5064,
      "ἀντί": 5065,
      "μισ": 5066,
      "μοχ": 5067,
      "παρέ": 5068,
      "Καρχη": 5069,
      "καθόλου": 5070,
      "χρημάτων": 5071,
      "##ρημα": 5072,
      "Λα": 5073,
      "ἀδυν": 5074,
      "Σι": 5075,
      "##κράτης": 5076,
      "νόμον": 5077,
      "φιλοσ": 5078,
      "##σαρ": 5079,
      "##σβ": 5080,
      "##μώ": 5081,
      "ἡμερῶν": 5082,
      "Σε": 5083,
      "χεί": 5084,
      "οὐρανὸν": 5085,
      "καθὸ": 5086,
      "##op": 5087,
      "##σοι": 5088,
      "ὑπάρχειν": 5089,
      "τοὐναντ": 5090,
      "Διονύ": 5091,
      "χρόνου": 5092,
      "##ληπ": 5093,
      "##ϲϲ": 5094,
      "Ἀριστοτέλης": 5095,
      "##ήματος": 5096,
      "##οῦναι": 5097,
      "##ίδα": 5098,
      "ἤκου": 5099,
      "##ῃρη": 5100,
      "##ροντα": 5101,
      "φάρ": 5102,
      "λόγων": 5103,
      "γινώ": 5104,
      "ἀναγκ": 5105,
      "τουτέστιν": 5106,
      "Ἀλεξάνδρ": 5107,
      "##νομα": 5108,
      "##δυ": 5109,
      "ἐνέργειαν": 5110,
      "##δὴ": 5111,
      "##λευσεν": 5112,
      "μηδʼ": 5113,
      "ἀδύνατον": 5114,
      "ἐπο": 5115,
      "ἀνελ": 5116,
      "##άβ": 5117,
      "##λαῖς": 5118,
      "ἔοικεν": 5119,
      "ἑαυτοῖς": 5120,
      "χρόνου": 5121,
      "II": 5122,
      "ἄστ": 5123,
      "##λέγ": 5124,
      "##δωκε": 5125,
      "νέ": 5126,
      "##ήκοντα": 5127,
      "ἔχοι": 5128,
      "εὐτυχ": 5129,
      "πεπον": 5130,
      "αὑτῶν": 5131,
      "κυρι": 5132,
      "δίκαιον": 5133,
      "##σίᾳ": 5134,
      "καλού": 5135,
      "ἀποφ": 5136,
      "σώματι": 5137,
      "ἔθνη": 5138,
      "##τεραι": 5139,
      "Θηβα": 5140,
      "##φους": 5141,
      "##ότων": 5142,
      "συμπέ": 5143,
      "αὑτῷ": 5144,
      "θάνατον": 5145,
      "##λεῖν": 5146,
      "βέλ": 5147,
      "ἱππ": 5148,
      "##θείς": 5149,
      "##ύει": 5150,
      "περί": 5151,
      "##πεδον": 5152,
      "ἐντ": 5153,
      "##παι": 5154,
      "##υβ": 5155,
      "##ρεφ": 5156,
      "ἔχω": 5157,
      "ἐναντίον": 5158,
      "##κασι": 5159,
      "##ίνης": 5160,
      "πάντας": 5161,
      "ἐκτε": 5162,
      "##ρετο": 5163,
      "πραγμάτων": 5164,
      "μιν": 5165,
      "νίκ": 5166,
      "ἐπιτε": 5167,
      "πτ": 5168,
      "##δαν": 5169,
      "δηλονότι": 5170,
      "##χεσθαι": 5171,
      "κου": 5172,
      "ὁμι": 5173,
      "Λυκ": 5174,
      "ἐκεῖθεν": 5175,
      "γίγνεται": 5176,
      "##τρέ": 5177,
      "φλεγ": 5178,
      "κύριον": 5179,
      "ἐκέλευ": 5180,
      "ἤρ": 5181,
      "δικαιοσύν": 5182,
      "##χετο": 5183,
      "##ρεως": 5184,
      "##μακον": 5185,
      "μόνος": 5186,
      "ὀνομάζ": 5187,
      "ἀλή": 5188,
      "##θέντες": 5189,
      "πολὺν": 5190,
      "γυνὴ": 5191,
      "ἔσονται": 5192,
      "##πεσθαι": 5193,
      "##αλιν": 5194,
      "##ίζεται": 5195,
      "##ρού": 5196,
      "ἀμφοῖν": 5197,
      "##ri": 5198,
      "χεῖρα": 5199,
      "##κείμενον": 5200,
      "ἃν": 5201,
      "διαπ": 5202,
      "##φο": 5203,
      "πολί": 5204,
      "φόν": 5205,
      "##πνο": 5206,
      "τετρα": 5207,
      "ΑΓ": 5208,
      "##ικὴ": 5209,
      "##ριν": 5210,
      "##ότερα": 5211,
      "##ci": 5212,
      "δεσμ": 5213,
      "γέγον": 5214,
      "νεαν": 5215,
      "σωμα": 5216,
      "##τοί": 5217,
      "##ούμενος": 5218,
      "ἐνί": 5219,
      "ἡμι": 5220,
      "οἷόν": 5221,
      "##ττης": 5222,
      "λόγους": 5223,
      "ἐστί": 5224,
      "##ωρισ": 5225,
      "##ίζων": 5226,
      "ἱερὸν": 5227,
      "##στησαν": 5228,
      "χρώ": 5229,
      "ἔχῃ": 5230,
      "ἀφαιρ": 5231,
      "##γειν": 5232,
      "λέγεις": 5233,
      "##ότερα": 5234,
      "##σσων": 5235,
      "βαδ": 5236,
      "ἀνδρε": 5237,
      "σπλ": 5238,
      "Ἀλ": 5239,
      "##ud": 5240,
      "ἔλεγε": 5241,
      "χρηστ": 5242,
      "##σίους": 5243,
      "λέγομεν": 5244,
      "ἀλλήλοις": 5245,
      "##ίνα": 5246,
      "ἀπολογ": 5247,
      "αὐτήν": 5248,
      "τούτους": 5249,
      "εἴδους": 5250,
      "σώματα": 5251,
      "ἀγγε": 5252,
      "##μένοι": 5253,
      "##κους": 5254,
      "##ημερ": 5255,
      "αὐτός": 5256,
      "βαλ": 5257,
      "παρθέν": 5258,
      "ἀνομ": 5259,
      "συνή": 5260,
      "βω": 5261,
      "##ϲτο": 5262,
      "##ήσατο": 5263,
      "κη": 5264,
      "ἑκάστου": 5265,
      "ἱκανῶς": 5266,
      "##ανὸς": 5267,
      "κρεί": 5268,
      "ἀκολουθ": 5269,
      "##ens": 5270,
      "Ἑλλην": 5271,
      "δύν": 5272,
      "ἀρκ": 5273,
      "Προ": 5274,
      "59": 5275,
      "##στερα": 5276,
      "μν": 5277,
      "ζώ": 5278,
      "##ίνετο": 5279,
      "ἀποδεί": 5280,
      "ὅλης": 5281,
      "##γρά": 5282,
      "Ἀφροδί": 5283,
      "Εὔ": 5284,
      "τὰϲ": 5285,
      "Κλε": 5286,
      "##χυ": 5287,
      "κατηγ": 5288,
      "##ter": 5289,
      "##ζεν": 5290,
      "οἴνου": 5291,
      "##λόγ": 5292,
      "πληθ": 5293,
      "##κέναι": 5294,
      "Μεν": 5295,
      "κώ": 5296,
      "##ώνου": 5297,
      "##ich": 5298,
      "καλλ": 5299,
      "Ἀρί": 5300,
      "εἰμι": 5301,
      "##τρας": 5302,
      "##έρος": 5303,
      "##θέντα": 5304,
      "##ώς": 5305,
      "πλείους": 5306,
      "δευτέρ": 5307,
      "##end": 5308,
      "ἀλγ": 5309,
      "ἐναντι": 5310,
      "##φασις": 5311,
      "##ωτέρ": 5312,
      "##ότητι": 5313,
      "ἔοικε": 5314,
      "##έρος": 5315,
      "γυναικὸς": 5316,
      "κᾀ": 5317,
      "φωνῆς": 5318,
      "ἡλίου": 5319,
      "πιθαν": 5320,
      "Πέρ": 5321,
      "παίδων": 5322,
      "προσέ": 5323,
      "πλείον": 5324,
      "##οιμ": 5325,
      "τρίτον": 5326,
      "σπέρ": 5327,
      "##πόν": 5328,
      "ποταμοῦ": 5329,
      "μέλλ": 5330,
      "Φί": 5331,
      "νύκ": 5332,
      "##ύει": 5333,
      "παῤ": 5334,
      "ὀλίγον": 5335,
      "##ρῶ": 5336,
      "##γωνον": 5337,
      "πλα": 5338,
      "##ροντες": 5339,
      "##τικῇ": 5340,
      "μηχαν": 5341,
      "οὐδέ": 5342,
      "##λειον": 5343,
      "##βαλεῖν": 5344,
      "35": 5345,
      "στρατε": 5346,
      "##τρῳ": 5347,
      "ἐτε": 5348,
      "ΒΓ": 5349,
      "ζῶ": 5350,
      "##ωργ": 5351,
      "##δῃ": 5352,
      "ἀρτηρ": 5353,
      "ὅμοια": 5354,
      "ἐννο": 5355,
      "φασὶ": 5356,
      "ὁρᾶν": 5357,
      "πότερον": 5358,
      "ἕνεκεν": 5359,
      "ἔσ": 5360,
      "##ικὰ": 5361,
      "Ὀλυμ": 5362,
      "##φροσύν": 5363,
      "ἡγεμόν": 5364,
      "προφή": 5365,
      "##άζεται": 5366,
      "ἑρμην": 5367,
      "##ανε": 5368,
      "διέ": 5369,
      "##εῖος": 5370,
      "Νε": 5371,
      "μέγα": 5372,
      "κύριος": 5373,
      "αὐχ": 5374,
      "ἕξει": 5375,
      "##φεται": 5376,
      "διορ": 5377,
      "ἀποτε": 5378,
      "##ότης": 5379,
      "προσή": 5380,
      "πρεσβυτ": 5381,
      "##λλη": 5382,
      "ἐρε": 5383,
      "ἑξ": 5384,
      "##φημ": 5385,
      "φρου": 5386,
      "##τριβ": 5387,
      "ἐζ": 5388,
      "##βαρ": 5389,
      "##δωσιν": 5390,
      "##κιστα": 5391,
      "##έχει": 5392,
      "ἐλλ": 5393,
      "ἐνια": 5394,
      "αὔξ": 5395,
      "ὄντως": 5396,
      "τιμωρ": 5397,
      "δημ": 5398,
      "##χεί": 5399,
      "##θεῖσα": 5400,
      "φρά": 5401,
      "ἥλιον": 5402,
      "ἐπει": 5403,
      "αἰτίας": 5404,
      "πλαν": 5405,
      "πάσης": 5406,
      "στρατο": 5407,
      "##ιγ": 5408,
      "##πή": 5409,
      "##ππος": 5410,
      "##στατον": 5411,
      "ὡρισ": 5412,
      "Βαβ": 5413,
      "ἴσχ": 5414,
      "##γετο": 5415,
      "##τὶ": 5416,
      "μνή": 5417,
      "προθυμ": 5418,
      "##υον": 5419,
      "##ra": 5420,
      "##δωσι": 5421,
      "μυρί": 5422,
      "##χῶν": 5423,
      "##ίϲ": 5424,
      "τινῶν": 5425,
      "δεσπό": 5426,
      "##ίζει": 5427,
      "πόλιν": 5428,
      "##θαγ": 5429,
      "εὑρεῖν": 5430,
      "##ελθὼν": 5431,
      "##ίνου": 5432,
      "φίλων": 5433,
      "##ένα": 5434,
      "ἐρω": 5435,
      "##εῖτε": 5436,
      "##ύων": 5437,
      "##σκεται": 5438,
      "##δίως": 5439,
      "κυρίου": 5440,
      "##υσε": 5441,
      "ἀποδε": 5442,
      "γεννα": 5443,
      "Ὅμηρ": 5444,
      "##πιον": 5445,
      "οἰκου": 5446,
      "##καί": 5447,
      "δοξ": 5448,
      "##νατο": 5449,
      "συμπέρασμα": 5450,
      "γένοιτο": 5451,
      "##σθησις": 5452,
      "##ότων": 5453,
      "##θοι": 5454,
      "οἰκεῖον": 5455,
      "##ῶντες": 5456,
      "##ήθη": 5457,
      "##γαγε": 5458,
      "##ούσας": 5459,
      "ἐγγὺς": 5460,
      "ποδῶν": 5461,
      "πάθος": 5462,
      "##ουϲ": 5463,
      "##ίζει": 5464,
      "γένηται": 5465,
      "##ύσας": 5466,
      "διαρ": 5467,
      "Ἀντί": 5468,
      "ὑφʼ": 5469,
      "##ύτως": 5470,
      "την": 5471,
      "παντελῶς": 5472,
      "##σθησαν": 5473,
      "πεσ": 5474,
      "πανταχοῦ": 5475,
      "##τρό": 5476,
      "ἐπ᾿": 5477,
      "##ηκο": 5478,
      "αὐτίκα": 5479,
      "προβ": 5480,
      "παῖδες": 5481,
      "##ίβ": 5482,
      "ναῦς": 5483,
      "ἅπαξ": 5484,
      "##ησον": 5485,
      "πεντα": 5486,
      "πυθ": 5487,
      "Πελο": 5488,
      "δύνασθαι": 5489,
      "ἅπαντες": 5490,
      "σημεῖα": 5491,
      "##δοι": 5492,
      "ΑΒΓ": 5493,
      "##λασσαν": 5494,
      "Χρ": 5495,
      "##ώνων": 5496,
      "δόξαν": 5497,
      "εὐαγγε": 5498,
      "##ρως": 5499,
      "##ξον": 5500,
      "πεπερασ": 5501,
      "τούς": 5502,
      "ἑκάστου": 5503,
      "σάρ": 5504,
      "κύκλου": 5505,
      "##ῆλθε": 5506,
      "στοιχεῖα": 5507,
      "##τῷ": 5508,
      "##μονος": 5509,
      "Κωνσταν": 5510,
      "ἕπεται": 5511,
      "##έλλ": 5512,
      "##ήσω": 5513,
      "προνο": 5514,
      "##ότητι": 5515,
      "Θεὸν": 5516,
      "γέγονεν": 5517,
      "ἐξέ": 5518,
      "δρά": 5519,
      "πέν": 5520,
      "##μένας": 5521,
      "##φῶν": 5522,
      "##όθεν": 5523,
      "Ἀπ": 5524,
      "φυλά": 5525,
      "Σωκρά": 5526,
      "λοιπο": 5527,
      "ἔρω": 5528,
      "##λέους": 5529,
      "##ριοι": 5530,
      "##κνα": 5531,
      "ἀλλ̓": 5532,
      "Ἐπε": 5533,
      "γεω": 5534,
      "ἀγαθοῦ": 5535,
      "ἀμφοτέρ": 5536,
      "κυκ": 5537,
      "##μαθ": 5538,
      "αἰτίας": 5539,
      "πολλῆς": 5540,
      "στέ": 5541,
      "##λαμβαν": 5542,
      "γνώμην": 5543,
      "ἀναβ": 5544,
      "##κουν": 5545,
      "ἔμελλ": 5546,
      "τύ": 5547,
      "ἠρεμ": 5548,
      "εὗ": 5549,
      "##ήσομαι": 5550,
      "στρατιώ": 5551,
      "Πυθαγ": 5552,
      "ἐνν": 5553,
      "σημαιν": 5554,
      "ὄγκ": 5555,
      "##ῆνα": 5556,
      "μία": 5557,
      "##ομένῳ": 5558,
      "ἀσεβ": 5559,
      "##ρί": 5560,
      "##μοί": 5561,
      "ῥίζ": 5562,
      "ποιῶν": 5563,
      "οὐδέν": 5564,
      "σέ": 5565,
      "ὅπλα": 5566,
      "τουτέστιν": 5567,
      "κοσμ": 5568,
      "##πά": 5569,
      "##κομ": 5570,
      "Χριστὸν": 5571,
      "##ριστι": 5572,
      "λέγουσι": 5573,
      "ναυ": 5574,
      "##γαρ": 5575,
      "Παῦ": 5576,
      "μέρους": 5577,
      "Od": 5578,
      "μόρια": 5579,
      "τερ": 5580,
      "##ότατον": 5581,
      "##λοκ": 5582,
      "δύναμις": 5583,
      "##ξάμενος": 5584,
      "##ουσῶν": 5585,
      "περιεχ": 5586,
      "αἰσθη": 5587,
      "ἐκείνῳ": 5588,
      "αἴσθησις": 5589,
      "##οδος": 5590,
      "Μωυσ": 5591,
      "μυρ": 5592,
      "πω": 5593,
      "τίνα": 5594,
      "ὄψ": 5595,
      "ἔχοντος": 5596,
      "φησί": 5597,
      "εἰκότως": 5598,
      "##ριε": 5599,
      "##υτῶν": 5600,
      "ἀφί": 5601,
      "##τριον": 5602,
      "##δὲ": 5603,
      "παραπλη": 5604,
      "Ῥωμαῖοι": 5605,
      "βλά": 5606,
      "αἷς": 5607,
      "##ασιν": 5608,
      "ἁρμον": 5609,
      "μηδενὸς": 5610,
      "##ῄει": 5611,
      "Ποσει": 5612,
      "##μόν": 5613,
      "δού": 5614,
      "συγχωρ": 5615,
      "##ῖσι": 5616,
      "##ώδη": 5617,
      "##μερον": 5618,
      "μί": 5619,
      "ἅπασι": 5620,
      "κωλύ": 5621,
      "αἶ": 5622,
      "##νοιαν": 5623,
      "βούλεται": 5624,
      "γένεσιν": 5625,
      "##θέσεως": 5626,
      "##τικόν": 5627,
      "##ϲιϲ": 5628,
      "40": 5629,
      "ὄρος": 5630,
      "συμβου": 5631,
      "##ιϲ": 5632,
      "Πά": 5633,
      "Ταῦτα": 5634,
      "##άζει": 5635,
      "##στηκ": 5636,
      "ἀναλογ": 5637,
      "αἰχμα": 5638,
      "διαί": 5639,
      "μεγέ": 5640,
      "οἰκονομ": 5641,
      "Ἀλλὰ": 5642,
      "περικ": 5643,
      "##τησεν": 5644,
      "##ομένας": 5645,
      "Δα": 5646,
      "Πομ": 5647,
      "πάνυ": 5648,
      "χά": 5649,
      "ἀσκ": 5650,
      "##κὼς": 5651,
      "##όδου": 5652,
      "εἰδέναι": 5653,
      "ἀρχιερ": 5654,
      "καταφρον": 5655,
      "ἐστί": 5656,
      "##για": 5657,
      "Ζεὺς": 5658,
      "##λοϲ": 5659,
      "σπε": 5660,
      "φύσις": 5661,
      "τόπῳ": 5662,
      "ὄψιν": 5663,
      "##ρησιν": 5664,
      "τοῦτό": 5665,
      "πᾶσαι": 5666,
      "χρόνος": 5667,
      "##δοϲ": 5668,
      "ἐλέγ": 5669,
      "##πτεσθαι": 5670,
      "##ομά": 5671,
      "μέγιστον": 5672,
      "##βων": 5673,
      "ὅρα": 5674,
      "##ῆρα": 5675,
      "τηρ": 5676,
      "Χριστὸς": 5677,
      "ἀπαι": 5678,
      "οἶνον": 5679,
      "δέν": 5680,
      "εἶναί": 5681,
      "συνά": 5682,
      "##ήματος": 5683,
      "##ίζεσθαι": 5684,
      "ὑδ": 5685,
      "μηδενὶ": 5686,
      "μοχθη": 5687,
      "ἑλκ": 5688,
      "##θηκε": 5689,
      "λοιπῶν": 5690,
      "ἀρί": 5691,
      "ἔθος": 5692,
      "##λέα": 5693,
      "##ύνης": 5694,
      "Ὅμηρος": 5695,
      "##θετον": 5696,
      "εἰρημένων": 5697,
      "ἄλλης": 5698,
      "κινδυν": 5699,
      "μορίων": 5700,
      "An": 5701,
      "Δία": 5702,
      "ῥᾴ": 5703,
      "ταύτας": 5704,
      "ὡσαύτως": 5705,
      "##ώτατον": 5706,
      "##σθʼ": 5707,
      "##τησιν": 5708,
      "ἐναντίων": 5709,
      "προσώ": 5710,
      "##χρη": 5711,
      "##θυ": 5712,
      "ὁρμ": 5713,
      "##άγει": 5714,
      "ὑπάρχει": 5715,
      "##ώνιον": 5716,
      "οὐσίας": 5717,
      "ιβ": 5718,
      "##έβ": 5719,
      "εἶεν": 5720,
      "εὑρε": 5721,
      "προσι": 5722,
      "ἔτε": 5723,
      "##όπ": 5724,
      "ἔσω": 5725,
      "ἥλιος": 5726,
      "##υτῷ": 5727,
      "ἄγγε": 5728,
      "περιφερ": 5729,
      "##le": 5730,
      "καθὼς": 5731,
      "διεξ": 5732,
      "##γματος": 5733,
      "##hr": 5734,
      "πειθ": 5735,
      "ὥστʼ": 5736,
      "ἐχρῆν": 5737,
      "ἐδε": 5738,
      "σιωπ": 5739,
      "ὀχ": 5740,
      "γυναῖκας": 5741,
      "πελ": 5742,
      "##κύ": 5743,
      "πολεμίους": 5744,
      "ver": 5745,
      "καταλιπ": 5746,
      "ἰδὼν": 5747,
      "##άβ": 5748,
      "##λαβον": 5749,
      "##όμεναι": 5750,
      "υἱοῦ": 5751,
      "37": 5752,
      "##ίς": 5753,
      "ποιή": 5754,
      "ὣς": 5755,
      "##αινε": 5756,
      "Βοι": 5757,
      "ἁλ": 5758,
      "##θηκεν": 5759,
      "##σία": 5760,
      "συμβαίνει": 5761,
      "##άσαι": 5762,
      "σκέ": 5763,
      "ἑκατέρ": 5764,
      "πράττειν": 5765,
      "παθη": 5766,
      "##ρεσις": 5767,
      "οὐδαμῶς": 5768,
      "μάρ": 5769,
      "##πτι": 5770,
      "καν": 5771,
      "ἄρτι": 5772,
      "μέλαν": 5773,
      "##άνων": 5774,
      "πρεσβύ": 5775,
      "προϊ": 5776,
      "ἑκάστῳ": 5777,
      "ἠγ": 5778,
      "ὥρ": 5779,
      "##πεμψ": 5780,
      "##ρησαν": 5781,
      "γεωργ": 5782,
      "σκό": 5783,
      "πολιορκ": 5784,
      "qui": 5785,
      "τροφὴν": 5786,
      "##όμην": 5787,
      "φρόν": 5788,
      "Ἀμφ": 5789,
      "##τὸ": 5790,
      "##έντα": 5791,
      "##τραν": 5792,
      "ἐποίησεν": 5793,
      "ὑστ": 5794,
      "ἐλάττον": 5795,
      "πτερ": 5796,
      "πασῶν": 5797,
      "κεί": 5798,
      "δὶς": 5799,
      "φθαρ": 5800,
      "Λυ": 5801,
      "μέλι": 5802,
      "τᾶς": 5803,
      "ἐάν": 5804,
      "##μπει": 5805,
      "##φθη": 5806,
      "##μένως": 5807,
      "ποιησ": 5808,
      "##ήσῃ": 5809,
      "εὐεργε": 5810,
      "παθῶν": 5811,
      "μάχην": 5812,
      "##ξαντες": 5813,
      "πλεῖστα": 5814,
      "φαῦ": 5815,
      "##φό": 5816,
      "τὰν": 5817,
      "Δαυ": 5818,
      "##φθαι": 5819,
      "##ῆσιν": 5820,
      "##ριστα": 5821,
      "Μαρ": 5822,
      "μύ": 5823,
      "##ικοῖς": 5824,
      "δεῖται": 5825,
      "γένους": 5826,
      "ὑγρὸν": 5827,
      "ζητεῖν": 5828,
      "κοιλ": 5829,
      "χωρίον": 5830,
      "κἄν": 5831,
      "##ππου": 5832,
      "παραδ": 5833,
      "##φθαρ": 5834,
      "λάβ": 5835,
      "##τ᾿": 5836,
      "τοῦτό": 5837,
      "ἀπη": 5838,
      "τρυφ": 5839,
      "##έχειν": 5840,
      "τῇδε": 5841,
      "36": 5842,
      "##σχεῖν": 5843,
      "βασιλ": 5844,
      "##ρό": 5845,
      "##τρος": 5846,
      "##ττεσθαι": 5847,
      "λέγοντες": 5848,
      "φωνὴν": 5849,
      "γά": 5850,
      "ὀψ": 5851,
      "##δύ": 5852,
      "ζῷα": 5853,
      "δοῦναι": 5854,
      "##ληλυθ": 5855,
      "φλεγμον": 5856,
      "μοῖ": 5857,
      "##πτων": 5858,
      "##καῖς": 5859,
      "ἀποβ": 5860,
      "ἑω": 5861,
      "##ξομεν": 5862,
      "##θρωπ": 5863,
      "λοιπὰ": 5864,
      "σώματα": 5865,
      "non": 5866,
      "Κυρίου": 5867,
      "βια": 5868,
      "Ἐπεὶ": 5869,
      "ἀπαγ": 5870,
      "προστι": 5871,
      "μητρ": 5872,
      "εἴκοσι": 5873,
      "41": 5874,
      "ἔχοντας": 5875,
      "##ύναι": 5876,
      "##ρησεν": 5877,
      "##έρειν": 5878,
      "κινδύν": 5879,
      "##βεβλη": 5880,
      "ὥϲ": 5881,
      "κατορθ": 5882,
      "Οἰ": 5883,
      "φον": 5884,
      "ἥκιστα": 5885,
      "σκέ": 5886,
      "τυφ": 5887,
      "τἄ": 5888,
      "##τού": 5889,
      "παροξ": 5890,
      "ὄργ": 5891,
      "ῥηθ": 5892,
      "τρέ": 5893,
      "Ἀμ": 5894,
      "##δειξιν": 5895,
      "τήν": 5896,
      "συνά": 5897,
      "οὐσίαν": 5898,
      "##ανται": 5899,
      "##ύμφ": 5900,
      "##πομεν": 5901,
      "ἄρρεν": 5902,
      "ἡμέρᾳ": 5903,
      "πλείω": 5904,
      "##λίους": 5905,
      "δυοῖν": 5906,
      "κύκ": 5907,
      "γο": 5908,
      "##ζόμενος": 5909,
      "Θεῷ": 5910,
      "##θείη": 5911,
      "er": 5912,
      "##ότες": 5913,
      "##έχεσθαι": 5914,
      "θαλάσ": 5915,
      "ἀνατο": 5916,
      "ἀληθιν": 5917,
      "##λαμ": 5918,
      "οὕτωϲ": 5919,
      "##θείη": 5920,
      "##φορα": 5921,
      "Καρ": 5922,
      "ἥμι": 5923,
      "##ius": 5924,
      "πολλαχ": 5925,
      "##κειτο": 5926,
      "γέγονεν": 5927,
      "##20": 5928,
      "θῆ": 5929,
      "Ἀδ": 5930,
      "ποί": 5931,
      "πεφυκ": 5932,
      "μείζων": 5933,
      "πεί": 5934,
      "σπον": 5935,
      "εὑρί": 5936,
      "##σθα": 5937,
      "ποικί": 5938,
      "θανάτου": 5939,
      "ποιεῖται": 5940,
      "##τερόν": 5941,
      "##δυνον": 5942,
      "##ύτη": 5943,
      "ἐπαγγε": 5944,
      "##στρε": 5945,
      "##γεγραμ": 5946,
      "τραγ": 5947,
      "##ΑΙ": 5948,
      "διττ": 5949,
      "##ύα": 5950,
      "ἀκου": 5951,
      "οἴνῳ": 5952,
      "##orum": 5953,
      "εἰσα": 5954,
      "θεός": 5955,
      "τοιαύτην": 5956,
      "##έτω": 5957,
      "ἑκατὸν": 5958,
      "##γαθ": 5959,
      "τεταγ": 5960,
      "κερα": 5961,
      "ἀγαθόν": 5962,
      "μιᾷ": 5963,
      "θαυμαστ": 5964,
      "συστ": 5965,
      "Οὐκ": 5966,
      "##ήματι": 5967,
      "τολμ": 5968,
      "τίνα": 5969,
      "##ρίῳ": 5970,
      "βούλεται": 5971,
      "τόδε": 5972,
      "##ύρ": 5973,
      "##νες": 5974,
      "Ἰακ": 5975,
      "##ta": 5976,
      "εὐν": 5977,
      "εἶναί": 5978,
      "φαμεν": 5979,
      "φιλαν": 5980,
      "πλεονε": 5981,
      "μεγίστ": 5982,
      "##χιστα": 5983,
      "##ίῃ": 5984,
      "##βό": 5985,
      "##έσεως": 5986,
      "μεγαλο": 5987,
      "θᾶ": 5988,
      "ξὺν": 5989,
      "##ρχος": 5990,
      "##δοχ": 5991,
      "συζυγ": 5992,
      "πιστ": 5993,
      "οὐρ": 5994,
      "μόριον": 5995,
      "ἀεί": 5996,
      "##ώδη": 5997,
      "παρει": 5998,
      "τόπος": 5999,
      "αἴτια": 6000,
      "Πέ": 6001,
      "##άμην": 6002,
      "##ηνε": 6003,
      "θεωρη": 6004,
      "κόλ": 6005,
      "##ουμένων": 6006,
      "τῶ": 6007,
      "παθεῖν": 6008,
      "σί": 6009,
      "##διος": 6010,
      "ὑπέ": 6011,
      "##πασιν": 6012,
      "σωτη": 6013,
      "ταὐτὰ": 6014,
      "ἐξελ": 6015,
      "τριγ": 6016,
      "##υμάτων": 6017,
      "στόμα": 6018,
      "ὑπῆ": 6019,
      "##άκ": 6020,
      "##έντος": 6021,
      "μετέ": 6022,
      "δύνασθαι": 6023,
      "##pp": 6024,
      "##τουργ": 6025,
      "τόν": 6026,
      "γλῶ": 6027,
      "κινούμενον": 6028,
      "##ίνῳ": 6029,
      "κακὰ": 6030,
      "ὄρν": 6031,
      "ἐδί": 6032,
      "κύκλῳ": 6033,
      "πνευμα": 6034,
      "##αντο": 6035,
      "σημαίνει": 6036,
      "προσδοκ": 6037,
      "ἀπλῶς": 6038,
      "ἑαυτῆς": 6039,
      "σημαίνει": 6040,
      "##ροσ": 6041,
      "σωμάτων": 6042,
      "ἀριθμῷ": 6043,
      "ῥα": 6044,
      "ἀνδρά": 6045,
      "βουλόμενος": 6046,
      "καταφ": 6047,
      "γενομένης": 6048,
      "##υζ": 6049,
      "δορ": 6050,
      "##γοντες": 6051,
      "##λίῳ": 6052,
      "##ούντων": 6053,
      "γνῶσιν": 6054,
      "38": 6055,
      "νήσ": 6056,
      "##ότες": 6057,
      "##σμοῦ": 6058,
      "56": 6059,
      "##κοι": 6060,
      "νόμον": 6061,
      "Αἴγ": 6062,
      "##στασις": 6063,
      "καλῶν": 6064,
      "πάθη": 6065,
      "##enti": 6066,
      "ποτὶ": 6067,
      "τρίτον": 6068,
      "συμβαίνει": 6069,
      "##οτά": 6070,
      "##ίνῃ": 6071,
      "##ήγ": 6072,
      "μητρὸς": 6073,
      "##άγειν": 6074,
      "ἔχομεν": 6075,
      "τυγχάν": 6076,
      "Θρ": 6077,
      "ἑτέρου": 6078,
      "##τικόν": 6079,
      "##ώδε": 6080,
      "##υτοῦ": 6081,
      "##ᾶτο": 6082,
      "μεθʼ": 6083,
      "συμμαχ": 6084,
      "οἶδεν": 6085,
      "##άζεσθαι": 6086,
      "διαφέρει": 6087,
      "θηρ": 6088,
      "##ῇς": 6089,
      "μελλ": 6090,
      "##στό": 6091,
      "εἰδὼς": 6092,
      "Πτο": 6093,
      "πεῖ": 6094,
      "Συρα": 6095,
      "νόμους": 6096,
      "ἐδόκει": 6097,
      "##πλασ": 6098,
      "##ag": 6099,
      "παραν": 6100,
      "ἀγαθὰ": 6101,
      "πότερον": 6102,
      "ἐπινο": 6103,
      "ἡδονῆς": 6104,
      "##οκ": 6105,
      "μῦ": 6106,
      "##πτεται": 6107,
      "##θῳ": 6108,
      "ἀφελ": 6109,
      "μαθεῖν": 6110,
      "λέγοντες": 6111,
      "Καλλ": 6112,
      "##λεμα": 6113,
      "ἐτῶν": 6114,
      "πλά": 6115,
      "##λμα": 6116,
      "39": 6117,
      "γυμνα": 6118,
      "##έχεσθαι": 6119,
      "σώματι": 6120,
      "ut": 6121,
      "##τικοῖς": 6122,
      "ἐρα": 6123,
      "τριά": 6124,
      "ἦλθεν": 6125,
      "βρο": 6126,
      "##κού": 6127,
      "ἀριθμὸς": 6128,
      "##βαλὼν": 6129,
      "se": 6130,
      "##δίων": 6131,
      "##per": 6132,
      "##ίζεται": 6133,
      "ἡμέραν": 6134,
      "##ριστιαν": 6135,
      "##τὴς": 6136,
      "πεπονθ": 6137,
      "ἥμισυ": 6138,
      "βορ": 6139,
      "##σά": 6140,
      "##εῖαι": 6141,
      "αἰδ": 6142,
      "ἐκείνοις": 6143,
      "##γχ": 6144,
      "##ήσατο": 6145,
      "##ίβ": 6146,
      "ἀπώ": 6147,
      "Χαλ": 6148,
      "##ωγε": 6149,
      "γενέσεως": 6150,
      "##λαβε": 6151,
      "δωρε": 6152,
      "γνῶ": 6153,
      "νυνὶ": 6154,
      "τῷδε": 6155,
      "es": 6156,
      "ἥν": 6157,
      "πλεῖον": 6158,
      "πέμπ": 6159,
      "##θείσης": 6160,
      "##ύνην": 6161,
      "τοὔνομα": 6162,
      "Πτολεμα": 6163,
      "##ήλ": 6164,
      "##ώδης": 6165,
      "οἰκει": 6166,
      "Βαβυ": 6167,
      "##ist": 6168,
      "ὀκτ": 6169,
      "παραγ": 6170,
      "πρακ": 6171,
      "συμπερ": 6172,
      "##ήσομεν": 6173,
      "##υπτον": 6174,
      "##εῖσαν": 6175,
      "##άζει": 6176,
      "πλο": 6177,
      "πλού": 6178,
      "Ἀβρα": 6179,
      "##θησιν": 6180,
      "##δειγμα": 6181,
      "φρ": 6182,
      "εὐπ": 6183,
      "ἀληθείας": 6184,
      "σκευ": 6185,
      "##δειν": 6186,
      "##ζων": 6187,
      "παθ": 6188,
      "καιρῷ": 6189,
      "προφητε": 6190,
      "##μετρος": 6191,
      "##λλος": 6192,
      "ὑγια": 6193,
      "σχήματι": 6194,
      "##ώτα": 6195,
      "ποταμὸν": 6196,
      "Πατ": 6197,
      "μέλλον": 6198,
      "διαφερ": 6199,
      "ληφθ": 6200,
      "ἀντε": 6201,
      "θεοὶ": 6202,
      "στι": 6203,
      "ζωὴν": 6204,
      "λῃ": 6205,
      "ἆρ": 6206,
      "##λυκ": 6207,
      "##ΟΣ": 6208,
      "υἱοὶ": 6209,
      "ἁφ": 6210,
      "##πλε": 6211,
      "εἴς": 6212,
      "ἀθαν": 6213,
      "##ξαντο": 6214,
      "γένους": 6215,
      "πονη": 6216,
      "ἀντα": 6217,
      "ἐξι": 6218,
      "παραχρ": 6219,
      "χειρὸς": 6220,
      "ἔθνος": 6221,
      "δρό": 6222,
      "ὑβ": 6223,
      "ὑποκείμενον": 6224,
      "##ύντων": 6225,
      "ταύτας": 6226,
      "τεσσα": 6227,
      "ἐλέ": 6228,
      "##στοῦ": 6229,
      "##ρονομ": 6230,
      "##νεγκ": 6231,
      "##χθω": 6232,
      "βαρβάρ": 6233,
      "χυλ": 6234,
      "παρ᾿": 6235,
      "Ἀριστοτέ": 6236,
      "ἀέρος": 6237,
      "ἔνθεν": 6238,
      "πρώτῳ": 6239,
      "##άζεται": 6240,
      "ἐναντίον": 6241,
      "πόλεων": 6242,
      "μοίρας": 6243,
      "om": 6244,
      "##ίκα": 6245,
      "##σταλ": 6246,
      "ΕΖ": 6247,
      "##ύσ": 6248,
      "γυναῖκες": 6249,
      "##ϲαϲ": 6250,
      "διό": 6251,
      "τείχ": 6252,
      "ὑπάρχον": 6253,
      "πέρας": 6254,
      "##ίμων": 6255,
      "διο": 6256,
      "ταραχ": 6257,
      "##κρυ": 6258,
      "##μνον": 6259,
      "Μη": 6260,
      "##ήσαντος": 6261,
      "##φυρ": 6262,
      "περιφέρ": 6263,
      "ἀὴρ": 6264,
      "ἐκά": 6265,
      "τοιαῦ": 6266,
      "##στικὸν": 6267,
      "##πυ": 6268,
      "##ρατα": 6269,
      "ἀνδρὶ": 6270,
      "συλλαβ": 6271,
      "περιπα": 6272,
      "Να": 6273,
      "##μʼ": 6274,
      "ὑποστ": 6275,
      "##ίδα": 6276,
      "##ερχ": 6277,
      "ῥᾳδίως": 6278,
      "δυστ": 6279,
      "πατρὶ": 6280,
      "ὀλίγ": 6281,
      "ἔχεις": 6282,
      "ἰδέ": 6283,
      "κόσμον": 6284,
      "ἑταί": 6285,
      "κινεῖ": 6286,
      "##φέρον": 6287,
      "κρά": 6288,
      "Περσῶν": 6289,
      "συνεχῶς": 6290,
      "ἀνάγκης": 6291,
      "##βάλλον": 6292,
      "γίγνεσθαι": 6293,
      "ὁπό": 6294,
      "μικρὰ": 6295,
      "ἔϲτι": 6296,
      "δυνάμεις": 6297,
      "##σμο": 6298,
      "##έος": 6299,
      "γεγονέναι": 6300,
      "Φίλιπ": 6301,
      "νὴ": 6302,
      "##σην": 6303,
      "λεχθ": 6304,
      "σχολ": 6305,
      "πυρε": 6306,
      "τιμῆς": 6307,
      "κοινῇ": 6308,
      "δριμ": 6309,
      "##ώσει": 6310,
      "##έστερον": 6311,
      "παρουσ": 6312,
      "τεθν": 6313,
      "αἰσθητῶν": 6314,
      "διαφορὰν": 6315,
      "ἕλκ": 6316,
      "ὡμο": 6317,
      "##σσῃ": 6318,
      "Ἑβρα": 6319,
      "Δημοσθέν": 6320,
      "##ώμενος": 6321,
      "κολα": 6322,
      "βραχὺ": 6323,
      "##μὴ": 6324,
      "##ερε": 6325,
      "ἐνι": 6326,
      "δυσχ": 6327,
      "##γόν": 6328,
      "##κλει": 6329,
      "##ᾷν": 6330,
      "##εσθε": 6331,
      "Ἰωάν": 6332,
      "νόμος": 6333,
      "πώ": 6334,
      "##μια": 6335,
      "σφι": 6336,
      "##λθὼν": 6337,
      "θή": 6338,
      "λελ": 6339,
      "ἔπα": 6340,
      "ἀνθρώποις": 6341,
      "ἁρμό": 6342,
      "τοιαύτη": 6343,
      "##ροῖ": 6344,
      "ἀντικει": 6345,
      "παιδὸς": 6346,
      "πάσας": 6347,
      "δικαίως": 6348,
      "διδασκ": 6349,
      "ἑβδομ": 6350,
      "τεῖ": 6351,
      "ἤν": 6352,
      "##αντες": 6353,
      "εἰδῶν": 6354,
      "Ξεν": 6355,
      "##οιτ": 6356,
      "λαμβαν": 6357,
      "φημ": 6358,
      "ἅρ": 6359,
      "##ίσας": 6360,
      "##δίον": 6361,
      "##ητος": 6362,
      "##ηθεὶς": 6363,
      "εἰδό": 6364,
      "κύκλος": 6365,
      "##ϲεωϲ": 6366,
      "διαφέρει": 6367,
      "τάχα": 6368,
      "τεθ": 6369,
      "Ar": 6370,
      "##πλά": 6371,
      "δείκνυσιν": 6372,
      "##άντες": 6373,
      "ὑμε": 6374,
      "ἐπαγ": 6375,
      "ἔγωγε": 6376,
      "Κά": 6377,
      "##λοντο": 6378,
      "ἐφα": 6379,
      "##άρων": 6380,
      "ἐχόντων": 6381,
      "φίλον": 6382,
      "##ωμ": 6383,
      "##τασιν": 6384,
      "χρῶμα": 6385,
      "πόν": 6386,
      "ὀγ": 6387,
      "##σαί": 6388,
      "Τε": 6389,
      "ἑαυτὴν": 6390,
      "διακρ": 6391,
      "42": 6392,
      "φίλους": 6393,
      "ἀλή": 6394,
      "##θήσεται": 6395,
      "ἀλλά": 6396,
      "##θέντος": 6397,
      "##ικόν": 6398,
      "##αλον": 6399,
      "ἑτέρου": 6400,
      "πνεύματος": 6401,
      "παραχρῆμα": 6402,
      "Ἀγαμέ": 6403,
      "ἐστε": 6404,
      "##ώρα": 6405,
      "τρια": 6406,
      "##φρων": 6407,
      "##πλή": 6408,
      "##λοὺς": 6409,
      "ἐνίοτε": 6410,
      "##θεια": 6411,
      "σαρκὸς": 6412,
      "μεταβά": 6413,
      "λαμπρ": 6414,
      "ἰατρικ": 6415,
      "προσκυν": 6416,
      "θαλάσσης": 6417,
      "##ίνω": 6418,
      "##έρους": 6419,
      "##έργει": 6420,
      "##πως": 6421,
      "##κῃ": 6422,
      "##τῆς": 6423,
      "συμμά": 6424,
      "πολέ": 6425,
      "ἄλλοτε": 6426,
      "ἐμέ": 6427,
      "ἱππέ": 6428,
      "φοβερ": 6429,
      "ψυχρὸν": 6430,
      "εὐθεῖα": 6431,
      "##ῖται": 6432,
      "τοσαῦτα": 6433,
      "ἥδε": 6434,
      "ἐπά": 6435,
      "δυνάμεις": 6436,
      "##ym": 6437,
      "αἱρ": 6438,
      "ζῴου": 6439,
      "βασιλέως": 6440,
      "προσαγορε": 6441,
      "ὁρα": 6442,
      "##δεχ": 6443,
      "##ζεσθαι": 6444,
      "##θεντο": 6445,
      "ἡδονὴν": 6446,
      "##τὰς": 6447,
      "διάν": 6448,
      "Ῥωμαίοις": 6449,
      "κτί": 6450,
      "ἀπολα": 6451,
      "πλεον": 6452,
      "οἶον": 6453,
      "ἐπιστήμη": 6454,
      "γρα": 6455,
      "ἀποθν": 6456,
      "τοιαύτην": 6457,
      "##ίνης": 6458,
      "πρόσωπον": 6459,
      "δεινὸν": 6460,
      "εἴπω": 6461,
      "##ούμενα": 6462,
      "ἀμφι": 6463,
      "πέμψ": 6464,
      "ἵνʼ": 6465,
      "παραγεν": 6466,
      "##ωτά": 6467,
      "τάξιν": 6468,
      "ἔπεμψ": 6469,
      "##τησε": 6470,
      "διασ": 6471,
      "γενόμενον": 6472,
      "ἐλπ": 6473,
      "##eb": 6474,
      "##σία": 6475,
      "Διὰ": 6476,
      "βασιλείαν": 6477,
      "ἀμφοτέρων": 6478,
      "ἐϲτι": 6479,
      "ἀποδει": 6480,
      "μηκ": 6481,
      "##ωκ": 6482,
      "γινόμενον": 6483,
      "43": 6484,
      "ὁτι": 6485,
      "ἀγαθόν": 6486,
      "τρία": 6487,
      "##ήϲ": 6488,
      "##πνε": 6489,
      "##λθεῖν": 6490,
      "ἓξ": 6491,
      "##σαντι": 6492,
      "##λημ": 6493,
      "λόγοις": 6494,
      "##ήσεων": 6495,
      "##σειεν": 6496,
      "und": 6497,
      "μέλι": 6498,
      "##αῖον": 6499,
      "λου": 6500,
      "##ώρα": 6501,
      "δῆμον": 6502,
      "ἑτέρων": 6503,
      "ἐπιβ": 6504,
      "νοητ": 6505,
      "ἑκατέρ": 6506,
      "ἔνε": 6507,
      "##άνει": 6508,
      "ἵππων": 6509,
      "##ττεται": 6510,
      "Μακεδόν": 6511,
      "τηνικα": 6512,
      "ἐγκα": 6513,
      "ἀνθρώπῳ": 6514,
      "δέρ": 6515,
      "βασιλείας": 6516,
      "##βολῆς": 6517,
      "ἔλθ": 6518,
      "εὐπορ": 6519,
      "##αιρέ": 6520,
      "##λεως": 6521,
      "##σσειν": 6522,
      "πρόσθεν": 6523,
      "##ψασθαι": 6524,
      "φό": 6525,
      "##ικῇ": 6526,
      "φασὶν": 6527,
      "Ἰωάν": 6528,
      "##ενν": 6529,
      "##γοντα": 6530,
      "δεῦ": 6531,
      "ἐνεργείας": 6532,
      "βό": 6533,
      "ψηφ": 6534,
      "τριάκοντα": 6535,
      "##στηκεν": 6536,
      "τεσσ": 6537,
      "διαστ": 6538,
      "ἐγένοντο": 6539,
      "πυρετ": 6540,
      "βλέ": 6541,
      "ἐγκε": 6542,
      "##τέραν": 6543,
      "ἑλ": 6544,
      "##ad": 6545,
      "##λατταν": 6546,
      "πέντε": 6547,
      "##μένως": 6548,
      "##ῆκεν": 6549,
      "##άζων": 6550,
      "##ύνη": 6551,
      "στέ": 6552,
      "κακοῦ": 6553,
      "Δί": 6554,
      "##κρί": 6555,
      "##ναις": 6556,
      "Ἡρα": 6557,
      "##λεκ": 6558,
      "ἐχόντων": 6559,
      "εὐλογ": 6560,
      "ἔδωκεν": 6561,
      "ἄγειν": 6562,
      "χάρι": 6563,
      "στρατεύ": 6564,
      "ab": 6565,
      "##μεων": 6566,
      "χρόνος": 6567,
      "ὅσῳ": 6568,
      "Κύριος": 6569,
      "##βάλλειν": 6570,
      "ἀπεί": 6571,
      "##ost": 6572,
      "ἄλλαι": 6573,
      "##δαμ": 6574,
      "οὗν": 6575,
      "δηλονότι": 6576,
      "κόσμου": 6577,
      "κορυφ": 6578,
      "ἔξ": 6579,
      "##τινα": 6580,
      "κρεῖ": 6581,
      "αἰτία": 6582,
      "ὥρας": 6583,
      "συνι": 6584,
      "##ψηφ": 6585,
      "##ίδος": 6586,
      "##δρου": 6587,
      "μεγάλα": 6588,
      "##λημα": 6589,
      "##ωδ": 6590,
      "##ψεται": 6591,
      "##σμὸς": 6592,
      "δόξης": 6593,
      "ζητεῖ": 6594,
      "##βερ": 6595,
      "ἀπεί": 6596,
      "Τῶν": 6597,
      "ἀνή": 6598,
      "τρά": 6599,
      "Ἱεροσ": 6600,
      "νεκρῶν": 6601,
      "##στατα": 6602,
      "Διο": 6603,
      "##δαιμόν": 6604,
      "##ψαντες": 6605,
      "ὕψος": 6606,
      "##όνος": 6607,
      "ἐφ᾿": 6608,
      "##οιντο": 6609,
      "##ξων": 6610,
      "τέσσα": 6611,
      "ἑψ": 6612,
      "ὁμων": 6613,
      "κρύ": 6614,
      "Ἀλέξανδρος": 6615,
      "πιστεύ": 6616,
      "Μελ": 6617,
      "ἐκείνους": 6618,
      "τοσαύ": 6619,
      "##δοις": 6620,
      "##ibus": 6621,
      "##ίκων": 6622,
      "##ίστου": 6623,
      "σελήν": 6624,
      "##δοται": 6625,
      "##αυτοῦ": 6626,
      "##λειν": 6627,
      "##ώμεθα": 6628,
      "##σχι": 6629,
      "πίστιν": 6630,
      "Ἀθήν": 6631,
      "##θω": 6632,
      "ἐπή": 6633,
      "χειρῶν": 6634,
      "κλα": 6635,
      "##ϲτα": 6636,
      "εἶδον": 6637,
      "μνημονεύ": 6638,
      "##τοῦντες": 6639,
      "##στω": 6640,
      "ἐλθὼν": 6641,
      "##φῳ": 6642,
      "πατέρα": 6643,
      "δεδι": 6644,
      "Ἰησοῦν": 6645,
      "##εντα": 6646,
      "##φυκεν": 6647,
      "κόσμου": 6648,
      "ἐνθά": 6649,
      "εἰδέναι": 6650,
      "##ήσονται": 6651,
      "ἐνέργει": 6652,
      "Σύ": 6653,
      "διαφορα": 6654,
      "##όρους": 6655,
      "γνωρ": 6656,
      "ἐρεῖ": 6657,
      "σωφρον": 6658,
      "##λία": 6659,
      "ἑκάστῳ": 6660,
      "Χριστῷ": 6661,
      "##μμε": 6662,
      "γινώ": 6663,
      "##μυθ": 6664,
      "##άδε": 6665,
      "##θες": 6666,
      "ἀποστε": 6667,
      "ἐδεί": 6668,
      "παντά": 6669,
      "ἐδέ": 6670,
      "##ησα": 6671,
      "Κι": 6672,
      "##ώματα": 6673,
      "##όντας": 6674,
      "##τικῷ": 6675,
      "σιτ": 6676,
      "θάλασσαν": 6677,
      "die": 6678,
      "Παῦλος": 6679,
      "ἄνα": 6680,
      "##ρίᾳ": 6681,
      "βουλεύ": 6682,
      "##ύτως": 6683,
      "οἱον": 6684,
      "ὑψη": 6685,
      "per": 6686,
      "##τερόν": 6687,
      "περιέ": 6688,
      "κινήσεις": 6689,
      "##γαγεῖν": 6690,
      "ἔπρα": 6691,
      "Σά": 6692,
      "ἐγεν": 6693,
      "πολιτῶν": 6694,
      "ἐνὶ": 6695,
      "##φαλα": 6696,
      "ξεν": 6697,
      "##ληψιν": 6698,
      "ἐκείνοις": 6699,
      "τηνικαῦτα": 6700,
      "##άσας": 6701,
      "##ii": 6702,
      "δύναμις": 6703,
      "ποτʼ": 6704,
      "ἀμέ": 6705,
      "γίγν": 6706,
      "##ζη": 6707,
      "##ώματα": 6708,
      "αὐτούς": 6709,
      "κωλύ": 6710,
      "πιν": 6711,
      "συναγ": 6712,
      "##θησι": 6713,
      "##ρεύ": 6714,
      "πράξεις": 6715,
      "ἄριστον": 6716,
      "##έντες": 6717,
      "##ομή": 6718,
      "πόρρω": 6719,
      "βεβαι": 6720,
      "##φέρει": 6721,
      "Λά": 6722,
      "μεσημ": 6723,
      "De": 6724,
      "Ἔτι": 6725,
      "##δειγ": 6726,
      "##ώνιος": 6727,
      "ἀλήθειαν": 6728,
      "τουτέστι": 6729,
      "ὁτὲ": 6730,
      "##τύ": 6731,
      "##ίσαι": 6732,
      "##ῶνας": 6733,
      "βασιλεῦ": 6734,
      "ἐμφα": 6735,
      "η΄": 6736,
      "ἀτελ": 6737,
      "##αϲ": 6738,
      "##ενεγκ": 6739,
      "##ίγ": 6740,
      "ἀπερ": 6741,
      "Αἴγυπτον": 6742,
      "##uc": 6743,
      "##μέναι": 6744,
      "##κοὶ": 6745,
      "βιβλί": 6746,
      "##ρυγ": 6747,
      "αὐτήν": 6748,
      "ἵππον": 6749,
      "Κελ": 6750,
      "ἀλα": 6751,
      "ἔρη": 6752,
      "##ίστη": 6753,
      "κἀγὼ": 6754,
      "Ἕλληνας": 6755,
      "Λιβύ": 6756,
      "τἄλλα": 6757,
      "κοῦ": 6758,
      "ἔμφ": 6759,
      "##δειξις": 6760,
      "στρατιωτῶν": 6761,
      "ἔργοις": 6762,
      "τυχεῖν": 6763,
      "προτάσεων": 6764,
      "##κῳ": 6765,
      "πυρὶ": 6766,
      "τεῖχος": 6767,
      "Μέ": 6768,
      "ἦλθον": 6769,
      "##ταξεν": 6770,
      "νεῦ": 6771,
      "λεγόμενον": 6772,
      "κύκλῳ": 6773,
      "##έστερον": 6774,
      "##ουρ": 6775,
      "##λλά": 6776,
      "μαλ": 6777,
      "##ιά": 6778,
      "##στως": 6779,
      "καιρὸς": 6780,
      "quod": 6781,
      "ποσὸν": 6782,
      "προτάσεις": 6783,
      "χειρὶ": 6784,
      "##to": 6785,
      "##άνου": 6786,
      "βεβα": 6787,
      "##έντων": 6788,
      "δέκα": 6789,
      "ὄρε": 6790,
      "##ϲτ": 6791,
      "##υρο": 6792,
      "##μνων": 6793,
      "γένεσις": 6794,
      "ὀνομαζ": 6795,
      "##βῳ": 6796,
      "##ίνας": 6797,
      "αἱρετ": 6798,
      "ἄκρα": 6799,
      "##λησεν": 6800,
      "δυστυχ": 6801,
      "μάχης": 6802,
      "##omin": 6803,
      "##υσιν": 6804,
      "συμφων": 6805,
      "βαρβάρων": 6806,
      "##ώμενον": 6807,
      "##ίδας": 6808,
      "λεγόμενον": 6809,
      "Πλα": 6810,
      "##είας": 6811,
      "##ver": 6812,
      "##σθεί": 6813,
      "στερ": 6814,
      "##υσαν": 6815,
      "μακρο": 6816,
      "ἄδικ": 6817,
      "ποδ": 6818,
      "σφᾶς": 6819,
      "φέρειν": 6820,
      "ὠφε": 6821,
      "##σεσθε": 6822,
      "##άνων": 6823,
      "πολλα": 6824,
      "κυρίου": 6825,
      "##λεσεν": 6826,
      "##άντα": 6827,
      "τετράγων": 6828,
      "ὄπι": 6829,
      "##γχαν": 6830,
      "##υτόν": 6831,
      "Ἑλ": 6832,
      "##ρετον": 6833,
      "Ἀλέ": 6834,
      "##στὰς": 6835,
      "##πτῳ": 6836,
      "πλεί": 6837,
      "πάσχειν": 6838,
      "ὁτιοῦν": 6839,
      "ἅπασιν": 6840,
      "ἔλαβεν": 6841,
      "ἡλίου": 6842,
      "##χῳ": 6843,
      "##πεπ": 6844,
      "μετο": 6845,
      "παρρη": 6846,
      "##λοί": 6847,
      "προφή": 6848,
      "χρον": 6849,
      "καιροῦ": 6850,
      "##χεί": 6851,
      "ἄγαν": 6852,
      "ὀνόματα": 6853,
      "Πρὸς": 6854,
      "θρασ": 6855,
      "##ῶτα": 6856,
      "##λοῖς": 6857,
      "προσηγορ": 6858,
      "ῥητο": 6859,
      "τοὐναντίον": 6860,
      "##δορ": 6861,
      "##ll": 6862,
      "συγκατα": 6863,
      "πόλεως": 6864,
      "Λό": 6865,
      "Σώ": 6866,
      "πυν": 6867,
      "ἔξε": 6868,
      "θᾶττον": 6869,
      "##όρων": 6870,
      "##ήριον": 6871,
      "πόδας": 6872,
      "Καῖ": 6873,
      "κολά": 6874,
      "ὑψηλ": 6875,
      "στοιχείων": 6876,
      "##άμενον": 6877,
      "##ῶται": 6878,
      "τύχης": 6879,
      "##μὼν": 6880,
      "##te": 6881,
      "##βάλλειν": 6882,
      "ἤθε": 6883,
      "##σους": 6884,
      "γένη": 6885,
      "δῆμος": 6886,
      "Ἀσκ": 6887,
      "##λλου": 6888,
      "ἰδίᾳ": 6889,
      "ἡνί": 6890,
      "ἔνια": 6891,
      "Ἰων": 6892,
      "##μὲν": 6893,
      "##ποϲ": 6894,
      "καλεῖν": 6895,
      "##πλά": 6896,
      "αἳ": 6897,
      "ἔχουσαν": 6898,
      "τέσσα": 6899,
      "aut": 6900,
      "λεκ": 6901,
      "Σοφ": 6902,
      "##χέ": 6903,
      "##ελι": 6904,
      "##σετε": 6905,
      "ἄρχειν": 6906,
      "##όλων": 6907,
      "##ύματος": 6908,
      "λαοῦ": 6909,
      "γέγονε": 6910,
      "ἔσχατον": 6911,
      "##κτη": 6912,
      "##όμι": 6913,
      "πρόσθεν": 6914,
      "μʼ": 6915,
      "ῥῆμα": 6916,
      "ἰσο": 6917,
      "##αντα": 6918,
      "ἀφε": 6919,
      "ἀσπί": 6920,
      "Ἐπει": 6921,
      "##ωσις": 6922,
      "##λογι": 6923,
      "ξί": 6924,
      "##στὴν": 6925,
      "##λευσ": 6926,
      "ὅλῳ": 6927,
      "ἔργῳ": 6928,
      "νή": 6929,
      "##λειπ": 6930,
      "##βαλε": 6931,
      "ὦν": 6932,
      "##θέντων": 6933,
      "##νων": 6934,
      "##τορα": 6935,
      "ψιλ": 6936,
      "πολέμῳ": 6937,
      "Φιλί": 6938,
      "##σκοντες": 6939,
      "Καῖσαρ": 6940,
      "Χριστιαν": 6941,
      "##ρησε": 6942,
      "πρώτου": 6943,
      "Κρόν": 6944,
      "ἐπιπο": 6945,
      "ἀποκα": 6946,
      "αἰτια": 6947,
      "Ἀργε": 6948,
      "λίαν": 6949,
      "προστά": 6950,
      "ἀέρα": 6951,
      "ἀπαντ": 6952,
      "μετά": 6953,
      "χώραν": 6954,
      "ὁπ": 6955,
      "##μός": 6956,
      "ἀφι": 6957,
      "quae": 6958,
      "##θοις": 6959,
      "παύ": 6960,
      "Ἀλεξαν": 6961,
      "καλοῦσιν": 6962,
      "φάρμακον": 6963,
      "κλέ": 6964,
      "μάρτυ": 6965,
      "φρεν": 6966,
      "χεί": 6967,
      "##τρων": 6968,
      "θερμοῦ": 6969,
      "ἑστ": 6970,
      "##ni": 6971,
      "γυναιξ": 6972,
      "πεποί": 6973,
      "δἰ": 6974,
      "##ύριον": 6975,
      "φωνῇ": 6976,
      "ὥραν": 6977,
      "##μίαν": 6978,
      "##κοσμ": 6979,
      "##παγ": 6980,
      "##σκευασ": 6981,
      "Ὡς": 6982,
      "##λπι": 6983,
      "ἔτος": 6984,
      "##ραις": 6985,
      "ἔνι": 6986,
      "λέγεσθαι": 6987,
      "φω": 6988,
      "##κέναι": 6989,
      "##ρησις": 6990,
      "##λάβ": 6991,
      "##atur": 6992,
      "ζῳ": 6993,
      "ἀσχ": 6994,
      "ἀληθείας": 6995,
      "46": 6996,
      "sq": 6997,
      "##ύναι": 6998,
      "##υχν": 6999,
      "πρώτην": 7000,
      "Σελ": 7001,
      "##θυν": 7002,
      "##ρατος": 7003,
      "##ριστος": 7004,
      "##στάσεως": 7005,
      "Ἰουδαίων": 7006,
      "##ριϲ": 7007,
      "ὑγε": 7008,
      "##πολιν": 7009,
      "ἀδελφὸν": 7010,
      "##ώσας": 7011,
      "κριθ": 7012,
      "κοινὰ": 7013,
      "Τί": 7014,
      "##ψεις": 7015,
      "πάθη": 7016,
      "##εύς": 7017,
      "45": 7018,
      "ἕξιν": 7019,
      "##τευμα": 7020,
      "ἄλ": 7021,
      "##ήσεσθαι": 7022,
      "μηκέ": 7023,
      "##σωσιν": 7024,
      "ὁρῶ": 7025,
      "ὁπότε": 7026,
      "νεύ": 7027,
      "47": 7028,
      "##μικ": 7029,
      "ὕβ": 7030,
      "ἐμπει": 7031,
      "πλείω": 7032,
      "κτή": 7033,
      "συσ": 7034,
      "τει": 7035,
      "##θως": 7036,
      "##σίν": 7037,
      "λή": 7038,
      "##κτου": 7039,
      "##ινθ": 7040,
      "αἱρε": 7041,
      "τἀναντ": 7042,
      "γέγονε": 7043,
      "καρπο": 7044,
      "ὁρᾷς": 7045,
      "ἐκείνῳ": 7046,
      "μὰ": 7047,
      "φάρ": 7048,
      "Ἕλληνες": 7049,
      "cf": 7050,
      "##ᾶσιν": 7051,
      "κἀκε": 7052,
      "καλοῦσι": 7053,
      "Ἀριϲτο": 7054,
      "ἑτέραν": 7055,
      "εἴρηκεν": 7056,
      "εὐσεβ": 7057,
      "ψυχρ": 7058,
      "ἀγῶνα": 7059,
      "##βάλλει": 7060,
      "##ῶντα": 7061,
      "νοεῖν": 7062,
      "Κῦ": 7063,
      "##χνη": 7064,
      "ὑπεροχ": 7065,
      "ὡσαύτως": 7066,
      "Δελ": 7067,
      "##σπο": 7068,
      "μέλαν": 7069,
      "σπέρμα": 7070,
      "##λευθ": 7071,
      "##μοϲ": 7072,
      "##μένῃ": 7073,
      "στόμα": 7074,
      "##όδρα": 7075,
      "##βην": 7076,
      "προα": 7077,
      "πλείους": 7078,
      "φλεβ": 7079,
      "##AB": 7080,
      "γνωρί": 7081,
      "ἐκείνης": 7082,
      "##θάν": 7083,
      "νομίζ": 7084,
      "ὀργῆς": 7085,
      "##ίσκ": 7086,
      "περιέχ": 7087,
      "##σθέντες": 7088,
      "ἄπο": 7089,
      "βελτί": 7090,
      "ἱκε": 7091,
      "ἀποτελ": 7092,
      "ποιητὴς": 7093,
      "δίκαιον": 7094,
      "44": 7095,
      "δοκι": 7096,
      "##υτον": 7097,
      "##ταξ": 7098,
      "τέκνα": 7099,
      "εὑρί": 7100,
      "ἐϲτιν": 7101,
      "Ζην": 7102,
      "##ΟΥ": 7103,
      "χρῆται": 7104,
      "Ἀπολλ": 7105,
      "Τυρ": 7106,
      "ἀνθ": 7107,
      "ἐναντία": 7108,
      "ἑτέραν": 7109,
      "Μακεδον": 7110,
      "##ρατο": 7111,
      "μέσῳ": 7112,
      "ΑΘ": 7113,
      "λέγουσιν": 7114,
      "ἀγρ": 7115,
      "Χρυσ": 7116,
      "ἀβ": 7117,
      "ὑπέρ": 7118,
      "καλὰ": 7119,
      "μακρὰν": 7120,
      "πλήθει": 7121,
      "##ϲαι": 7122,
      "##λαος": 7123,
      "##ίνονται": 7124,
      "καρπὸν": 7125,
      "λυ": 7126,
      "πή": 7127,
      "ὀφθαλμῶν": 7128,
      "ἀνδρι": 7129,
      "##βριν": 7130,
      "πράγματα": 7131,
      "ἐνί": 7132,
      "εἴσω": 7133,
      "κρεί": 7134,
      "βραδ": 7135,
      "##σημα": 7136,
      "γένει": 7137,
      "ἀποθανεῖν": 7138,
      "βέ": 7139,
      "σάρ": 7140,
      "ζή": 7141,
      "ἀτε": 7142,
      "δρα": 7143,
      "##σίως": 7144,
      "σιγ": 7145,
      "μυριά": 7146,
      "ὅσαι": 7147,
      "ἕτεροι": 7148,
      "ἤπερ": 7149,
      "κακόν": 7150,
      "ταχὺ": 7151,
      "Λακεδαιμονίων": 7152,
      "##io": 7153,
      "μέρει": 7154,
      "Ἰού": 7155,
      "σφόδρα": 7156,
      "ἀπέκτειν": 7157,
      "##τινες": 7158,
      "μείζονα": 7159,
      "##θέντος": 7160,
      "##τορος": 7161,
      "##μονας": 7162,
      "##ότος": 7163,
      "ὑπηρε": 7164,
      "ὁμα": 7165,
      "στρατό": 7166,
      "διαφορὰς": 7167,
      "##ττῃ": 7168,
      "πλειόνων": 7169,
      "σάρκα": 7170,
      "##τισ": 7171,
      "##ήσῃ": 7172,
      "##μιγ": 7173,
      "ὁδοῦ": 7174,
      "ἀρχῶν": 7175,
      "γένοιτο": 7176,
      "76": 7177,
      "ἀνό": 7178,
      "αἰεὶ": 7179,
      "ἐχθρῶν": 7180,
      "##κετο": 7181,
      "ἐμφαν": 7182,
      "φιλοσό": 7183,
      "οἱονεὶ": 7184,
      "βάρ": 7185,
      "Ἰερ": 7186,
      "##σθῇ": 7187,
      "πολὺς": 7188,
      "δέδεικται": 7189,
      "πράγματος": 7190,
      "ψευδῆ": 7191,
      "ἐρη": 7192,
      "ὅρων": 7193,
      "ἀπά": 7194,
      "θεός": 7195,
      "ἐλπί": 7196,
      "der": 7197,
      "Πυθ": 7198,
      "ἐπικα": 7199,
      "θάλατταν": 7200,
      "Λακεδαιμόν": 7201,
      "##ορος": 7202,
      "ἡδέ": 7203,
      "ἀποδεί": 7204,
      "ἐμὸν": 7205,
      "τόπους": 7206,
      "μέγας": 7207,
      "Μάρ": 7208,
      "##δεύ": 7209,
      "καθολ": 7210,
      "χεῖρον": 7211,
      "ποιοῦσιν": 7212,
      "τρία": 7213,
      "κινοῦν": 7214,
      "πειρα": 7215,
      "##δοξον": 7216,
      "βέλ": 7217,
      "πύ": 7218,
      "τμ": 7219,
      "##ρῃ": 7220,
      "πλου": 7221,
      "##κοσίους": 7222,
      "σφαί": 7223,
      "##σβεις": 7224,
      "ὑπῆρχ": 7225,
      "##and": 7226,
      "ΘΕ": 7227,
      "ῥᾷ": 7228,
      "##ation": 7229,
      "διοικ": 7230,
      "ὀρε": 7231,
      "##ζεται": 7232,
      "##λειφθ": 7233,
      "ἀκούσας": 7234,
      "Κε": 7235,
      "##χοι": 7236,
      "ἐνυπ": 7237,
      "πολλὴ": 7238,
      "##δίους": 7239,
      "στρ": 7240,
      "##φέρειν": 7241,
      "##λείας": 7242,
      "εὐρ": 7243,
      "ἐκείνην": 7244,
      "ἔρχεται": 7245,
      "ἰδίαν": 7246,
      "##ούσῃ": 7247,
      "##μβο": 7248,
      "##ώντων": 7249,
      "Κωνσταντ": 7250,
      "Mg": 7251,
      "ἀπαρ": 7252,
      "##ωρίαν": 7253,
      "ὑποκειμένου": 7254,
      "##δ΄": 7255,
      "αὐτός": 7256,
      "αἰδο": 7257,
      "ταῦτ": 7258,
      "##αντος": 7259,
      "ἐκπε": 7260,
      "ἐπιπέ": 7261,
      "μεγάλην": 7262,
      "ἀμφοτέρων": 7263,
      "cum": 7264,
      "##ζόμενοι": 7265,
      "##κοὺς": 7266,
      "δακρ": 7267,
      "##λὴμ": 7268,
      "##τασις": 7269,
      "δήπου": 7270,
      "χειρο": 7271,
      "ἀί": 7272,
      "ἐνδέχεται": 7273,
      "μείζων": 7274,
      "φαίν": 7275,
      "μάχ": 7276,
      "νόμου": 7277,
      "φλέ": 7278,
      "ταὐτὸ": 7279,
      "βίον": 7280,
      "μηδέ": 7281,
      "μάν": 7282,
      "πάρ": 7283,
      "##σχον": 7284,
      "φυλα": 7285,
      "##στὴς": 7286,
      "τόπῳ": 7287,
      "βασιλεῖς": 7288,
      "ἕξ": 7289,
      "οὐδένα": 7290,
      "γίγνεται": 7291,
      "##οσι": 7292,
      "σκληρ": 7293,
      "##ριγ": 7294,
      "Ἀργ": 7295,
      "##εῖϲ": 7296,
      "##σίοις": 7297,
      "##πὼν": 7298,
      "τιμὴν": 7299,
      "ἑκάτερον": 7300,
      "διόπερ": 7301,
      "##μί": 7302,
      "αἰσθητικ": 7303,
      "τίνος": 7304,
      "##σπα": 7305,
      "##ωτέρω": 7306,
      "γνῶναι": 7307,
      "##σκεύα": 7308,
      "κἀκεῖ": 7309,
      "Ἀριστ": 7310,
      "Ποσειδῶν": 7311,
      "48": 7312,
      "ἐπιρ": 7313,
      "κατηγορεῖται": 7314,
      "μυθ": 7315,
      "ἴδια": 7316,
      "##όμεν": 7317,
      "προκα": 7318,
      "##σομαι": 7319,
      "##μονες": 7320,
      "οἵων": 7321,
      "παρακα": 7322,
      "##διοι": 7323,
      "τρόπῳ": 7324,
      "δεῦρο": 7325,
      "##ττη": 7326,
      "γένεσιν": 7327,
      "λευκοῦ": 7328,
      "##στηρ": 7329,
      "συνεργ": 7330,
      "##ουσαλὴμ": 7331,
      "ὀσμ": 7332,
      "φίλος": 7333,
      "χειμῶνος": 7334,
      "Ἀλεξάνδρου": 7335,
      "##ὼβ": 7336,
      "παρακαλ": 7337,
      "κινδυνεύ": 7338,
      "ϲυμ": 7339,
      "##ώθη": 7340,
      "##ουμένων": 7341,
      "ἐπανα": 7342,
      "ἐπιεικ": 7343,
      "πιστεύ": 7344,
      "προτε": 7345,
      "πρώτην": 7346,
      "χορηγ": 7347,
      "##ili": 7348,
      "λεπτο": 7349,
      "πάλαι": 7350,
      "υἱῶν": 7351,
      "δόξης": 7352,
      "ἐκφ": 7353,
      "δείκνυ": 7354,
      "Ὀδυσσ": 7355,
      "##σκεν": 7356,
      "συγκα": 7357,
      "θορ": 7358,
      "ὄφ": 7359,
      "##κτικὸν": 7360,
      "ἐξή": 7361,
      "οἴκου": 7362,
      "##φυκε": 7363,
      "Μετὰ": 7364,
      "σωτῆρος": 7365,
      "##σσι": 7366,
      "##δαλ": 7367,
      "##θά": 7368,
      "##πετο": 7369,
      "καταβ": 7370,
      "φηϲ": 7371,
      "διατε": 7372,
      "ἄλογον": 7373,
      "συνή": 7374,
      "μήτηρ": 7375,
      "##re": 7376,
      "ἐπή": 7377,
      "ἐνθυμ": 7378,
      "δεχ": 7379,
      "##κρατες": 7380,
      "##ροί": 7381,
      "οἰκίας": 7382,
      "φιλό": 7383,
      "ἐνθάδε": 7384,
      "##μησεν": 7385,
      "##ίνους": 7386,
      "σφῶν": 7387,
      "Ἀντ": 7388,
      "##πάρ": 7389,
      "πεφ": 7390,
      "##ιστος": 7391,
      "##τολὴν": 7392,
      "##δίκ": 7393,
      "##ῖσιν": 7394,
      "##άνης": 7395,
      "##ίνην": 7396,
      "παραι": 7397,
      "βουλῆς": 7398,
      "ἐσθῆ": 7399,
      "Ἀλέξαν": 7400,
      "##ότας": 7401,
      "##ονι": 7402,
      "πλήθους": 7403,
      "οἰκίαν": 7404,
      "κέντρον": 7405,
      "βέλτιον": 7406,
      "δώ": 7407,
      "##υς": 7408,
      "αἰῶνος": 7409,
      "##παρα": 7410,
      "ἠξίου": 7411,
      "Ἐὰν": 7412,
      "##ὶϲ": 7413,
      "ἀμφισ": 7414,
      "##άσαι": 7415,
      "λέγομεν": 7416,
      "κεκα": 7417,
      "ἅγιον": 7418,
      "##όγ": 7419,
      "##τοί": 7420,
      "Ep": 7421,
      "ὑπερβολ": 7422,
      "##ούς": 7423,
      "##μψυχ": 7424,
      "ἐπιτή": 7425,
      "##δοκι": 7426,
      "ψυχὰς": 7427,
      "μονά": 7428,
      "##ps": 7429,
      "μαθημα": 7430,
      "ἆρα": 7431,
      "συγγραφ": 7432,
      "##γαγὼν": 7433,
      "##av": 7434,
      "μητέρα": 7435,
      "βασιλείας": 7436,
      "οἶδε": 7437,
      "ἐποίησεν": 7438,
      "##τροπ": 7439,
      "τέχνην": 7440,
      "##δαρ": 7441,
      "##νεί": 7442,
      "of": 7443,
      "ἐρχ": 7444,
      "##άτῳ": 7445,
      "##ώσεως": 7446,
      "##άνη": 7447,
      "##χαρ": 7448,
      "##ηδ": 7449,
      "##άνου": 7450,
      "ἀορ": 7451,
      "ῥᾳδ": 7452,
      "ἐκπ": 7453,
      "τόπος": 7454,
      "ὧς": 7455,
      "##κοις": 7456,
      "##ρονται": 7457,
      "λαμβάνειν": 7458,
      "ῥᾴδιον": 7459,
      "τιϲ": 7460,
      "ἄκρον": 7461,
      "ἠθ": 7462,
      "##ρηγ": 7463,
      "##έγραπται": 7464,
      "θνητ": 7465,
      "Καρχηδον": 7466,
      "στρατοπέ": 7467,
      "ε΄": 7468,
      "##ίμων": 7469,
      "καλέ": 7470,
      "νεκρο": 7471,
      "καίπερ": 7472,
      "δίχα": 7473,
      "Νέ": 7474,
      "##τοὶ": 7475,
      "τἆ": 7476,
      "ἐβου": 7477,
      "##λοὶ": 7478,
      "Εὐρι": 7479,
      "τῳ": 7480,
      "##ὐ": 7481,
      "##ίδης": 7482,
      "πολεμίοις": 7483,
      "ποιοῦσι": 7484,
      "αἰῶνα": 7485,
      "ἀνθρώπους": 7486,
      "ἅπασαν": 7487,
      "Πελοπον": 7488,
      "γράφει": 7489,
      "ἐθέ": 7490,
      "Ἰού": 7491,
      "##ωθῆναι": 7492,
      "##ομένας": 7493,
      "γένει": 7494,
      "εὐθεῖαν": 7495,
      "κυβερ": 7496,
      "##ορικ": 7497,
      "ἀψ": 7498,
      "##ητα": 7499,
      "##όμεναι": 7500,
      "πολλαὶ": 7501,
      "ἀγγέ": 7502,
      "βασιλέα": 7503,
      "πάσας": 7504,
      "πλησι": 7505,
      "ἀμερ": 7506,
      "ἑκάτερον": 7507,
      "##δωρος": 7508,
      "ὁμό": 7509,
      "##δρο": 7510,
      "##γελ": 7511,
      "ἀκοῦσαι": 7512,
      "φίλοι": 7513,
      "πεντή": 7514,
      "##τικοὶ": 7515,
      "μολ": 7516,
      "ἀκίν": 7517,
      "ταῦτά": 7518,
      "ὁπλ": 7519,
      "ἀφρο": 7520,
      "ὀφθαλμοὺς": 7521,
      "Οὕ": 7522,
      "ψι": 7523,
      "καλού": 7524,
      "##μεῖν": 7525,
      "εἴπομεν": 7526,
      "θεο": 7527,
      "##θέσεως": 7528,
      "##άζεσθαι": 7529,
      "κόσμον": 7530,
      "τελέ": 7531,
      "Θεο": 7532,
      "##λικα": 7533,
      "##βαίν": 7534,
      "μονο": 7535,
      "κάλλος": 7536,
      "##ταρτον": 7537,
      "ὀφεί": 7538,
      "ἀθε": 7539,
      "κύκλον": 7540,
      "μῆν": 7541,
      "##ομερ": 7542,
      "ἐκκλησίας": 7543,
      "πνεύματος": 7544,
      "βλα": 7545,
      "##λομαι": 7546,
      "διαθέ": 7547,
      "πόθεν": 7548,
      "ἵππου": 7549,
      "ἐναργῶς": 7550,
      "Ἀπὸ": 7551,
      "##νεσιν": 7552,
      "##κότες": 7553,
      "πολιτείας": 7554,
      "Ὀδυσσε": 7555,
      "ἀκούειν": 7556,
      "##ρακτ": 7557,
      "##ίωνος": 7558,
      "βλασ": 7559,
      "αὐτοκρά": 7560,
      "ΚΛ": 7561,
      "καπν": 7562,
      "κατακ": 7563,
      "κινεῖν": 7564,
      "##σοφος": 7565,
      "συμβεβηκός": 7566,
      "##ήσομεν": 7567,
      "##άμενοι": 7568,
      "ἄρʼ": 7569,
      "δαιμόν": 7570,
      "δυσκ": 7571,
      "##ματον": 7572,
      "##ικῷ": 7573,
      "ἀρετὴ": 7574,
      "θανάτου": 7575,
      "Καλ": 7576,
      "##ΩΝ": 7577,
      "##έντας": 7578,
      "σταυρ": 7579,
      "Ῥώμην": 7580,
      "Ἀρίστα": 7581,
      "##σʼ": 7582,
      "##ταῖ": 7583,
      "##πιστε": 7584,
      "##σίου": 7585,
      "παραιν": 7586,
      "##κείμενα": 7587,
      "ac": 7588,
      "εὐσεβε": 7589,
      "φαύ": 7590,
      "νόμων": 7591,
      "κενὸν": 7592,
      "Αἰγύ": 7593,
      "ηὐ": 7594,
      "##κοσίων": 7595,
      "παραπλή": 7596,
      "##θεῖναι": 7597,
      "ἰσημερ": 7598,
      "νομοθε": 7599,
      "##λῆ": 7600,
      "χρῶνται": 7601,
      "##oss": 7602,
      "θάνατον": 7603,
      "2220": 7604,
      "Καίσαρος": 7605,
      "Τρο": 7606,
      "##ύρου": 7607,
      "μέρει": 7608,
      "ἀλλοτρί": 7609,
      "ἀντιστρέ": 7610,
      "Κυρίου": 7611,
      "##τυπ": 7612,
      "Ὁμή": 7613,
      "##όναι": 7614,
      "ἀνακ": 7615,
      "αἰσθήσεως": 7616,
      "ὅπλων": 7617,
      "σῴ": 7618,
      "##κῶν": 7619,
      "φρόν": 7620,
      "ἀναιρε": 7621,
      "##υνε": 7622,
      "θεόν": 7623,
      "##στολος": 7624,
      "δείκνυσι": 7625,
      "σφίσιν": 7626,
      "ὅρον": 7627,
      "##μπο": 7628,
      "##pi": 7629,
      "διάν": 7630,
      "##μησε": 7631,
      "φαρμάκων": 7632,
      "##στους": 7633,
      "γεγονέναι": 7634,
      "ἐπισκοπ": 7635,
      "ἀθρό": 7636,
      "μακα": 7637,
      "##σσε": 7638,
      "μαρ": 7639,
      "##μνηται": 7640,
      "ὁρῶμεν": 7641,
      "##πέμψ": 7642,
      "##und": 7643,
      "θύ": 7644,
      "##ρισται": 7645,
      "πρώτη": 7646,
      "φρονεῖν": 7647,
      "ἵππους": 7648,
      "##ίσταται": 7649,
      "καλοῦ": 7650,
      "οὐδ᾿": 7651,
      "ἄνε": 7652,
      "χωριστ": 7653,
      "##αιον": 7654,
      "τῶνδε": 7655,
      "διαί": 7656,
      "##ήριον": 7657,
      "καθέ": 7658,
      "κεφαλα": 7659,
      "Κύπ": 7660,
      "πράγματος": 7661,
      "βρ": 7662,
      "ἄγα": 7663,
      "##γες": 7664,
      "##ποντες": 7665,
      "φωνὴ": 7666,
      "Δαβ": 7667,
      "ἀμβ": 7668,
      "##σβε": 7669,
      "##λίας": 7670,
      "##ησας": 7671,
      "ὄπισθεν": 7672,
      "##λὸν": 7673,
      "ἐμπ": 7674,
      "μηδένα": 7675,
      "ὀνομάτων": 7676,
      "ἐμβ": 7677,
      "##ργος": 7678,
      "##έσει": 7679,
      "##νατος": 7680,
      "##τοιο": 7681,
      "##φροσ": 7682,
      "καρδίας": 7683,
      "ὀκτὼ": 7684,
      "ἀτό": 7685,
      "##ῆσαν": 7686,
      "εἰσίν": 7687,
      "τάς": 7688,
      "τοιαύτη": 7689,
      "##ώδους": 7690,
      "##τιθέ": 7691,
      "περισσ": 7692,
      "##εσαν": 7693,
      "στά": 7694,
      "κοί": 7695,
      "βουλευ": 7696,
      "τοῖσιν": 7697,
      "πίστεως": 7698,
      "δήμου": 7699,
      "κουφ": 7700,
      "ἔμψυχ": 7701,
      "##μματος": 7702,
      "ἀνεῖ": 7703,
      "τηλικ": 7704,
      "ἀφέ": 7705,
      "##ζω": 7706,
      "##κιος": 7707,
      "ὄψεως": 7708,
      "##est": 7709,
      "ζῶον": 7710,
      "ἄγν": 7711,
      "##τού": 7712,
      "##μονι": 7713,
      "μένειν": 7714,
      "δικαστα": 7715,
      "τυράν": 7716,
      "ἔτει": 7717,
      "##δαπ": 7718,
      "##υμένων": 7719,
      "##ικὸς": 7720,
      "##tis": 7721,
      "τύραν": 7722,
      "##φορον": 7723,
      "ὄρ": 7724,
      "##ρή": 7725,
      "##δημ": 7726,
      "παρέχ": 7727,
      "ἀριθμοῦ": 7728,
      "γερ": 7729,
      "ἐπιτρέ": 7730,
      "##γγος": 7731,
      "ἵππος": 7732,
      "Πι": 7733,
      "κή": 7734,
      "σὸν": 7735,
      "ἐπιγ": 7736,
      "βαθ": 7737,
      "γένη": 7738,
      "εὐκ": 7739,
      "##αινον": 7740,
      "##ψατο": 7741,
      "πεπραγ": 7742,
      "τἆλλα": 7743,
      "##τρια": 7744,
      "##ματοϲ": 7745,
      "ἀγά": 7746,
      "##σκεσθαι": 7747,
      "##itur": 7748,
      "μέρους": 7749,
      "##ᾶϲ": 7750,
      "μέγαν": 7751,
      "##ing": 7752,
      "49": 7753,
      "στή": 7754,
      "εἰρῆσθαι": 7755,
      "##πεῖν": 7756,
      "##ψω": 7757,
      "##όμα": 7758,
      "σωτηρίας": 7759,
      "ἐγκρα": 7760,
      "τέχνης": 7761,
      "##στησεν": 7762,
      "ἀδίκ": 7763,
      "ἀρν": 7764,
      "θυμὸν": 7765,
      "ἄγει": 7766,
      "##οίν": 7767,
      "##κως": 7768,
      "##έραν": 7769,
      "οὐρανῷ": 7770,
      "ῥέ": 7771,
      "κοινοῦ": 7772,
      "φημὶ": 7773,
      "Εἶ": 7774,
      "Πέ": 7775,
      "##nd": 7776,
      "παροιμ": 7777,
      "Μεσσ": 7778,
      "##φεσθαι": 7779,
      "##ΡΙ": 7780,
      "θαλάττης": 7781,
      "50": 7782,
      "ὄψει": 7783,
      "ῥίζ": 7784,
      "##φρόν": 7785,
      "##θήσεται": 7786,
      "##ληται": 7787,
      "##ληπι": 7788,
      "Ἀντων": 7789,
      "σύμ": 7790,
      "Πατρὸς": 7791,
      "συναμφ": 7792,
      "ὅλη": 7793,
      "ἁρμό": 7794,
      "αἰσχύν": 7795,
      "στέρ": 7796,
      "##δοτος": 7797,
      "φαμὲν": 7798,
      "συγχ": 7799,
      "καρτερ": 7800,
      "τοσού": 7801,
      "κατι": 7802,
      "ἐτύ": 7803,
      "##ώσει": 7804,
      "##δραμ": 7805,
      "##ύτη": 7806,
      "##ηκέναι": 7807,
      "τάξιν": 7808,
      "ὑποκειμένῳ": 7809,
      "προσώπου": 7810,
      "σπα": 7811,
      "ταυτ": 7812,
      "σωφροσύν": 7813,
      "ἐδό": 7814,
      "κού": 7815,
      "ἔλαιον": 7816,
      "##καί": 7817,
      "πέρι": 7818,
      "Σωκράτης": 7819,
      "εὐθέ": 7820,
      "πτω": 7821,
      "ἐγν": 7822,
      "μόνος": 7823,
      "##άλλη": 7824,
      "τοιοῦτοι": 7825,
      "ὑγιειν": 7826,
      "κρεῖττον": 7827,
      "διακ": 7828,
      "δῶρα": 7829,
      "Ἄρ": 7830,
      "ὄξ": 7831,
      "διακον": 7832,
      "συνει": 7833,
      "τετάρ": 7834,
      "ἑτέρας": 7835,
      "Ἀβραὰμ": 7836,
      "ἀπή": 7837,
      "##ούσας": 7838,
      "##άσασθαι": 7839,
      "ἀγαθὸς": 7840,
      "Τοῦτο": 7841,
      "διαιρε": 7842,
      "λέγοντος": 7843,
      "τρίγωνον": 7844,
      "φθεί": 7845,
      "##εἰ": 7846,
      "##βαν": 7847,
      "τόπων": 7848,
      "λιβ": 7849,
      "##δή": 7850,
      "##τιθε": 7851,
      "θησα": 7852,
      "##θείσης": 7853,
      "ἐνέργεια": 7854,
      "εἰργ": 7855,
      "Ἀσκληπι": 7856,
      "ἐβα": 7857,
      "##εϲθαι": 7858,
      "ἐξαί": 7859,
      "##λονται": 7860,
      "ἀριθμῶν": 7861,
      "ΑΕ": 7862,
      "συνέβη": 7863,
      "Ἕκτο": 7864,
      "θεασ": 7865,
      "ἀληθές": 7866,
      "ἔλεγ": 7867,
      "##πνον": 7868,
      "Ἄλλ": 7869,
      "##υμος": 7870,
      "Ῥωμαίους": 7871,
      "εἰρήνην": 7872,
      "##τεῖς": 7873,
      "##όντι": 7874,
      "ταχέως": 7875,
      "πατρίδος": 7876,
      "##ψι": 7877,
      "##άδας": 7878,
      "ἑτέρων": 7879,
      "Σωτ": 7880,
      "##δίῳ": 7881,
      "ἀλήθειαν": 7882,
      "μηκέτι": 7883,
      "ἐλεύ": 7884,
      "ἀμέ": 7885,
      "Αἰγύπτου": 7886,
      "πληθυν": 7887,
      "ῥητορικ": 7888,
      "διαφορὰ": 7889,
      "ἐσχά": 7890,
      "Κρι": 7891,
      "##ότεροι": 7892,
      "##ῶσθαι": 7893,
      "##πουν": 7894,
      "θαυμαστὸν": 7895,
      "θρ": 7896,
      "σει": 7897,
      "αὐτὰρ": 7898,
      "τύχῃ": 7899,
      "##ραβ": 7900,
      "##τοισι": 7901,
      "κέρ": 7902,
      "##ie": 7903,
      "##υῖα": 7904,
      "##ραξ": 7905,
      "##στέον": 7906,
      "συμφ": 7907,
      "πολυπ": 7908,
      "διάνοιαν": 7909,
      "##ϲεν": 7910,
      "##ερὸν": 7911,
      "##κρισιν": 7912,
      "##θρι": 7913,
      "συνάγ": 7914,
      "λαὸν": 7915,
      "στερη": 7916,
      "en": 7917,
      "μετά": 7918,
      "σφαγ": 7919,
      "σφίσι": 7920,
      "δά": 7921,
      "Ἀλκ": 7922,
      "##πὶ": 7923,
      "##έσθαι": 7924,
      "συγκ": 7925,
      "ξηρα": 7926,
      "##μάρ": 7927,
      "##ῃσι": 7928,
      "##ώτατον": 7929,
      "νεῶν": 7930,
      "##ήλ": 7931,
      "##αλεν": 7932,
      "ἀκτ": 7933,
      "προφητῶν": 7934,
      "ἡμέρα": 7935,
      "νεω": 7936,
      "τάλαν": 7937,
      "μῖ": 7938,
      "##ταξε": 7939,
      "τόπου": 7940,
      "λοιδορ": 7941,
      "Ἀχαιῶν": 7942,
      "μείζονα": 7943,
      "σῖ": 7944,
      "##ώσεις": 7945,
      "μετέ": 7946,
      "##τεῖναι": 7947,
      "εὐθείας": 7948,
      "##ττους": 7949,
      "##υσα": 7950,
      "##άσσον": 7951,
      "ζητοῦ": 7952,
      "Μά": 7953,
      "ζυγ": 7954,
      "θʼ": 7955,
      "κρο": 7956,
      "##λλυ": 7957,
      "φιλον": 7958,
      "οὔθ": 7959,
      "Βαβυλῶν": 7960,
      "πῆ": 7961,
      "αἰσθάν": 7962,
      "βοῶν": 7963,
      "εὔλογον": 7964,
      "πεντήκοντα": 7965,
      "ἀθρό": 7966,
      "##τικὰς": 7967,
      "Ἀσσ": 7968,
      "προστα": 7969,
      "##άνει": 7970,
      "Βυζ": 7971,
      "σκυ": 7972,
      "κληρονομ": 7973,
      "ἐμαυτοῦ": 7974,
      "αἴτιος": 7975,
      "ἀέρος": 7976,
      "##βης": 7977,
      "##άνειν": 7978,
      "##φαῖς": 7979,
      "##ρίοις": 7980,
      "ἀρχαὶ": 7981,
      "ἑκάστην": 7982,
      "ἦλθε": 7983,
      "##ώδης": 7984,
      "##ακοῦ": 7985,
      "##στέον": 7986,
      "##όντως": 7987,
      "##λοιτο": 7988,
      "ἔσχε": 7989,
      "ἡττ": 7990,
      "##σομεν": 7991,
      "δύν": 7992,
      "##μησαν": 7993,
      "γράμματα": 7994,
      "##ύεται": 7995,
      "προστε": 7996,
      "##διδόν": 7997,
      "Πολύ": 7998,
      "κτη": 7999,
      "##βού": 8000,
      "##ουμένου": 8001,
      "διώ": 8002,
      "ὅρος": 8003,
      "ἐκεῖσε": 8004,
      "μυῶν": 8005,
      "Λέ": 8006,
      "##λλή": 8007,
      "μόνῳ": 8008,
      "and": 8009,
      "εὐχα": 8010,
      "##ποντα": 8011,
      "σταδίων": 8012,
      "χαλεπὸν": 8013,
      "ὀρχ": 8014,
      "##άδι": 8015,
      "μέσου": 8016,
      "Μή": 8017,
      "##άδων": 8018,
      "##ώμενοι": 8019,
      "##φί": 8020,
      "##θειν": 8021,
      "##γματι": 8022,
      "##τημα": 8023,
      "ἀποφά": 8024,
      "εὐγεν": 8025,
      "ἀναπα": 8026,
      "##ττονα": 8027,
      "##ρεῖν": 8028,
      "##οῦτος": 8029,
      "ἀνθρω": 8030,
      "ἐποίησε": 8031,
      "προσήκει": 8032,
      "συκο": 8033,
      "ἔχοντι": 8034,
      "φωτὸς": 8035,
      "στρατιώτας": 8036,
      "##ram": 8037,
      "σφαι": 8038,
      "πρέσβεις": 8039,
      "νί": 8040,
      "εἰκο": 8041,
      "τισι": 8042,
      "κέν": 8043,
      "##τέροις": 8044,
      "##κρί": 8045,
      "##στάσεως": 8046,
      "##κράτους": 8047,
      "γενέσεως": 8048,
      "Σώκρατες": 8049,
      "ἄπι": 8050,
      "ἴσαι": 8051,
      "##ήσασθαι": 8052,
      "##ὰϲ": 8053,
      "περιέχ": 8054,
      "ἱερῶν": 8055,
      "##ep": 8056,
      "ἐπίκ": 8057,
      "##στῃ": 8058,
      "αὐτά": 8059,
      "λέγουσι": 8060,
      "ἀπέθαν": 8061,
      "##στικῶς": 8062,
      "βασιλέων": 8063,
      "Λακεδαιμόνιοι": 8064,
      "##ήλω": 8065,
      "τέλει": 8066,
      "Τρω": 8067,
      "τιμι": 8068,
      "πλείσ": 8069,
      "σφε": 8070,
      "##έσθω": 8071,
      "μέσου": 8072,
      "ἐβού": 8073,
      "γνῶσις": 8074,
      "##λέων": 8075,
      "##θέντα": 8076,
      "ποῖ": 8077,
      "ἀπολέ": 8078,
      "##σίῳ": 8079,
      "ἀδικεῖν": 8080,
      "μνή": 8081,
      "ἁπτ": 8082,
      "ἀπά": 8083,
      "Σαρ": 8084,
      "##ληφθ": 8085,
      "##έρχεται": 8086,
      "##δρων": 8087,
      "##ίζων": 8088,
      "##στοις": 8089,
      "##θί": 8090,
      "##θῆ": 8091,
      "διή": 8092,
      "πλοῦτον": 8093,
      "βαϲι": 8094,
      "##σίαις": 8095,
      "ἔσχεν": 8096,
      "χιτῶν": 8097,
      "ἐπισκό": 8098,
      "##φαι": 8099,
      "ξανθ": 8100,
      "##ώτερος": 8101,
      "##τική": 8102,
      "##θέσθαι": 8103,
      "δυσχερ": 8104,
      "##εῖξαι": 8105,
      "τόπου": 8106,
      "ὀφθαλμοῖς": 8107,
      "dic": 8108,
      "##όθεν": 8109,
      "δεκά": 8110,
      "διαφό": 8111,
      "##κότα": 8112,
      "λευκόν": 8113,
      "σπέρμα": 8114,
      "ἀπαλλαγ": 8115,
      "χρείαν": 8116,
      "Ἀβ": 8117,
      "##ήσονται": 8118,
      "πεποιη": 8119,
      "Ἄν": 8120,
      "τἀληθ": 8121,
      "κεκτη": 8122,
      "νύ": 8123,
      "##σμοὺς": 8124,
      "πρατ": 8125,
      "λευ": 8126,
      "##τροφ": 8127,
      "##ίην": 8128,
      "##σαφ": 8129,
      "δέον": 8130,
      "μιμ": 8131,
      "##στανται": 8132,
      "ὑπ᾿": 8133,
      "##ξειεν": 8134,
      "πρώτῳ": 8135,
      "##ϲχ": 8136,
      "##ζόμενον": 8137,
      "##ώδεις": 8138,
      "ἀναθυμ": 8139,
      "Δελφ": 8140,
      "λόγοι": 8141,
      "διαφαν": 8142,
      "##φνης": 8143,
      "καταγ": 8144,
      "νόμος": 8145,
      "im": 8146,
      "κρη": 8147,
      "μεμα": 8148,
      "##μετ": 8149,
      "συνεχὲς": 8150,
      "ἀνήρ": 8151,
      "##θῃ": 8152,
      "εἶθ": 8153,
      "κρατή": 8154,
      "##βολον": 8155,
      "ἡμέρᾳ": 8156,
      "##γεί": 8157,
      "λαμβάνει": 8158,
      "ἡνίκα": 8159,
      "Πρ": 8160,
      "καθή": 8161,
      "φιλοτιμ": 8162,
      "λά": 8163,
      "πν": 8164,
      "κατη": 8165,
      "ἐπιχ": 8166,
      "ἐγκατα": 8167,
      "##στήριον": 8168,
      "πλειόνων": 8169,
      "Ἐπειδὴ": 8170,
      "##ήνῃ": 8171,
      "Ἀριστοτέλης": 8172,
      "Ἀρίσταρχος": 8173,
      "λάβ": 8174,
      "πή": 8175,
      "θυγατέρα": 8176,
      "ῥε": 8177,
      "##ανὸν": 8178,
      "##στατο": 8179,
      "νόμου": 8180,
      "πλησ": 8181,
      "γωνία": 8182,
      "Ἀλκι": 8183,
      "θώρα": 8184,
      "ψεύ": 8185,
      "##οῖσι": 8186,
      "σκοπεῖν": 8187,
      "ἐπιστήμην": 8188,
      "φλεγμα": 8189,
      "διαλεκτικ": 8190,
      "##λαί": 8191,
      "προσώ": 8192,
      "μεταβολῆς": 8193,
      "δακτύ": 8194,
      "ἔδοξεν": 8195,
      "ποῖον": 8196,
      "χυμῶν": 8197,
      "κέ": 8198,
      "κῶ": 8199,
      "ἀφί": 8200,
      "θῆλυ": 8201,
      "γαῖ": 8202,
      "##δεια": 8203,
      "ἱππεῖς": 8204,
      "##ργον": 8205,
      "##αιδε": 8206,
      "##ανι": 8207,
      "ἄλλαις": 8208,
      "διαφορᾶς": 8209,
      "ἀργυρ": 8210,
      "ὠφέ": 8211,
      "ναί": 8212,
      "##ώδε": 8213,
      "Ἑλέν": 8214,
      "κλί": 8215,
      "##ῆκε": 8216,
      "οἰν": 8217,
      "κελεύ": 8218,
      "πρῶτοι": 8219,
      "Εὐρώ": 8220,
      "ὀργὴν": 8221,
      "ὀσ": 8222,
      "##μῇ": 8223,
      "τετε": 8224,
      "τέρ": 8225,
      "ἕξις": 8226,
      "ἀκιν": 8227,
      "##ήνων": 8228,
      "οἰκέ": 8229,
      "αὐτά": 8230,
      "##ίνη": 8231,
      "##ύσει": 8232,
      "##ούμενοι": 8233,
      "χαρακτ": 8234,
      "δίκαια": 8235,
      "ἤρξατο": 8236,
      "##λόγως": 8237,
      "##υμν": 8238,
      "μέσῳ": 8239,
      "μεγάλων": 8240,
      "τίνος": 8241,
      "Εὐριπί": 8242,
      "Φοιν": 8243,
      "##ῖαν": 8244,
      "##ύεσθαι": 8245,
      "τοιαύτης": 8246,
      "ΓΔ": 8247,
      "##λὰς": 8248,
      "##ϲω": 8249,
      "ἀνο": 8250,
      "ἐναντίων": 8251,
      "κτί": 8252,
      "##όων": 8253,
      "##λαὶ": 8254,
      "μηδαμ": 8255,
      "γενομένων": 8256,
      "##δειαν": 8257,
      "##τάς": 8258,
      "ἕτοι": 8259,
      "##λισθ": 8260,
      "##ίζοντες": 8261,
      "εἰρημένων": 8262,
      "οὐδέποτε": 8263,
      "##λῇ": 8264,
      "##ίωϲ": 8265,
      "##άνω": 8266,
      "##πειτα": 8267,
      "φανερῶς": 8268,
      "51": 8269,
      "τολ": 8270,
      "##λλειν": 8271,
      "φθον": 8272,
      "##οῦτο": 8273,
      "λέγεσθαι": 8274,
      "κεί": 8275,
      "##θρου": 8276,
      "##φθω": 8277,
      "ἀδελφῶν": 8278,
      "θηλυκ": 8279,
      "XX": 8280,
      "Θή": 8281,
      "ἑτέρας": 8282,
      "κοινὴν": 8283,
      "##ξαμεν": 8284,
      "Μενέ": 8285,
      "##υξ": 8286,
      "ἀφικν": 8287,
      "δακτύ": 8288,
      "κᾀν": 8289,
      "##σμῷ": 8290,
      "ἐκείνης": 8291,
      "ἐπικρα": 8292,
      "χιλι": 8293,
      "ὁρῶντες": 8294,
      "συχν": 8295,
      "##λατο": 8296,
      "##ούμενα": 8297,
      "##ψῃ": 8298,
      "##μακα": 8299,
      "ἐφι": 8300,
      "αὑτοῖς": 8301,
      "##σωσι": 8302,
      "Αἰτω": 8303,
      "τάχα": 8304,
      "πάσχειν": 8305,
      "πλησίον": 8306,
      "καταν": 8307,
      "Θεό": 8308,
      "ἰατρῶν": 8309,
      "ϲύν": 8310,
      "ἀό": 8311,
      "##ερα": 8312,
      "##τταν": 8313,
      "διχ": 8314,
      "διψ": 8315,
      "διατριβ": 8316,
      "ἀμφότερα": 8317,
      "σεα": 8318,
      "καλούμενον": 8319,
      "στρατόπεδον": 8320,
      "ἀγαγ": 8321,
      "##πεσεῖν": 8322,
      "εὐνο": 8323,
      "παραδε": 8324,
      "μέτρον": 8325,
      "Ἰουδαίων": 8326,
      "κῆ": 8327,
      "κάρ": 8328,
      "ἄριστα": 8329,
      "##μαί": 8330,
      "##τίου": 8331,
      "γαστρὸς": 8332,
      "μελ": 8333,
      "λειτουργ": 8334,
      "##σάμενοι": 8335,
      "##ύνει": 8336,
      "##τέρου": 8337,
      "ἐλαχ": 8338,
      "Ἔστι": 8339,
      "κατει": 8340,
      "##μού": 8341,
      "##έρου": 8342,
      "##υσον": 8343,
      "δεῖπνον": 8344,
      "##θέναι": 8345,
      "βαρύ": 8346,
      "πίστιν": 8347,
      "##ξου": 8348,
      "τοιαύτης": 8349,
      "Πη": 8350,
      "κύριον": 8351,
      "φέρει": 8352,
      "κίνδυνον": 8353,
      "ἐξουσίαν": 8354,
      "##χωρεῖ": 8355,
      "πορεύ": 8356,
      "πλάτος": 8357,
      "##υρος": 8358,
      "πάσῃ": 8359,
      "Ἐπὶ": 8360,
      "##ώμενος": 8361,
      "πατρός": 8362,
      "Λύ": 8363,
      "##υδ": 8364,
      "##πατος": 8365,
      "##στησε": 8366,
      "εἷναι": 8367,
      "χθον": 8368,
      "ἑξα": 8369,
      "##δοποι": 8370,
      "ἀρχήν": 8371,
      "λαχ": 8372,
      "μήτʼ": 8373,
      "τέλει": 8374,
      "Ἕλλησι": 8375,
      "νυμ": 8376,
      "ψα": 8377,
      "##ὶδ": 8378,
      "γράφ": 8379,
      "##ώτατα": 8380,
      "Θρᾴ": 8381,
      "sc": 8382,
      "##σίᾳ": 8383,
      "ὑπολαμβάν": 8384,
      "πρέ": 8385,
      "ἔννοιαν": 8386,
      "φή": 8387,
      "##όχ": 8388,
      "##ζεύ": 8389,
      "##ισμα": 8390,
      "κλή": 8391,
      "πλατ": 8392,
      "αἰγ": 8393,
      "κοινῶς": 8394,
      "ἀνθρώπῳ": 8395,
      "κίνησιν": 8396,
      "δαιμον": 8397,
      "Οὗ": 8398,
      "λῆ": 8399,
      "##ὰρξ": 8400,
      "##βασιν": 8401,
      "τυραννί": 8402,
      "##he": 8403,
      "##κτυ": 8404,
      "Ἀναξ": 8405,
      "ἀέρα": 8406,
      "Ἀπό": 8407,
      "ἀπον": 8408,
      "γενομένου": 8409,
      "ἀμφότερα": 8410,
      "φυσικῶν": 8411,
      "εἰώ": 8412,
      "##περι": 8413,
      "##λήθη": 8414,
      "##ησάμενος": 8415,
      "##γονται": 8416,
      "##σχεν": 8417,
      "λιπαρ": 8418,
      "δευτέρῳ": 8419,
      "##σχιλίους": 8420,
      "σῶ": 8421,
      "##όδου": 8422,
      "ἄλλῃ": 8423,
      "πορευ": 8424,
      "Ἀθηναίους": 8425,
      "ιβ΄": 8426,
      "##μπου": 8427,
      "ἐνδεί": 8428,
      "ἀκρα": 8429,
      "##ώτατος": 8430,
      "ὑπονο": 8431,
      "##ώνυμον": 8432,
      "λεγομένων": 8433,
      "δραχμὰς": 8434,
      "##κτος": 8435,
      "μικροῦ": 8436,
      "##τωσαν": 8437,
      "ἐροῦμεν": 8438,
      "ἔλαβε": 8439,
      "φρουρ": 8440,
      "54": 8441,
      "ὑγροῦ": 8442,
      "σπουδῆς": 8443,
      "##λὸς": 8444,
      "αὐτίκα": 8445,
      "πέρας": 8446,
      "ἄρχων": 8447,
      "κεφαλῇ": 8448,
      "εἰρήν": 8449,
      "ἱκανὸν": 8450,
      "Ἰσα": 8451,
      "ἀλλό": 8452,
      "παραδεί": 8453,
      "καλόν": 8454,
      "ἱστορεῖ": 8455,
      "ἀντέ": 8456,
      "Ἑλλάδα": 8457,
      "ἑτέρῳ": 8458,
      "πρώτου": 8459,
      "##φάνης": 8460,
      "Ἀριϲτοφάν": 8461,
      "νου": 8462,
      "ἄθ": 8463,
      "ἠπεί": 8464,
      "ῥυθ": 8465,
      "##έσθω": 8466,
      "##υνται": 8467,
      "ἐμὴν": 8468,
      "μεγί": 8469,
      "Παν": 8470,
      "##κευ": 8471,
      "##ρητον": 8472,
      "φιλανθρωπ": 8473,
      "ει": 8474,
      "##όρου": 8475,
      "##ότατον": 8476,
      "ποιήσει": 8477,
      "ὑπερβολὴν": 8478,
      "φροντί": 8479,
      "κν": 8480,
      "##ασι": 8481,
      "##ημον": 8482,
      "##ίσταται": 8483,
      "ἐκαλ": 8484,
      "##λιοι": 8485,
      "ταὐτόν": 8486,
      "##θέντων": 8487,
      "ἦθος": 8488,
      "ἔμελλεν": 8489,
      "φημι": 8490,
      "##ίνετο": 8491,
      "οἴεται": 8492,
      "##χθεὶς": 8493,
      "ἐνέ": 8494,
      "ὑπομέν": 8495,
      "παρακολου": 8496,
      "κριν": 8497,
      "εὐθέως": 8498,
      "εὐφ": 8499,
      "Ἀλέξανδρος": 8500,
      "ali": 8501,
      "λαν": 8502,
      "##δοσιν": 8503,
      "τοιούτοις": 8504,
      "Ἀλέξανδρον": 8505,
      "##τῇ": 8506,
      "λαγ": 8507,
      "ἡμέραις": 8508,
      "μάχῃ": 8509,
      "ἐμοί": 8510,
      "γινομένων": 8511,
      "##ότατα": 8512,
      "φαρμά": 8513,
      "##νεγκεν": 8514,
      "##ήσαντες": 8515,
      "οὐδα": 8516,
      "αὑτοὺς": 8517,
      "γιγνώ": 8518,
      "ἐντυγχ": 8519,
      "##ᾶτε": 8520,
      "παρόντων": 8521,
      "ἀληθὴς": 8522,
      "ναυσ": 8523,
      "##ell": 8524,
      "ἀγγ": 8525,
      "τετάρ": 8526,
      "κέντρου": 8527,
      "βλασφημ": 8528,
      "ῥύ": 8529,
      "συντελ": 8530,
      "##πτέον": 8531,
      "δόξα": 8532,
      "##στηκε": 8533,
      "##III": 8534,
      "βί": 8535,
      "##ϲηϲ": 8536,
      "##γαγον": 8537,
      "ἐφαρ": 8538,
      "ὄρνι": 8539,
      "ἐθ": 8540,
      "##πίσω": 8541,
      "σὰρξ": 8542,
      "##ῶσα": 8543,
      "διαλύ": 8544,
      "Σκυθ": 8545,
      "ὅπλοις": 8546,
      "##ῖνα": 8547,
      "##ρεσι": 8548,
      "##γνωσιν": 8549,
      "βίῳ": 8550,
      "νύμφ": 8551,
      "##τεί": 8552,
      "κεῖσθαι": 8553,
      "ἄφ": 8554,
      "##ισχ": 8555,
      "μετανο": 8556,
      "συγκε": 8557,
      "ἑκάστην": 8558,
      "μανθάν": 8559,
      "ἁλι": 8560,
      "##οὐ": 8561,
      "##τιστον": 8562,
      "ἁμαρτίας": 8563,
      "φαγ": 8564,
      "##οὺ": 8565,
      "##τήρ": 8566,
      "53": 8567,
      "ἄκου": 8568,
      "##μήν": 8569,
      "λέγοι": 8570,
      "πίστεως": 8571,
      "Μωσ": 8572,
      "ἐπιπ": 8573,
      "μόνῳ": 8574,
      "##κί": 8575,
      "νόμῳ": 8576,
      "##τρεπ": 8577,
      "μονογεν": 8578,
      "ῥό": 8579,
      "##έει": 8580,
      "##tus": 8581,
      "Κό": 8582,
      "ἀπιστ": 8583,
      "βουλό": 8584,
      "##κράτης": 8585,
      "δυναστε": 8586,
      "βέλτιον": 8587,
      "ψεύ": 8588,
      "ἕπεσθαι": 8589,
      "##είᾳ": 8590,
      "καἰ": 8591,
      "Θεττα": 8592,
      "##θιον": 8593,
      "ψή": 8594,
      "ἱστ": 8595,
      "##ουμένους": 8596,
      "##ραϲ": 8597,
      "διό": 8598,
      "##βατα": 8599,
      "ἀρτηρίας": 8600,
      "ῥιν": 8601,
      "##χθησαν": 8602,
      "δόξα": 8603,
      "##ῤῥω": 8604,
      "χερσὶν": 8605,
      "μοῖραν": 8606,
      "##τέρῳ": 8607,
      "##κρατ": 8608,
      "ῥοπ": 8609,
      "##γκε": 8610,
      "δεσπ": 8611,
      "συμπε": 8612,
      "αἴτι": 8613,
      "γυναικὶ": 8614,
      "ὦσιν": 8615,
      "##χειν": 8616,
      "##λωρ": 8617,
      "##μαχος": 8618,
      "γενῶν": 8619,
      "λεί": 8620,
      "φιλίαν": 8621,
      "δεινὰ": 8622,
      "ὁλο": 8623,
      "##λώ": 8624,
      "##σμῶν": 8625,
      "ἐκβ": 8626,
      "##γνυται": 8627,
      "λαὸς": 8628,
      "##ess": 8629,
      "ἀξίαν": 8630,
      "ταῖϲ": 8631,
      "##ύνειν": 8632,
      "##υστ": 8633,
      "##φρά": 8634,
      "##αλαι": 8635,
      "##νετο": 8636,
      "πλεονα": 8637,
      "ἀραι": 8638,
      "ῥᾳδίως": 8639,
      "Σολ": 8640,
      "εἶτ": 8641,
      "λίμν": 8642,
      "σωτηρίαν": 8643,
      "##ότας": 8644,
      "προὔ": 8645,
      "συνῆ": 8646,
      "ψῆ": 8647,
      "##φοις": 8648,
      "ἐπιδε": 8649,
      "ὀνόματι": 8650,
      "ῥή": 8651,
      "##ινον": 8652,
      "##τησαν": 8653,
      "εἰκόνα": 8654,
      "##αρί": 8655,
      "##θροι": 8656,
      "πλέ": 8657,
      "εἱμαρ": 8658,
      "ὄψις": 8659,
      "##άσατο": 8660,
      "##αινεν": 8661,
      "αἰτία": 8662,
      "καρδίαν": 8663,
      "##νῃ": 8664,
      "##ωσε": 8665,
      "ἀπ᾿": 8666,
      "εἴδω": 8667,
      "##θενται": 8668,
      "Ἰσραήλ": 8669,
      "βάρβαρ": 8670,
      "λέγε": 8671,
      "##πασι": 8672,
      "πρόσω": 8673,
      "ἐσκ": 8674,
      "##ικὰς": 8675,
      "##κοϲ": 8676,
      "##γαῖς": 8677,
      "ποιοῦν": 8678,
      "εἰπόντος": 8679,
      "οὐσῶν": 8680,
      "οὐσία": 8681,
      "ἄξια": 8682,
      "##άδος": 8683,
      "ἐξετά": 8684,
      "##ουμένου": 8685,
      "πρωτ": 8686,
      "τισιν": 8687,
      "εὐδαί": 8688,
      "παραμυθ": 8689,
      "δήπου": 8690,
      "ib": 8691,
      "##υε": 8692,
      "πεδ": 8693,
      "πάρε": 8694,
      "λογικὸν": 8695,
      "##ῦσιν": 8696,
      "##θεσι": 8697,
      "τέττα": 8698,
      "Πνεῦμα": 8699,
      "Ὅμη": 8700,
      "##εῖσαι": 8701,
      "ἐκείνην": 8702,
      "ὠνόμα": 8703,
      "ἔγραψεν": 8704,
      "θρόν": 8705,
      "##σμάτων": 8706,
      "λέξιν": 8707,
      "τύχην": 8708,
      "hab": 8709,
      "##θας": 8710,
      "ὑπάρ": 8711,
      "ἡμικ": 8712,
      "κινήσει": 8713,
      "##βαίνειν": 8714,
      "ἐπίσκο": 8715,
      "νῆσον": 8716,
      "Ἰακὼβ": 8717,
      "III": 8718,
      "ἐντο": 8719,
      "ἀλλαχ": 8720,
      "ἀποκριν": 8721,
      "Ξενοφ": 8722,
      "ἀε": 8723,
      "##ίσασθαι": 8724,
      "##ίσαι": 8725,
      "##πώ": 8726,
      "##ότερος": 8727,
      "##ίδων": 8728,
      "ἐπά": 8729,
      "##υτά": 8730,
      "ἰσχὺν": 8731,
      "Ἀθηναίοις": 8732,
      "ἐγχ": 8733,
      "συμφέρον": 8734,
      "ἀρχα": 8735,
      "σταδίους": 8736,
      "esse": 8737,
      "Στω": 8738,
      "κεῖν": 8739,
      "##ππα": 8740,
      "Αἰσχ": 8741,
      "ἄπειρα": 8742,
      "κράτος": 8743,
      "MT": 8744,
      "ἀναπνο": 8745,
      "##μιοι": 8746,
      "φυλῆς": 8747,
      "##θέντες": 8748,
      "##άζετο": 8749,
      "μαθὼν": 8750,
      "autem": 8751,
      "ἀμπ": 8752,
      "##ῖαι": 8753,
      "##σιππος": 8754,
      "ἀρξ": 8755,
      "γλα": 8756,
      "ὕλῃ": 8757,
      "προγ": 8758,
      "νόμι": 8759,
      "δίκην": 8760,
      "γνώμης": 8761,
      "πατρίδα": 8762,
      "βίᾳ": 8763,
      "ἀπω": 8764,
      "ἀποδιδ": 8765,
      "##οῖο": 8766,
      "##τικοὺς": 8767,
      "σφαῖ": 8768,
      "52": 8769,
      "ζημ": 8770,
      "##ολο": 8771,
      "##σμένον": 8772,
      "##όναι": 8773,
      "πεπιστε": 8774,
      "ἀγά": 8775,
      "μηδέ": 8776,
      "βουλόμενος": 8777,
      "ἐκκλησίαν": 8778,
      "φεύ": 8779,
      "##μήν": 8780,
      "ἐπερ": 8781,
      "ἐπιτελ": 8782,
      "οἷος": 8783,
      "θυμῷ": 8784,
      "ἐργαζ": 8785,
      "θυγ": 8786,
      "ἀϲ": 8787,
      "ἐοικ": 8788,
      "ἔπος": 8789,
      "ὄρη": 8790,
      "##φοι": 8791,
      "##τωϲ": 8792,
      "δυνατόν": 8793,
      "ναυμα": 8794,
      "πλείστ": 8795,
      "νεο": 8796,
      "αἰν": 8797,
      "θάτερον": 8798,
      "Ὀλυμπι": 8799,
      "ἀέ": 8800,
      "ἑταῖ": 8801,
      "καταπ": 8802,
      "Σωκράτης": 8803,
      "ξυγ": 8804,
      "##ζευγ": 8805,
      "##ύσας": 8806,
      "παρι": 8807,
      "εἶδεν": 8808,
      "##τέροις": 8809,
      "Ἱπποκράτης": 8810,
      "##κοντος": 8811,
      "##τερο": 8812,
      "διαλεγ": 8813,
      "οὐδεμι": 8814,
      "οἵτινες": 8815,
      "φέρων": 8816,
      "ἔφασαν": 8817,
      "##ηματι": 8818,
      "Ἱεροσολ": 8819,
      "Αἱ": 8820,
      "Τη": 8821,
      "##κτων": 8822,
      "##υλά": 8823,
      "ἀγχ": 8824,
      "##άζων": 8825,
      "ἑπτα": 8826,
      "##οχε": 8827,
      "##δεται": 8828,
      "περιϲ": 8829,
      "αὑτὰ": 8830,
      "κακοῖς": 8831,
      "μόλις": 8832,
      "##ωσεν": 8833,
      "##ίσθη": 8834,
      "ἐπιστα": 8835,
      "συνθέ": 8836,
      "ἱερὰ": 8837,
      "##ia": 8838,
      "πρώτως": 8839,
      "##λίαν": 8840,
      "ἡμί": 8841,
      "οἴκῳ": 8842,
      "Φιλο": 8843,
      "μεγέθει": 8844,
      "ψό": 8845,
      "ἔνα": 8846,
      "ἴνα": 8847,
      "αὐτοκρά": 8848,
      "##άνην": 8849,
      "ἐμποδ": 8850,
      "Ἕλλησιν": 8851,
      "ἆρʼ": 8852,
      "##χοντο": 8853,
      "ἐμποι": 8854,
      "ἑαυτὸ": 8855,
      "πρόσωπον": 8856,
      "πολεμεῖν": 8857,
      "χθ": 8858,
      "Δω": 8859,
      "57": 8860,
      "δέρ": 8861,
      "ἄδηλον": 8862,
      "##σάμενος": 8863,
      "ἀνω": 8864,
      "πρώτη": 8865,
      "λαμβάνειν": 8866,
      "##ύρων": 8867,
      "ἀπέχ": 8868,
      "ὁρᾷ": 8869,
      "ἀλλήλους": 8870,
      "στιγ": 8871,
      "Λευ": 8872,
      "ΠΡ": 8873,
      "##σματα": 8874,
      "##ενεχθ": 8875,
      "φέρε": 8876,
      "Λου": 8877,
      "##δρας": 8878,
      "ἐμῆς": 8879,
      "δεῖσθαι": 8880,
      "##κότων": 8881,
      "ἔδοξε": 8882,
      "ἱππέων": 8883,
      "φροντ": 8884,
      "τόνδε": 8885,
      "Δημή": 8886,
      "γρ": 8887,
      "ὀλο": 8888,
      "##χας": 8889,
      "##ττοντες": 8890,
      "προσεχ": 8891,
      "ὀνόματι": 8892,
      "##άδα": 8893,
      "##έσιν": 8894,
      "##ροφῆς": 8895,
      "##φανον": 8896,
      "λεγομένων": 8897,
      "Φρυγ": 8898,
      "θει": 8899,
      "φύλλα": 8900,
      "γέγραπται": 8901,
      "##ήσουσιν": 8902,
      "Συρ": 8903,
      "##τίθεται": 8904,
      "##ro": 8905,
      "##σκουσιν": 8906,
      "Διόν": 8907,
      "##λαμβάνει": 8908,
      "ὦτα": 8909,
      "σοφίας": 8910,
      "##φορὰν": 8911,
      "βίου": 8912,
      "##iv": 8913,
      "##ταρά": 8914,
      "##όνοιαν": 8915,
      "##αζ": 8916,
      "##όνος": 8917,
      "ὑποτε": 8918,
      "Καλλι": 8919,
      "μόνου": 8920,
      "μειζ": 8921,
      "##ίνῃ": 8922,
      "##σειε": 8923,
      "εὐλαβ": 8924,
      "υἱοὺς": 8925,
      "##ρικὸν": 8926,
      "ἁπλῶν": 8927,
      "βούλε": 8928,
      "παλαιῶν": 8929,
      "Ἰωσ": 8930,
      "ὅρους": 8931,
      "προθύ": 8932,
      "διατρί": 8933,
      "μετ᾿": 8934,
      "ἔργου": 8935,
      "##σμοῖς": 8936,
      "##ῦναι": 8937,
      "πλεῖστοι": 8938,
      "ἔτυχεν": 8939,
      "ὄργανον": 8940,
      "Γε": 8941,
      "##ρὶ": 8942,
      "ἰδίας": 8943,
      "ἑτέροις": 8944,
      "##βιά": 8945,
      "##λλε": 8946,
      "##ρχεται": 8947,
      "##τές": 8948,
      "##σθέντα": 8949,
      "βοηθεῖν": 8950,
      "##λεσε": 8951,
      "θεοφ": 8952,
      "διαφέ": 8953,
      "βούλει": 8954,
      "ἰδίων": 8955,
      "ἄκρων": 8956,
      "ζ΄": 8957,
      "τρεφ": 8958,
      "##μμασιν": 8959,
      "δώδεκα": 8960,
      "ἐπιδημ": 8961,
      "##γαροῦν": 8962,
      "Γορ": 8963,
      "ζώ": 8964,
      "##σάν": 8965,
      "διαφθεί": 8966,
      "οἶς": 8967,
      "δειχθ": 8968,
      "σπεύ": 8969,
      "ΖΗ": 8970,
      "##μὶ": 8971,
      "λέγονται": 8972,
      "##δηϲ": 8973,
      "δυνηθ": 8974,
      "ἀκρι": 8975,
      "οἴονται": 8976,
      "Ἀλεξανδρε": 8977,
      "ῥο": 8978,
      "##παλιν": 8979,
      "##τίων": 8980,
      "##όνδε": 8981,
      "χαί": 8982,
      "ἔμπαλιν": 8983,
      "##ώμενον": 8984,
      "##τιδος": 8985,
      "καθι": 8986,
      "ἡδονὴ": 8987,
      "φε": 8988,
      "ἀτυχ": 8989,
      "ἅγι": 8990,
      "##γεται": 8991,
      "##ποί": 8992,
      "δηλω": 8993,
      "κοιλί": 8994,
      "ἐξαπα": 8995,
      "##μαῖς": 8996,
      "παντί": 8997,
      "ἀριθμ": 8998,
      "εἴρηκε": 8999,
      "##ῆναί": 9000,
      "##ώσεις": 9001,
      "##λλεται": 9002,
      "ἀπεκρ": 9003,
      "κάλλ": 9004,
      "ἁμαρτω": 9005,
      "ἀξιοῖ": 9006,
      "ἑτέρα": 9007,
      "##ητικὸν": 9008,
      "##τικαὶ": 9009,
      "διδόναι": 9010,
      "εἰρημένα": 9011,
      "##πίων": 9012,
      "##ητοῦ": 9013,
      "τροχ": 9014,
      "##th": 9015,
      "πορθ": 9016,
      "sunt": 9017,
      "ἡμέ": 9018,
      "ἀποδοῦναι": 9019,
      "ἐπιστήμης": 9020,
      "ἐτύγχαν": 9021,
      "ἡνί": 9022,
      "##τουν": 9023,
      "οὖσιν": 9024,
      "##θεῖσαν": 9025,
      "##στειλεν": 9026,
      "τοιοῦτο": 9027,
      "##στῶτα": 9028,
      "##icht": 9029,
      "ὁκό": 9030,
      "##τέρους": 9031,
      "##τολὰς": 9032,
      "παντάπασιν": 9033,
      "οὐθὲν": 9034,
      "λεγόμενα": 9035,
      "ναυμαχ": 9036,
      "Ἡρώ": 9037,
      "εἰληφ": 9038,
      "γενόμενοι": 9039,
      "πεπλη": 9040,
      "κρατεῖν": 9041,
      "μεταβ": 9042,
      "συλλογ": 9043,
      "εὐθέως": 9044,
      "ψύ": 9045,
      "##γραμ": 9046,
      "##ξη": 9047,
      "μεμν": 9048,
      "##ρείου": 9049,
      "##υθῆναι": 9050,
      "αἰσθαν": 9051,
      "φέρεται": 9052,
      "μηκέτι": 9053,
      "##ώτων": 9054,
      "διεσ": 9055,
      "προέ": 9056,
      "##πεί": 9057,
      "Θεσσα": 9058,
      "ὀνομάζ": 9059,
      "φόβον": 9060,
      "διαιρετ": 9061,
      "ὥϲπερ": 9062,
      "##σσαν": 9063,
      "##σουσιν": 9064,
      "##ῖναι": 9065,
      "αὐγ": 9066,
      "γενόμενος": 9067,
      "τάχιστα": 9068,
      "λαμβάνει": 9069,
      "μεταβολὴν": 9070,
      "οὐσιῶν": 9071,
      "λέγοι": 9072,
      "##πτουσιν": 9073,
      "##ίης": 9074,
      "ἀδελφὸς": 9075,
      "Ἑλλάδος": 9076,
      "ἐνεργεῖν": 9077,
      "Ἐμπε": 9078,
      "ὑπεν": 9079,
      "γενικ": 9080,
      "ἀγωγ": 9081,
      "κοινῶν": 9082,
      "πόθεν": 9083,
      "πιεῖν": 9084,
      "ἄρχοντα": 9085,
      "Ἀριϲτοφάνηϲ": 9086,
      "ἐπιφάν": 9087,
      "μηδεὶς": 9088,
      "to": 9089,
      "##ώδεις": 9090,
      "##ώτερα": 9091,
      "##μένῃ": 9092,
      "ὁρᾶται": 9093,
      "ηὔ": 9094,
      "εὐσ": 9095,
      "ἐρῶ": 9096,
      "σχέ": 9097,
      "ΒΑ": 9098,
      "##χονται": 9099,
      "##ξομαι": 9100,
      "##ug": 9101,
      "ποιήσας": 9102,
      "ἡγεῖσθαι": 9103,
      "κόσμῳ": 9104,
      "ὀνόματος": 9105,
      "##σο": 9106,
      "##κερ": 9107,
      "##σθην": 9108,
      "χρῶ": 9109,
      "##tion": 9110,
      "δήμῳ": 9111,
      "Πομπή": 9112,
      "ἄπ": 9113,
      "ἐκλε": 9114,
      "μάτην": 9115,
      "χάρι": 9116,
      "κρίσιν": 9117,
      "55": 9118,
      "Πύ": 9119,
      "σʼ": 9120,
      "ἱμά": 9121,
      "ἴσας": 9122,
      "##άνειν": 9123,
      "ὑποδ": 9124,
      "ἀρτη": 9125,
      "al": 9126,
      "φοιν": 9127,
      "ἀμαθ": 9128,
      "##φην": 9129,
      "##ὲϲ": 9130,
      "παρεμβ": 9131,
      "θή": 9132,
      "λυσι": 9133,
      "ἐμε": 9134,
      "##λωτ": 9135,
      "τεί": 9136,
      "νύκτα": 9137,
      "##άδες": 9138,
      "##ουϲι": 9139,
      "##ποντο": 9140,
      "ἐρυ": 9141,
      "μόνην": 9142,
      "ὀρθα": 9143,
      "τετραγ": 9144,
      "##λόγως": 9145,
      "Ἀφροδίτης": 9146,
      "##θοϲ": 9147,
      "καθα": 9148,
      "προσῆ": 9149,
      "##enn": 9150,
      "ἀμύ": 9151,
      "οἰκείαν": 9152,
      "τέκνον": 9153,
      "##τριος": 9154,
      "##ειον": 9155,
      "προσηγ": 9156,
      "κινήσεως": 9157,
      "κακόν": 9158,
      "πόλεις": 9159,
      "εἰρήνης": 9160,
      "βούλομαι": 9161,
      "##σημ": 9162,
      "##τιθέ": 9163,
      "λεγόμενα": 9164,
      "##ιλίων": 9165,
      "ἀπλαν": 9166,
      "διαφέρ": 9167,
      "κληθ": 9168,
      "μοιχε": 9169,
      "Πατρ": 9170,
      "ποταμὸς": 9171,
      "φαρμα": 9172,
      "ἔπι": 9173,
      "##κουσα": 9174,
      "βασιλείαν": 9175,
      "φίλοις": 9176,
      "στρατηγὸς": 9177,
      "ἄξιος": 9178,
      "ψαλ": 9179,
      "##ρισα": 9180,
      "καταπλα": 9181,
      "κυρίως": 9182,
      "ἐνίοτε": 9183,
      "ὀσφ": 9184,
      "##́ν": 9185,
      "σελήνης": 9186,
      "ἔγραψε": 9187,
      "ὀκν": 9188,
      "δύναι": 9189,
      "λαβόντες": 9190,
      "ἡδὺ": 9191,
      "Δε": 9192,
      "ἐμφ": 9193,
      "##παθ": 9194,
      "##ττουσιν": 9195,
      "τελευταῖον": 9196,
      "##άμ": 9197,
      "πατρῴ": 9198,
      "ποταμῶν": 9199,
      "χρείαν": 9200,
      "ἠρ": 9201,
      "ἀποδο": 9202,
      "πολλῇ": 9203,
      "##δυνος": 9204,
      "ἔδω": 9205,
      "ἕρ": 9206,
      "παραστ": 9207,
      "##μβανε": 9208,
      "ἄρχεται": 9209,
      "πρᾶξιν": 9210,
      "ποιήσασθαι": 9211,
      "##τείας": 9212,
      "##λλὰ": 9213,
      "ἀνωμα": 9214,
      "##γνυ": 9215,
      "##ine": 9216,
      "γραφῆς": 9217,
      "ἀό": 9218,
      "##ίσθη": 9219,
      "##ίσκ": 9220,
      "##δραν": 9221,
      "μακά": 9222,
      "λόγοι": 9223,
      "κρατ": 9224,
      "ἑτέρῳ": 9225,
      "συλλογισμὸς": 9226,
      "ἀνάλογον": 9227,
      "##ρώων": 9228,
      "ἔλαβον": 9229,
      "##όμενοϲ": 9230,
      "##τατα": 9231,
      "εὐε": 9232,
      "ἀργύριον": 9233,
      "ἰδιώ": 9234,
      "##ητέον": 9235,
      "##τικήν": 9236,
      "##ούσῃ": 9237,
      "οὐσίᾳ": 9238,
      "##ορον": 9239,
      "##λόν": 9240,
      "##ήσαντο": 9241,
      "##ῆσις": 9242,
      "Πελοπονν": 9243,
      "ἀμοι": 9244,
      "##λησιν": 9245,
      "##θημα": 9246,
      "γινόμενον": 9247,
      "ἴσμεν": 9248,
      "χερσὶ": 9249,
      "##ωτέρω": 9250,
      "τείχους": 9251,
      "##έος": 9252,
      "εἰωθ": 9253,
      "τελέ": 9254,
      "ἀπολλ": 9255,
      "πεδίον": 9256,
      "οἰκεῖα": 9257,
      "αἰτίων": 9258,
      "δόξῃ": 9259,
      "εἰρημένον": 9260,
      "ἐκέλευσεν": 9261,
      "Σκύ": 9262,
      "Τού": 9263,
      "τετρά": 9264,
      "παράλλη": 9265,
      "ἀγγέ": 9266,
      "λουτρ": 9267,
      "λίαν": 9268,
      "##θησ": 9269,
      "πατήρ": 9270,
      "ψυχαῖς": 9271,
      "στεφάν": 9272,
      "ἐκκλησίας": 9273,
      "Δαρ": 9274,
      "ἄφθαρ": 9275,
      "##ττι": 9276,
      "##δά": 9277,
      "ὀξύ": 9278,
      "ἐμαυτὸν": 9279,
      "ἄγε": 9280,
      "ἄγων": 9281,
      "περα": 9282,
      "τρόπος": 9283,
      "ἄγαλμα": 9284,
      "στρά": 9285,
      "ἑτερ": 9286,
      "ἥκειν": 9287,
      "ὅτῳ": 9288,
      "##mati": 9289,
      "αἱρέ": 9290,
      "ἑτέρους": 9291,
      "τυρανν": 9292,
      "ἄστρων": 9293,
      "##ῆλον": 9294,
      "##ῶντος": 9295,
      "##σθι": 9296,
      "##ίνοντα": 9297,
      "ψυχῶν": 9298,
      "ψυχροῦ": 9299,
      "sed": 9300,
      "Πρω": 9301,
      "##ήσαντα": 9302,
      "##αρχος": 9303,
      "ἀμυ": 9304,
      "##ήρεις": 9305,
      "ἀθάνα": 9306,
      "μείζονος": 9307,
      "ὑποθέ": 9308,
      "σοφιστ": 9309,
      "ἱππο": 9310,
      "ὀμφ": 9311,
      "ὀνεί": 9312,
      "ὑλικ": 9313,
      "ῥι": 9314,
      "τοιγαροῦν": 9315,
      "τυχὸν": 9316,
      "ὀνόματα": 9317,
      "προσήκει": 9318,
      "ἰσημεριν": 9319,
      "ἑτέρα": 9320,
      "##ῃσιν": 9321,
      "γλώ": 9322,
      "καθαρὸν": 9323,
      "τέχνης": 9324,
      "φιλοσό": 9325,
      "##τοπ": 9326,
      "ἀναρ": 9327,
      "μέλλ": 9328,
      "πάθους": 9329,
      "##υλλαβ": 9330,
      "χαίρειν": 9331,
      "θέλει": 9332,
      "58": 9333,
      "ὡρα": 9334,
      "##μματι": 9335,
      "ἀπολ": 9336,
      "πόρρω": 9337,
      "Κῦρος": 9338,
      "##ρατον": 9339,
      "ἐπεν": 9340,
      "εἴπῃ": 9341,
      "##δικα": 9342,
      "ἐμῶν": 9343,
      "πάθους": 9344,
      "ἑκὼν": 9345,
      "πλείονα": 9346,
      "Δημοσθένης": 9347,
      "βλαβ": 9348,
      "δείκνυται": 9349,
      "Μέν": 9350,
      "##ήσεων": 9351,
      "χρῆναι": 9352,
      "##ττονος": 9353,
      "ἀρετῇ": 9354,
      "##κείμενα": 9355,
      "ἀμα": 9356,
      "##λίᾳ": 9357,
      "##κτους": 9358,
      "##όδῳ": 9359,
      "##εῖσθε": 9360,
      "θεω": 9361,
      "καλά": 9362,
      "σπερ": 9363,
      "ἑσπ": 9364,
      "##ανά": 9365,
      "ἐκκ": 9366,
      "οὖσαι": 9367,
      "ἔνδο": 9368,
      "ὕπαρ": 9369,
      "ἐπων": 9370,
      "βασί": 9371,
      "##μοιο": 9372,
      "θεωρεῖται": 9373,
      "στρατηγὸν": 9374,
      "Φίλιππος": 9375,
      "νω": 9376,
      "εὐφυ": 9377,
      "γῆρας": 9378,
      "πολιτείαν": 9379,
      "Ἑρμῆς": 9380,
      "φθορᾶς": 9381,
      "χρώμενος": 9382,
      "com": 9383,
      "ζή": 9384,
      "σῆς": 9385,
      "ἀλκ": 9386,
      "##ιά": 9387,
      "ἀπολω": 9388,
      "##ξεσιν": 9389,
      "ἀγαθοῖς": 9390,
      "ζῴοις": 9391,
      "enim": 9392,
      "προσχ": 9393,
      "γινόμενα": 9394,
      "##ρυς": 9395,
      "ὀγδο": 9396,
      "ζῇ": 9397,
      "##νά": 9398,
      "##λωσιν": 9399,
      "κάμν": 9400,
      "συνεχῆ": 9401,
      "ἔρωτα": 9402,
      "##σσιν": 9403,
      "δεκα": 9404,
      "##ούμεθα": 9405,
      "στρο": 9406,
      "ἁπά": 9407,
      "θαυμά": 9408,
      "##ληπται": 9409,
      "φάναι": 9410,
      "ἀστε": 9411,
      "##ιμ": 9412,
      "##φν": 9413,
      "πολύ": 9414,
      "οἶνος": 9415,
      "##γγέ": 9416,
      "ἀρκεῖ": 9417,
      "##δεκά": 9418,
      "οὔθʼ": 9419,
      "τόποις": 9420,
      "##ύλα": 9421,
      "##γη": 9422,
      "συνουσ": 9423,
      "εἰρή": 9424,
      "ἔμελλον": 9425,
      "ἀτιμ": 9426,
      "ἀνδρα": 9427,
      "##δίοις": 9428,
      "##onym": 9429,
      "ἁπλοῦν": 9430,
      "τυγχάνει": 9431,
      "ἐπιστήμην": 9432,
      "60": 9433,
      "##όμεν": 9434,
      "ἐξη": 9435,
      "##πονται": 9436,
      "προσφ": 9437,
      "ψυχήν": 9438,
      "Ἰνδ": 9439,
      "βλε": 9440,
      "Ἀκα": 9441,
      "προϋ": 9442,
      "εἴδε": 9443,
      "##τική": 9444,
      "νομιζ": 9445,
      "Ἰουδαῖοι": 9446,
      "ann": 9447,
      "λανθάν": 9448,
      "προτά": 9449,
      "πιστο": 9450,
      "ἀσφα": 9451,
      "##πτοντα": 9452,
      "Ἰταλίαν": 9453,
      "IV": 9454,
      "ὁρίζ": 9455,
      "προκείμενον": 9456,
      "ἀφαιρε": 9457,
      "πόλει": 9458,
      "πόλις": 9459,
      "πόλεμος": 9460,
      "βουλὴν": 9461,
      "##πτουσι": 9462,
      "ἀτὰρ": 9463,
      "Λακ": 9464,
      "Ἄρης": 9465,
      "##τιά": 9466,
      "##τηται": 9467,
      "##μοί": 9468,
      "##στατος": 9469,
      "σφαίρας": 9470,
      "Σκι": 9471,
      "νῷ": 9472,
      "##σφα": 9473,
      "θεά": 9474,
      "τέμν": 9475,
      "λοξ": 9476,
      "πέμπ": 9477,
      "Μωυσῆς": 9478,
      "Πορ": 9479,
      "προπε": 9480,
      "##τροις": 9481,
      "μάλι": 9482,
      "ἀληθοῦς": 9483,
      "ἐποιεῖτο": 9484,
      "ἀλλοτρ": 9485,
      "ἀκριβε": 9486,
      "##pl": 9487,
      "ἐνοχ": 9488,
      "##θεος": 9489,
      "μένει": 9490,
      "ἡγοῦμαι": 9491,
      "θαυμάζ": 9492,
      "προστί": 9493,
      "ἔτυχε": 9494,
      "ill": 9495,
      "##δεϲ": 9496,
      "παρὸν": 9497,
      "##υρίαν": 9498,
      "ὀρθο": 9499,
      "##χώ": 9500,
      "##hil": 9501,
      "##όντως": 9502,
      "##άνης": 9503,
      "παρακε": 9504,
      "δυνάμεων": 9505,
      "pro": 9506,
      "παρεῖναι": 9507,
      "##σκό": 9508,
      "ἐχρή": 9509,
      "φιλίας": 9510,
      "ἡλικίαν": 9511,
      "2220΄": 9512,
      "ἐφέ": 9513,
      "χρόνους": 9514,
      "σύμ": 9515,
      "##ῶντας": 9516,
      "##εῖοι": 9517,
      "##υμάτων": 9518,
      "##στερος": 9519,
      "αἰσχρὸν": 9520,
      "ἐλπίδα": 9521,
      "Καρχηδόν": 9522,
      "πλείονα": 9523,
      "ἔμ": 9524,
      "κεραυν": 9525,
      "##τμη": 9526,
      "μελε": 9527,
      "οὐδεμίαν": 9528,
      "##καίδεκα": 9529,
      "Θου": 9530,
      "##μοσ": 9531,
      "δυνατόν": 9532,
      "γέγραπται": 9533,
      "πλεονεξ": 9534,
      "##θρώ": 9535,
      "αὑτὴν": 9536,
      "γεγονὼς": 9537,
      "στρατιὰν": 9538,
      "σταθ": 9539,
      "ἀθά": 9540,
      "κίνησις": 9541,
      "εὐθείας": 9542,
      "re": 9543,
      "ἰέναι": 9544,
      "##fic": 9545,
      "γνώμῃ": 9546,
      "ὑπομν": 9547,
      "##ho": 9548,
      "##θεον": 9549,
      "ὅσων": 9550,
      "αὐτόθι": 9551,
      "61": 9552,
      "Qu": 9553,
      "ἕξεις": 9554,
      "##όδους": 9555,
      "##θέναι": 9556,
      "##σθεῖσα": 9557,
      "ἐρή": 9558,
      "γεγόνα": 9559,
      "ἁπα": 9560,
      "##μιος": 9561,
      "##λαμβάνει": 9562,
      "ἰσχυρῶς": 9563,
      "##ύμως": 9564,
      "##γμασιν": 9565,
      "δεξιὸν": 9566,
      "σπέρματος": 9567,
      "συμβουλεύ": 9568,
      "ὄρους": 9569,
      "##tum": 9570,
      "##λεκται": 9571,
      "##δεσθαι": 9572,
      "##σαιτο": 9573,
      "##νεκα": 9574,
      "##ρέθη": 9575,
      "μακρὸν": 9576,
      "ἐπάγει": 9577,
      "##ίδος": 9578,
      "##ὺξ": 9579,
      "μένει": 9580,
      "πρώτης": 9581,
      "ὁποῖ": 9582,
      "νίκην": 9583,
      "Φιλίππου": 9584,
      "φαι": 9585,
      "ἧπαρ": 9586,
      "##ᾶσαι": 9587,
      "ἐπηγ": 9588,
      "Λευκ": 9589,
      "Ἀγαμέμν": 9590,
      "Ταρ": 9591,
      "##σθὲν": 9592,
      "ἀνυ": 9593,
      "ἐκρά": 9594,
      "συνθή": 9595,
      "##πίσω": 9596,
      "θο": 9597,
      "προκατα": 9598,
      "παρεῖ": 9599,
      "##θετος": 9600,
      "##τρυ": 9601,
      "##ύνας": 9602,
      "φιλα": 9603,
      "σοφὸς": 9604,
      "ἀμπε": 9605,
      "ἐλεύθερ": 9606,
      "ἔδωκε": 9607,
      "##πτέον": 9608,
      "##φή": 9609,
      "##ῆος": 9610,
      "##ζαν": 9611,
      "##τεῦθεν": 9612,
      "ἀποδεικν": 9613,
      "ναὶ": 9614,
      "ἄρχοντας": 9615,
      "διάστημα": 9616,
      "Πνεύματος": 9617,
      "τέκνων": 9618,
      "##πτοντες": 9619,
      "ἀκολουθεῖ": 9620,
      "φέρεται": 9621,
      "##θο": 9622,
      "##γκα": 9623,
      "αἰτί": 9624,
      "Καί": 9625,
      "ὁρμὴν": 9626,
      "##iss": 9627,
      "ἔμελλε": 9628,
      "ἔρημον": 9629,
      "Δά": 9630,
      "Δή": 9631,
      "φυτῶν": 9632,
      "ὅδε": 9633,
      "σχήματι": 9634,
      "ἐπειδή": 9635,
      "ναῦν": 9636,
      "κόσμος": 9637,
      "τέχνην": 9638,
      "ips": 9639,
      "Εἴ": 9640,
      "ἐθα": 9641,
      "##γέν": 9642,
      "##εῖπον": 9643,
      "ποιοῦντες": 9644,
      "συμπτ": 9645,
      "σοφι": 9646,
      "##άγειν": 9647,
      "ἄμ": 9648,
      "ἄντικ": 9649,
      "ἰδίᾳ": 9650,
      "διανοίας": 9651,
      "μισθὸν": 9652,
      "Αἰθι": 9653,
      "πύλας": 9654,
      "Μὴ": 9655,
      "Συν": 9656,
      "ῥά": 9657,
      "##έϲ": 9658,
      "ταλαι": 9659,
      "ἐπιδεικν": 9660,
      "οὔκ": 9661,
      "ἐμέ": 9662,
      "ἑαυτόν": 9663,
      "##ῶνι": 9664,
      "κοῖ": 9665,
      "##άγεται": 9666,
      "στεφαν": 9667,
      "λείπει": 9668,
      "##ωχ": 9669,
      "ἐξομ": 9670,
[...]
