[PAD]
[UNK]
[CLS]
[SEP]
[MASK]
[LB]
!
"
#
$
%
&
'
(
)
*
+
,
-
.
/
0
1
2
3
4
5
6
7
8
9
:
;
<
=
>
?
@
A
B
C
D
E
F
G
H
I
J
K
L
M
N
O
P
Q
R
S
T
U
V
W
X
Y
Z
[
\
]
^
_
`
a
b
c
d
e
f
g
h
i
j
k
l
m
n
o
p
q
r
s
t
u
v
w
x
y
z
{
|
}
~













£
¦
§
¨
ª
«
¬
­
¯
°
±
²
³
´
¶
·
¸
¹
»
½
¿
Á
Ä
Æ
È
É
Ë
Ì
Í
Ò
Ó
Ö
×
Ú
Ü
ß
à
á
â
ä
æ
ç
è
é
ë
ì
í
ï
ò
ó
ô
ö
÷
ù
ú
ü
ý
ÿ
Ā
ā
ć
Ď
ď
ĕ
ě
ī
Ĺ
ō
Œ
œ
ŕ
š
ū
ŭ
ź
Ƒ
ǁ
ȳ
ɛ
ʰ
ʳ
ʹ
ʼ
ʽ
˘
˙
˝
ˡ
ˢ
ˣ
̀
́
̄
̅
̆
̇
̈
̊
̓
̔
̠
̣
͂
̈́
ͅ
͎
͞
ʹ
͵
;
΄
΅
Ά
·
Έ
Ή
Ί
Ό
Ύ
Ώ
ΐ
Α
Β
Γ
Δ
Ε
Ζ
Η
Θ
Ι
Κ
Λ
Μ
Ν
Ξ
Ο
Π
Ρ
Σ
Τ
Υ
Φ
Χ
Ψ
Ω
Ϊ
Ϋ
ά
έ
ή
ί
ΰ
α
β
γ
δ
ε
ζ
η
θ
ι
κ
λ
μ
ν
ξ
ο
π
ρ
ς
σ
τ
υ
φ
χ
ψ
ω
ϊ
ϋ
ό
ύ
ώ
ϐ
ϖ
Ϙ
ϙ
Ϛ
ϛ
ϝ
Ϟ
ϟ
Ϡ
ϡ
ϥ
ϲ
Ϲ
І
З
О
П
С
б
ё
ј
Ҁ
ҁ
ҏ
Җ
ҝ
Ҫ
Ү
ұ
Ҷ
ӄ
Ӕ
ӕ
Ө
ө
ֹ
ל
܎
ݲ
ត
ហ
ឲ
ា
ិ
េ
ᵃ
ᵅ
ᵇ
ᵈ
ᵉ
ᵊ
ᵍ
ᵏ
ᵐ
ᵒ
ᵖ
ᵗ
ᵘ
ᵛ
ᵝ
ᶜ
ᶠ
ᶦ
ᶹ
ḍ
ḿ
ṃ
Ẃ
ẃ
ẉ
ạ
ụ
ỳ
ἀ
ἁ
ἂ
ἃ
ἄ
ἅ
ἆ
ἇ
Ἀ
Ἁ
Ἂ
Ἃ
Ἄ
Ἅ
Ἆ
Ἇ
ἐ
ἑ
ἒ
ἓ
ἔ
ἕ
Ἐ
Ἑ
Ἒ
Ἓ
Ἔ
Ἕ
ἠ
ἡ
ἢ
ἣ
ἤ
ἥ
ἦ
ἧ
Ἠ
Ἡ
Ἢ
Ἣ
Ἤ
Ἥ
Ἦ
Ἧ
ἰ
ἱ
ἲ
ἳ
ἴ
ἵ
ἶ
ἷ
Ἰ
Ἱ
Ἲ
Ἳ
Ἴ
Ἵ
Ἶ
Ἷ
ὀ
ὁ
ὂ
ὃ
ὄ
ὅ
Ὀ
Ὁ
Ὂ
Ὃ
Ὄ
Ὅ
ὐ
ὑ
ὒ
ὓ
ὔ
ὕ
ὖ
ὗ
Ὑ
Ὓ
Ὕ
Ὗ
ὠ
ὡ
ὢ
ὣ
ὤ
ὥ
ὦ
ὧ
Ὠ
Ὡ
Ὢ
Ὣ
Ὤ
Ὥ
Ὦ
Ὧ
ὰ
ά
ὲ
έ
ὴ
ή
ὶ
ί
ὸ
ό
ὺ
ύ
ὼ
ώ
ᾀ
ᾁ
ᾂ
ᾃ
ᾄ
ᾅ
ᾆ
ᾇ
ᾈ
ᾌ
ᾍ
ᾎ
ᾐ
ᾑ
ᾒ
ᾓ
ᾔ
ᾕ
ᾖ
ᾗ
ᾘ
ᾙ
ᾜ
ᾞ
ᾟ
ᾠ
ᾡ
ᾢ
ᾣ
ᾤ
ᾥ
ᾦ
ᾧ
ᾨ
ᾩ
ᾬ
ᾮ
ᾯ
ᾰ
ᾱ
ᾲ
ᾳ
ᾴ
ᾶ
ᾷ
Ὰ
Ά
᾽
ι
᾿
῀
ῂ
ῃ
ῄ
ῆ
ῇ
Ὲ
Έ
Ὴ
Ή
ῌ
῍
῎
῏
ῐ
ῑ
ῒ
ΐ
ῖ
ῗ
Ῐ
Ῑ
Ὶ
Ί
῝
῞
῟
ῠ
ῡ
ῢ
ΰ
ῤ
ῥ
ῦ
ῧ
Ῡ
Ὺ
Ύ
Ῥ
΅
`
ῲ
ῳ
ῴ
ῶ
ῷ
Ὸ
Ό
Ὼ
Ώ
ῼ
´
῾
​
‌
‐
‒
–
—
―
‖
‘
’
‚
‛
“
”
„
‟
†
•
…
′
″
‵
‹
›
※
‾
⁄
⁎
⁑
⁠
⁰
ⁱ
⁴
⁵
⁶
⁷
⁸
⁹
⁽
ⁿ
₄
€
№
™
ℵ
Ⅰ
Ⅱ
Ⅲ
Ⅳ
↑
∗
√
∠
∣
∴
∼
∾
⊏
⊔
⊙
⊢
⊣
⊤
⊻
⋃
⋆
⋇
⋖
⌈
⌉
⌊
⌋
⌞
⌟
〈
〉
⎡
⎤
⏑
⏒
⏓
⏔
⏕
⏝
─
═
║
△
○
◻
★
☼
☾
☿
♀
♂
♃
♄
✝
✶
❮
❯
⟦
⟧
⟨
⟩
⥼
⥽
⦵
⨆
⩚
⩹
⫯
⸢
⸣
⸤
⸥
⸨
〈
〉

ﬀ
ﬁ
﻿
（
）
＊
－
｢
𐅵
𝒢
𝒮
𝔮
𝕷
##α
##ν
##ύ
##χ
##ι
##ο
##ρ
##ά
##σ
##μ
##ε
##π
##ά
##λ
##έ
##κ
##τ
##έ
##ό
##η
##ς
##ϲ
##υ
##ή
##ώ
##ῶ
##̓
##δ
##ω
##́
##ῤ
##ῥ
##φ
##θ
##ῖ
##ψ
##ό
##᾿
##ύ
##ὲ
##Δ
##Γ
##Β
##γ
##r
##a
##e
##n
##o
##s
##c
##ξ
##ί
##ί
##ῳ
##t
##u
##9
##6
##ὺ
##ῆ
##ζ
##ὰ
##j
##ἐ
##ὸ
##ῷ
##ῃ
##b
##ʼ
##ᾳ
##ή
##β
##ὐ
##ώ
##᾽
##ῦ
##̣
##Κ
##i
##ἷ
##ϋ
##ὶ
##p
##h
##y
##l
##d
##ὴ
##Ο
##ἰ
##Π
##ἶ
##ΐ
##g
##V
##Ω
##Ρ
##Τ
##Ε
##Σ
##Ι
##Λ
##Α
##Ὦ
##Μ
##Ν
##ᾶ
##1
##5
##7
##ϊ
##0
##ᵃ
##ἤ
##x
##m
##ὑ
##ἠ
##3
##X
##ῇ
##v
##k
##w
##ä
##ὼ
##f
##ἀ
##ἱ
##Ἀ
##ᾷ
##ŕ
##ἴ
##Η
##ὅ
##ὀ
##͂
##Υ
##4
##̀
##ͅ
##ἡ
##Θ
##ῄ
##ὠ
##̄
##ῒ
##̔
##ἵ
##ü
##Φ
##ὁ
##⎤
##ὔ
##8
##I
##ʹ
##´
##ἔ
##ϛ
##ᾑ
##O
##Χ
##F
##2
##U
##ἄ
##ἑ
##΄
##ῴ
##P
##Ἔ
##⁸
##ᾱ
##ö
##ὖ
##q
##Ζ
##ἦ
##ὤ
##ὡ
##H
##ݲ
##N
##ὕ
##͞
##C
##ᾆ
##E
##M
##R
##✶
##Ψ
##ΰ
##△
##Ἄ
##ᾴ
##A
##B
##Ἦ
##ἢ
##ὄ
##Ἥ
##ὃ
##Ϛ
##⌞
##⌟
##ἥ
##ἅ
##Ἰ
##L
##z
##ἁ
##Ξ
##ῑ
##ὥ
##ὗ
##ᾐ
##∠
##ὂ
##̅
##˝
##ù
##ᾀ
##Q
##T
##ἂ
##ΐ
##͵
##ϟ
##D
##S
##K
##­
##ϝ
##Ὑ
##ᾖ
##ῲ
##𝒢
##é
##ʹ
##Ἐ
##ὧ
##⁷
##Ὤ
##ἒ
##ß
##Ή
##ἲ
##Ἡ
##Ϟ
##῀
##´
##Y
##ἕ
##ᾗ
##²
##Ἕ
##ᾠ
##𝔮
##ě
##ἓ
##˘
##¯
##⁴
##ῗ
##ι
##ΰ
##æ
##á
##Ὄ
##Ἱ
##̈
##¨
##ἣ
##ë
##G
##£
##ò
##J
##ó
##∣
##‌
##Ῥ
##ῐ
##ὣ
##ἆ
##ᾧ
##Z
##Ὅ
##Ά
##¹
##ὦ
##ὓ
##ϥ
##¬
##ῡ
##Ἴ
##Ϡ
##῾
##Ἑ
##Ò
##⁰
##Ὀ
##ἇ
##˙
##Ὴ
##ᾄ
##
##
##ⁱ
##ᾲ
##Ἵ
##
##
##Ἁ
##W
##Ί
##ᾕ
##ï
##ἃ
##Ὠ
##Ὁ
##ᾡ
##ἳ
##Ἤ
##Ὡ
##ᾤ
##Ἅ
##⁶
##ἧ
##Ί
##à
##ὢ
##ῂ
##³
##ῧ
##Ώ
##῎
##ĕ
##Ὕ
##Ώ
##ὒ
##ú
##Ϊ
##Ä
##Έ
##Ϲ
##Ἢ
##ᾃ
##⁵
##⁹
##Ë
##ῢ
##Ú
##ᾬ
##í
##⁄
##═
##῟
##ᾔ
##ﬀ
##ῠ
##Ἃ
##ᵅ
##Í
##ᵇ
##Ὰ
##š
##Ó
##Ή
##ᾦ
##`
##Ἓ
##ⁿ
##ﬁ
##ϡ
##ý
##ᾥ
##Ὺ
##
##ֹ
##ᵗ
##ῌ
##Ẃ
##Ἠ
##Ҁ
##ឲ
##ិ
##ត
##ា
##Ύ
##Ü
##ÿ
##ᾅ
##ª
##̆
##è
##Ὸ
##↑
##ϐ
##ạ
##
##
##̇
##ᾂ
##ᾣ
##°
##ʰ
##ᵍ
##ʳ
##Ἂ
##ᾇ
##¦
##×
##Ό
##ç
##∾
##Ὃ
##Ἧ
##ᾁ
##ҁ
##
##Ὶ
##ˡ
##Ἆ
##¸
##​
##ל
##Ῐ
##Ὲ
##ḿ
##ᵛ
##Ϋ
##ᵐ
##∗
##Ἒ
##Ἶ
##ᾒ
##ᵝ
##Ἣ
##ᾰ
##ŭ
##Ӕ
##Á
##⁠
##ј
##ᶠ
##⊻
##ʽ
##₄
##Ό
##ῼ
##΅
##○
##ḍ
##È
##ˢ
##Ὥ
##῏
##Ì
##ć
##⎡
##ᵉ
##΅
##ǁ
##Ἷ
##Έ
##É
##ᶜ
##܎
##ҏ
##ď
##Ď
##̠
##Ὢ
##Ө
##б
##Ҫ
##ё
##ᵈ
##῍
##О
##ұ
##ź
##̊
##Ү
##ө
##№
##Ὧ
##ᾨ
##œ
##ᾘ
##ā
##Æ
##ẃ
##
##Ĺ
##
##Œ
##ẉ
##Ά
##ì
##ᵏ
##ᵖ
##Җ
##ҝ
##Ҷ
##П
##ᾓ
##√
##ỳ
##ᾌ
##ī
##⊢
##̈́
##ṃ
##ụ
##Ā
##Ὣ
##ហ
##
##І
LB
κα
##ον
καὶ
##τα
το
##το
##ει
##ου
##ων
##ῶν
##αι
τὸ
##εν
##αν
##ιν
##τε
δὲ
##οι
##ος
##τι
##λλ
πρ
##ὴν
##ρα
τοῦ
##εῖ
ἐπ
αὐ
##ερ
##ῆς
ἐν
οὐ
δι
##μα
##στ
τῶν
##ται
εἰ
##οῦ
##ας
τὴν
##ὸς
τὰ
##έν
##σι
##σθ
##μεν
##ως
##ὲν
ἀν
ἀπ
αὐτ
πα
##ῖς
τῆς
##ρι
##ὸν
##σιν
μὲν
##ὰρ
γὰρ
##λε
##ην
##υν
ἐκ
##όν
τὸν
ὑπ
##των
τε
##ης
##ὺς
##τος
##ειν
πο
##έν
με
προ
κατ
##ομ
τῷ
##ους
##σθαι
περ
##ρε
ἀλλ
τα
##σα
##σε
##κα
##εῖν
##λα
##ρον
ὡς
εἶ
##τον
##δε
αὐτο
##άν
πρὸς
##ίν
##ικ
τοῖς
##όν
##ναι
εἰς
##λη
##τες
##υμ
##οις
ἐπὶ
##σαν
τι
ἐπι
παρ
##τη
κατὰ
τοὺς
##ορ
##αρ
μὴ
##μέν
οἱ
##εται
ὅτι
οὐκ
τῇ
##ίν
##ρο
##λι
##κε
διὰ
ἐξ
##ῶς
##έρ
δια
ἔχ
περὶ
##ίας
οὐδ
##του
##ρχ
συν
ἄλλ
##να
##λο
##θε
ἐστ
ἀπο
##ρη
ἡμ
οὖ
θε
##στι
##κο
##τοι
##ρί
εἴ
τὰς
##έγ
##περ
##σει
##οῦν
εἶναι
εὐ
χρ
ἀνα
##μο
##ίαν
##τας
οὖν
καθ
ἄν
##γα
ποι
##άν
##μέν
τοῦτο
##τρ
##τικ
##στα
##υτ
##πε
##αλ
##με
κατα
τιν
##γον
##θρ
ἀλλὰ
##στε
αἰ
##σαι
##μενος
οὕ
πολλ
##τω
##σχ
##ησ
δʼ
αὐτοῦ
##γε
##έρ
παρα
##δα
##μενον
ἀπὸ
##υχ
δε
ἂν
γε
##ῦτα
##τως
##ίας
##θη
##ού
ἐγ
μετ
##μον
##πο
##ομέν
##υρ
##πον
τοι
##δι
στ
##τερον
πλ
##ὰς
##υγ
##νε
οὔ
##λον
περι
##σκ
τού
συμ
##ρας
μη
ὄν
πό
γεν
##ρά
##ίων
βα
##ῖν
ὑπὸ
προσ
##ελ
##ίαν
##θεν
##λου
αὐτῶν
##σεως
λέγ
##ωρ
ἐμ
##άρ
##σας
ταῦτα
##έγ
##ᾶς
##λέ
##θα
##υσ
πάν
##πα
πε
οἷ
##ημ
##ία
##ργ
##αντ
##εὶ
##σις
αἱ
##δο
##εσθαι
ἐστιν
##σον
##ματα
αὐτῷ
##ὼν
##ός
##υκ
τρ
##λει
##ὶν
ἀφ
##ήν
ἦν
ἀρχ
τις
##σμ
ὑπο
λε
##της
##τοῦ
##κρ
αὐτὸν
##ματος
οὗ
##γν
παρὰ
λα
λό
##δρ
##δη
##λιν
ἐστι
##μφ
οἰ
τού
##μι
κε
##εῖς
μετὰ
δυν
##την
##τέ
δὴ
##λλον
δέ
οὕτως
##ὰν
κο
##μβ
βασι
λέγ
ἐφ
μέ
##αγ
##μενοι
##ηγ
ἑα
##ομέν
##ίου
##ία
##ού
##κι
πά
οὐδὲ
##που
κιν
##ξι
##ύν
##ολ
ταῖς
##δει
μα
ψυχ
ἀγ
##ητ
μετα
μηδ
##πτ
##σης
##βα
καλ
##ουσι
πᾶ
##πλ
##τερ
##οντα
##ίζ
##σπερ
δο
##κει
##φα
##ωτ
##γι
φα
πάν
##ουσιν
ἐλ
##δος
ἀκ
##ὶς
##αις
ὑμ
##πει
##ῦν
λό
##ίᾳ
τό
##μά
ἐκε
##τῳ
φι
ἀνθρ
##ραν
μέ
##ός
ὥσπερ
##οφ
οὔτε
##χε
##ηρ
##ταν
αὐτοῖς
##στο
τί
πολ
##πι
οὐχ
ἀγα
##γκ
Κα
πά
ὧν
ἐς
ὁμο
λόγ
νῦν
ἔχει
##άρ
##ῆναι
##στιν
##μν
##τέρ
διαφ
##λος
##ηκ
δύ
##ίων
##μπ
##ίκ
##σεις
##λων
##δον
δεῖ
μᾶ
ἔν
##τοις
οὕτω
##σω
##er
##ες
##χθ
##ειδ
##εις
##μενα
τέ
##στον
πλε
##ματι
μᾶλλον
##ησιν
##ποι
##ών
##ίου
φησ
πρῶ
##οντες
##θος
ἔτι
##εῖται
κακ
##λί
στρα
##τά
μά
##υθ
σφ
##ληθ
νε
οἶ
##μην
##λογ
##τους
γν
##βε
##ονται
οὐδὲν
##ριον
##ξε
##τί
ὥστε
##φθ
##πος
ἀγαθ
##κά
##ρω
##σσ
Θε
##γεν
αὐτὸς
δύ
##σται
δέ
μεγ
##θρω
εἰσ
##ρου
##εῖσθαι
##αί
οἷον
μοι
ἑαυτ
##ίζ
μόν
##τʼ
ἀλλʼ
##ῆν
##λά
πρό
##ατ
##όμενος
##μη
λόγ
εἰπ
ὁρ
ἐπεὶ
ἄρα
κοιν
##ετο
##άτων
##οϲ
αὐτὸ
##οὶ
##αιν
##en
##ὲς
τά
ἀδ
##σκε
φυ
##εί
ἰδ
##τέ
ἀμφ
##ττ
ἐρ
ἔστι
ἔφ
μόν
τοια
##έχ
##οί
τό
##σεν
ἡμῖν
##άζ
##ομεν
##οὺς
συγ
##σί
φύ
συ
##θέ
##μων
##μοι
##σεται
##κν
##ξα
##σῃ
αὑ
κρ
ἀκο
βου
τούτων
##άγ
##πό
σὺ
ἐκεῖν
ὅταν
ἀρ
##έχ
νο
##ήν
δοκ
μή
μέν
##μεθα
τί
##ξαν
##ραχ
αὐτῆς
ὀν
##ευ
##ῆσαι
##κτ
##οῖς
##ίᾳ
##όντων
σκ
ἵνα
ταύ
##ηθ
συνε
##ττον
##ειρ
ἀντ
αὐτοὺς
ἐχ
ἤδη
φύ
##ρων
οἰκ
##τῶν
τρι
##λή
##όμενον
##θι
παντ
##τέρ
##δί
##πων
γυν
##λαι
δη
αὐτὴν
##us
ἀντι
ἄνθρω
Δι
##ρος
γίν
##μένων
##κεν
##ὲρ
##μου
ὀρ
ὑπὲρ
##ηται
##ωμα
κύ
##εύ
οἴ
βασιλε
##ικρ
σχ
πῶς
##θει
##ραμ
ὑπερ
##δω
##ὴς
##ημα
ἐκείν
αἴ
ἐστὶν
ἐστὶ
υἱ
πέ
##ριθ
##οντος
ἐπειδ
ἔστιν
πρῶτον
##μαρ
πάντα
γέν
##τῃ
θερ
##οῦς
##λω
##υπ
##παν
##νη
γέν
##αῖ
πρό
πό
##ίως
##λαβ
ἀληθ
λοι
ἔσται
σε
νό
αἰσθ
οὐσ
μι
##ουσα
αἰτ
##um
ἡμῶν
##αιρ
##ομα
ἀνθρώ
δῆ
##λιστα
πι
πρὸ
##όμενον
τούτων
##ραφ
ἄρ
##πί
ἐναντ
ἀναγ
ἔχειν
##κό
##άρχ
##άζ
Αἰ
##λους
##ti
ἄλλων
##ρετ
ἅμα
##ότη
##εῖον
ἄλλο
γιν
##ᾶν
##κον
##μάτων
##ρισ
##λέ
εἴη
##οῦτον
##ροφ
##κου
##ῶμα
##βολ
##γει
##ξει
ἀντὶ
σω
παρε
ἕκα
καρ
ἐγὼ
ἐπιστ
Ἀθ
##θέν
εὐθ
##μαι
χρόν
##ύν
##λυ
δό
##θεῖν
ἐὰν
##πέ
μέν
##πεν
μὴν
φαν
θεοῦ
τέ
ἀσ
νομ
ἀνά
ὅλ
##ῆϲ
##αυ
ἑαυ
##άλλ
##δας
##τά
##λικ
ὅπ
φθ
##ῖον
παι
##λεύ
##μένων
##τή
ἱερ
γίν
##τερα
##ρά
##on
##λό
ταύ
##εσ
Ἀν
##χρι
γάρ
##μοῦ
τινα
##ξιν
##φαλ
##δων
##λοι
παν
##λί
πνε
ἡμᾶς
##δρα
##ίους
##στη
##μος
##ιον
πλη
ἀπε
##ομένων
κατε
##θυμ
##ακ
οὗτος
##υρί
ἐπειδὴ
##ὼς
ἐπε
##ομαι
μέγ
ὑπάρχ
κό
λο
##it
λαβ
##is
##έναι
ἀεὶ
##ξω
πόλε
##κά
##ουσ
##πν
ἔφη
##ριος
##φαν
ἣν
Καὶ
ἀριθ
μόνον
Περ
##δό
λεγ
καί
τοῦτον
##ὴρ
διε
σου
χρη
κἀ
##σαντες
##σκευ
##σθεν
σοφ
οἷς
πάντα
##δου
μή
##οῦσιν
##λευ
ἐκείν
##ίον
ἴσ
μου
##σασθαι
##λφ
αὖ
##ίως
φιλο
##λθ
##ότη
τιμ
##οντο
##σατο
##δες
ἀνδρ
##ριστ
πολλὰ
εὑ
##ια
σοι
##τιον
πάλιν
ἀνά
##όντων
##ήσ
δύνα
βο
σῶμα
##ρηται
εἰπεῖν
##τὸν
δύνα
ἔρ
σώ
##οῦσι
##θέ
##ρέ
ὃν
ὅπερ
##άτων
##κλ
##στερον
##όντες
ὅσα
##χν
##ίοις
##οντας
χρόν
##es
λοιπ
##βου
ἀναγκα
και
δυ
##γμα
##ησεν
πολι
##σθε
##θεὶς
δυνά
##ηγορ
σα
χα
##δέ
##τελ
ἀμ
##όμενοι
φί
μόνον
πολε
##ρικ
##λαμβ
##ιβ
ἐπί
##πω
##μάτων
##και
##χα
μικρ
##ρες
##μψ
εἶπεν
τρί
μά
##ξαι
##οῖ
##μῶν
##θαν
δύο
βαρ
##κλη
αὐτὰ
ἅπαν
συλλ
πολὺ
##λαν
##μένον
##λης
Εὐ
##βεβ
##ίον
##ταῦ
##πῳ
##μὸν
##γων
##τικὸν
Ἀθην
διδ
ἀνε
ἀδε
ἑν
##em
γῆς
##οῦντες
λέ
##κις
##λύ
ἰσχ
τουτ
##έσθαι
##εῖα
σώ
##μιν
οὐραν
ἀνθρώ
ὅπως
##χον
##τηρ
τούτου
Ῥωμα
μέρ
##ξῆς
##θν
##τό
χωρ
ὀρθ
πάλιν
##σθη
σὺν
πᾶν
##at
##χος
##έβ
ὑγ
##φορ
##ίῳ
ἐνερ
##άμενος
βουλ
##λοις
πατρ
εἰκ
φων
τοσ
εὔ
δα
##ταῦθα
οὐδε
εἰρη
γίνεται
μηδὲ
λαμβ
ἑκά
##ρια
ἓν
##όμενος
ἁπ
##in
σύ
λόγον
##or
ὅτε
να
πολεμ
##ρὸν
##τὸς
τρό
ποτ
##ωρί
αὐτῇ
##ῆσθαι
##ρασ
μηδὲν
πάντων
##διον
##an
ὄντα
ἀρετ
##άρχ
ἁπλ
προφ
μάλιστα
##ύς
##ϲι
εἰδ
##πους
##ύχ
Ἀρι
##καν
ταὐ
ἔλε
νό
##κος
ἀδελφ
##ισ
##γγ
##στά
ἄλλα
##λῶν
##ησι
δικα
##τερος
##μῳ
##δωρ
δει
##ψε
##λην
κύ
φησιν
χρὴ
##ών
σημ
##ωγ
πυρ
##μως
δυνά
διὸ
ὃς
##οιτο
##ομένων
##ειαν
##θεί
##ῆμα
##έων
πατ
διά
##οί
γάρ
δῆλον
πρώ
τότε
##ραγ
##κοπ
τά
ἔξω
##φε
τελε
##μή
ἡγ
in
κά
##φυ
μεγά
κρα
##έναι
τοῖ
##δαι
κά
ἁμαρ
εἶτα
ἄνω
ἀπέ
ἕτερον
θέ
##θʼ
Πα
προσε
##ίσ
ὑμῖν
##δης
##τιν
λευκ
ἄγ
δοκεῖ
ἄρχ
πέ
δίκ
Ἑλλ
σι
##θή
##όρ
μον
##στικ
##μοὶ
ἐκεῖ
##τεῖ
πόλιν
ἤτοι
##κων
##ριβ
τούτοις
ἀξι
##μένου
##οχ
##ρόν
##άσ
ἀνάγκ
κεφαλ
##λά
##οσ
ἐνταῦθα
##μένους
##ίῳ
ζη
##τυχ
##αβ
##λασ
##ξεν
##κοντα
ἑκα
ἑαυτοῦ
ὅσ
γυναι
λι
qu
ὑμῶν
ἀλλή
Οὐ
αὑτ
ἐσ
##οῦσα
βασιλέ
##ic
λόγον
σπ
εἶδος
τοιαῦτα
##θους
φρον
δή
##χι
φιλ
ἔχων
##ωϲ
##μει
ὄνομα
κατηγορ
##τί
γοῦν
ἄνθρωπος
πρά
ποτα
##άγ
##am
##λού
τρό
Ἀρ
##ὕτη
##έον
##υφ
##ήσεως
##ακε
γῆν
##λακ
ἔκ
τούτου
ἑτέρ
ἐπʼ
##αί
ψυχῆς
ἐλε
##ωσιν
δό
οἵ
ἕκαστον
##ζον
διαφορ
εἰρ
##τέον
ἐξε
##μένον
ἵπ
δύο
##πη
ἀμφο
##οβ
ἐδ
οἰκε
πρώ
##τει
##νατον
##στή
φύσιν
##σθω
χώ
τινὰ
##βά
##αρχ
ποτε
αὕτη
πραγ
εἴρηται
τινος
##μόν
##ήσει
ὀξ
ὀλί
ἄνδ
##ηϲ
ζω
et
##μασιν
λέγει
μέρ
##μένου
##τοϲ
Ἰου
ποιεῖν
##ρακ
##ίνει
##κρα
τετ
##μό
διά
ἀπό
ἕνε
δυσ
##σεων
μερ
γεγον
ὕδα
ὑφ
ὅσον
ἑκά
τοιοῦτον
ποιεῖ
ὀργ
εἴτε
##καλ
##βαλ
##δυν
##λκ
εὖ
##όλου
πρότερον
##φων
παῖ
γρά
##ποις
τροφ
δί
λέγειν
##ξας
##τέρα
κυ
πλῆ
δί
θα
##ίοις
##πλη
##λας
##ἂν
##δόν
##ήσει
##ῶσιν
##όμενα
##οῦντα
##ρει
στρατι
##μασι
καλῶς
θη
εἰϲ
δ᾿
##φρον
ταῦ
##σπ
ὕδωρ
τῆϲ
ἀρχὴν
##άντων
ἡδον
διʼ
##ομένου
χεῖ
##ῦμα
##λή
##ξις
ἀπορ
ἀκού
δυνατ
μυ
##μένη
στα
λέγει
##λλα
παρʼ
##τατον
##ορε
ἔπει
##ρυ
##μης
##σιον
##θον
##ur
ἄλλως
##θαι
##δῶν
##οιαν
δειν
##μους
##τρον
κἂν
γα
πον
ἁρ
κεν
κό
λόγος
##λῳ
##βεβηκ
##ησις
##ανα
οὐδʼ
##αρκ
##ζε
ὄντος
##άς
##όμενα
##μά
ὀφθ
##δεί
##τηγ
λόγος
παντὸς
ὢν
##σσα
##έα
##ιος
##ρό
ὄντων
##στου
##βο
ἐνδ
ὑμᾶς
##χει
βραχ
φησὶν
##σονται
##ar
##ήσας
ἀρχῆς
##ήσεται
##στά
Αἰγ
συνεχ
ἀδικ
γίνεται
κω
##ουσαν
##st
ἕως
##ξεως
οὗτοι
##έον
##φέ
##σθέν
πεν
δευτ
##γνω
πολλῶν
##σὶ
##μένην
##θεῖ
ὅλως
εἰσιν
ἐγέν
γεγ
πάντων
βού
##λιον
ἀπό
##ταις
##μέ
πόλει
ἡμεῖς
θεὸς
στε
##ae
ζῷ
κίν
ταύτην
##σεσθαι
καθʼ
##ουν
Ἀριστο
##αρτ
τούτοις
ὀνομ
ἔγ
συλλο
##φερ
μήτε
ἅπα
##λεί
ἢν
ἐγγ
##οῦνται
ὕστερον
γενέσθαι
##δὸν
πρεσ
##θῆναι
##ήματα
##νο
##ρῶν
##σοφ
χει
##ρώ
##δικ
##χωρ
τρί
##θησαν
φησι
τούτῳ
ἐλα
ἑτέρ
ὅμοι
πολέ
ἀπα
γενέ
##μένα
Ἰησ
ἄπει
##τεύ
εὑρ
##ητικ
##ομένους
##ρους
ὂν
κατέ
##τοῖς
##ποτε
εἷ
##παρ
χρυσ
##γισμ
φανερ
##εῦ
##δους
τοιού
ἡμέρ
ἧς
ὑπάρχ
γυναικ
πλῆθος
##λις
ἐνε
##υγχ
##ῤῥ
συνα
##ίνει
τινες
γλ
θυμ
τίς
ποτὲ
ὁμοίως
##εί
##έρας
Κύ
##πί
ἐπικ
θεῶν
##κατα
πυ
ὀφθαλ
##ραπε
γυναῖ
μάχ
##φρο
ἀλλή
##τεῖν
##θέν
τοιοῦ
γνώ
εὐθὺς
##κρά
αἵ
μαν
σπου
δεί
μέντοι
οὓ
ἐπί
##ότι
##ωπ
##λιπ
φυσι
μορ
πλεῖ
Εἰ
##υμα
ζῴ
καί
σύ
##ξεις
##μένοις
κυρ
Θεοῦ
ἔστ
οἳ
##ότητα
##όντα
##ρῳ
παλαι
Ἰουδα
##ῦρ
που
Περὶ
##ληθε
##ταί
καθόλου
σαφ
θυ
γραμ
ἔργ
ἑξῆς
ἦσαν
##οικ
ὅθεν
##δαιμον
θεωρ
Με
##τρε
ἀνάγκ
ἄλλοις
συμβεβηκ
##ικὸν
ὡϲ
##un
παντὶ
##ψα
θαν
##μένος
λέ
##φει
ὁμολογ
##ϲιν
##ιστ
θερμ
##πέ
μεταξ
αὐτοὶ
ἀκριβ
δραχ
ἀνθρώπων
##ροῦ
##λεγ
##εῖτο
οὐδεν
λύ
##ελθ
ἀνέ
##ίνεται
##υσεν
κατʼ
##κρά
##ίνυν
ὅλον
##βά
οὓς
γραφ
##κεί
##οπ
λί
##ομένη
σημα
καθά
##ασ
μέχρι
φησὶ
Χριστ
ὁμοίως
##λλων
##ίστ
τοίνυν
##σου
##μεναι
δυνα
στρατηγ
##ψιν
##ch
βά
ἑαυτὸν
##στος
##δέ
ἐλά
αὖθι
ἱκαν
πλὴν
##ημι
##τό
δικαι
χαλ
θά
##δια
##ητῶν
ἐκκλη
ἔδει
θαλ
ἀνδ
##ίνεται
χρε
##νή
##υμέν
##ούσης
##όντος
συμβα
##βάλλ
##ίους
πᾶσαν
τοὐ
##ύειν
λέγεται
ἱπ
##li
ἐπιθυμ
##φέρ
εἰσι
##τεροι
10
πρᾶ
μακρ
##ουργ
##ρέ
##σια
##ϲα
λέγων
ἡγε
λογ
ἄξι
πολλά
Σα
ἔμπ
πει
##τὰ
ἐνδε
καρδ
##κας
##έως
##σίας
διαν
##ομένης
βασιλεὺς
##τις
##οῦντας
##ις
##τοῦν
##σαντος
##ραπ
τοίν
κοι
τοίνυν
πῦρ
##ήσεται
πάντες
##θεί
ἐπα
ἄνθρωπον
στοι
ἔχον
ἁμαρτ
χρόνον
μάλιστα
ταχ
##ρή
τρόπον
##ιοι
ἁπλῶς
##ίαϲ
λέγεται
τίν
##ψαν
λέγειν
##ήρ
τουτέ
##ὺν
ἐπέ
##πειν
ὑγι
κύκ
##όνων
πόλεως
##τυ
ψευ
##χαν
ἀλλ᾿
##οιν
αὐτόν
##ωσ
##κό
##as
μεθ
αἰσχ
##ίνειν
ἀστ
μέρος
##κρι
##κνυ
##ομένου
##φάν
##ροι
χειρ
##os
##πτον
καθάπερ
##ῆλ
ἔσχ
##μερ
##ττειν
##σῶν
##et
τἀ
μαρτ
##αὶ
ἔργον
##οῦμεν
##βη
##ιλ
##δεί
##οῦντος
ἐϲ
πεπ
πρότερον
τʼ
ἀληθε
βε
ἀργ
μείζ
παρά
θεὸν
##πτε
διδα
γί
##ύειν
ἔχοντα
##λῃ
##ιζ
##γέ
##ταῖς
##κέ
##δην
γι
αἷ
ἐνεργε
##ῶμεν
##μένης
κομ
δεξι
ἄνευ
##μεως
##qu
##ρισμ
##λοῖ
μεταξὺ
Ἰσ
πί
ἐμοὶ
##ῦσαι
αὖθις
καθαρ
τελευτ
εἴπερ
##λαμβάν
##εὶς
ΑΒ
ἕν
##ρὸς
ἐφε
τύχ
##σιος
ἐφʼ
αἴτιον
μαθη
##σος
ἐπαν
##εύ
ἰσ
##κτικ
πράγ
ξηρ
##λεῖ
παρέ
νοσ
θεραπε
##ᾶται
ἀγν
##ωμεν
##ῖοι
κατασκευ
##δομ
ἀμε
Ἕλλ
##ύχ
##μοὺς
ἱστο
##αῖς
ἔπειτα
φέρ
##αυμα
##ὸϲ
##όμενοι
γενν
χαλε
πιστε
##νί
τοιαύ
κατο
ὀλί
##ρόν
##έρα
##κεί
μήτε
τοιαύ
τούτῳ
σώματος
ἄλλοι
##μὸς
##τοὺς
ἴσον
ἴσως
##ήματα
ἐντε
ἐποί
##ϲθαι
ἕνεκα
##πά
πρὶν
##σαντο
ἔλα
χωρὶς
παιδ
ἀγαθὸν
ἀδύ
φύσιν
τοσοῦτον
##ττε
##ότα
ἀναγκαῖον
##ᾶσθαι
##ονα
##ησε
##ηφ
##θεσιν
##έρα
μέρος
##σκειν
κατά
ἐμοῦ
##λώ
συμβ
γυμ
##ίαις
##νου
πολλοὶ
##ρίαν
##πεσ
ἀξ
##τικο
κακο
##ριστοῦ
ὑποκει
θέ
##ίνων
##πό
##μένα
##ύς
##ρεσιν
##μειν
##αγγε
##ησαν
##τια
πᾶσι
αὔ
ταύτην
τότε
ζῷον
λέγων
##πτου
##κται
ἁγ
ὑπό
##φον
προει
ἐλά
οὐδεὶς
νέ
οἶμαι
λοιπὸν
ἀνάγκη
λά
ἀθ
ἐγένετο
##σὶν
##ότητα
##ότι
φυσικ
##ψαι
ἑνὸς
ἔστω
κατά
##τή
##ρεν
γιγν
φορ
##τρου
##λῆς
##ρν
τρόπον
##μένοι
##λύ
##ῖος
##ομένην
Σω
ἀποδ
11
ἄνδρες
πολλοὺς
δεῖν
##μοις
##μῷ
τυγχ
##im
λόγου
ὅμως
##εῖναι
εἰσὶ
ἧττον
τινὶ
##ττα
##ικῶν
Λακε
κοινων
δύναμιν
μέντοι
##μῃ
ἐκεῖνο
##τέρων
##om
##ταχ
##μένοις
μό
##τόν
##λό
##ίαις
##μοῖς
##χρ
##πορ
ἀνδρῶν
##λλει
##ομένοις
##ῖα
##ψας
σκε
##σίαν
πρεσβ
##ῶσι
##λογον
εἰπὼν
##όϲ
λέγον
##ντων
##μαν
##τικῆς
εἶπε
##ότητος
καθά
πᾶσιν
ἀποστ
ἄνδρα
μνη
##σαις
τοιού
ἐκεῖνος
σκοπ
##μένην
τυχ
##ύων
##δά
##ρεται
##ec
τινὸς
γέγ
φοβ
##σαντα
##ὺϲ
##ὴλ
ἀγνο
γένος
##αχ
##σκει
##el
κρε
##κρο
##ηκεν
##ξατο
ψυχὴν
οὐχὶ
διέ
λαβεῖν
λόγῳ
##άκις
Ἰσρα
ἄτο
##id
##άς
νυκ
Φι
τρο
##πλα
##ρᾳ
ἄλλη
λαμβάν
πατρὸς
##σῳ
##ούμενος
δίκαι
ἐξα
##δʼ
τοσα
χωρί
λαμπ
##χεν
μεγά
##ύκ
##θειαν
Χριστοῦ
Πο
##ταγ
τίς
αὐτὴ
ταύτης
##άμενοι
##δοκ
##φος
τρεῖς
##οντι
##κειται
##λιος
πάνυ
##στην
##ήσεις
μεταβολ
13
πᾶσα
πνεῦμα
χάρ
##ήσ
πάντας
λέγω
##δοξ
ἔνθα
12
βού
πρά
##μις
##τέρα
ὑπε
ἄλλους
##ίσ
ἕνα
##ed
γέ
χαλεπ
##ενε
ὑπʼ
##τρέ
##τικὴν
βασιλέως
χι
##όμεθα
##πεται
νοῦν
##τέρας
μῆ
ξυν
τίν
κἀκ
προσα
καθάπερ
Ἀλε
ὑψ
##θαρ
μηδεν
##ίνειν
θεῷ
##ῃς
##αιρε
ἐλευθ
##γραφ
ἐσθ
πολλάκις
##άνα
θά
ἑαυτῷ
##ορα
##φά
##στῳ
φά
ἀδύνατον
μείζ
τόν
ἐποι
##νυ
πολυ
ἐπιστή
Αἴ
σαρκ
##έτι
ὕδατος
εἰσὶν
##ήσεως
##ίη
μέγα
##κειν
##όλου
##ίω
τυρ
κλ
##ol
##ταί
##μένη
##έρας
σμ
##έρων
##τικῶν
πορε
ἐκείνου
ὑπάρχειν
κάλλ
##τρο
ἀπει
##τρί
ἐσχ
ἐνεργ
##στασιν
##θων
ἔοι
ὥς
ἀνὴρ
##ούς
##ιδ
##λού
γίνεσθαι
##ίζειν
##μένῳ
##σεβ
ἐξέ
φιλοσοφ
##μένης
##δρος
##ψει
ἅπαντα
φαρ
##τός
δυνάμει
##τύ
##όμα
μικρὸν
##άντων
##εὺς
##λεύ
γενέσθαι
##ίχ
##φελ
γῆ
Ἰω
21
σελ
##σί
##θου
##χειρ
##μμα
πλή
##κού
ὑπό
δυνατὸν
χάριν
##τόν
λόγῳ
θαυμα
##ῦθεν
ἐπισ
##θῶν
##ρην
ὀδ
ἄπειρον
σύν
ποσ
βιβ
##οισι
##μετρ
##od
##ούσης
πολιτε
σώματος
φυγ
##τρα
ϲυν
κάτω
##οδ
ἡμέρας
θαυμ
22
##στις
δοῦ
ἔπ
15
πέν
καρπ
πί
λαμβάν
##εια
##ήσας
ὀλίγ
ἑαυτῶν
##II
ἔθ
εἷς
Τα
##οδον
Ἀντι
##σθῆναι
ἔχοντες
οὖσα
##ψεν
##φύ
ἡμέρ
##λαμβάν
##ούμενον
17
τινὲς
##γέν
pr
##ότα
λεπτ
##ρύ
Μα
Ἐν
χρή
##μένῳ
ἴδιον
κεκ
##τρὸς
##οῦσαν
πονηρ
##θῇ
##νης
Ῥωμαίων
##υλ
##βρα
##εσιν
##ut
##στρα
γρά
γεγεν
αὑτοῦ
##ολογ
14
##μὴν
##τωρ
ὁδ
##όντες
ὅπου
ἀσθεν
ἰσχυρ
ὑπάρχει
##λεν
##έχεται
φύσει
φέ
##ζειν
διαιρ
ἄλλου
Ἀλλ
λύ
οὔσης
##ιστα
περί
ψευδ
προειρη
##ητε
ὑμεῖς
τήν
γά
ἀκολου
##ρού
ἐστίν
τουτέ
ποιή
##ριζ
ἀποφα
ταύτῃ
σχε
##λγ
συλλογισμ
##ati
##μένους
##ττων
##κες
##ρθ
##γαγ
τούτους
ση
##φυκ
αὐτὰς
σπουδ
##λαγ
##χθη
φαντα
ἐφεξῆς
##έτι
##ότης
##μί
αἰσθητ
##στὸν
##άμενος
ἐκεῖνον
##όνων
##άσ
γένος
##σταν
ἐλθ
##φι
ῥᾳ
Ἱπ
##όμεθα
πᾶς
περιε
διανο
φησίν
##υρίου
σημεῖον
##ῶδες
##τολ
##κη
ἀ
μό
##ρεσθαι
δεικν
##ομένη
##τρά
γαστ
Il
πεί
##ροϲ
νικ
πως
##ηλ
16
τέλος
τύ
ὑγρ
θυγα
δικαιοσ
##ροσθεν
##οιο
##νεσθαι
ἐνέρ
##πτει
##αμ
αὐτό
ὁπο
συνέ
προτά
πάσχ
φερ
##ῶνα
Τὸ
πολλάκις
λει
ὁμοι
##λίου
λόγου
an
γων
δείκνυ
##βι
προε
ἔχουσι
##λεται
##πτειν
##ῶσαι
πατρί
γνώ
κηρ
χερ
ὁρῶν
σχῆμα
ἔξωθεν
δύναμιν
##ῶϲ
ἐνέργει
δρ
##ομένης
λί
##ήνων
βι
ἄλλος
##κτον
ἀποκ
ὀρθῶς
##καὶ
##σύν
καλου
##ότερον
κακῶς
##ές
##ίνου
βαρβ
οὐδέν
##ταὶ
ἡμε
##τιμ
##λθον
##δεν
##κην
##γρά
th
##ροῖς
ὁπό
στά
πολλοῖς
πυκ
καθε
ἵν
##ροὺς
φυλά
Ἑρ
##ῆται
##τικὴ
πεποι
ἃς
##λεί
##λόγ
πανταχ
νη
##θά
##δή
##al
ἰα
##ϲε
ὀστ
##υμέν
##ιστον
δύναται
ἐπαιν
φαιν
εἴδη
##σμα
προσθ
Ἱερ
χαλκ
πάντως
##μῆς
δηλοῖ
##ροις
πνεύ
##ῦς
πλέον
ὄντες
τινι
##νον
##γνεται
##έων
ταὐτὸν
##τρι
##πτο
κίν
ἀρι
ἔργα
##ψεως
##λειαν
χορ
##ονε
ἐγκ
πύ
μεῖ
λόγων
ἐργ
##εργ
ἐμὲ
λόγους
μέχρι
ἐπιτη
ἐναρ
θύ
##αντι
ταύτης
##λατ
##ραι
ὅσοι
##χου
οὖσαν
ἐ
φῶς
Ἀθηναῖ
##φέ
μην
##φά
##ότητος
##σκων
ποιητ
δεύ
ἔμπροσθεν
18
##όντας
ὁμοῦ
πολλῷ
##ναντ
χαρ
δηλον
##κείμενον
##μαχ
##έλ
οἰκο
##ωρη
##θὲν
οὐδέ
##ήσεις
ὠν
##βρ
##ημάτων
Δη
##ώς
##τέρων
##δεκα
##ίαι
ἐκείνων
εἶνα
ὀνό
ἰδι
νομίζ
τοῦτ
πλευρ
οὐκοῦν
ὑπομ
##ήγ
βίον
κοινὸν
βοηθ
##γεσθαι
ἑπ
ἀπέ
##ταρ
σωτ
##ελθεῖν
κακῶν
##θάν
##θετο
σκλη
τοῖϲ
##ξῃ
##υτὸν
πατὴρ
##κριν
σοῦ
κόσμ
δι᾿
εὐχ
##σμον
##βαλλ
##όνα
φησί
ἀγαθῶν
Ἀπο
##τευ
μεγα
ὕλης
##μπε
##σίας
νεκρ
Τοῦ
κλη
ἀνάγκη
τέχν
##ές
Ἀριστοτέ
20
υἱὸς
τοιούτων
ἄκρ
μετε
δαι
##ονο
τινας
δημο
##ότερον
ἀκρο
μει
τῆ
19
##σων
ξύ
##ib
δεσ
##έρει
##ῆλθεν
ΣΩ
##στή
φό
πόν
ἄλλην
νοῦς
πόλεμον
##ληφ
δεί
καίτοι
di
λαβὼν
##νι
##ϲαν
##σά
##ψις
##λλά
φύσει
δή
τόπον
##άρων
##δί
ἐλπί
χρόνον
##έως
##μφω
Fl
##έντα
χώραν
ἐντεῦθεν
##ητον
ἀνάγκης
##βάλλ
γυμν
ἡλικ
γλυκ
##τεϲ
ἔτη
τόπον
##ηκό
ἀπʼ
Ἀχ
##σταται
##ul
##στει
##πεί
εὕ
δώ
##λιϲ
πρῶτος
αἷμα
Πολ
Πε
φασιν
ψυχὴ
##ώτερον
##λυμ
##κυ
σφα
##άνδρ
πόλις
ἐνδεχ
ἐμα
κτ
φεύ
ἀκριβῶς
##θή
##φειν
του
Παρ
λη
ad
##δό
##έντες
ἐπιμε
Ὅτι
ἀνθρώπων
χυμ
##οῦσαι
ἔπε
παχ
ἀρχὰς
ζῆν
ἑπτ
ὁρισμ
##ημιουργ
Μακε
##έα
##ώτα
ἀρχὴ
##ής
ξέν
##υπτ
ἀνὰ
ὥστ
ἐκέ
##ξασθαι
μαρτυρ
μεσ
ἀληθὲς
προσέ
##ικῆς
Διον
διπλ
σαφῶς
##αίων
κινήσεως
οὐσίας
##οῦται
παρασκευ
ἐγέν
##ωτῶν
ὀνό
παιδε
ἄμφω
μετʼ
πεπο
δω
##ent
##ύτερον
##τέρας
ἔθν
χά
κελεύ
##άζειν
##δύ
γέ
##λέγ
##λιγ
ἄλλον
βελ
φλε
##λως
οὑ
ὅμοιον
ἱστορ
Ἰησοῦ
καλὸν
##γιον
πόλεις
συμπ
υἱὸν
##que
ἔχουσιν
πρᾶγμα
##χώ
##κης
βρα
οἴκ
##κλῳ
κίνησις
##νω
##κί
##ούμενον
Μω
αὐτό
πυρὸς
Ἕλλην
##ρία
διότι
Σικ
ἄξιον
##μματα
χρόνῳ
ἤγ
##δρον
ἡμερ
ἐθν
Ἡρακ
ζῶν
##ομένῳ
Διὸς
##ήρ
Ἰν
25
##ξης
##λετο
ἐπιδ
χω
αἰτίαν
ἄχρι
σύν
ἀδι
##θερ
λυπ
##μεις
##ρίου
δου
πρός
##ζει
ἔμε
##χεται
##ετε
κακὸν
##δωκεν
αἰτίαν
Ἀτ
πλέον
γέγον
##νή
ἀναιρ
##εῖσα
στο
πρέ
##φρα
##ρις
ὡσα
χρῆσθαι
##μό
##λίαν
##θύ
ἕκαστος
ἀλλο
ἐγώ
κέν
τυγχάν
τη
μεῖζον
##οξ
ἐβ
ἡσ
ἀρετῆς
ἐστίν
φύσεως
πραγμα
##ρεπ
οὐσίαν
##ίκα
Τι
##ῶνος
##τιος
ἥτις
Ἀχι
ἄνδρας
##δῳ
##ωνται
ἐχθρ
##κτο
εἶχε
24
##ρίων
δηλ
πόλε
est
de
##ρευ
ζῴων
ἄλλῳ
δύναται
λέγω
κίνησιν
##σσον
παρά
κινεῖσθαι
##φη
στοιχ
##ίη
κορ
ποιῆσαι
κἀν
##λίας
ἀνδρὸς
##φύ
φθορ
ἔφα
ἅπερ
πλεῖστον
##άτου
διηγ
##έραν
βεβ
Κορ
23
τοῖσι
νῆ
ἀτ
##έβη
δημιουργ
μύ
Ἀγ
Θεὸς
αὗ
##ώτερον
εἴρη
τεχν
##ῖϲ
##τείν
##σατε
ἰδεῖν
βά
ἡμέραν
θάνα
τρα
τρέ
εἶχεν
πορ
Γα
ῥη
ποιη
γυναῖκα
καιρὸν
ὕλην
βασιλέ
##όντα
διδασ
##ττω
δόξαν
Gr
κρι
##χων
διαφέρ
πρὸϲ
##il
##ὰμ
##ικὴν
ἀφικ
πη
ἐποί
Ὀδ
##unt
πολλὴν
κόσμ
##ήθη
ἀποθαν
##ομένοις
γνω
τεκ
μισθ
##σχε
##ούντων
Ἀνα
##λυθ
##μένος
##ίζειν
σοὶ
ἐκείνων
##σδε
##φου
Τὰ
##σθαί
##έρων
προσαγ
Ἀλεξ
##πην
##σασα
συγγεν
##σθεὶς
##ομένην
ἰατ
χεῖρας
τέχ
##ῖνος
Πλά
##όντος
ἰχθ
##ίω
ἐπιστή
##ρῷ
μηδε
##οῦσθαι
ἦλ
##λμ
##ίδων
##ρειν
γίνονται
##λῶς
ἀθρ
ῥητ
Σκ
δ΄
ὕλη
οὐκέτι
προσή
τέλος
μίαν
##ματ
##καρ
ex
##τικοῦ
ἐργα
διδά
πάντες
ταύτῃ
πεζ
μέσον
##ήνης
πραγμάτων
ἁπάντων
##ωσι
στεν
σχεδὸν
Ἀθηναῖοι
ἀδύ
##εῖαν
un
οὐρανοῦ
χώ
ἀναστ
τετρ
ἑβ
ἐκείνου
##υρα
οὐκέτι
##τέον
##ριά
##σαντας
φέ
ἀντιστ
γί
ἐπισκ
μίαν
ἄτοπον
πυκν
ἐχρ
##ριστον
ἀνθρώποις
αὐταῖς
τάδε
##ξειν
ἐθέ
ἑρ
##θην
ἐξουσ
ἄνθρωποι
κεφαλὴν
σωτηρ
καιν
Λακεδαιμον
προσκ
πράγ
##ονος
καθ᾿
##ίαι
φαίνεται
Λε
##μονα
ἄκ
ἅτε
##μένας
##ορεύ
Πλ
ἐπιφαν
ἀκού
ὅστις
θαλά
βασιλέα
ἀφαν
ξυμ
φαίνεται
26
##ῶνται
αἰχ
εὐδαιμον
##οισιν
##τικὰ
γʼ
ἐντὸς
ὕπν
##ικοῦ
##λαβὼν
##γεί
ἑκ
##τειν
τελει
##ῆρος
##σμὸν
##δύν
##βον
##σωμεν
##στασθαι
σὲ
ἔνιοι
fr
ἀμφὶ
ἴσα
προϲ
ἀληθῶς
##μπαν
##ττει
##οποι
Αὐ
Δημ
ὑπέ
κεχ
κυν
ἔλεγεν
##οια
τουτέστι
βασιλεῖ
##έας
Ἱππο
ἀληθῆ
##πλή
Ῥώ
σημε
##ab
ἐλευθερ
##χους
##γεγ
##μιον
Ἰτα
γον
πάσχ
διαι
αὐτούς
##διδ
##έχεται
ἔχουσα
ἀριστε
Υἱ
προστ
##τικῶς
Πλάτων
κρί
##βλη
Ἀλέ
##τηϲ
λευκὸν
αὗται
##μέ
ἐξηγ
ἐπιν
##ύντων
##ικα
##υσι
κι
##οιεν
θυσ
##λλαγ
τριῶν
ἔϲ
ἀνέ
δυνάμεως
##εικ
ὀνομα
##έχει
##ήνην
ἤγουν
δευτέρ
##οῖν
μέλλον
ὠφελ
ἀρετὴν
##μας
φύσις
##έχειν
##αγωγ
##ικῶς
μουσι
##ουσαι
μέσον
##δοὺς
κρά
μνημον
##δοὺ
Κύ
27
##γέ
##eg
ὅλων
##ac
Ἑλλήνων
##μετρον
##σίαν
##οῦντο
Δημο
con
ἡδ
##σκο
πολεμίων
##λλι
εἶπον
βλέ
φωτ
Ἀρχ
##στης
##κλῆς
33
μέγε
Θη
οὐδενὶ
Ἀχιλλ
##ωτά
μαλακ
##στων
##οδρ
κινεῖται
ἀγορ
ἀνθρώπου
##πης
##γὼ
##ρίζ
ἐνδέχεται
##όντι
##ραπται
##γος
φασι
χρώ
ἐπιτηδε
στό
ἔργων
κει
πρα
##λεις
χρόνῳ
##άσας
γίνεσθαι
χρή
πνεύ
##ημάτων
σεμν
μετρ
μαχ
σχή
ἐπιχειρ
##ir
φί
εἶχον
ἀγαπ
δά
##ομένους
##στοι
##ίην
μέγ
οὐδενὸς
##είας
##πτω
πρός
ἀλλήλους
ἀκρ
παντο
##μή
##θεται
##στῶ
##σωπον
αἴσθ
φησίν
##οτε
##ριμ
Κυρ
συντε
ἐκτὸς
μέρη
εὐθε
##σῃς
τοὺϲ
κάτω
##ονομ
ὧδε
##ϊκ
##δηλον
καίτοι
##λαις
##κτειν
##ίσα
οὔτʼ
Ἀλέξαν
θεοὺς
##υλλ
Ἀγα
##ρώ
Ὀδυσ
χολ
λή
##ίκνυ
πλει
φιλό
##δεικν
ψεῦ
αὐτόν
πλά
ἡσυχ
ὅρ
χαί
αὐξ
αἵματος
δίκαι
ὄντας
##φασιν
ἀγων
##σειν
ταῦτʼ
Ἀπό
πρῶτα
##καμεν
ἄνωθεν
β΄
ἡγεμον
μιᾶς
νυν
ἔδο
##ϲει
##άζειν
προηγ
θεοῖς
δεῖξαι
λογι
##γου
καλεῖται
Gu
ἀλλήλων
ἐπιστο
##σθαί
γενε
##ούμενοι
ἀριθμὸν
εἵ
ἐθε
μουσικ
##άτου
τύχ
τοὔ
γενέ
ἕλ
ἀφορ
Ἀχαι
##ῖνον
ἕτερα
φύσεως
α΄
##ανον
εἰκὸς
διδασκαλ
##λουν
##ττου
##χη
Ἰσραὴλ
τινων
##άδος
γεγραμ
##ωθ
θεῖον
Ἀφρο
##ῳδ
##λείας
κἀκεῖν
οἷα
ἀνθρωπ
φά
παντελ
γεγενη
μέγεθος
ὀλιγ
ἔφην
διδά
ὅλου
##ροὶ
μί
δεδ
κύριος
μῆκος
##ση
Λιβ
##θης
καταφα
##λαιον
ἐνέ
ἐδό
οὐδεμ
μέγε
τοιοῦτος
##oc
ἀλλήλων
ἀχ
##ξεται
##ορκ
##σίων
σπέρ
περιττ
ὄντι
##γνεσθαι
ἐκεῖνα
ἀντί
ἀρχι
τινὰς
γῇ
ἠξ
##στεως
ζητ
κατ᾿
ἐθνῶν
δέκα
θερμα
ἀνθρώπους
τροφῆς
##έντων
30
ἐκά
ἄλλας
οὐσία
ῥή
##πῃ
##εστ
Νικ
Τί
##άδα
##ot
##τομ
διελ
μαθ
##γιν
Ἐπ
ὅς
ἐρωτ
στερε
##νί
##ig
αὑτὸ
ἔλαττον
Πνε
##οιϲ
δακτ
κἄ
##λίου
ἡμέρας
δυνάμει
##σίον
##ώσεως
##γωγ
ἴση
κατέ
ἑαυτοὺς
τυραν
διώ
ἑπτὰ
μοί
εὐερ
##λια
Αἰγύ
κερ
θερμὸν
##έτω
στοιχε
##ριῶν
εἴποι
ἐγένετο
θν
καταστ
ἐκεῖνοι
ἐναντία
οἷόν
χάρ
##μω
##χθαι
the
σμικρ
ἐπεί
ποῦ
μερῶν
τοῦτʼ
μία
##ᾷς
δυνάμεως
δίκην
##βος
##ογ
##λὴν
##συ
οἶδα
συνέ
εἰκό
Πυ
ἀσφαλ
ἅπαντας
πολέμου
Μι
##ρασμα
##se
ἀποκρ
νυκτὸς
πάσης
σφοδρ
##υται
φυλακ
ἀκα
##σθέν
μέγεθος
##μενοϲ
κέ
ζωῆς
ταπειν
χρήματα
βλά
συμβεβηκὸς
τελευ
εἱ
##σφ
ὕδατι
29
28
μεν
##τός
κυρί
βάρ
##λαβεῖν
κεφαλῆς
κατοικ
πρω
Κύριος
δαί
παῖς
μικ
Ἀθηναίων
##βολὴν
πέντε
σκι
ὑπα
Φα
συμφορ
χειμῶν
##ίς
##τέρου
εἴκο
ἀπι
οὐδαμ
##ρης
##μηρ
##στῶν
ἐπιφ
ὀλίγον
31
##θεσθαι
##άγων
γ΄
##σεσιν
οὔτ
πραγματε
Κων
##λαβεν
##ήσειν
##εσις
##δεις
Ἐπι
##ιῶν
##ίνεσθαι
ξη
σφυγ
ἔγνω
ἱδρ
##πιν
πράγματα
τροπ
##ρρω
##βας
##ίνεσθαι
##τῆ
πληγ
Ἐκ
##υϲ
Βα
τραχ
πλησίον
##θρον
ἐπιβου
ψυχῇ
##μνη
##ηθε
##ωθεν
σφί
γραμμα
τοῦδε
τοσού
κρί
πόλιϲ
πολλοῦ
ποιεῖσθαι
##γνώ
##ύνεται
ἔγρα
##ανθ
προκει
οἶκον
παῖδας
##ττο
##δρε
τόδε
σφό
ἔσεσθαι
ὤν
κυρίως
πολλὰς
ἁπάντων
ἔρχ
##ηρε
##γαγεν
οἰκοδομ
##ωτέρ
ἀρχῇ
πικρ
πλή
γυναικῶν
ἀναι
μέρη
ἔσχα
ἐπειδὰν
ἠρε
ἀνι
ἔλεγον
##μορ
##κασιν
##κοῖς
διότι
πάντως
βασιλικ
πολύ
σκο
##άλ
λαλ
##χθῆναι
Ἀθηναί
δῶ
ἐχθ
ὅν
##μὰς
οὔπω
σωμάτων
χάριν
ἄμειν
ἐπέ
##τικὸς
δ᾽
ψεῦδος
ὀφ
##κολου
πειρ
##ίης
##κτα
ἐνεργείᾳ
τοιούτων
##γματα
λέγουσιν
ὀπ
Πλάτων
λόγοις
γίνονται
ἑνὶ
##σιμον
##σαμεν
χρω
χώρας
##ότως
##ere
##ής
##κιν
##ελά
ποιητικ
αὑτὸν
ἀλλήλοις
πεπε
δοκεῖν
##σάμενος
λογισμ
##ρὰ
##ρουν
πατέρα
νοῦ
##έλ
βίου
ἀντικ
στό
ἐνα
μάλα
##ητὸν
##άναι
θαρ
ὄχ
##τὲ
ἀνθρώπου
##ῆλθον
αἰτι
##ήνη
λεί
ἔτυχ
##οῦντι
##ant
ὁδὸν
φανερὸν
κινου
##οειδ
γενόμενος
##όνα
##δεικται
σκην
##σιῶν
##δρομ
##θρα
##ξεων
Καίσα
εἰσε
##δαί
δεύτερον
##ζυγ
ἑορ
σφόδρα
32
##κιον
ἕτερος
παῖδα
##ίνων
##ίζεσθαι
ὑπαρχ
##ότος
πλείον
τελευτα
##ηθῆναι
νομο
##νος
34
##σκον
πάθος
μεγέ
ἐναργ
γένηται
su
##τέραν
ἀλλοι
ἀφʼ
ὅπλ
##πας
ἄλληλα
ξύ
ἐλθεῖν
ὕψ
##ανοῦ
##σίν
##ήσαντες
πρεσβε
ἐλέγ
Ἀπόλλων
ἰατρ
ἀρε
##σιοι
##υμον
διαβ
αἴσθησιν
νεν
##στημα
Αἰγυπτ
##ποδ
μορφ
##χῶς
##ώμεθα
##ψυχ
δεύτερον
πάλαι
ὅλην
διαλε
##κω
Σικελ
φαρμά
ἠν
Οἱ
##έντος
##σεβε
σπουδα
##νην
##εϲ
τέκν
ἄμεινον
εἰκότως
##μαρτ
πηγ
Ἰησοῦς
##λὴ
##θεσις
ἔνδον
καλεῖ
ἕκαστα
##ῶναι
κεῖται
##τὴν
εἴδει
ἰδοὺ
##λεια
##σεσι
##αρχη
##νῳ
##οῦμαι
συλλογι
ὁμ
ἀντί
μισ
μοχ
παρέ
Καρχη
καθόλου
χρημάτων
##ρημα
Λα
ἀδυν
Σι
##κράτης
νόμον
φιλοσ
##σαρ
##σβ
##μώ
ἡμερῶν
Σε
χεί
οὐρανὸν
καθὸ
##op
##σοι
ὑπάρχειν
τοὐναντ
Διονύ
χρόνου
##ληπ
##ϲϲ
Ἀριστοτέλης
##ήματος
##οῦναι
##ίδα
ἤκου
##ῃρη
##ροντα
φάρ
λόγων
γινώ
ἀναγκ
τουτέστιν
Ἀλεξάνδρ
##νομα
##δυ
ἐνέργειαν
##δὴ
##λευσεν
μηδʼ
ἀδύνατον
ἐπο
ἀνελ
##άβ
##λαῖς
ἔοικεν
ἑαυτοῖς
χρόνου
II
ἄστ
##λέγ
##δωκε
νέ
##ήκοντα
ἔχοι
εὐτυχ
πεπον
αὑτῶν
κυρι
δίκαιον
##σίᾳ
καλού
ἀποφ
σώματι
ἔθνη
##τεραι
Θηβα
##φους
##ότων
συμπέ
αὑτῷ
θάνατον
##λεῖν
βέλ
ἱππ
##θείς
##ύει
περί
##πεδον
ἐντ
##παι
##υβ
##ρεφ
ἔχω
ἐναντίον
##κασι
##ίνης
πάντας
ἐκτε
##ρετο
πραγμάτων
μιν
νίκ
ἐπιτε
πτ
##δαν
δηλονότι
##χεσθαι
κου
ὁμι
Λυκ
ἐκεῖθεν
γίγνεται
##τρέ
φλεγ
κύριον
ἐκέλευ
ἤρ
δικαιοσύν
##χετο
##ρεως
##μακον
μόνος
ὀνομάζ
ἀλή
##θέντες
πολὺν
γυνὴ
ἔσονται
##πεσθαι
##αλιν
##ίζεται
##ρού
ἀμφοῖν
##ri
χεῖρα
##κείμενον
ἃν
διαπ
##φο
πολί
φόν
##πνο
τετρα
ΑΓ
##ικὴ
##ριν
##ότερα
##ci
δεσμ
γέγον
νεαν
σωμα
##τοί
##ούμενος
ἐνί
ἡμι
οἷόν
##ττης
λόγους
ἐστί
##ωρισ
##ίζων
ἱερὸν
##στησαν
χρώ
ἔχῃ
ἀφαιρ
##γειν
λέγεις
##ότερα
##σσων
βαδ
ἀνδρε
σπλ
Ἀλ
##ud
ἔλεγε
χρηστ
##σίους
λέγομεν
ἀλλήλοις
##ίνα
ἀπολογ
αὐτήν
τούτους
εἴδους
σώματα
ἀγγε
##μένοι
##κους
##ημερ
αὐτός
βαλ
παρθέν
ἀνομ
συνή
βω
##ϲτο
##ήσατο
κη
ἑκάστου
ἱκανῶς
##ανὸς
κρεί
ἀκολουθ
##ens
Ἑλλην
δύν
ἀρκ
Προ
59
##στερα
μν
ζώ
##ίνετο
ἀποδεί
ὅλης
##γρά
Ἀφροδί
Εὔ
τὰϲ
Κλε
##χυ
κατηγ
##ter
##ζεν
οἴνου
##λόγ
πληθ
##κέναι
Μεν
κώ
##ώνου
##ich
καλλ
Ἀρί
εἰμι
##τρας
##έρος
##θέντα
##ώς
πλείους
δευτέρ
##end
ἀλγ
ἐναντι
##φασις
##ωτέρ
##ότητι
ἔοικε
##έρος
γυναικὸς
κᾀ
φωνῆς
ἡλίου
πιθαν
Πέρ
παίδων
προσέ
πλείον
##οιμ
τρίτον
σπέρ
##πόν
ποταμοῦ
μέλλ
Φί
νύκ
##ύει
παῤ
ὀλίγον
##ρῶ
##γωνον
πλα
##ροντες
##τικῇ
μηχαν
οὐδέ
##λειον
##βαλεῖν
35
στρατε
##τρῳ
ἐτε
ΒΓ
ζῶ
##ωργ
##δῃ
ἀρτηρ
ὅμοια
ἐννο
φασὶ
ὁρᾶν
πότερον
ἕνεκεν
ἔσ
##ικὰ
Ὀλυμ
##φροσύν
ἡγεμόν
προφή
##άζεται
ἑρμην
##ανε
διέ
##εῖος
Νε
μέγα
κύριος
αὐχ
ἕξει
##φεται
διορ
ἀποτε
##ότης
προσή
πρεσβυτ
##λλη
ἐρε
ἑξ
##φημ
φρου
##τριβ
ἐζ
##βαρ
##δωσιν
##κιστα
##έχει
ἐλλ
ἐνια
αὔξ
ὄντως
τιμωρ
δημ
##χεί
##θεῖσα
φρά
ἥλιον
ἐπει
αἰτίας
πλαν
πάσης
στρατο
##ιγ
##πή
##ππος
##στατον
ὡρισ
Βαβ
ἴσχ
##γετο
##τὶ
μνή
προθυμ
##υον
##ra
##δωσι
μυρί
##χῶν
##ίϲ
τινῶν
δεσπό
##ίζει
πόλιν
##θαγ
εὑρεῖν
##ελθὼν
##ίνου
φίλων
##ένα
ἐρω
##εῖτε
##ύων
##σκεται
##δίως
κυρίου
##υσε
ἀποδε
γεννα
Ὅμηρ
##πιον
οἰκου
##καί
δοξ
##νατο
συμπέρασμα
γένοιτο
##σθησις
##ότων
##θοι
οἰκεῖον
##ῶντες
##ήθη
##γαγε
##ούσας
ἐγγὺς
ποδῶν
πάθος
##ουϲ
##ίζει
γένηται
##ύσας
διαρ
Ἀντί
ὑφʼ
##ύτως
την
παντελῶς
##σθησαν
πεσ
πανταχοῦ
##τρό
ἐπ᾿
##ηκο
αὐτίκα
προβ
παῖδες
##ίβ
ναῦς
ἅπαξ
##ησον
πεντα
πυθ
Πελο
δύνασθαι
ἅπαντες
σημεῖα
##δοι
ΑΒΓ
##λασσαν
Χρ
##ώνων
δόξαν
εὐαγγε
##ρως
##ξον
πεπερασ
τούς
ἑκάστου
σάρ
κύκλου
##ῆλθε
στοιχεῖα
##τῷ
##μονος
Κωνσταν
ἕπεται
##έλλ
##ήσω
προνο
##ότητι
Θεὸν
γέγονεν
ἐξέ
δρά
πέν
##μένας
##φῶν
##όθεν
Ἀπ
φυλά
Σωκρά
λοιπο
ἔρω
##λέους
##ριοι
##κνα
ἀλλ̓
Ἐπε
γεω
ἀγαθοῦ
ἀμφοτέρ
κυκ
##μαθ
αἰτίας
πολλῆς
στέ
##λαμβαν
γνώμην
ἀναβ
##κουν
ἔμελλ
τύ
ἠρεμ
εὗ
##ήσομαι
στρατιώ
Πυθαγ
ἐνν
σημαιν
ὄγκ
##ῆνα
μία
##ομένῳ
ἀσεβ
##ρί
##μοί
ῥίζ
ποιῶν
οὐδέν
σέ
ὅπλα
τουτέστιν
κοσμ
##πά
##κομ
Χριστὸν
##ριστι
λέγουσι
ναυ
##γαρ
Παῦ
μέρους
Od
μόρια
τερ
##ότατον
##λοκ
δύναμις
##ξάμενος
##ουσῶν
περιεχ
αἰσθη
ἐκείνῳ
αἴσθησις
##οδος
Μωυσ
μυρ
πω
τίνα
ὄψ
ἔχοντος
φησί
εἰκότως
##ριε
##υτῶν
ἀφί
##τριον
##δὲ
παραπλη
Ῥωμαῖοι
βλά
αἷς
##ασιν
ἁρμον
μηδενὸς
##ῄει
Ποσει
##μόν
δού
συγχωρ
##ῖσι
##ώδη
##μερον
μί
ἅπασι
κωλύ
αἶ
##νοιαν
βούλεται
γένεσιν
##θέσεως
##τικόν
##ϲιϲ
40
ὄρος
συμβου
##ιϲ
Πά
Ταῦτα
##άζει
##στηκ
ἀναλογ
αἰχμα
διαί
μεγέ
οἰκονομ
Ἀλλὰ
περικ
##τησεν
##ομένας
Δα
Πομ
πάνυ
χά
ἀσκ
##κὼς
##όδου
εἰδέναι
ἀρχιερ
καταφρον
ἐστί
##για
Ζεὺς
##λοϲ
σπε
φύσις
τόπῳ
ὄψιν
##ρησιν
τοῦτό
πᾶσαι
χρόνος
##δοϲ
ἐλέγ
##πτεσθαι
##ομά
μέγιστον
##βων
ὅρα
##ῆρα
τηρ
Χριστὸς
ἀπαι
οἶνον
δέν
εἶναί
συνά
##ήματος
##ίζεσθαι
ὑδ
μηδενὶ
μοχθη
ἑλκ
##θηκε
λοιπῶν
ἀρί
ἔθος
##λέα
##ύνης
Ὅμηρος
##θετον
εἰρημένων
ἄλλης
κινδυν
μορίων
An
Δία
ῥᾴ
ταύτας
ὡσαύτως
##ώτατον
##σθʼ
##τησιν
ἐναντίων
προσώ
##χρη
##θυ
ὁρμ
##άγει
ὑπάρχει
##ώνιον
οὐσίας
ιβ
##έβ
εἶεν
εὑρε
προσι
ἔτε
##όπ
ἔσω
ἥλιος
##υτῷ
ἄγγε
περιφερ
##le
καθὼς
διεξ
##γματος
##hr
πειθ
ὥστʼ
ἐχρῆν
ἐδε
σιωπ
ὀχ
γυναῖκας
πελ
##κύ
πολεμίους
ver
καταλιπ
ἰδὼν
##άβ
##λαβον
##όμεναι
υἱοῦ
37
##ίς
ποιή
ὣς
##αινε
Βοι
ἁλ
##θηκεν
##σία
συμβαίνει
##άσαι
σκέ
ἑκατέρ
πράττειν
παθη
##ρεσις
οὐδαμῶς
μάρ
##πτι
καν
ἄρτι
μέλαν
##άνων
πρεσβύ
προϊ
ἑκάστῳ
ἠγ
ὥρ
##πεμψ
##ρησαν
γεωργ
σκό
πολιορκ
qui
τροφὴν
##όμην
φρόν
Ἀμφ
##τὸ
##έντα
##τραν
ἐποίησεν
ὑστ
ἐλάττον
πτερ
πασῶν
κεί
δὶς
φθαρ
Λυ
μέλι
τᾶς
ἐάν
##μπει
##φθη
##μένως
ποιησ
##ήσῃ
εὐεργε
παθῶν
μάχην
##ξαντες
πλεῖστα
φαῦ
##φό
τὰν
Δαυ
##φθαι
##ῆσιν
##ριστα
Μαρ
μύ
##ικοῖς
δεῖται
γένους
ὑγρὸν
ζητεῖν
κοιλ
χωρίον
κἄν
##ππου
παραδ
##φθαρ
λάβ
##τ᾿
τοῦτό
ἀπη
τρυφ
##έχειν
τῇδε
36
##σχεῖν
βασιλ
##ρό
##τρος
##ττεσθαι
λέγοντες
φωνὴν
γά
ὀψ
##δύ
ζῷα
δοῦναι
##ληλυθ
φλεγμον
μοῖ
##πτων
##καῖς
ἀποβ
ἑω
##ξομεν
##θρωπ
λοιπὰ
σώματα
non
Κυρίου
βια
Ἐπεὶ
ἀπαγ
προστι
μητρ
εἴκοσι
41
ἔχοντας
##ύναι
##ρησεν
##έρειν
κινδύν
##βεβλη
ὥϲ
κατορθ
Οἰ
φον
ἥκιστα
σκέ
τυφ
τἄ
##τού
παροξ
ὄργ
ῥηθ
τρέ
Ἀμ
##δειξιν
τήν
συνά
οὐσίαν
##ανται
##ύμφ
##πομεν
ἄρρεν
ἡμέρᾳ
πλείω
##λίους
δυοῖν
κύκ
γο
##ζόμενος
Θεῷ
##θείη
er
##ότες
##έχεσθαι
θαλάσ
ἀνατο
ἀληθιν
##λαμ
οὕτωϲ
##θείη
##φορα
Καρ
ἥμι
##ius
πολλαχ
##κειτο
γέγονεν
##20
θῆ
Ἀδ
ποί
πεφυκ
μείζων
πεί
σπον
εὑρί
##σθα
ποικί
θανάτου
ποιεῖται
##τερόν
##δυνον
##ύτη
ἐπαγγε
##στρε
##γεγραμ
τραγ
##ΑΙ
διττ
##ύα
ἀκου
οἴνῳ
##orum
εἰσα
θεός
τοιαύτην
##έτω
ἑκατὸν
##γαθ
τεταγ
κερα
ἀγαθόν
μιᾷ
θαυμαστ
συστ
Οὐκ
##ήματι
τολμ
τίνα
##ρίῳ
βούλεται
τόδε
##ύρ
##νες
Ἰακ
##ta
εὐν
εἶναί
φαμεν
φιλαν
πλεονε
μεγίστ
##χιστα
##ίῃ
##βό
##έσεως
μεγαλο
θᾶ
ξὺν
##ρχος
##δοχ
συζυγ
πιστ
οὐρ
μόριον
ἀεί
##ώδη
παρει
τόπος
αἴτια
Πέ
##άμην
##ηνε
θεωρη
κόλ
##ουμένων
τῶ
παθεῖν
σί
##διος
ὑπέ
##πασιν
σωτη
ταὐτὰ
ἐξελ
τριγ
##υμάτων
στόμα
ὑπῆ
##άκ
##έντος
μετέ
δύνασθαι
##pp
##τουργ
τόν
γλῶ
κινούμενον
##ίνῳ
κακὰ
ὄρν
ἐδί
κύκλῳ
πνευμα
##αντο
σημαίνει
προσδοκ
ἀπλῶς
ἑαυτῆς
σημαίνει
##ροσ
σωμάτων
ἀριθμῷ
ῥα
ἀνδρά
βουλόμενος
καταφ
γενομένης
##υζ
δορ
##γοντες
##λίῳ
##ούντων
γνῶσιν
38
νήσ
##ότες
##σμοῦ
56
##κοι
νόμον
Αἴγ
##στασις
καλῶν
πάθη
##enti
ποτὶ
τρίτον
συμβαίνει
##οτά
##ίνῃ
##ήγ
μητρὸς
##άγειν
ἔχομεν
τυγχάν
Θρ
ἑτέρου
##τικόν
##ώδε
##υτοῦ
##ᾶτο
μεθʼ
συμμαχ
οἶδεν
##άζεσθαι
διαφέρει
θηρ
##ῇς
μελλ
##στό
εἰδὼς
Πτο
πεῖ
Συρα
νόμους
ἐδόκει
##πλασ
##ag
παραν
ἀγαθὰ
πότερον
ἐπινο
ἡδονῆς
##οκ
μῦ
##πτεται
##θῳ
ἀφελ
μαθεῖν
λέγοντες
Καλλ
##λεμα
ἐτῶν
πλά
##λμα
39
γυμνα
##έχεσθαι
σώματι
ut
##τικοῖς
ἐρα
τριά
ἦλθεν
βρο
##κού
ἀριθμὸς
##βαλὼν
se
##δίων
##per
##ίζεται
ἡμέραν
##ριστιαν
##τὴς
πεπονθ
ἥμισυ
βορ
##σά
##εῖαι
αἰδ
ἐκείνοις
##γχ
##ήσατο
##ίβ
ἀπώ
Χαλ
##ωγε
γενέσεως
##λαβε
δωρε
γνῶ
νυνὶ
τῷδε
es
ἥν
πλεῖον
πέμπ
##θείσης
##ύνην
τοὔνομα
Πτολεμα
##ήλ
##ώδης
οἰκει
Βαβυ
##ist
ὀκτ
παραγ
πρακ
συμπερ
##ήσομεν
##υπτον
##εῖσαν
##άζει
πλο
πλού
Ἀβρα
##θησιν
##δειγμα
φρ
εὐπ
ἀληθείας
σκευ
##δειν
##ζων
παθ
καιρῷ
προφητε
##μετρος
##λλος
ὑγια
σχήματι
##ώτα
ποταμὸν
Πατ
μέλλον
διαφερ
ληφθ
ἀντε
θεοὶ
στι
ζωὴν
λῃ
ἆρ
##λυκ
##ΟΣ
υἱοὶ
ἁφ
##πλε
εἴς
ἀθαν
##ξαντο
γένους
πονη
ἀντα
ἐξι
παραχρ
χειρὸς
ἔθνος
δρό
ὑβ
ὑποκείμενον
##ύντων
ταύτας
τεσσα
ἐλέ
##στοῦ
##ρονομ
##νεγκ
##χθω
βαρβάρ
χυλ
παρ᾿
Ἀριστοτέ
ἀέρος
ἔνθεν
πρώτῳ
##άζεται
ἐναντίον
πόλεων
μοίρας
om
##ίκα
##σταλ
ΕΖ
##ύσ
γυναῖκες
##ϲαϲ
διό
τείχ
ὑπάρχον
πέρας
##ίμων
διο
ταραχ
##κρυ
##μνον
Μη
##ήσαντος
##φυρ
περιφέρ
ἀὴρ
ἐκά
τοιαῦ
##στικὸν
##πυ
##ρατα
ἀνδρὶ
συλλαβ
περιπα
Να
##μʼ
ὑποστ
##ίδα
##ερχ
ῥᾳδίως
δυστ
πατρὶ
ὀλίγ
ἔχεις
ἰδέ
κόσμον
ἑταί
κινεῖ
##φέρον
κρά
Περσῶν
συνεχῶς
ἀνάγκης
##βάλλον
γίγνεσθαι
ὁπό
μικρὰ
ἔϲτι
δυνάμεις
##σμο
##έος
γεγονέναι
Φίλιπ
νὴ
##σην
λεχθ
σχολ
πυρε
τιμῆς
κοινῇ
δριμ
##ώσει
##έστερον
παρουσ
τεθν
αἰσθητῶν
διαφορὰν
ἕλκ
ὡμο
##σσῃ
Ἑβρα
Δημοσθέν
##ώμενος
κολα
βραχὺ
##μὴ
##ερε
ἐνι
δυσχ
##γόν
##κλει
##ᾷν
##εσθε
Ἰωάν
νόμος
πώ
##μια
σφι
##λθὼν
θή
λελ
ἔπα
ἀνθρώποις
ἁρμό
τοιαύτη
##ροῖ
ἀντικει
παιδὸς
πάσας
δικαίως
διδασκ
ἑβδομ
τεῖ
ἤν
##αντες
εἰδῶν
Ξεν
##οιτ
λαμβαν
φημ
ἅρ
##ίσας
##δίον
##ητος
##ηθεὶς
εἰδό
κύκλος
##ϲεωϲ
διαφέρει
τάχα
τεθ
Ar
##πλά
δείκνυσιν
##άντες
ὑμε
ἐπαγ
ἔγωγε
Κά
##λοντο
ἐφα
##άρων
ἐχόντων
φίλον
##ωμ
##τασιν
χρῶμα
πόν
ὀγ
##σαί
Τε
ἑαυτὴν
διακρ
42
φίλους
ἀλή
##θήσεται
ἀλλά
##θέντος
##ικόν
##αλον
ἑτέρου
πνεύματος
παραχρῆμα
Ἀγαμέ
ἐστε
##ώρα
τρια
##φρων
##πλή
##λοὺς
ἐνίοτε
##θεια
σαρκὸς
μεταβά
λαμπρ
ἰατρικ
προσκυν
θαλάσσης
##ίνω
##έρους
##έργει
##πως
##κῃ
##τῆς
συμμά
πολέ
ἄλλοτε
ἐμέ
ἱππέ
φοβερ
ψυχρὸν
εὐθεῖα
##ῖται
τοσαῦτα
ἥδε
ἐπά
δυνάμεις
##ym
αἱρ
ζῴου
βασιλέως
προσαγορε
ὁρα
##δεχ
##ζεσθαι
##θεντο
ἡδονὴν
##τὰς
διάν
Ῥωμαίοις
κτί
ἀπολα
πλεον
οἶον
ἐπιστήμη
γρα
ἀποθν
τοιαύτην
##ίνης
πρόσωπον
δεινὸν
εἴπω
##ούμενα
ἀμφι
πέμψ
ἵνʼ
παραγεν
##ωτά
τάξιν
ἔπεμψ
##τησε
διασ
γενόμενον
ἐλπ
##eb
##σία
Διὰ
βασιλείαν
ἀμφοτέρων
ἐϲτι
ἀποδει
μηκ
##ωκ
γινόμενον
43
ὁτι
ἀγαθόν
τρία
##ήϲ
##πνε
##λθεῖν
ἓξ
##σαντι
##λημ
λόγοις
##ήσεων
##σειεν
und
μέλι
##αῖον
λου
##ώρα
δῆμον
ἑτέρων
ἐπιβ
νοητ
ἑκατέρ
ἔνε
##άνει
ἵππων
##ττεται
Μακεδόν
τηνικα
ἐγκα
ἀνθρώπῳ
δέρ
βασιλείας
##βολῆς
ἔλθ
εὐπορ
##αιρέ
##λεως
##σσειν
πρόσθεν
##ψασθαι
φό
##ικῇ
φασὶν
Ἰωάν
##ενν
##γοντα
δεῦ
ἐνεργείας
βό
ψηφ
τριάκοντα
##στηκεν
τεσσ
διαστ
ἐγένοντο
πυρετ
βλέ
ἐγκε
##τέραν
ἑλ
##ad
##λατταν
πέντε
##μένως
##ῆκεν
##άζων
##ύνη
στέ
κακοῦ
Δί
##κρί
##ναις
Ἡρα
##λεκ
ἐχόντων
εὐλογ
ἔδωκεν
ἄγειν
χάρι
στρατεύ
ab
##μεων
χρόνος
ὅσῳ
Κύριος
##βάλλειν
ἀπεί
##ost
ἄλλαι
##δαμ
οὗν
δηλονότι
κόσμου
κορυφ
ἔξ
##τινα
κρεῖ
αἰτία
ὥρας
συνι
##ψηφ
##ίδος
##δρου
μεγάλα
##λημα
##ωδ
##ψεται
##σμὸς
δόξης
ζητεῖ
##βερ
ἀπεί
Τῶν
ἀνή
τρά
Ἱεροσ
νεκρῶν
##στατα
Διο
##δαιμόν
##ψαντες
ὕψος
##όνος
ἐφ᾿
##οιντο
##ξων
τέσσα
ἑψ
ὁμων
κρύ
Ἀλέξανδρος
πιστεύ
Μελ
ἐκείνους
τοσαύ
##δοις
##ibus
##ίκων
##ίστου
σελήν
##δοται
##αυτοῦ
##λειν
##ώμεθα
##σχι
πίστιν
Ἀθήν
##θω
ἐπή
χειρῶν
κλα
##ϲτα
εἶδον
μνημονεύ
##τοῦντες
##στω
ἐλθὼν
##φῳ
πατέρα
δεδι
Ἰησοῦν
##εντα
##φυκεν
κόσμου
ἐνθά
εἰδέναι
##ήσονται
ἐνέργει
Σύ
διαφορα
##όρους
γνωρ
ἐρεῖ
σωφρον
##λία
ἑκάστῳ
Χριστῷ
##μμε
γινώ
##μυθ
##άδε
##θες
ἀποστε
ἐδεί
παντά
ἐδέ
##ησα
Κι
##ώματα
##όντας
##τικῷ
σιτ
θάλασσαν
die
Παῦλος
ἄνα
##ρίᾳ
βουλεύ
##ύτως
οἱον
ὑψη
per
##τερόν
περιέ
κινήσεις
##γαγεῖν
ἔπρα
Σά
ἐγεν
πολιτῶν
ἐνὶ
##φαλα
ξεν
##ληψιν
ἐκείνοις
τηνικαῦτα
##άσας
##ii
δύναμις
ποτʼ
ἀμέ
γίγν
##ζη
##ώματα
αὐτούς
κωλύ
πιν
συναγ
##θησι
##ρεύ
πράξεις
ἄριστον
##έντες
##ομή
πόρρω
βεβαι
##φέρει
Λά
μεσημ
De
Ἔτι
##δειγ
##ώνιος
ἀλήθειαν
τουτέστι
ὁτὲ
##τύ
##ίσαι
##ῶνας
βασιλεῦ
ἐμφα
η΄
ἀτελ
##αϲ
##ενεγκ
##ίγ
ἀπερ
Αἴγυπτον
##uc
##μέναι
##κοὶ
βιβλί
##ρυγ
αὐτήν
ἵππον
Κελ
ἀλα
ἔρη
##ίστη
κἀγὼ
Ἕλληνας
Λιβύ
τἄλλα
κοῦ
ἔμφ
##δειξις
στρατιωτῶν
ἔργοις
τυχεῖν
προτάσεων
##κῳ
πυρὶ
τεῖχος
Μέ
ἦλθον
##ταξεν
νεῦ
λεγόμενον
κύκλῳ
##έστερον
##ουρ
##λλά
μαλ
##ιά
##στως
καιρὸς
quod
ποσὸν
προτάσεις
χειρὶ
##to
##άνου
βεβα
##έντων
δέκα
ὄρε
##ϲτ
##υρο
##μνων
γένεσις
ὀνομαζ
##βῳ
##ίνας
αἱρετ
ἄκρα
##λησεν
δυστυχ
μάχης
##omin
##υσιν
συμφων
βαρβάρων
##ώμενον
##ίδας
λεγόμενον
Πλα
##είας
##ver
##σθεί
στερ
##υσαν
μακρο
ἄδικ
ποδ
σφᾶς
φέρειν
ὠφε
##σεσθε
##άνων
πολλα
κυρίου
##λεσεν
##άντα
τετράγων
ὄπι
##γχαν
##υτόν
Ἑλ
##ρετον
Ἀλέ
##στὰς
##πτῳ
πλεί
πάσχειν
ὁτιοῦν
ἅπασιν
ἔλαβεν
ἡλίου
##χῳ
##πεπ
μετο
παρρη
##λοί
προφή
χρον
καιροῦ
##χεί
ἄγαν
ὀνόματα
Πρὸς
θρασ
##ῶτα
##λοῖς
προσηγορ
ῥητο
τοὐναντίον
##δορ
##ll
συγκατα
πόλεως
Λό
Σώ
πυν
ἔξε
θᾶττον
##όρων
##ήριον
πόδας
Καῖ
κολά
ὑψηλ
στοιχείων
##άμενον
##ῶται
τύχης
##μὼν
##te
##βάλλειν
ἤθε
##σους
γένη
δῆμος
Ἀσκ
##λλου
ἰδίᾳ
ἡνί
ἔνια
Ἰων
##μὲν
##ποϲ
καλεῖν
##πλά
αἳ
ἔχουσαν
τέσσα
aut
λεκ
Σοφ
##χέ
##ελι
##σετε
ἄρχειν
##όλων
##ύματος
λαοῦ
γέγονε
ἔσχατον
##κτη
##όμι
πρόσθεν
μʼ
ῥῆμα
ἰσο
##αντα
ἀφε
ἀσπί
Ἐπει
##ωσις
##λογι
ξί
##στὴν
##λευσ
ὅλῳ
ἔργῳ
νή
##λειπ
##βαλε
ὦν
##θέντων
##νων
##τορα
ψιλ
πολέμῳ
Φιλί
##σκοντες
Καῖσαρ
Χριστιαν
##ρησε
πρώτου
Κρόν
ἐπιπο
ἀποκα
αἰτια
Ἀργε
λίαν
προστά
ἀέρα
ἀπαντ
μετά
χώραν
ὁπ
##μός
ἀφι
quae
##θοις
παύ
Ἀλεξαν
καλοῦσιν
φάρμακον
κλέ
μάρτυ
φρεν
χεί
##τρων
θερμοῦ
ἑστ
##ni
γυναιξ
πεποί
δἰ
##ύριον
φωνῇ
ὥραν
##μίαν
##κοσμ
##παγ
##σκευασ
Ὡς
##λπι
ἔτος
##ραις
ἔνι
λέγεσθαι
φω
##κέναι
##ρησις
##λάβ
##atur
ζῳ
ἀσχ
ἀληθείας
46
sq
##ύναι
##υχν
πρώτην
Σελ
##θυν
##ρατος
##ριστος
##στάσεως
Ἰουδαίων
##ριϲ
ὑγε
##πολιν
ἀδελφὸν
##ώσας
κριθ
κοινὰ
Τί
##ψεις
πάθη
##εύς
45
ἕξιν
##τευμα
ἄλ
##ήσεσθαι
μηκέ
##σωσιν
ὁρῶ
ὁπότε
νεύ
47
##μικ
ὕβ
ἐμπει
πλείω
κτή
συσ
τει
##θως
##σίν
λή
##κτου
##ινθ
αἱρε
τἀναντ
γέγονε
καρπο
ὁρᾷς
ἐκείνῳ
μὰ
φάρ
Ἕλληνες
cf
##ᾶσιν
κἀκε
καλοῦσι
Ἀριϲτο
ἑτέραν
εἴρηκεν
εὐσεβ
ψυχρ
ἀγῶνα
##βάλλει
##ῶντα
νοεῖν
Κῦ
##χνη
ὑπεροχ
ὡσαύτως
Δελ
##σπο
μέλαν
σπέρμα
##λευθ
##μοϲ
##μένῃ
στόμα
##όδρα
##βην
προα
πλείους
φλεβ
##AB
γνωρί
ἐκείνης
##θάν
νομίζ
ὀργῆς
##ίσκ
περιέχ
##σθέντες
ἄπο
βελτί
ἱκε
ἀποτελ
ποιητὴς
δίκαιον
44
δοκι
##υτον
##ταξ
τέκνα
εὑρί
ἐϲτιν
Ζην
##ΟΥ
χρῆται
Ἀπολλ
Τυρ
ἀνθ
ἐναντία
ἑτέραν
Μακεδον
##ρατο
μέσῳ
ΑΘ
λέγουσιν
ἀγρ
Χρυσ
ἀβ
ὑπέρ
καλὰ
μακρὰν
πλήθει
##ϲαι
##λαος
##ίνονται
καρπὸν
λυ
πή
ὀφθαλμῶν
ἀνδρι
##βριν
πράγματα
ἐνί
εἴσω
κρεί
βραδ
##σημα
γένει
ἀποθανεῖν
βέ
σάρ
ζή
ἀτε
δρα
##σίως
σιγ
μυριά
ὅσαι
ἕτεροι
ἤπερ
κακόν
ταχὺ
Λακεδαιμονίων
##io
μέρει
Ἰού
σφόδρα
ἀπέκτειν
##τινες
μείζονα
##θέντος
##τορος
##μονας
##ότος
ὑπηρε
ὁμα
στρατό
διαφορὰς
##ττῃ
πλειόνων
σάρκα
##τισ
##ήσῃ
##μιγ
ὁδοῦ
ἀρχῶν
γένοιτο
76
ἀνό
αἰεὶ
ἐχθρῶν
##κετο
ἐμφαν
φιλοσό
οἱονεὶ
βάρ
Ἰερ
##σθῇ
πολὺς
δέδεικται
πράγματος
ψευδῆ
ἐρη
ὅρων
ἀπά
θεός
ἐλπί
der
Πυθ
ἐπικα
θάλατταν
Λακεδαιμόν
##ορος
ἡδέ
ἀποδεί
ἐμὸν
τόπους
μέγας
Μάρ
##δεύ
καθολ
χεῖρον
ποιοῦσιν
τρία
κινοῦν
πειρα
##δοξον
βέλ
πύ
τμ
##ρῃ
πλου
##κοσίους
σφαί
##σβεις
ὑπῆρχ
##and
ΘΕ
ῥᾷ
##ation
διοικ
ὀρε
##ζεται
##λειφθ
ἀκούσας
Κε
##χοι
ἐνυπ
πολλὴ
##δίους
στρ
##φέρειν
##λείας
εὐρ
ἐκείνην
ἔρχεται
ἰδίαν
##ούσῃ
##μβο
##ώντων
Κωνσταντ
Mg
ἀπαρ
##ωρίαν
ὑποκειμένου
##δ΄
αὐτός
αἰδο
ταῦτ
##αντος
ἐκπε
ἐπιπέ
μεγάλην
ἀμφοτέρων
cum
##ζόμενοι
##κοὺς
δακρ
##λὴμ
##τασις
δήπου
χειρο
ἀί
ἐνδέχεται
μείζων
φαίν
μάχ
νόμου
φλέ
ταὐτὸ
βίον
μηδέ
μάν
πάρ
##σχον
φυλα
##στὴς
τόπῳ
βασιλεῖς
ἕξ
οὐδένα
γίγνεται
##οσι
σκληρ
##ριγ
Ἀργ
##εῖϲ
##σίοις
##πὼν
τιμὴν
ἑκάτερον
διόπερ
##μί
αἰσθητικ
τίνος
##σπα
##ωτέρω
γνῶναι
##σκεύα
κἀκεῖ
Ἀριστ
Ποσειδῶν
48
ἐπιρ
κατηγορεῖται
μυθ
ἴδια
##όμεν
προκα
##σομαι
##μονες
οἵων
παρακα
##διοι
τρόπῳ
δεῦρο
##ττη
γένεσιν
λευκοῦ
##στηρ
συνεργ
##ουσαλὴμ
ὀσμ
φίλος
χειμῶνος
Ἀλεξάνδρου
##ὼβ
παρακαλ
κινδυνεύ
ϲυμ
##ώθη
##ουμένων
ἐπανα
ἐπιεικ
πιστεύ
προτε
πρώτην
χορηγ
##ili
λεπτο
πάλαι
υἱῶν
δόξης
ἐκφ
δείκνυ
Ὀδυσσ
##σκεν
συγκα
θορ
ὄφ
##κτικὸν
ἐξή
οἴκου
##φυκε
Μετὰ
σωτῆρος
##σσι
##δαλ
##θά
##πετο
καταβ
φηϲ
διατε
ἄλογον
συνή
μήτηρ
##re
ἐπή
ἐνθυμ
δεχ
##κρατες
##ροί
οἰκίας
φιλό
ἐνθάδε
##μησεν
##ίνους
σφῶν
Ἀντ
##πάρ
πεφ
##ιστος
##τολὴν
##δίκ
##ῖσιν
##άνης
##ίνην
παραι
βουλῆς
ἐσθῆ
Ἀλέξαν
##ότας
##ονι
πλήθους
οἰκίαν
κέντρον
βέλτιον
δώ
##υς
αἰῶνος
##παρα
ἠξίου
Ἐὰν
##ὶϲ
ἀμφισ
##άσαι
λέγομεν
κεκα
ἅγιον
##όγ
##τοί
Ep
ὑπερβολ
##ούς
##μψυχ
ἐπιτή
##δοκι
ψυχὰς
μονά
##ps
μαθημα
ἆρα
συγγραφ
##γαγὼν
##av
μητέρα
βασιλείας
οἶδε
ἐποίησεν
##τροπ
τέχνην
##δαρ
##νεί
of
ἐρχ
##άτῳ
##ώσεως
##άνη
##χαρ
##ηδ
##άνου
ἀορ
ῥᾳδ
ἐκπ
τόπος
ὧς
##κοις
##ρονται
λαμβάνειν
ῥᾴδιον
τιϲ
ἄκρον
ἠθ
##ρηγ
##έγραπται
θνητ
Καρχηδον
στρατοπέ
ε΄
##ίμων
καλέ
νεκρο
καίπερ
δίχα
Νέ
##τοὶ
τἆ
ἐβου
##λοὶ
Εὐρι
τῳ
##ὐ
##ίδης
πολεμίοις
ποιοῦσι
αἰῶνα
ἀνθρώπους
ἅπασαν
Πελοπον
γράφει
ἐθέ
Ἰού
##ωθῆναι
##ομένας
γένει
εὐθεῖαν
κυβερ
##ορικ
ἀψ
##ητα
##όμεναι
πολλαὶ
ἀγγέ
βασιλέα
πάσας
πλησι
ἀμερ
ἑκάτερον
##δωρος
ὁμό
##δρο
##γελ
ἀκοῦσαι
φίλοι
πεντή
##τικοὶ
μολ
ἀκίν
ταῦτά
ὁπλ
ἀφρο
ὀφθαλμοὺς
Οὕ
ψι
καλού
##μεῖν
εἴπομεν
θεο
##θέσεως
##άζεσθαι
κόσμον
τελέ
Θεο
##λικα
##βαίν
μονο
κάλλος
##ταρτον
ὀφεί
ἀθε
κύκλον
μῆν
##ομερ
ἐκκλησίας
πνεύματος
βλα
##λομαι
διαθέ
πόθεν
ἵππου
ἐναργῶς
Ἀπὸ
##νεσιν
##κότες
πολιτείας
Ὀδυσσε
ἀκούειν
##ρακτ
##ίωνος
βλασ
αὐτοκρά
ΚΛ
καπν
κατακ
κινεῖν
##σοφος
συμβεβηκός
##ήσομεν
##άμενοι
ἄρʼ
δαιμόν
δυσκ
##ματον
##ικῷ
ἀρετὴ
θανάτου
Καλ
##ΩΝ
##έντας
σταυρ
Ῥώμην
Ἀρίστα
##σʼ
##ταῖ
##πιστε
##σίου
παραιν
##κείμενα
ac
εὐσεβε
φαύ
νόμων
κενὸν
Αἰγύ
ηὐ
##κοσίων
παραπλή
##θεῖναι
ἰσημερ
νομοθε
##λῆ
χρῶνται
##oss
θάνατον
2220
Καίσαρος
Τρο
##ύρου
μέρει
ἀλλοτρί
ἀντιστρέ
Κυρίου
##τυπ
Ὁμή
##όναι
ἀνακ
αἰσθήσεως
ὅπλων
σῴ
##κῶν
φρόν
ἀναιρε
##υνε
θεόν
##στολος
δείκνυσι
σφίσιν
ὅρον
##μπο
##pi
διάν
##μησε
φαρμάκων
##στους
γεγονέναι
ἐπισκοπ
ἀθρό
μακα
##σσε
μαρ
##μνηται
ὁρῶμεν
##πέμψ
##und
θύ
##ρισται
πρώτη
φρονεῖν
ἵππους
##ίσταται
καλοῦ
οὐδ᾿
ἄνε
χωριστ
##αιον
τῶνδε
διαί
##ήριον
καθέ
κεφαλα
Κύπ
πράγματος
βρ
ἄγα
##γες
##ποντες
φωνὴ
Δαβ
ἀμβ
##σβε
##λίας
##ησας
ὄπισθεν
##λὸν
ἐμπ
μηδένα
ὀνομάτων
ἐμβ
##ργος
##έσει
##νατος
##τοιο
##φροσ
καρδίας
ὀκτὼ
ἀτό
##ῆσαν
εἰσίν
τάς
τοιαύτη
##ώδους
##τιθέ
περισσ
##εσαν
στά
κοί
βουλευ
τοῖσιν
πίστεως
δήμου
κουφ
ἔμψυχ
##μματος
ἀνεῖ
τηλικ
ἀφέ
##ζω
##κιος
ὄψεως
##est
ζῶον
ἄγν
##τού
##μονι
μένειν
δικαστα
τυράν
ἔτει
##δαπ
##υμένων
##ικὸς
##tis
τύραν
##φορον
ὄρ
##ρή
##δημ
παρέχ
ἀριθμοῦ
γερ
ἐπιτρέ
##γγος
ἵππος
Πι
κή
σὸν
ἐπιγ
βαθ
γένη
εὐκ
##αινον
##ψατο
πεπραγ
τἆλλα
##τρια
##ματοϲ
ἀγά
##σκεσθαι
##itur
μέρους
##ᾶϲ
μέγαν
##ing
49
στή
εἰρῆσθαι
##πεῖν
##ψω
##όμα
σωτηρίας
ἐγκρα
τέχνης
##στησεν
ἀδίκ
ἀρν
θυμὸν
ἄγει
##οίν
##κως
##έραν
οὐρανῷ
ῥέ
κοινοῦ
φημὶ
Εἶ
Πέ
##nd
παροιμ
Μεσσ
##φεσθαι
##ΡΙ
θαλάττης
50
ὄψει
ῥίζ
##φρόν
##θήσεται
##ληται
##ληπι
Ἀντων
σύμ
Πατρὸς
συναμφ
ὅλη
ἁρμό
αἰσχύν
στέρ
##δοτος
φαμὲν
συγχ
καρτερ
τοσού
κατι
ἐτύ
##ώσει
##δραμ
##ύτη
##ηκέναι
τάξιν
ὑποκειμένῳ
προσώπου
σπα
ταυτ
σωφροσύν
ἐδό
κού
ἔλαιον
##καί
πέρι
Σωκράτης
εὐθέ
πτω
ἐγν
μόνος
##άλλη
τοιοῦτοι
ὑγιειν
κρεῖττον
διακ
δῶρα
Ἄρ
ὄξ
διακον
συνει
τετάρ
ἑτέρας
Ἀβραὰμ
ἀπή
##ούσας
##άσασθαι
ἀγαθὸς
Τοῦτο
διαιρε
λέγοντος
τρίγωνον
φθεί
##εἰ
##βαν
τόπων
λιβ
##δή
##τιθε
θησα
##θείσης
ἐνέργεια
εἰργ
Ἀσκληπι
ἐβα
##εϲθαι
ἐξαί
##λονται
ἀριθμῶν
ΑΕ
συνέβη
Ἕκτο
θεασ
ἀληθές
ἔλεγ
##πνον
Ἄλλ
##υμος
Ῥωμαίους
εἰρήνην
##τεῖς
##όντι
ταχέως
πατρίδος
##ψι
##άδας
ἑτέρων
Σωτ
##δίῳ
ἀλήθειαν
μηκέτι
ἐλεύ
ἀμέ
Αἰγύπτου
πληθυν
ῥητορικ
διαφορὰ
ἐσχά
Κρι
##ότεροι
##ῶσθαι
##πουν
θαυμαστὸν
θρ
σει
αὐτὰρ
τύχῃ
##ραβ
##τοισι
κέρ
##ie
##υῖα
##ραξ
##στέον
συμφ
πολυπ
διάνοιαν
##ϲεν
##ερὸν
##κρισιν
##θρι
συνάγ
λαὸν
στερη
en
μετά
σφαγ
σφίσι
δά
Ἀλκ
##πὶ
##έσθαι
συγκ
ξηρα
##μάρ
##ῃσι
##ώτατον
νεῶν
##ήλ
##αλεν
ἀκτ
προφητῶν
ἡμέρα
νεω
τάλαν
μῖ
##ταξε
τόπου
λοιδορ
Ἀχαιῶν
μείζονα
σῖ
##ώσεις
μετέ
##τεῖναι
εὐθείας
##ττους
##υσα
##άσσον
ζητοῦ
Μά
ζυγ
θʼ
κρο
##λλυ
φιλον
οὔθ
Βαβυλῶν
πῆ
αἰσθάν
βοῶν
εὔλογον
πεντήκοντα
ἀθρό
##τικὰς
Ἀσσ
προστα
##άνει
Βυζ
σκυ
κληρονομ
ἐμαυτοῦ
αἴτιος
ἀέρος
##βης
##άνειν
##φαῖς
##ρίοις
ἀρχαὶ
ἑκάστην
ἦλθε
##ώδης
##ακοῦ
##στέον
##όντως
##λοιτο
ἔσχε
ἡττ
##σομεν
δύν
##μησαν
γράμματα
##ύεται
προστε
##διδόν
Πολύ
κτη
##βού
##ουμένου
διώ
ὅρος
ἐκεῖσε
μυῶν
Λέ
##λλή
μόνῳ
and
εὐχα
##ποντα
σταδίων
χαλεπὸν
ὀρχ
##άδι
μέσου
Μή
##άδων
##ώμενοι
##φί
##θειν
##γματι
##τημα
ἀποφά
εὐγεν
ἀναπα
##ττονα
##ρεῖν
##οῦτος
ἀνθρω
ἐποίησε
προσήκει
συκο
ἔχοντι
φωτὸς
στρατιώτας
##ram
σφαι
πρέσβεις
νί
εἰκο
τισι
κέν
##τέροις
##κρί
##στάσεως
##κράτους
γενέσεως
Σώκρατες
ἄπι
ἴσαι
##ήσασθαι
##ὰϲ
περιέχ
ἱερῶν
##ep
ἐπίκ
##στῃ
αὐτά
λέγουσι
ἀπέθαν
##στικῶς
βασιλέων
Λακεδαιμόνιοι
##ήλω
τέλει
Τρω
τιμι
πλείσ
σφε
##έσθω
μέσου
ἐβού
γνῶσις
##λέων
##θέντα
ποῖ
ἀπολέ
##σίῳ
ἀδικεῖν
μνή
ἁπτ
ἀπά
Σαρ
##ληφθ
##έρχεται
##δρων
##ίζων
##στοις
##θί
##θῆ
διή
πλοῦτον
βαϲι
##σίαις
ἔσχεν
χιτῶν
ἐπισκό
##φαι
ξανθ
##ώτερος
##τική
##θέσθαι
δυσχερ
##εῖξαι
τόπου
ὀφθαλμοῖς
dic
##όθεν
δεκά
διαφό
##κότα
λευκόν
σπέρμα
ἀπαλλαγ
χρείαν
Ἀβ
##ήσονται
πεποιη
Ἄν
τἀληθ
κεκτη
νύ
##σμοὺς
πρατ
λευ
##τροφ
##ίην
##σαφ
δέον
μιμ
##στανται
ὑπ᾿
##ξειεν
πρώτῳ
##ϲχ
##ζόμενον
##ώδεις
ἀναθυμ
Δελφ
λόγοι
διαφαν
##φνης
καταγ
νόμος
im
κρη
μεμα
##μετ
συνεχὲς
ἀνήρ
##θῃ
εἶθ
κρατή
##βολον
ἡμέρᾳ
##γεί
λαμβάνει
ἡνίκα
Πρ
καθή
φιλοτιμ
λά
πν
κατη
ἐπιχ
ἐγκατα
##στήριον
πλειόνων
Ἐπειδὴ
##ήνῃ
Ἀριστοτέλης
Ἀρίσταρχος
λάβ
πή
θυγατέρα
ῥε
##ανὸν
##στατο
νόμου
πλησ
γωνία
Ἀλκι
θώρα
ψεύ
##οῖσι
σκοπεῖν
ἐπιστήμην
φλεγμα
διαλεκτικ
##λαί
προσώ
μεταβολῆς
δακτύ
ἔδοξεν
ποῖον
χυμῶν
κέ
κῶ
ἀφί
θῆλυ
γαῖ
##δεια
ἱππεῖς
##ργον
##αιδε
##ανι
ἄλλαις
διαφορᾶς
ἀργυρ
ὠφέ
ναί
##ώδε
Ἑλέν
κλί
##ῆκε
οἰν
κελεύ
πρῶτοι
Εὐρώ
ὀργὴν
ὀσ
##μῇ
τετε
τέρ
ἕξις
ἀκιν
##ήνων
οἰκέ
αὐτά
##ίνη
##ύσει
##ούμενοι
χαρακτ
δίκαια
ἤρξατο
##λόγως
##υμν
μέσῳ
μεγάλων
τίνος
Εὐριπί
Φοιν
##ῖαν
##ύεσθαι
τοιαύτης
ΓΔ
##λὰς
##ϲω
ἀνο
ἐναντίων
κτί
##όων
##λαὶ
μηδαμ
γενομένων
##δειαν
##τάς
ἕτοι
##λισθ
##ίζοντες
εἰρημένων
οὐδέποτε
##λῇ
##ίωϲ
##άνω
##πειτα
φανερῶς
51
τολ
##λλειν
φθον
##οῦτο
λέγεσθαι
κεί
##θρου
##φθω
ἀδελφῶν
θηλυκ
XX
Θή
ἑτέρας
κοινὴν
##ξαμεν
Μενέ
##υξ
ἀφικν
δακτύ
κᾀν
##σμῷ
ἐκείνης
ἐπικρα
χιλι
ὁρῶντες
συχν
##λατο
##ούμενα
##ψῃ
##μακα
ἐφι
αὑτοῖς
##σωσι
Αἰτω
τάχα
πάσχειν
πλησίον
καταν
Θεό
ἰατρῶν
ϲύν
ἀό
##ερα
##τταν
διχ
διψ
διατριβ
ἀμφότερα
σεα
καλούμενον
στρατόπεδον
ἀγαγ
##πεσεῖν
εὐνο
παραδε
μέτρον
Ἰουδαίων
κῆ
κάρ
ἄριστα
##μαί
##τίου
γαστρὸς
μελ
λειτουργ
##σάμενοι
##ύνει
##τέρου
ἐλαχ
Ἔστι
κατει
##μού
##έρου
##υσον
δεῖπνον
##θέναι
βαρύ
πίστιν
##ξου
τοιαύτης
Πη
κύριον
φέρει
κίνδυνον
ἐξουσίαν
##χωρεῖ
πορεύ
πλάτος
##υρος
πάσῃ
Ἐπὶ
##ώμενος
πατρός
Λύ
##υδ
##πατος
##στησε
εἷναι
χθον
ἑξα
##δοποι
ἀρχήν
λαχ
μήτʼ
τέλει
Ἕλλησι
νυμ
ψα
##ὶδ
γράφ
##ώτατα
Θρᾴ
sc
##σίᾳ
ὑπολαμβάν
πρέ
ἔννοιαν
φή
##όχ
##ζεύ
##ισμα
κλή
πλατ
αἰγ
κοινῶς
ἀνθρώπῳ
κίνησιν
δαιμον
Οὗ
λῆ
##ὰρξ
##βασιν
τυραννί
##he
##κτυ
Ἀναξ
ἀέρα
Ἀπό
ἀπον
γενομένου
ἀμφότερα
φυσικῶν
εἰώ
##περι
##λήθη
##ησάμενος
##γονται
##σχεν
λιπαρ
δευτέρῳ
##σχιλίους
σῶ
##όδου
ἄλλῃ
πορευ
Ἀθηναίους
ιβ΄
##μπου
ἐνδεί
ἀκρα
##ώτατος
ὑπονο
##ώνυμον
λεγομένων
δραχμὰς
##κτος
μικροῦ
##τωσαν
ἐροῦμεν
ἔλαβε
φρουρ
54
ὑγροῦ
σπουδῆς
##λὸς
αὐτίκα
πέρας
ἄρχων
κεφαλῇ
εἰρήν
ἱκανὸν
Ἰσα
ἀλλό
παραδεί
καλόν
ἱστορεῖ
ἀντέ
Ἑλλάδα
ἑτέρῳ
πρώτου
##φάνης
Ἀριϲτοφάν
νου
ἄθ
ἠπεί
ῥυθ
##έσθω
##υνται
ἐμὴν
μεγί
Παν
##κευ
##ρητον
φιλανθρωπ
ει
##όρου
##ότατον
ποιήσει
ὑπερβολὴν
φροντί
κν
##ασι
##ημον
##ίσταται
ἐκαλ
##λιοι
ταὐτόν
##θέντων
ἦθος
ἔμελλεν
φημι
##ίνετο
οἴεται
##χθεὶς
ἐνέ
ὑπομέν
παρακολου
κριν
εὐθέως
εὐφ
Ἀλέξανδρος
ali
λαν
##δοσιν
τοιούτοις
Ἀλέξανδρον
##τῇ
λαγ
ἡμέραις
μάχῃ
ἐμοί
γινομένων
##ότατα
φαρμά
##νεγκεν
##ήσαντες
οὐδα
αὑτοὺς
γιγνώ
ἐντυγχ
##ᾶτε
παρόντων
ἀληθὴς
ναυσ
##ell
ἀγγ
τετάρ
κέντρου
βλασφημ
ῥύ
συντελ
##πτέον
δόξα
##στηκε
##III
βί
##ϲηϲ
##γαγον
ἐφαρ
ὄρνι
ἐθ
##πίσω
σὰρξ
##ῶσα
διαλύ
Σκυθ
ὅπλοις
##ῖνα
##ρεσι
##γνωσιν
βίῳ
νύμφ
##τεί
κεῖσθαι
ἄφ
##ισχ
μετανο
συγκε
ἑκάστην
μανθάν
ἁλι
##οὐ
##τιστον
ἁμαρτίας
φαγ
##οὺ
##τήρ
53
ἄκου
##μήν
λέγοι
πίστεως
Μωσ
ἐπιπ
μόνῳ
##κί
νόμῳ
##τρεπ
μονογεν
ῥό
##έει
##tus
Κό
ἀπιστ
βουλό
##κράτης
δυναστε
βέλτιον
ψεύ
ἕπεσθαι
##είᾳ
καἰ
Θεττα
##θιον
ψή
ἱστ
##ουμένους
##ραϲ
διό
##βατα
ἀρτηρίας
ῥιν
##χθησαν
δόξα
##ῤῥω
χερσὶν
μοῖραν
##τέρῳ
##κρατ
ῥοπ
##γκε
δεσπ
συμπε
αἴτι
γυναικὶ
ὦσιν
##χειν
##λωρ
##μαχος
γενῶν
λεί
φιλίαν
δεινὰ
ὁλο
##λώ
##σμῶν
ἐκβ
##γνυται
λαὸς
##ess
ἀξίαν
ταῖϲ
##ύνειν
##υστ
##φρά
##αλαι
##νετο
πλεονα
ἀραι
ῥᾳδίως
Σολ
εἶτ
λίμν
σωτηρίαν
##ότας
προὔ
συνῆ
ψῆ
##φοις
ἐπιδε
ὀνόματι
ῥή
##ινον
##τησαν
εἰκόνα
##αρί
##θροι
πλέ
εἱμαρ
ὄψις
##άσατο
##αινεν
αἰτία
καρδίαν
##νῃ
##ωσε
ἀπ᾿
εἴδω
##θενται
Ἰσραήλ
βάρβαρ
λέγε
##πασι
πρόσω
ἐσκ
##ικὰς
##κοϲ
##γαῖς
ποιοῦν
εἰπόντος
οὐσῶν
οὐσία
ἄξια
##άδος
ἐξετά
##ουμένου
πρωτ
τισιν
εὐδαί
παραμυθ
δήπου
ib
##υε
πεδ
πάρε
λογικὸν
##ῦσιν
##θεσι
τέττα
Πνεῦμα
Ὅμη
##εῖσαι
ἐκείνην
ὠνόμα
ἔγραψεν
θρόν
##σμάτων
λέξιν
τύχην
hab
##θας
ὑπάρ
ἡμικ
κινήσει
##βαίνειν
ἐπίσκο
νῆσον
Ἰακὼβ
III
ἐντο
ἀλλαχ
ἀποκριν
Ξενοφ
ἀε
##ίσασθαι
##ίσαι
##πώ
##ότερος
##ίδων
ἐπά
##υτά
ἰσχὺν
Ἀθηναίοις
ἐγχ
συμφέρον
ἀρχα
σταδίους
esse
Στω
κεῖν
##ππα
Αἰσχ
ἄπειρα
κράτος
MT
ἀναπνο
##μιοι
φυλῆς
##θέντες
##άζετο
μαθὼν
autem
ἀμπ
##ῖαι
##σιππος
ἀρξ
γλα
ὕλῃ
προγ
νόμι
δίκην
γνώμης
πατρίδα
βίᾳ
ἀπω
ἀποδιδ
##οῖο
##τικοὺς
σφαῖ
52
ζημ
##ολο
##σμένον
##όναι
πεπιστε
ἀγά
μηδέ
βουλόμενος
ἐκκλησίαν
φεύ
##μήν
ἐπερ
ἐπιτελ
οἷος
θυμῷ
ἐργαζ
θυγ
ἀϲ
ἐοικ
ἔπος
ὄρη
##φοι
##τωϲ
δυνατόν
ναυμα
πλείστ
νεο
αἰν
θάτερον
Ὀλυμπι
ἀέ
ἑταῖ
καταπ
Σωκράτης
ξυγ
##ζευγ
##ύσας
παρι
εἶδεν
##τέροις
Ἱπποκράτης
##κοντος
##τερο
διαλεγ
οὐδεμι
οἵτινες
φέρων
ἔφασαν
##ηματι
Ἱεροσολ
Αἱ
Τη
##κτων
##υλά
ἀγχ
##άζων
ἑπτα
##οχε
##δεται
περιϲ
αὑτὰ
κακοῖς
μόλις
##ωσεν
##ίσθη
ἐπιστα
συνθέ
ἱερὰ
##ia
πρώτως
##λίαν
ἡμί
οἴκῳ
Φιλο
μεγέθει
ψό
ἔνα
ἴνα
αὐτοκρά
##άνην
ἐμποδ
Ἕλλησιν
ἆρʼ
##χοντο
ἐμποι
ἑαυτὸ
πρόσωπον
πολεμεῖν
χθ
Δω
57
δέρ
ἄδηλον
##σάμενος
ἀνω
πρώτη
λαμβάνειν
##ύρων
ἀπέχ
ὁρᾷ
ἀλλήλους
στιγ
Λευ
ΠΡ
##σματα
##ενεχθ
φέρε
Λου
##δρας
ἐμῆς
δεῖσθαι
##κότων
ἔδοξε
ἱππέων
φροντ
τόνδε
Δημή
γρ
ὀλο
##χας
##ττοντες
προσεχ
ὀνόματι
##άδα
##έσιν
##ροφῆς
##φανον
λεγομένων
Φρυγ
θει
φύλλα
γέγραπται
##ήσουσιν
Συρ
##τίθεται
##ro
##σκουσιν
Διόν
##λαμβάνει
ὦτα
σοφίας
##φορὰν
βίου
##iv
##ταρά
##όνοιαν
##αζ
##όνος
ὑποτε
Καλλι
μόνου
μειζ
##ίνῃ
##σειε
εὐλαβ
υἱοὺς
##ρικὸν
ἁπλῶν
βούλε
παλαιῶν
Ἰωσ
ὅρους
προθύ
διατρί
μετ᾿
ἔργου
##σμοῖς
##ῦναι
πλεῖστοι
ἔτυχεν
ὄργανον
Γε
##ρὶ
ἰδίας
ἑτέροις
##βιά
##λλε
##ρχεται
##τές
##σθέντα
βοηθεῖν
##λεσε
θεοφ
διαφέ
βούλει
ἰδίων
ἄκρων
ζ΄
τρεφ
##μμασιν
δώδεκα
ἐπιδημ
##γαροῦν
Γορ
ζώ
##σάν
διαφθεί
οἶς
δειχθ
σπεύ
ΖΗ
##μὶ
λέγονται
##δηϲ
δυνηθ
ἀκρι
οἴονται
Ἀλεξανδρε
ῥο
##παλιν
##τίων
##όνδε
χαί
ἔμπαλιν
##ώμενον
##τιδος
καθι
ἡδονὴ
φε
ἀτυχ
ἅγι
##γεται
##ποί
δηλω
κοιλί
ἐξαπα
##μαῖς
παντί
ἀριθμ
εἴρηκε
##ῆναί
##ώσεις
##λλεται
ἀπεκρ
κάλλ
ἁμαρτω
ἀξιοῖ
ἑτέρα
##ητικὸν
##τικαὶ
διδόναι
εἰρημένα
##πίων
##ητοῦ
τροχ
##th
πορθ
sunt
ἡμέ
ἀποδοῦναι
ἐπιστήμης
ἐτύγχαν
ἡνί
##τουν
οὖσιν
##θεῖσαν
##στειλεν
τοιοῦτο
##στῶτα
##icht
ὁκό
##τέρους
##τολὰς
παντάπασιν
οὐθὲν
λεγόμενα
ναυμαχ
Ἡρώ
εἰληφ
γενόμενοι
πεπλη
κρατεῖν
μεταβ
συλλογ
εὐθέως
ψύ
##γραμ
##ξη
μεμν
##ρείου
##υθῆναι
αἰσθαν
φέρεται
μηκέτι
##ώτων
διεσ
προέ
##πεί
Θεσσα
ὀνομάζ
φόβον
διαιρετ
ὥϲπερ
##σσαν
##σουσιν
##ῖναι
αὐγ
γενόμενος
τάχιστα
λαμβάνει
μεταβολὴν
οὐσιῶν
λέγοι
##πτουσιν
##ίης
ἀδελφὸς
Ἑλλάδος
ἐνεργεῖν
Ἐμπε
ὑπεν
γενικ
ἀγωγ
κοινῶν
πόθεν
πιεῖν
ἄρχοντα
Ἀριϲτοφάνηϲ
ἐπιφάν
μηδεὶς
to
##ώδεις
##ώτερα
##μένῃ
ὁρᾶται
ηὔ
εὐσ
ἐρῶ
σχέ
ΒΑ
##χονται
##ξομαι
##ug
ποιήσας
ἡγεῖσθαι
κόσμῳ
ὀνόματος
##σο
##κερ
##σθην
χρῶ
##tion
δήμῳ
Πομπή
ἄπ
ἐκλε
μάτην
χάρι
κρίσιν
55
Πύ
σʼ
ἱμά
ἴσας
##άνειν
ὑποδ
ἀρτη
al
φοιν
ἀμαθ
##φην
##ὲϲ
παρεμβ
θή
λυσι
ἐμε
##λωτ
τεί
νύκτα
##άδες
##ουϲι
##ποντο
ἐρυ
μόνην
ὀρθα
τετραγ
##λόγως
Ἀφροδίτης
##θοϲ
καθα
προσῆ
##enn
ἀμύ
οἰκείαν
τέκνον
##τριος
##ειον
προσηγ
κινήσεως
κακόν
πόλεις
εἰρήνης
βούλομαι
##σημ
##τιθέ
λεγόμενα
##ιλίων
ἀπλαν
διαφέρ
κληθ
μοιχε
Πατρ
ποταμὸς
φαρμα
ἔπι
##κουσα
βασιλείαν
φίλοις
στρατηγὸς
ἄξιος
ψαλ
##ρισα
καταπλα
κυρίως
ἐνίοτε
ὀσφ
##́ν
σελήνης
ἔγραψε
ὀκν
δύναι
λαβόντες
ἡδὺ
Δε
ἐμφ
##παθ
##ττουσιν
τελευταῖον
##άμ
πατρῴ
ποταμῶν
χρείαν
ἠρ
ἀποδο
πολλῇ
##δυνος
ἔδω
ἕρ
παραστ
##μβανε
ἄρχεται
πρᾶξιν
ποιήσασθαι
##τείας
##λλὰ
ἀνωμα
##γνυ
##ine
γραφῆς
ἀό
##ίσθη
##ίσκ
##δραν
μακά
λόγοι
κρατ
ἑτέρῳ
συλλογισμὸς
ἀνάλογον
##ρώων
ἔλαβον
##όμενοϲ
##τατα
εὐε
ἀργύριον
ἰδιώ
##ητέον
##τικήν
##ούσῃ
οὐσίᾳ
##ορον
##λόν
##ήσαντο
##ῆσις
Πελοπονν
ἀμοι
##λησιν
##θημα
γινόμενον
ἴσμεν
χερσὶ
##ωτέρω
τείχους
##έος
εἰωθ
τελέ
ἀπολλ
πεδίον
οἰκεῖα
αἰτίων
δόξῃ
εἰρημένον
ἐκέλευσεν
Σκύ
Τού
τετρά
παράλλη
ἀγγέ
λουτρ
λίαν
##θησ
πατήρ
ψυχαῖς
στεφάν
ἐκκλησίας
Δαρ
ἄφθαρ
##ττι
##δά
ὀξύ
ἐμαυτὸν
ἄγε
ἄγων
περα
τρόπος
ἄγαλμα
στρά
ἑτερ
ἥκειν
ὅτῳ
##mati
αἱρέ
ἑτέρους
τυρανν
ἄστρων
##ῆλον
##ῶντος
##σθι
##ίνοντα
ψυχῶν
ψυχροῦ
sed
Πρω
##ήσαντα
##αρχος
ἀμυ
##ήρεις
ἀθάνα
μείζονος
ὑποθέ
σοφιστ
ἱππο
ὀμφ
ὀνεί
ὑλικ
ῥι
τοιγαροῦν
τυχὸν
ὀνόματα
προσήκει
ἰσημεριν
ἑτέρα
##ῃσιν
γλώ
καθαρὸν
τέχνης
φιλοσό
##τοπ
ἀναρ
μέλλ
πάθους
##υλλαβ
χαίρειν
θέλει
58
ὡρα
##μματι
ἀπολ
πόρρω
Κῦρος
##ρατον
ἐπεν
εἴπῃ
##δικα
ἐμῶν
πάθους
ἑκὼν
πλείονα
Δημοσθένης
βλαβ
δείκνυται
Μέν
##ήσεων
χρῆναι
##ττονος
ἀρετῇ
##κείμενα
ἀμα
##λίᾳ
##κτους
##όδῳ
##εῖσθε
θεω
καλά
σπερ
ἑσπ
##ανά
ἐκκ
οὖσαι
ἔνδο
ὕπαρ
ἐπων
βασί
##μοιο
θεωρεῖται
στρατηγὸν
Φίλιππος
νω
εὐφυ
γῆρας
πολιτείαν
Ἑρμῆς
φθορᾶς
χρώμενος
com
ζή
σῆς
ἀλκ
##ιά
ἀπολω
##ξεσιν
ἀγαθοῖς
ζῴοις
enim
προσχ
γινόμενα
##ρυς
ὀγδο
ζῇ
##νά
##λωσιν
κάμν
συνεχῆ
ἔρωτα
##σσιν
δεκα
##ούμεθα
στρο
ἁπά
θαυμά
##ληπται
φάναι
ἀστε
##ιμ
##φν
πολύ
οἶνος
##γγέ
ἀρκεῖ
##δεκά
οὔθʼ
τόποις
##ύλα
##γη
συνουσ
εἰρή
ἔμελλον
ἀτιμ
ἀνδρα
##δίοις
##onym
ἁπλοῦν
τυγχάνει
ἐπιστήμην
60
##όμεν
ἐξη
##πονται
προσφ
ψυχήν
Ἰνδ
βλε
Ἀκα
προϋ
εἴδε
##τική
νομιζ
Ἰουδαῖοι
ann
λανθάν
προτά
πιστο
ἀσφα
##πτοντα
Ἰταλίαν
IV
ὁρίζ
προκείμενον
ἀφαιρε
πόλει
πόλις
πόλεμος
βουλὴν
##πτουσι
ἀτὰρ
Λακ
Ἄρης
##τιά
##τηται
##μοί
##στατος
σφαίρας
Σκι
νῷ
##σφα
θεά
τέμν
λοξ
πέμπ
Μωυσῆς
Πορ
προπε
##τροις
μάλι
ἀληθοῦς
ἐποιεῖτο
ἀλλοτρ
ἀκριβε
##pl
ἐνοχ
##θεος
μένει
ἡγοῦμαι
θαυμάζ
προστί
ἔτυχε
ill
##δεϲ
παρὸν
##υρίαν
ὀρθο
##χώ
##hil
##όντως
##άνης
παρακε
δυνάμεων
pro
παρεῖναι
##σκό
ἐχρή
φιλίας
ἡλικίαν
2220΄
ἐφέ
χρόνους
σύμ
##ῶντας
##εῖοι
##υμάτων
##στερος
αἰσχρὸν
ἐλπίδα
Καρχηδόν
πλείονα
ἔμ
κεραυν
##τμη
μελε
οὐδεμίαν
##καίδεκα
Θου
##μοσ
δυνατόν
γέγραπται
πλεονεξ
##θρώ
αὑτὴν
γεγονὼς
στρατιὰν
σταθ
ἀθά
κίνησις
εὐθείας
re
ἰέναι
##fic
γνώμῃ
ὑπομν
##ho
##θεον
ὅσων
αὐτόθι
61
Qu
ἕξεις
##όδους
##θέναι
##σθεῖσα
ἐρή
γεγόνα
ἁπα
##μιος
##λαμβάνει
ἰσχυρῶς
##ύμως
##γμασιν
δεξιὸν
σπέρματος
συμβουλεύ
ὄρους
##tum
##λεκται
##δεσθαι
##σαιτο
##νεκα
##ρέθη
μακρὸν
ἐπάγει
##ίδος
##ὺξ
μένει
πρώτης
ὁποῖ
νίκην
Φιλίππου
φαι
ἧπαρ
##ᾶσαι
ἐπηγ
Λευκ
Ἀγαμέμν
Ταρ
##σθὲν
ἀνυ
ἐκρά
συνθή
##πίσω
θο
προκατα
παρεῖ
##θετος
##τρυ
##ύνας
φιλα
σοφὸς
ἀμπε
ἐλεύθερ
ἔδωκε
##πτέον
##φή
##ῆος
##ζαν
##τεῦθεν
ἀποδεικν
ναὶ
ἄρχοντας
διάστημα
Πνεύματος
τέκνων
##πτοντες
ἀκολουθεῖ
φέρεται
##θο
##γκα
αἰτί
Καί
ὁρμὴν
##iss
ἔμελλε
ἔρημον
Δά
Δή
φυτῶν
ὅδε
σχήματι
ἐπειδή
ναῦν
κόσμος
τέχνην
ips
Εἴ
ἐθα
##γέν
##εῖπον
ποιοῦντες
συμπτ
σοφι
##άγειν
ἄμ
ἄντικ
ἰδίᾳ
διανοίας
μισθὸν
Αἰθι
πύλας
Μὴ
Συν
ῥά
##έϲ
ταλαι
ἐπιδεικν
οὔκ
ἐμέ
ἑαυτόν
##ῶνι
κοῖ
##άγεται
στεφαν
λείπει
##ωχ
ἐξομ
##χιστον
ἔδειξεν
ἔθνους
τοὐναντίον
ἧκεν
##ρεος
##ίζετο
Σπάρ
ἡν
##λαβόντες
##ττουσι
δευτέρῳ
ιε
##ύματα
##ῦον
##γνώ
ἀδελφοῦ
τραπέ
φέρε
ἐρυθρ
Λυσ
##στῇ
μᾶλλ
Κορινθ
ἀεί
##ήμερον
ἀπατ
εἰρή
στόματος
ἡνίκα
ἀτι
##εχ
παρῆν
ψυχή
##βολὰς
μεγάλου
Anonym
ΔΕ
κλύ
Ἐγὼ
συνημ
ἰσχύ
χρήσιμον
##χοις
##τησις
ἐτελεύ
##rammati
ΓΒ
πάντῃ
δοκοῦσιν
ἐκείνους
θάνατος
##ach
##ριδος
##θέμενος
##άσκα
ἐσχά
τῆσδε
Ὀλυμπ
αἰχμαλώ
οὐδαμοῦ
des
Συμ
σὴν
##δίας
##ΙΣ
αἰθ
ἑαυτῇ
ξηρὸν
##ρνης
τετράγωνον
κώ
πηλ
##μνή
βασιλεύς
ἐπιστρέ
ἐπεί
χαλκοῦ
##πρά
διεν
καλεῖσθαι
ἔφυ
ὀλίγα
διαίρεσιν
φθεί
ποί
οὕτε
εὔνοιαν
πρωτο
ΞΕ
δ̓
Ἐξ
##σοις
##δὶ
ἀκούειν
θυμοῦ
Gen
##μὰ
##ίωμα
ἐμψ
παντά
εἰκός
ἐδή
κωμῳ
θάτερον
χρεία
στοιχεῖον
Epig
Anonymi
Τὴν
ὀχε
##άσασθαι
##ίωσιν
πρου
##ληψις
δεδε
τουτὶ
τροφὴ
παλαιὸν
τελευτὴν
ἐποίει
πανταχόθεν
σί
Ἀσ
##ομένῃ
λέγοντος
θεῖα
τὶ
ἱκέ
##δώ
οὐσι
ἀνί
ἐλάσσον
δοκῶ
συμπλοκ
μήν
σπαν
##ψον
##ροντος
τῇσι
ὑστε
##οσιν
ποιότη
μηδέν
Κατὰ
##ώνων
λέγονται
δεικνὺς
##rammatici
##ρίως
βασιλεύ
γεγενῆσθαι
παρανομ
στράτευμα
Epigrammatici
βρέ
ἀδια
καταφά
μόνης
ὀνομάτων
##ικόν
##νεγκε
γάμον
Γά
Κρή
ἀμυν
ἀποδημ
Βαρ
Κυ
##ατο
##νους
##πύ
εὐαγ
ἐλέ
δειπν
γεγόνα
τοιούτου
τον
ἡττη
##ήθησαν
##ήτου
ἰδίαν
##κόσιοι
ὄγκον
χο
##ποδι
ϲυγ
##σμάτων
μόνου
##όρευ
τοξ
διαστή
χρῄ
συμπλη
τρὶς
κινηθ
τηλικα
κεχωρισ
##ωμένων
##βολαῖς
προσαγορεύ
ἠδὲ
δεύ
ὁμών
σή
σιν
ὅτου
Ὅταν
κατανο
ταύταις
ἐπιτηδει
ἐτό
##ύμων
##κλεῖ
λοιποὶ
##λίων
ἐπειρ
##ροντας
ἐπιφερ
ὑποσχ
ἄρχοντες
καρδίαν
ἀθλη
##στραμ
ἐκέ
οἶκος
Περι
ἐδήλω
αἰσθητὸν
ἐνιαυτὸν
Τιβ
ϲημα
##εμ
κρίν
σκό
οἴκα
##εσσι
##φεί
προηγου
ια
τὼ
##ραί
συναγωγ
βαπτ
##δομεν
πληρ
οἰκείων
Χρύ
##έειν
χώρα
##λβ
##ωθεὶς
##στρά
##σιμα
ἐκείνῃ
μέλλοντα
##ζόντων
παραδεί
μήποτε
δουλεύ
ποιητικὸν
γίγνεσθαι
σάρκα
ζῳδ
##ίσασθαι
##αίρεσιν
ἀμφί
θερά
τἀναντία
ἀχθ
ὄρχ
φεύγειν
ἑτοί
##ίστου
##λιπεν
##άντα
λεπ
δογ
##ind
da
##βατον
##λυμα
τρόπος
παιδὶ
ἐτ
ὕβριν
καθὰ
κεφαλὴ
ἐλάττων
κἀκεῖνο
τάλαντα
##ώτερα
##γ΄
φθειρ
ἱερεῖς
πολυτελ
ἡδέως
for
καταρ
##ήγγει
Μωϋ
στη
##ήσα
προσποι
##θέντας
κομιδ
φιλονεικ
πὼς
ἐτί
##ομά
παρακ
αἱρέ
νομί
κέχ
εἰκά
σύμπαν
##μούς
φαίνεσθαι
κηδε
κτε
ἥκει
ὅλος
ὠδ
##uit
τισὶ
ἵπποι
νεῦρα
##στὶ
συναν
παρασχ
μιγν
ἀναγιν
πλημμε
##ώντων
ὀλίγων
γράφειν
τοιούτοις
##ήσομαι
πεποιηκ
Chr
Coss
οὖσι
##γασ
##αλά
στί
##υμένων
##στήριον
περιφέρεια
ἑτοι
τοιούτους
##πεσὼν
μέγας
μεταβάλλει
κωλύει
##ζομένων
##λλην
θεόν
δεκτικ
ἀγκ
Ῥώμῃ
σχήματος
ὑ
ἐγεγ
##μύ
##λευκ
μέσων
##λθῃ
ἀνεπι
##ελθόντες
ὠνόμα
Λακεδαιμονίους
πυνθαν
νυκτὶ
πεῖραν
Δαβὶδ
##ραὶ
ἐγίνετο
ὑμν
γινομένων
σύγκ
θυσίας
πραχθ
##ενεγκεῖν
θερμῷ
ᾔδει
##έγρα
ἀνάλογον
ἀνάγκην
##μβολον
Γερ
πῇ
Ἀσίαν
ἐπιγραφ
##έρους
δοκο
##ξεσι
ἀπόδειξιν
τήνδε
Πομπη
63
Γλα
Τού
##σέ
##σπέ
##ap
##γονον
ἀφ᾿
υἱῷ
##ari
ὀλίγα
θέσιν
ὁρισμὸς
##ειῶν
ἀνει
συμπο
##ρικῶν
ναὸν
αἵματι
κέρα
ἔγκ
##λοῦ
κατή
οὔκουν
##τίθεται
οὐδέποτε
Βοιωτ
μῦς
μέγιστα
ὁρισμὸν
Ἀπόλλωνος
ἄγγελος
##ρηγορ
ἄγνοιαν
μηδαμῶς
Και
Φωκ
ἧσσον
μάτην
θυσια
ὁδῷ
Υἱὸς
μῆνας
ὀπίσω
##δύν
##τιϲ
θεραπευ
δύνανται
##μπτ
##ΗΣ
##υτὰ
δαί
prae
Διονυσ
64
Πόν
βάλλ
##άμην
##ππῳ
ἐντυχ
ὑπισχ
ἐγκαλ
##υγεν
κοὶ
ψό
Ἀμα
##πται
ἐντελ
γεννη
τοσούτων
θνη
κον
ἐγώ
ἀφθ
τέλους
στρατιᾶς
ἀπόφασις
##ίσας
πάσῃ
##ξαντος
##ῆϲαι
διάμετρον
ἁμαρτη
Ἐκκλη
Ἰούδα
Πῶς
γενόμενον
τέλους
##τοῦντος
ἄντικρυς
ὄμμα
παρεκά
μεγάλη
νομοθέ
Σαλ
ἀλε
Ὀρ
εὐδοκι
Πει
##ύματος
##λία
##κτε
##κτωρ
μαρτυρεῖ
κἀνταῦθα
Τρῶ
##νει
τοιαῦται
χλωρ
ὑπηρ
##δειον
##ομαχ
ἀπόδειξις
ὀνόματος
Μωϋσ
χῶ
ἄξ
##νημ
##ῦσθαι
##ουϲιν
πολυχ
##ρωσιν
μεταβολὴ
ὠφέ
##ύϲ
##ρύ
ἄνθος
ποιὸν
οἴκοι
ὑστερα
##κτως
##uch
τεκμή
χώρας
##θ᾿
##ταϲ
##τακται
##όνον
##ναγκ
κακίας
τοιοῦτόν
Βασι
συμπεράσ
ἴσῳ
##οῖτο
τάδε
ἄρχοντος
Ἀριστοτέλους
οὑν
βουλε
ταχέως
##πωρ
##γοντας
συλλογισμοῦ
ὀδυν
ῥύ
##ὴϲ
ἀγαθῷ
τᾷ
διαλέγ
##λάβ
##λῃς
ἥδι
##σίων
εἴγε
##κισχ
ἄρθρον
Ῥωμαίων
ὀρθὰς
τίνι
##συν
##κατε
##σχυν
πόδα
βοῦς
ἁγι
##ύμα
εἶτʼ
καταλύ
##λιπεῖν
ἀρετῶν
προσδ
##λευσε
οἰκείας
##βάλλον
##ότατος
ΗΘ
λαι
##γά
##τούς
ἀπολεί
φύλα
##κότας
ἴσην
Ῥώμης
ἐχθροὺς
ἐδεί
##φό
τινά
δεικνύ
εἰμὶ
προαιρ
##μέναις
ἀπαλλά
##ϲειϲ
τοσούτῳ
νεύρων
διελθεῖν
ἀναχωρ
ἐμπί
Διός
νύκτωρ
Παλαι
##υρον
##ώθη
ἐνόμι
##ορθ
ἐξαν
##σκουσι
δοκῇ
ΘΕΑΙ
θεῖος
ὅτʼ
ταφ
εἴα
οὔσας
λέγοντα
μαθή
ψυχήν
διάνοιαν
θρόν
ἔμα
##ίνοντο
##πεμπ
##παὶ
εἰσίν
ἐσθί
πώποτε
Βι
κλι
Ἔστω
##τέρες
ἀκροατ
##μαρτυρ
Πά
Σίμων
σά
ὀφεί
καταλεί
ἰσχυρο
##υμένου
ἐνέργειαν
cor
##τήριον
νόμῳ
πύργ
##οχος
##ᾂν
##στῆ
##σκω
αἵρεσιν
ἁγίων
βιβλί
δύνανται
αὔξησιν
ποιοῦνται
##μβου
δικαιοσύνης
##όγγ
##γμασι
σιδή
Δίʼ
Τυρρην
μεμνη
ἐπισκε
συντά
αἱμο
ἐχώ
τέλειον
διδάσκα
Ἀχιλλέως
ὄξει
##ήτων
##λησε
##έγνω
ἔσχον
ἐποιήσατο
##νοι
παρόντος
λέξιν
##λαμβάνειν
συκ
##ταξιν
ἀλλό
##θεσαν
Ἀρμεν
γράφεται
ζῴῳ
Υἱὸν
φυλακὴν
κρίσιν
ζωγ
κᾂν
ἄσ
ὑπά
ὑπάρ
ἀλλοί
ἐπιδέ
διαφέ
##tin
βοή
χρήσιμον
στάδιοι
νέον
ἀλ
ὅλα
δικά
συνοικ
ποιότητα
##λασσα
προσώπου
##εῖσιν
χρό
θηρι
Ἀναξαγ
Ὁμο
##ίστη
##ήκοντα
παρθέν
καθί
μάλα
κόσμῳ
χειροτον
δικασταί
στασι
##σικ
Ἀλκιβιά
##κοντες
##ίδ
##οιμι
κακά
μήτ
φυγὴν
γνώμην
ὄλε
##og
##σεὶ
ἀποδι
μετέχ
##μημα
οὐσίαι
πνεύματι
δέρμα
τραπέζ
τοτὲ
##μένειν
ἀπορίαν
Ἰσραήλ
πάσχει
τελέως
ὁπω
στρατὸν
μοιρῶν
##οῖσιν
προσευχ
βίος
Σαβ
##νας
##ίδι
ὑπομέν
##λυσε
ἁπαλ
ἐπιμελ
κελεύει
μεγαλοπ
##στʼ
περαι
ἐπιμέ
διαθή
διδόναι
στρατιω
σκοπὸν
καρπῶν
Σπαρ
ἕτερόν
##ίνουσιν
##αῖος
γινόμενα
##χνος
λεπτὸν
ἀνωτέρω
ἀγαν
νόμοις
χρόνων
φιλοσοφίας
κηρύ
Μακεδόνων
των
ἀνό
τέχνη
κοινὴ
##ήσειεν
δοῦλος
περιττὸν
##διδόναι
ῥά
ἀκόλου
##λαμβάνειν
Χρυσο
##σμοὶ
##ήτου
##φρ
ὑπή
ἀνατε
πολλαῖς
ἀσύ
σοφίαν
τρόπῳ
ὀξὺ
κηρύ
ἐκαλεῖτο
62
ὁρισ
##νασθαι
ἀποστο
πολλά
δῆτα
σαρκὶ
ἕλκος
βάρβαροι
θυγά
##έφαλ
##ΟΝ
αὐταὶ
δοὺς
παρελθ
ἄδικον
ἑφθ
##τίῳ
χρόνοις
ἐπεξ
μερι
ἔβ
##άκις
παμπ
##ροειδ
##ποντος
στρατοῦ
ζητο
Ἡρακλῆς
##ητο
##λεον
##ίνας
οἰκείαν
prop
Κορίν
ἀλό
##τωνυμ
##ησί
παραπλή
τοιάδε
πάντο
μέτρον
ὕπνον
Ἅι
ᾤετο
##ίνοις
παρακει
##θέσεις
Ἀρκά
φάρμακον
##cc
ἀπαγγε
καται
##ρητο
εὐλόγως
ἀνατέ
ἐδέ
δουλε
Λεύ
έν
##ιαν
##όνει
##σχετο
##ίζω
θεριν
νομίζειν
θανάτῳ
ὀστῶν
Κρά
##ῖοϲ
##τιστα
##τρω
##γονος
##υρὸν
##φρονα
δηλοῦν
ἁλμ
ἴδω
##ύβ
##ΐου
πεμφ
##δημα
κινήσεων
##θρωπος
Ἀννί
ἱππε
ἠγν
ὄμβ
περιβ
##μφα
αὑτῆς
χρυσοῦ
##δὼν
##όνι
ἔχουσαι
##γιστα
συγγνώ
##κτὸν
καιροὺς
οὐρανῶν
##τεῖσθαι
ἀποκτείν
##λλακ
ἐπαγωγ
ἐκα
##ίνοντα
##λογος
σπουδῇ
ἀγορὰν
μο
Ἀραβ
##ῆτε
ἀπώ
##όνας
ἀπολε
τρίτῳ
ψευδο
χαλεπῶς
Ἡρακλέους
παντοδαπ
φόνον
at
Λο
αι
##σοῦν
##βή
##ίνῳ
ἐμπε
##πια
ταῦθʼ
δρᾶν
Ἀμφι
ἥρω
Ὑρ
προφά
ἐνδέχεσθαι
ἐκέλευσε
ζώων
##ion
ἀναμι
ὁμοιομερ
ἀμυδρ
##ππον
μακά
πόλεμον
προφήτης
Κρα
Τρι
ποτέ
Θεμι
Δια
βάσιν
##ηθείας
κολακε
θρην
φλογ
ἑκου
ἴσου
ὀστᾶ
Μιθρι
##εἰς
ΑΛ
Ὀρέ
##ραῖς
##στὸς
##θρων
Διομή
ἁμαρτίας
μικρο
ἀνελεῖν
πυρετὸς
##σάντων
μελα
αὐτοί
ὀξύνεται
μαντε
##λαγος
##άων
##ύσης
##ζόμενος
τοξε
##ίζονται
##σσου
σύμπαν
γαστέρα
ϲυλλαβ
##μαις
##μμασι
##λός
##λεα
προεί
##εὶρ
ζωὴ
Μεγα
τοσαύ
67
ἔμβ
##λλο
##οῦϲ
##ίνουσι
##ρομεν
ἐγχειρ
ἄρτον
Περικ
πρώτων
συμβεβηκότα
ἐποίησαν
##μεινεν
ἀσφαλῶς
στρογγ
66
ὥρα
##τελέ
παραδό
##κρου
δοκοῦντα
πανηγ
##στρατος
βιβλίον
ὀπτ
##ορι
##άσης
ἀποκε
μετρι
##δοσαν
βαρβάρους
βέβ
τμή
ἔτους
ἠκο
διῃρη
χρῆμα
κατακλ
κατεῖ
θηρίων
γραμμάτων
##idem
διαιρεῖται
Ἰνδικ
μνήμην
ἐλάττονος
##ζα
##ήσεσθαι
ἀλλ᾽
ζητη
φέρεσθαι
μῦθος
ἔλθῃ
##στόν
##γνῶναι
τριχ
##λίῳ
στρατηγῶν
δίκαιος
Ἑρμοῦ
ἐπιστήμη
ὲν
##ρός
##ίτας
##ήσαντος
βαρὺ
ταῦτά
##ρεῖ
ἐκκα
##μέναι
##εσσιν
Ἀρκα
ΒΕ
Γό
ἡρ
##άϲ
##ίνουσι
νενικ
δευτέρου
65
ἐκτ
τετα
περιτ
##έχων
σοί
Ὑπερ
##λιβ
##ροφὴν
φίλ
μικρῷ
πυραμ
δικαιοσύνην
ἀμφοτέροις
διαφοραὶ
πτωχ
βρον
περιουσ
ὑποδε
κολλ
Παρμεν
πτην
ὀφει
##όρ
##ξηται
##κεσαν
τέως
φλεβῶν
Pr
##έειν
##ξεσθαι
##ικος
παρθεν
ξύλον
##χολ
##ίρ
##σθήσεται
##θείας
##σοντα
διετέ
σαφὲς
ποσοῦ
##στόμου
θλί
##μίαν
ἄνι
μήποτε
καθεύ
ἐνδεχόμενον
μνημονεύ
ἰδέας
τεθνε
Κρη
##κὸς
##εῖεν
##λιπε
ἀναφ
βουληθ
γωνίας
ἐπι
εὗρον
μεγέθους
ΑΔ
ἄχρη
##σσει
##ύλου
##ώσας
ἀνοι
##λαον
τοιούτου
##ώτατα
68
##ύοντες
##θεις
ἐπῄ
ποικι
##γοντος
##κοντας
παρεχ
γαστρὶ
πολλαχῶς
omn
τεσσάρων
παραλλη
δοκοῦν
φθέγ
γή
ἔκριν
##σίως
εἴω
##ούσαις
σημαν
ἀγνοεῖν
αἰσθητὰ
Ἱερουσαλὴμ
ἀποδείξεως
fac
##άδε
##ληψ
##ίκου
μείζω
κἀκεῖνος
Σικελίαν
ἀνδράσιν
συμμάχων
νύ
Ἀσίας
ἐσσ
##ώϲ
ἐπισπ
ψυχή
Αἰγυπτίων
ὄξους
##ῖο
ἀνοί
τεττ
ἐξαί
παιδι
##στικῆς
Εἰς
φεύγ
μαλθα
πλαγ
διαστο
##κια
τάξει
βουλῇ
Ζηνό
ῥυ
ἀντωνυμ
πατέρων
##ικοὶ
ἀριθμη
##φορᾶς
ναύ
λευκῷ
διάθεσιν
Υἱοῦ
βάρος
Βου
Ἢν
##Ag
##ικοὺς
χρῆσιν
ἀρχαῖς
##κότος
βραχίον
##ληφεν
ἔφαμεν
ἀμφισβη
##ρισεν
λατρε
κεκρα
##ύνων
ἑτέροις
ξηρὰ
ΑΗ
ὄρει
##θοδον
ἐκπέ
##βολῇ
παρεμβολ
##χω
##ύα
##μοσύν
##τοῦντας
τίνες
πονηρὸν
ἔς
ὀπίσω
ῥώ
##πρα
δεδω
μαλα
ἐτέ
ἔμοι
παραβ
δίκας
θυμὸς
χωρία
##oll
στάδια
δάκρυ
ἔμψυχον
μυκ
##μμ
##ύσει
τοπ
##αιταν
μόνων
σαφέ
ψῆφον
οἴει
οἴδα
πρότασις
μαθητῶν
πράττειν
θυγάτηρ
μαιν
##υῖαν
δυνάμενος
πολλαπλα
σέβ
##tr
##ζ΄
##λουϲ
##τοῦσιν
συγγρά
ἀκολού
##κουσαν
δόξῃ
διπλά
λυπηρ
ἐλάττονα
σκά
παραλαβὼν
τόλ
βαρύνεται
μέγιστον
id
##ύμων
δυνάμενον
μεγάλης
ὀλίγῳ
γαλ
ἐψηφ
##λεος
νοερ
μένειν
παιδα
##anc
μανθάν
διδασκαλίας
σπονδ
Θουκυ
ἐάν
ἕω
##ματά
νεὼς
μόνην
ἀσπα
##υρίων
στρατιῶται
##φέρεται
λίθον
ὁδοι
μετρίως
κιβ
##φω
##ήσω
τεταρ
##σελ
περιστ
##έβαλεν
τἀγαθ
##ηκότων
τύχης
θατ
πίστ
##φισμα
ἀναπν
##εὶδ
μέλλων
ἀμφότεροι
σοφίας
δυνάμενον
σῖτον
ᾠδ
##ῃρ
διωρισ
##ριμον
διαδοχ
##τέρους
κτλ
κυκλο
φαῦλον
74
Ζεῦ
Ἀκ
ὀλέ
ὑδα
##πέρ
##ύμενος
ἡγούμενος
ῥᾷον
ἀσω
ὥρᾳ
##μαὶ
##θετα
##κτει
Ἀθηνᾶς
ἡγεῖτο
##στικὴν
##τεῖται
ἐπιφάν
αἰχμαλω
Οὔ
ἀοι
##κλα
##ώματος
##ησάντων
παραλλή
πόδες
δέον
ἐκείνη
##αίρεσιν
Κύριε
διδάσκει
τείχη
70
ἀηδ
##δεῖν
θεούς
μέμνηται
πρώτης
ταυτὶ
ἐκιν
ἐφί
πόδας
ἐξευρ
θαλα
##τοῦντα
μισθοφ
##ηχ
καταπα
ἀμφό
ἱεροῦ
ἐλαίου
ἡσυχίαν
ἐννέα
ἀλλαχοῦ
προπαρ
ἐπιτή
##ίνην
διαμέ
##τοισιν
δεξ
κινούμενα
##αινόντων
##itat
τοιούτῳ
ζῶντα
ἀδιαί
Δαυεὶδ
μάρ
##αμβ
##ob
κεφά
πάτερ
ἀγέν
ἀστέρων
##ήσειν
Βάκ
##ys
##οιμεν
##ορᾶν
ἀναί
##δοῖς
οἶδ
αἰσθάν
ζώου
Ἄλλως
ι΄
κ΄
ἠδικ
ὕπα
##λῦσαι
##ίνοντες
πλουσ
βοτ
ἐγκέφαλ
γίγν
ἑξήκοντα
##ώτεροι
ἀπεργ
##πολε
Διὸ
πέτρ
ἀναγκαῖ
ἐσμεν
θαλά
μεγάλα
λεκτέον
69
Le
Τὸν
##θορ
προι
τελ
μετρίως
##υπν
ΕΒ
πόνων
ὕμν
ἐγχωρεῖ
##ίζουσιν
χώρᾳ
κυρίῳ
##κνυται
μεγίστην
ὀστοῦν
γέρων
ἁγν
##υεν
##κριτος
τοιαύτας
φλεβο
zu
##έαν
καθ̓
##πεδα
τέττα
##όροις
quo
ἡδονὰς
ῥί
##άμενον
ἀρχηγ
##κρυμ
ἀρέ
##ξαντα
##στικῶν
Ἀρτέ
πλήθους
Πατὴρ
ἄφε
ἐνθέν
προὐ
εὐμεν
χρείας
σπλάγ
##ϲύ
##λιπον
##ίωνα
##μάζ
φιλεῖ
δεσπο
μεγέθει
rec
##a1
διακε
##τοῦσι
οἰων
Κατα
κακῷ
##έβαλον
##πηδ
##ίσματα
διαφέρειν
ἐβούλετο
δεσπό
ὡσεὶ
##άσατο
##όρας
ἐκλεί
καταπε
μόνη
##άγκα
τρόπου
Ἀριστοφάνης
γει
ἐνό
κατασχ
δοξα
βουλή
μάχεσθαι
##avit
ne
κώνου
ἐπαρ
##ρίον
δαπαν
παράδειγμα
ὁπλι
##ομέ
##λησαν
##πεσεν
Παρα
τοσαύτην
Λακων
ἀπροσ
στ΄
##μφων
ὀλίγου
Ἀντιοχε
δευτέραν
##οπλ
τέως
μείζονος
σμύ
Ἀργείων
##άζοντες
χωρεῖν
γνώσεως
πορνε
##ματʼ
##πεδε
πέφυκεν
τρίτῳ
##σθέντων
γραφὴ
γίγνονται
Χρυσοστόμου
Γ∠
δού
ἠξι
ἡδέ
Ἰλλυ
##λίν
##όμε
ἐνώ
##έρου
##σοντας
πέφυκεν
γεγονὸς
κάλλιστον
διανοίας
μνημονεύει
θρη
ὁριζ
##ότε
##ᾶμα
προέ
πότε
οὗτός
ἡγεμονίαν
##ρᾶς
##πτα
##δριον
##φάν
##λαϲ
θείας
##κοδομ
##φαὶ
##ωτὸν
ὀνει
ἑκάστης
Ἐπικ
προθύμως
Κρ
##χνον
εἰρημένοις
ὁμολογου
ἀθρο
Κιλικ
##ήσαντας
##λείᾳ
##έχθη
σπουδὴν
σωτηρίαν
71
Domin
φεῦ
##ern
##αῖοι
κατεχ
σιδη
πνεύματι
οἴκαδε
ἔτ
ὄφελ
προφαν
κατ̓
οἰκείων
ὁδὸς
συλλογισμός
μηδεμίαν
ἐπιβουλεύ
κέχ
##εντι
εἶδε
ἐμνημ
σφραγ
οἶσθα
διεξι
διεφθ
πατρι
ἰατρὸς
πολίτας
ἀγγεῖον
ὁρω
##τατος
##υγεῖν
##εῦσαι
κεχρη
ἐλευθερίας
κωλύει
νιν
ἰν
τάχος
τόπους
##έβειαν
προεί
θείου
##σταὶ
στίχ
οἷός
ἰσχν
##άρχου
ἔγγιστα
ἐπιθυμίας
μῦθον
ὡρ
##ετ
##γεὶς
##μιδος
λοιποῦ
χειμερ
Λακεδαί
##σίς
##σκομεν
μητρὶ
παροιμία
Οὗτος
κλά
##εισιν
ἐπαινε
διχῶς
αὐτῶ
##φθει
##ρικῆς
ἑκατέρου
ἐργάζεται
δῶρον
ἄστυ
73
sp
##ώματος
##ρεα
##σκονται
συνεπι
γραφὴν
##ier
καταστή
##υρῶν
ἐμπό
Ὁμήρου
γαῖαν
##ώμενοι
διαθή
ὄναρ
προσφερ
##θαί
πρότασιν
##γειῶν
εὐθὺ
##χανον
ἀκολουθεῖν
ἱστορίας
ἕλκε
Πλάτωνος
Σοφο
FH
nicht
par
βολ
πέρ
παρατε
πεπα
εὑρὼν
##ίνατο
Φίλιππον
ἔνεστι
Λόγος
##ίωσιν
γενομένην
ἀρχαι
ἀρχήν
ἀγαθοὺς
κοινῷ
μόνα
δυεῖν
πολέμιοι
ἔδειξε
##κεινα
ἡλικίας
γελο
περιστε
δοκοῦσι
τἀν
ὀλίγοι
FHG
Κυν
##έσι
##ινα
οὐκέ
##διαν
ἀρχή
##ρωμα
χαριζ
καρδίας
##imus
ἀνδράσι
μοῦν
σαν
ἐκδ
##ίνουσιν
τότʼ
ἰχθύ
ἀίδιον
Ματ
ῥυπ
##λεσαν
ὑποψ
##μβανον
δαίμων
Μιθριδά
Pl
ἀτρε
##μάρ
τοιόνδε
ὑποκείμενον
ὑγρῶν
κόσμος
νίκης
θάρ
ἡμαρ
῾Ρ
ἐπὰν
μελέ
θείας
##τικός
ἐπεχεί
πρώτων
##are
δευτέρου
sub
προπαροξ
φέρ
##σπι
##μνα
##ῆρον
##τορ
συνειδ
ἐρεῖς
γένεσις
##λυσιν
ἴσων
ἐδίδα
be
σπεί
ἥξει
##άτῳ
##άσαντες
##ποδα
στυπ
διαφων
εἰρημένα
κυρίῳ
ὑπισχν
ΑΖ
ἁλῶν
ἔδρα
##σσης
ποικί
##μπτω
ἀναιρεῖ
ἰχθύων
λεπτομερ
Σολομ
παιδαγωγ
γη
##ξιον
##ώνιον
inter
Αἰγύπτου
φο
##κʼ
παρόντα
στῆ
διάστημα
ἀπαθ
γλώ
##ορδ
εἰπών
##πόμενον
ὀρθὸν
ἀλλήλαις
πράγμασιν
ἐνθένδε
Λατ
ἠθέ
##ήκει
##ῷον
##ήματι
##σιμος
ἀπομ
ἐνεργειῶν
ὀργάνων
ξύλον
νυμφ
ἦρχ
##λʼ
##άντος
ἡμέραις
ἐποίησε
ἀπελθεῖν
ἐπιτά
ἀγάλ
ὁμογεν
##γωνα
Τιμο
ξίφος
Οὕτω
##β΄
##τιμον
ἀπελ
τεύ
##ότητας
διάμετρος
ἡδονῶν
##ορεύ
ἐπιμελῶς
Διονύσου
εἰώθα
ἄχ
ὄφε
##ψάμενος
ἐπορεύ
##τοιϲ
##υγμα
περιέ
πεπλ
γνησ
πρόσω
##στήρια
γέλω
vero
φρού
##ουμένη
##στρον
##τρί
##τικά
πλοῦτος
πάντʼ
ἀφεί
ἀρετὰς
ἀδελφοὶ
δείξας
προσθεῖναι
τέσσαρα
ἥπατος
##ύμενος
##λυν
##ριαν
ἡμέρα
εὐτελ
λαῷ
ματα
σχήματος
πέλαγος
φέρεσθαι
##βλημα
ϲτρα
ἥρ
##μηκ
##ίστασθαι
##ζόμενον
##ιντο
τοῦθ
διδοὺς
χρηστὸν
εἰρην
ἀλό
##ύουσιν
##ημένον
##ϲον
##ῄεσαν
ἀλλά
δέσπο
φιλεῖν
τοιοῦτόν
νέων
##χὶ
ἐνίκ
διπλασ
ποῖα
##λητον
ἁμαρτίαν
παντάπασιν
Ὑρκαν
Sch
ΓΖ
ΠΕ
ποτέ
καθη
προση
αἰσθήσει
αἰσχυν
κομι
δεξιὰ
δημοκρατ
φόβῳ
νεανίσκ
ΓΑ
Κόρ
ἄλο
ἆθ
Ἡσα
Ὠκε
##γας
##ρατι
##στωρ
πυλῶν
νέος
ὀλίγους
ἑβδό
Λακεδαιμονίοις
θνητὸν
##ξουσιν
##σκοντα
##ηθέντες
Περσ
ἁρμο
##aec
ἐνεργεῖ
Ἑρμ
ἔλεγχον
πλού
φθε
ὀκτα
##ΑΣ
##κοί
##λουργ
φαίνεσθαι
στρατῷ
βάθος
ἐπιστήμης
Καίσα
ὠμο
##μόνων
##ῄρηται
ἐνδεικν
ἀπολύ
ἀναλαβὼν
μετέχ
φθιν
##λοιο
πληρω
ποταμῷ
##θείς
χρώμενοι
τραγῳδ
εἴπωμεν
φῦ
Ἰλι
##μένει
ῥίζα
##φοραῖς
ἐγκεφά
Βελι
Κέλ
σαρ
ὑφε
##λῶ
##ὰκ
εἰδω
##ρισμα
πεντε
##ωτάτω
τεσσάρων
Θουκυδί
ἀέ
ἅπτεσθαι
##έβη
##ύριον
##σθησ
##τητος
ποιούμενος
καταλαβ
δικαίων
##λασσον
Mi
##υτο
##στὰ
##στῷ
##θραν
Διὶ
ὀρῶν
τιμὰς
##ore
παράδειγμα
80
##έσι
##ηνῶν
προδο
προαιρέ
θεολογ
##ύχων
στέρησις
παροξυσ
εἰδότες
Ἀθήνας
βουλόμενοι
Θεμιστο
φυσ
##ίδην
##ίγ
αὐλη
παίδων
##λεσι
ἀποστα
οἰκι
##tiam
σοφία
μηνὸς
##πτιοι
ἀποδεικτικ
ἔμοιγε
ΚΕ
ἑσπέ
ἔπη
ἡλι
##λοῦν
##ώρων
##φαντ
ἐνεν
ἀνακα
μεταστ
κατεσκεύα
ἰσχύ
κάλλιστα
ἀκρό
ἐζή
γάλα
Ἰά
##ϲτι
προσει
##άζονται
##λλαβα
ἐγγύ
καρδίᾳ
##άνδρου
##γκειται
ἀληθές
νόσον
εἰκόνα
σωτὴρ
πλήθει
ἄψυχ
##ότερος
συνδι
συμμετρ
##ώνῳ
εἰσηγ
παρεσκευ
θεωρεῖν
τελευτῆς
κηροῦ
ζῶντος
ἐλέφαν
##δημος
μεμνῆσθαι
γύναι
##άσει
##τορι
μελι
ἐπιζη
##ττοντα
ἀσφά
βάρος
Ὅμηρον
ὑπεναντ
ἑστι
##μμάτων
βασαν
ἀναγκαίων
πράξεων
γάλα
Κλα
Ξέρ
ἔα
##σκα
##κτῳ
##ᾶσι
ἐνταῦ
##ρίζειν
##βαίνει
##πιος
##ριστοι
χαρι
δυσὶ
ἐποιοῦντο
ὑδάτων
Διογέν
Του
ἄριστος
##κτέον
καμπ
##σασθε
##δελφ
ὁμοειδ
μόνοις
ἀντικείμενον
ἴσος
λέξεως
##κράτους
τεχνῶν
τετρά
Ὀλύ
##ύεσθαι
ταλ
κρᾶσιν
τιμωρίαν
##ort
##ρηνται
ἔξεστι
ζῳδι
Κρον
ζητῶν
##οντ
καθαιρ
##γοντο
υἱοῖς
##οῖϲ
δυσμεν
##ρισμὸν
φόνου
ἐδόκει
Ξενοφῶν
ἄμα
ἑώρα
ῥάβ
##άμεθα
παγ
##πορευ
κοινῆς
κάμν
##σθωσαν
ἀδύνα
ἀποστό
φθορὰν
εἴκοσιν
Ἰούδα
##άσεως
##εσθαί
##άλω
##πες
μεγίσ
μοιχ
ταύταις
χρημάτων
Διονύσιος
Ἰωάννης
ἀρτηριῶν
##bus
##γαὶ
##πίπτει
Λό
κέρας
τξ
ἀιδ
ἄφθ
##ἐν
##αιναν
##εύειν
σημείου
ἤκουσεν
φαγεῖν
Πρό
σβ
ὠμ
##uer
ποθ
προαγ
ἐπιτιμ
κοί
τέταρτον
Σωκρά
τέχνῃ
Πλάτωνος
ἐδείχθη
Γότ
Φω
χεὶρ
ἤθη
ἐπιχεί
##λισ
##ειρεν
πέπον
διεκ
διπλῆ
Θέ
πειν
##τίθεσθαι
ἔκτι
##σθέντος
χρυσίον
τόνον
διαιρέσεως
ἵν᾿
Ἰταλίας
cons
ἐπιφέρει
φιλόσοφος
den
βίβ
ἀθυμ
##οχον
συνέβ
κατασκ
συμπα
φαυ
##βολὴ
ἁρπαγ
θαλάσ
μεγάλην
ἄκρας
Χα
τή
παύ
##παῖς
πεπει
τόπων
##λικὸν
μεταξύ
μέχρις
ἐρωτη
τειχ
ist
παραδο
ἀφίκ
εἰρημένον
Ἑλλήνων
λιθ
δίδωσιν
αὖθιϲ
τίνες
Κωνσταντιν
σῶν
ἀτοπ
##κλι
##jus
προσηκ
ἱερεὺς
Βοιω
σελήνην
72
Σόλων
Φαρ
##ium
##ίνονται
μόνοι
##τεύειν
τύχη
συλλογισμῶν
Ἡρω
διπλα
ὄνει
ἐμπεσ
##σοντες
κρᾶ
##στάσεις
δεξιᾷ
προσθή
ται
Ἡρά
##έας
##όμην
ἐπιδεί
θεοί
οὔτι
τρισὶ
οὐρανὸς
##ήσειεν
ποιότητος
##τέρᾳ
##θέσει
δοκεῖς
δηλα
λεγόντων
τιμᾶν
ἐκάλουν
γινώσκειν
Παυ
Χαρ
##μίας
##υι
##uf
πάντῃ
ἀδιά
##γινώ
##ύτητα
φαντ
ὅκως
παρασχεῖν
ἐναντίας
δόρυ
##στήκει
ἐλπίδας
εὕροι
συγγενεῖς
Ζεύς
ἔαρ
Ἑκά
ἤλπι
##βειν
γεί
ἔφερ
δικαιοσύνης
##χό
##ουμένοις
##δεξ
πολλοί
Γαλι
μορφὴν
κοῦφον
αἱμοῤῥ
θ΄
Ἀστ
##ῶσαν
##ῶντο
##τονα
##τητα
ἀρχόντων
##λαια
βουλὴ
ὅσοις
##ρῶντο
ἐϲτ
στοχα
ἀγωνιζ
ἐπιστολὴν
πραγματείας
τράπε
διαθέσεις
δρά
φλέγ
##οριῶν
παί
##ληγ
εὐφημ
Καππα
##ήσων
χρυσὸν
##εῦσι
σωτηρίας
δίκαιος
Πειρ
ἕξεως
##ύσατο
##ηλα
##ύρου
##ατῶν
##ηθῇ
δημα
προσελθ
πράξεις
75
##χυν
ἀγέ
##σίαι
καρδία
φόβος
χολῆς
οὐδεμία
στοιχείων
ὑπῆρχεν
Φιλ
ἵδρ
##ρίας
##σως
##ωθῇ
μηδέν
##πόλεως
ὀνειδ
##όρει
μυρι
παράπαν
ἐσθῆτα
θρησκε
Sto
βό
##εταί
##τυγχ
##ίζονται
παιδίον
##στικὴ
ἐπιθυμίαν
καρπὸς
δεύτερος
##ττωμα
ἐλλεί
si
Τρώων
##χωρη
##ΐας
##άνιον
##ρούς
παραδί
μόνοις
Ἰνδῶν
ἔτεσιν
αἰτιατικῇ
##ήσασθαι
##τοποι
##όνου
διαπορ
##τέα
μεταβάλλειν
τρίτην
ἀποκτεῖναι
Ἐμπεδο
nec
Μυρ
τ᾿
τοῦθʼ
##ριστο
πεποί
πίνειν
ὁλ
##σύ
##άτω
##γγε
##τορας
θεα
κεχρ
φασίν
##μουν
εὐθεῖαι
τέκνα
ὑπάρχοντα
δυνάμεων
##μόϲ
μετοχ
ἑτερο
Ἴων
ὦσι
##άμ
διαλέ
ἀκόλου
σκορ
συνεκ
γραφῇ
ἐνεργείας
γράφει
θύρας
μέλλοντος
ὑε
κατερ
πρόνοιαν
διηνε
προσαν
##γις
##ρικὴν
##ung
Γαλα
ἀφίκετο
ποδὸς
ἀτό
##μελ
μεγάλας
ἐσθί
ῥητέον
θαλάσσῃ
πυρετῶν
Ἰωάννης
##ζεύχθω
Θερ
ἱερα
##ναν
##ίτης
##ῆγεν
μόνη
δικαίου
θηρία
παλαιοῦ
χρείας
##υμένον
ψευδεῖς
σφυγμῶν
παραδοῦναι
τειχῶν
ἄστρα
##έσεως
##δίαν
##ᾶσα
ἀπαρχ
##τικός
φωνῶν
κατασκευα
μειρά
ἔθη
ἐπιτι
φαίν
ὁμοίωϲ
οἰκίας
ὑπερβ
λοχ
##καλύ
##στάσει
ἔνδοθεν
νὺξ
δεκά
δεήσει
προσκα
##λίοις
##στάναι
ἀριστο
ἧκον
##λυσεν
##ίδες
ἀνή
##μέναις
συμμε
##ίζοντα
ἐπαινέ
ὄργανα
ἀκατα
Ἄρεως
##ντο
##ύουσι
##ώρ
##όνως
##ρεϲ
ἀνδρός
βάθος
##οδικ
##λόν
##υλα
##ίδου
##ῆγε
##ian
ποιοῦντα
##στελλ
##μονο
ἁμαρτή
ὀφθαλμοὶ
ἀξίωμα
δοῦλον
κοιλίας
ἡμαρτη
ῥέ
##άσιον
συναρ
κρύ
##πίπτει
ἱερῷ
ἐκείνη
μικρῶν
##στειλε
λογισμῷ
πολλαχοῦ
μεταβάλλον
ἀκίνητον
Ζηνόδοτος
Et
ΓΕ
##οτά
σοφὸν
δαπ
##arum
##ττετο
ἀναστρέ
Πέτρος
ἀδίκως
Ἄρτε
συνάγεται
βδε
Ἀαρ
ὅροι
##ύμενον
##ῦσι
προΐ
χρήματα
##άρου
εἰσί
υἱόν
κενοῦ
ἐνεργείᾳ
δημοσίᾳ
χάρις
μεγέθους
ἄμπε
ῥήματα
##ύλου
##ῇσι
διακει
##λούντων
ἀποδέ
οὖρα
##πεσε
##λειμ
ὅπῃ
ἀδελφοὺς
τοῖσδε
ὁμολογεῖ
βάσις
ὁποῖον
ἐπολι
das
vid
Τῆς
Ἀϲ
ἠναγκ
ἤλα
##εστά
περιποι
##ττεν
χρησι
συνεχεῖς
νεκρὸν
πορρ
Φαρα
tr
δῆθεν
##βουλος
δικαίως
##ότατα
ὠφελεῖ
φιλόσοφ
ξηραν
δημό
βαρβάροις
διδασκά
Κρόνου
Μαρκ
ἄττα
Ἀρε
Ἁρ
##ωμάτων
##ίστων
ἀπηγ
θείων
##αλέ
τρά
κινητικ
πλείσ
ἀληθεῖς
Αἰολ
νομι
ἐδίδα
Ind
ἀλογ
##έντι
ἀφο
λέγουσα
δηλώ
τρόπους
λίθου
κατασκευὴν
χρήσασθαι
ἄκραν
ὁπωσοῦν
χορε
ἠχ
##ήμασι
##ϊον
##άντας
μήκει
ἐλαττ
##άσκα
διορθ
ὑπάρξει
ἠδυν
##πλέ
ἀπειρ
##τρά
ἔρως
ἄρχεσθαι
γενέσει
γραφῶν
##ήρης
μέγαν
Ποσειδῶνος
ὁκό
##τοκ
θείου
στύ
διαφθαρ
##άζοντο
λίθος
ὄχλον
πεποίηκεν
sol
von
ψε
ἀσεβε
ὄφρα
##ώρου
##ex
ἀμφιβ
υἱός
##βαλόντες
anim
Καίσαρα
μέλιτι
ἁπάσης
##b1
##θεα
μέλλει
##μάχου
##ιτῶν
ἀνασκευ
##atus
ἑκατέρου
εἴωθε
ΒΖ
ῥεῖ
##a2
αἰνι
πεμπ
οὗπερ
νευρ
κείμενον
κυβερνή
θρεπ
##στησιν
##ριόν
##λινον
##ίουν
σοφία
##ίσματα
##etur
πιστεύειν
μεγάλου
στόματος
σμικρὰ
Χαλδα
Μαι
Πύρ
ἴσθι
καταψ
##ίουϲ
προσεχῶς
πρᾶξαι
φυγεῖν
ἀπο
νικᾶν
κύκλου
πλάτος
γυναιξὶ
ξέν
##τεύ
παριστ
ἐξῆλθεν
ἰδίως
##λακας
βούλονται
γλυκὺ
τέχνη
δαιμόνων
##θουν
##ῆσαί
##παξ
τιμῶν
##βάλλει
λέξεως
διδασκαλίαν
##χηλον
συμμάχους
ἀποθνή
sqq
Ὀδυσσεὺς
MTAB
μάρτυ
φειδ
##σουσι
φαύ
ἀριθμόν
χαρακ
##λακτος
δευτέραν
ἴσχει
διδασκά
ιη
##b2
##σαμένων
παρόντος
##μνή
φάλαγ
γεωμετρ
77
Κο
##μπον
##τώ
ἐνδι
##μούς
τινί
##θηται
συμφυ
γενήσεται
##ῖνας
##ηθέντα
ἀνεχώ
χρεία
φορᾶς
φαντασίαν
sec
Κερ
Φαν
Ῥό
τοὺ
συνανα
##δοσις
πάσαις
##ίζοντες
οὑτω
Γαλιλα
ἔκτειν
##τὴ
##θ΄
πομπ
θαῦμα
οὐδεμία
ἔπεμψεν
Νικα
##ύεται
##ub
##iam
ἐκθ
μελαγ
ἐξαρ
##ίζουσι
ἀπόφασιν
Ἱπποκράτους
εὐεργέ
Ἀφ
##τῶς
##όμων
παρέχειν
##έροις
##πολις
ἀρετήν
ἁπλᾶ
##υμένου
νοσημάτων
ἡγεμονίας
πολέμου
ἰά
##έστατον
##ωμένων
ἐνομ
εἰλ
ὑποθε
μέσης
ἀκό
κακίας
οἶδʼ
νοεῖ
πρόδηλον
##unc
αὔριον
ἁγίου
μέχρις
ξύλα
ἐλπίδος
τριγώνου
φλεβοτομ
θαλάσσης
##σθήσεται
##τητον
##ράκοντα
##λήμ
δυνάμε
φάσκων
Ἀπολλων
ἀχώ
ϲύ
ἔθετο
##ιμον
##ίλιοι
##ανεν
ἐνώ
εἶδ
##όνως
##στοτε
ἄπειρος
σμικρὸν
Ἀδὰμ
Κομ
Ῥα
##γώ
διει
##ηνται
##τικήν
γεγέν
καταλιπὼν
δὸς
θλί
Ἀχα
ἧκε
ὁμονο
##ήμασιν
##τρως
σφαλ
θυσίαν
ὄφελος
##μυ
##ῖεν
##ήλου
ἀγῶνας
##θέμενοι
τοσοῦ
φορὰν
χάρα
εἰσελθεῖν
ὁλκ
##ψειν
ταρ
κελευ
καλὸς
θέλεις
πυρετο
οἴκους
οὐδεμιᾶς
ὁδοιπορ
ἀφαι
πλεί
νεφ
ἀπορίαν
εὐδαιμονίαν
ἐντὸϲ
καταλιπεῖν
ἀποβλέ
79
δρῶν
ὀκ
##οιτʼ
##ροντο
παραλαμβάν
ἀκίν
πέπ
Ἀλλ᾿
διδάσκει
##ώδεα
Μεσσην
or
##ίωμα
ἀπρο
ἐξορ
ἀναφερ
ἐμβα
##λυθεν
πέρι
μορίου
μόριον
ἐλευθερίαν
ἐφαίνετο
st
ου
θελή
##θρῳ
##ίζοντο
δεξιῶν
##ιδεῖν
##ρούμενος
##ηκότες
ἐφαρμό
me
θέρους
νή
##γρα
ἀποικ
##ίνε
συνί
##κομεν
δέος
##ώνι
##βολος
φιλοσοφίας
hoc
Καρκ
ξε
ον
##ηδόν
##ῆγον
προελθ
ἀλλοφ
ἐξω
##λομεν
ἀποσ
εὐωχ
τέκν
οἵα
χάριτος
λιβαν
σθαι
τᾶν
ἔγν
Ἐπί
Ἰε
ἐξῆς
ἐρή
##lius
sic
νι
##άτω
##μησιν
##σαμένη
γενομένη
##ργει
τάχ
ἐπεζεύχθω
κόλα
πέφυκε
αἰσχρ
τοιαύτας
Θηβαίων
γλῶτταν
πεποίηται
ἀφροδι
νουθε
Ζήνων
##ξονται
##πουσιν
πρόσ
πληρώ
δυσὶν
##κότες
στερεὸν
##πινον
ἐλπὶς
νικῶν
συρ
φέρειν
ἴδ
ἴδι
##δίου
##λάς
γυνή
##ριθμ
##ήσουσι
##ώνου
χαλιν
σελήνην
##ϊκῶν
ἠξίω
ἔγνωσαν
ἀναγκαι
προβλή
οὐράν
διηνεκ
Μεσ
ἐγεί
##ύμν
##κίν
ἐπιγεν
##ώνην
ὁρᾶσθαι
ἐρρω
##μεινε
κλῆρον
##γένειαν
##στρατο
σφοδρῶς
μέλλοντα
αἰσθάνεσθαι
τολμή
Δανα
Κάτων
ὁρι
##τεν
##ηνὸς
καταλή
κεχα
ἀδί
δόξει
βαρβα
ὅσους
quam
νομίζοντες
θαλάττῃ
ὕπνος
ΠΕΡΙ
μυχ
ἔτρε
ὁδοὺς
##υτα
##ματί
ἐκκλ
ὑπάτων
ἐγνω
πέφυκε
σοφῶν
##έβηκεν
ἀκούων
γεννᾷ
οὐδεμίαν
Ἡρό
##ψεσθαι
##ge
##τεροϲ
##ητόν
##ώνυμος
##θέντι
ἡγεῖται
μειρακ
τυγχάνειν
Χριστιανῶν
ἐπιπέδῳ
##ύη
##ρουσι
##ξέ
ἐναγ
##ρητα
ἡμέ
##ουσαλήμ
σύνε
##ηθες
ἑορτὴν
κτὰ
##σαί
##λιχ
ἐγχει
ἀσυλλ
φθαρτ
ἀναγκαῖα
κατηγορούμενον
λύπης
ὑγρὰ
ἀπέθαν
ἐτά
##πὸ
##ωμαι
##ζή
##βητ
##εῖσι
σύμμα
Σαμα
##λοῖα
προσαγορευ
Βε
##κεται
ἐπικρ
##υτὴν
συμπέ
μέσην
##μνειν
παρεσκευασ
διδάσκα
ἀφανι
ein
δαν
σέ
##νομ
##ίσαντο
παλα
προαι
ἐπιχει
ποιητῶν
πότ
δέμας
ἀντει
##ήσου
ἐπαινεῖν
ἑβδό
στρατιώταις
ἀλαζον
ἔξεστιν
χλι
##μεῖς
##όδωρος
##σιες
ἀνώ
##ίνοντες
εἴτ
##ίκης
##ληθῆναι
εἰκὼν
προφῆται
##ϲιοϲ
ἐνεγκ
κατασκευῆς
ὑπόθεσιν
ἔϲτιν
ἀγωνι
ὄψεις
τεσσαράκοντα
Σέ
ἐπιει
##στεῖν
##κισχιλίους
ποιητὴν
χαρί
νομίζω
ἐμαυτῷ
Ἀλεξάν
σκηνῆς
σφισιν
διόπερ
ἄφθαρτον
κτείν
##όνοιαν
κακίαν
##φέρεσθαι
γυναικός
##ίστην
ἐλάττω
##ψαντα
φαντασία
σημαινόμενον
ὑπηρέ
Α∠
##λεσιν
ποιοῦ
##πλους
ἀντιφά
ἑκάστη
μεγίστων
ἐπήγαγεν
λυσιτελ
ἄργ
##οψ
##θάρ
εἰλή
τισὶν
κοὐ
##ολό
μοναχ
λεπτὰ
νῆσος
χειμῶνα
μεμαθη
πικ
##όρου
ποιήσει
##τικά
##στεροι
##πουσι
κινούμενον
εἰσί
ἐχρῶντο
##φορος
αὑτό
ὁμολογεῖν
λαμπρὸν
φιλοσοφίαν
ὁπόσα
οὑτο
ὑπαρχόντων
σπέρματος
βυθ
##άνῳ
συνελθ
##δρῳ
ἀκρί
##πειρον
##ηκέναι
τρισὶν
##tit
Ἀθή
εὑρη
προσεκ
ἀγανακ
pl
ὡρῶν
ὤφθη
τοῖν
εἶς
##ύνην
ἀγαθοὶ
ἐπιστημ
μονὰς
ἀλλήλαις
δίδωσι
ἐπακολου
μέλιτος
ὥϲτε
Χά
ὠχ
ὣν
##ζόν
κατέχ
θείων
##βαλλον
τέλειον
τέταρτον
οὐδείς
ναοῦ
##τηγορ
παλαιοὶ
##γένετο
τέχνας
ῥητέον
στρατείας
VII
Ἀγγέ
ἔσθ
ἴσης
##προ
##έες
διαχωρ
προσδι
λέγῃ
ἐμὸς
##δοξος
ὑπομε
ὀλιγαρχ
Ναυ
ἠρώ
##πῃς
##ίοιο
##ff
##μηχαν
γραμμῆς
μακρὰ
γιγνόμενον
ὕπνου
ἔσχατα
προϋπ
The
θανα
ὠκε
##άμεθα
##ωσκ
##κοιν
##πολι
##ίκην
##στάσει
θερμόν
γνώμης
πλείστους
νί
Ἄλ
ἐσμ
##πτως
##ρεύ
παρὼν
γενομένης
##υσάμενος
##ττοντας
φύσεις
οὐρανοῖς
χωρίον
ὅμοιος
λίθων
δεικνύναι
Αἰγύπτῳ
τιμωρίας
ΜΕ
φρε
Ἄργος
ἴα
##ύσεως
##ζομένους
παρορ
ὁμοίων
##ηκὼς
μόνῃ
##λούμενος
##ψαντος
τριακο
τελέως
fili
##άδας
##ήρια
##ρισιν
καταλε
πλεῖν
ἀκουσ
##ῆνος
πόλεσιν
int
ἑπόμενον
σύνθετον
Ἀλεξάνδρῳ
περιφερείας
omni
δυσκρασ
##στόν
##ωτέραν
Θεοδ
ἀκολασ
##στάσεις
πείθ
ἐχθροῖς
εὐαγγελι
ἀμφοτέρους
##στρεψεν
Βο
Ὥσπερ
καθή
ἀσπ
Ἡρακλέα
φάναι
ζημι
##ικν
##ληθεὶς
ἐξαι
καλοῦνται
ἀκρασ
κύων
##ύνῃ
Εὐαγγε
μελλόντων
Βυζαντ
Σερ
θρέ
ἄδη
Ἐπα
##τονον
στή
μήπω
##στάς
##ϲατο
##κρισις
λέγοντα
Φαρισα
πλείονος
ἀναλογίαν
μέλιτος
ἄναξ
φρενῶν
Πειραι
Δανι
Ἀρά
##στας
##βες
ταρά
##λουσιν
##ακὸν
##φευγ
τρόπου
ἵππῳ
ἀπόστολος
βραχεῖ
φαινόμενον
σίδη
στέφανον
99
##άγει
##ήσαι
##ώπου
διω
θεοπ
ἀναπλη
ποιῶ
οὗτοϲ
ἀκοῆς
ἀντιλέγ
μέγιστος
ἀμή
δίδου
ἀκούσαντες
ἐπικουρ
φάρμακα
σφαιροειδ
ἀμπέ
Ἐμπεδοκλῆς
Φυσι
γαί
τμη
##τορες
##ποτʼ
##χες
κρό
σωφροσ
σοφίαν
καιροῖς
ἐπέτρε
συναμφο
ἴστε
##ήσε
ἀπόρ
προαίρεσιν
##ρείας
ὁρμῆς
μιαρ
ἐξετα
##φρονος
φρέν
Ἰωάννου
ὄλεθρον
ἀέρι
Θρᾳ
ἤκουσα
Ἠλε
##έω
##μενός
προστά
στυγ
##στοῖς
##θρωπον
##τέρῳ
νόμοι
φωνὰς
ποιησάμενος
προγόνων
##λήν
##ώθησαν
ἐξαιρ
συνεχὴς
συναπο
##υμένη
πονηρῶν
γράμματα
σημείων
Καρχηδονίων
ὀμφαλ
Λέγ
ἐᾷ
ὁδόν
εἰσῆλθεν
##ηματ
τάξει
##ίστησιν
λίθος
μεσημβ
Δωρι
Τύ
κεῖ
λεῖον
σκα
τὶς
ἀσθέν
Ὁμη
##ώλυ
##λλω
##ούμεθα
ὑπερη
##ομαί
##εῦσιν
##λαμβάνεται
αὐτόθεν
πόνον
οὐδένα
αἰσθητοῦ
παραπλησίως
ἐπωνυμ
Αἰθιοπ
ἐδήλω
ἕξειν
##ώματι
ἐπρά
ἐπιστε
##άνη
ἀρχαῖον
κεκλη
τριτα
##θιος
##φοροι
μεγάλῃ
πλῆρες
καρδίᾳ
ἁμαρτάν
ἔθνε
Πέρσαι
λοιποὺς
πολυπραγ
σαυτοῦ
οὐν
ἡμί
βαπτι
##δοὶ
##δηγ
##ικριν
γό
μωρ
ξυ
##ό
##έει
##ᾶναι
##τιῶν
##λλαν
παρή
##τηρίου
γενόμενα
##δωρον
οἰκείας
πρώτῃ
συνεχοῦς
##atis
ὁρισμοῦ
##τῆρα
ὡμολόγ
βῆ
##ώρου
ἐπαι
##ξεωϲ
σώμασιν
πολλάκι
νενομ
Σικελίας
ρκ
ἠρέ
Ἡρώ
##δοντα
##ωμένον
##ύμενον
##aus
##ήσωμεν
παρόντι
##μένοϲ
##πευ
ἐγίνετο
ὑποθέσεως
##χείας
##σκεύα
##σίς
ἀξιῶν
##σθένης
ἐπανορθ
ἔθνεσιν
Ἱππ
ῥήτωρ
ὀχυρ
Βαβυλων
Οὕτως
ϲημαίνει
Ap
Ex
natur
βίῳ
δέν
δι᾽
ἀπην
ἐπιγιν
##ρηκεν
συμμέ
##ολό
##ητέον
##ψεων
ἁγίου
##κούσας
ψευδὴς
κιθαρ
Πον
##χομαι
##ῆρ
οὖς
##σκοντος
##τάλη
##ξασα
τριβ
τριήρεις
ἀριθμοὺς
χρησάμενος
##ath
##πτονται
τἀς
διαίρεσις
βιβλίῳ
μυριάδας
Γοργ
βίβ
ἀσαφ
ἐκκρ
ἀποδί
χροι
αἰων
##γνοὺς
τούς
κεκοσμ
λέγῃ
##δειξεν
τιμῇ
διαφορῶν
##κείσθω
ξυνε
τύχοι
ἐπιμέλειαν
κτι
##ηκε
##δόν
ἐνό
##υμή
διασπ
##μφι
δοκῶν
##λαινα
ἀξιό
##ανακτ
φανερόν
καλουμένην
νομίζων
πλευρὰν
Λουκ
Βιθυν
βιβλίον
78
man
λανθ
ἔκειτο
ἰητ
##εῖλον
μόνα
##αινόντων
συγκει
##θισ
σχο
νομίζειν
ἱερωσ
##ραστος
##λούμενον
τρίτου
θερμότητος
πρεσβύ
περιφέρειαν
κορυφὴν
ἠξίουν
##δαρος
προσῆκον
γήρ
ἑται
ἐπάνω
ἐκλεί
ἐξερ
εἰσή
βραχύ
γραμμὴ
Σαλαμ
ἀληθείᾳ
χωρι
πεπερασμένον
ἑβδομήκοντα
θώρα
λω
ἅπτεται
Ἴλιον
##φαγ
ἑαυτὰ
δόξει
τίνι
μόρια
Ἀχιλλέα
ἀγορᾶς
ἱδρῶ
μηδέποτε
εὐχαριστ
ἀπέθανεν
μάν
ἔλασσον
##δν
##υμνα
ἔχε
νοητῶν
##θειῶν
ἐκείνῃ
δικαστη
οἵαν
φυσικὸν
##κούσης
προειρημένων
σκληρὸν
##γνυσθαι
Θρασ
χαῖ
##ῦται
παραυτ
##ξιος
τριή
ὀρφαν
ἀσυν
ἀνάπαλιν
ἱερόν
##δέξατο
τρίτου
Εὐρυ
πρώτοις
δυναμένων
##βάλλεται
γνωριμ
θαρρεῖν
Arist
ἔπεμψε
ob
φλοι
ἑῴ
ἐπου
ἐπὴν
##ρεί
##σαμένους
αὐτοῖϲ
ἐφά
##ξιϲ
Ἀνδρ
ἐδά
πρᾶξις
εὐχερ
ἐποίει
Ἀγαμέμνονος
Λι
σικ
ψύχ
##ύθη
##ευσεν
ἐπ̓
κρυπτ
λαβών
Ἰουλι
ἐξουσίαν
προστί
κρημν
ig
Ἥρας
##ζόντων
##ὰβ
##ήσαντα
##iti
παραφυ
##πατη
##άζουσιν
ἀρτί
γινομένης
ἐπίστα
βουλομένοις
ἑκάστης
##χωρεῖν
Κύριον
ἀκριβῆ
φυσικὰ
Αὔ
φυτὰ
ἠὲ
ἦρ
ἴδε
##ήσασα
ἐνδό
διωγ
παρέχ
διαλέ
συνυπ
##πορεύ
##οίη
τριά
παρελθὼν
##λευε
μοναρχ
ἕνεκά
κάτωθεν
καρποῦ
εἰσελθ
Ἰωσὴ
Γερμαν
μελαγχολ
Ἰβη
##νησον
##πτοι
αὐξαν
θεσπ
τρυγ
κινήσεις
καλέ
στάσιν
ἕλκει
Ἀφροδίτη
δορυφ
τἀναντία
Ἅιδου
ἤχθω
Ῥώ
##ημένος
##ταται
##ανδρος
μετι
μελαν
ἐφάνη
##ηρτη
##ραμμα
θερμο
##ρικῶς
εὔδηλον
κατηγορεῖσθαι
πράγμασι
θάνατος
μάρτυρας
περιϲπ
##ζοντες
##ρίους
καθέ
βαλλ
##ημαι
##θέων
νομί
ἐλάσσων
θυγατρὸς
κινδύνων
φιλοσόφων
83
ἀλφ
ἄμε
##τειαν
##ωδῶν
##ζοντα
ἐπιθε
ἀποχ
ἐχούσης
ἐπιστημον
κραυγ
ὑπάρχον
λέξις
ἀποδεῖξαι
κοινωνίαν
ἀν
κῦμα
ἀχρ
##κέ
##ώτερος
##λλεσθαι
πρε
##ρασι
ἀναν
ἐπιφέρει
##λοχ
οὖρον
κρέα
νόσου
παισὶν
πρώτῃ
κακοποι
σφαί
ἄχρις
##άλπι
Καίσαρι
Πτολεμαῖος
ἀγρυπν
81
ῥήματα
##κησεν
##ris
αὐτάρ
ἐκπέ
##δεσμ
##enus
##βολα
μαθηταὶ
ἀξίαν
σωτῆρα
ἐχθρὸν
μηδεμίαν
στόματι
δημηγορ
μυρία
τινές
##μάς
##δοντες
ἀγαθά
##σσος
πρόφασιν
πρόβατα
ἰδίως
δικαιοσύνην
σημείων
μοῖρα
κύκλον
Ὁμήρῳ
τείχε
παρατά
##σκοντας
προσά
ὑπογραφ
##ώνης
κακουργ
##πόλει
ἀδελφῷ
##ass
σκηνὴν
φλέβας
καλούμενον
ἐπιφάνειαν
wir
δρυ
ὕπο
##όδων
##ϊν
διερ
##ληφε
μεταβα
τάφον
##ύνειν
##ήσουσιν
ὁπόταν
δείπν
πεποίη
##νεγκαν
ἀνί
τιθε
τινός
##σμόν
##δονται
##τές
##άγη
μήπω
ἰσχυρὸν
ἀδύνα
ἱππέας
πεπιστευκ
ἀί
##υλον
##δὲν
##ne
##βρο
διφθ
ἀπήν
##υνεν
##ικά
##υσος
##ίασιν
Θεός
##θέμενος
ταὐτῷ
ὀργαν
τελευτᾷ
πλευρὰ
ἐθελή
μυρίων
ΕΗ
ἅπας
ῥῖ
##ῆα
ἐκλογ
κεφά
##υρίῳ
κρατεῖ
θέμις
ΖΕ
ἀΐ
Ἰορδ
##χνα
##σσεται
##κουσιν
τινός
τρίτη
ὅσην
ἵπποις
κινουμένου
##ρούμενον
προσέθηκε
ἑκατέρωθεν
προφήτης
##ξί
##ταλ
##ομφα
διαπε
φανῆναι
παισὶ
##φορὰ
ὕδατα
ἔστωσαν
ἐσθι
πλείονος
γυναιξὶν
Συ
καυχ
εἰπέ
δυσχε
πατρός
πυρός
πέρατα
ὑπόθεσιν
##φιλος
ῥᾳθυμ
Ἡρακλε
ἐκέλευε
οἰκουμένης
ῥεῦμα
κέχρηται
χειμεριν
ἐσμὲν
##κλω
##βους
προσπε
καλοῦμεν
σελήνης
Εὐριπίδης
##οπο
##ῖδα
##ύσεως
##ξουσι
##ηνα
περικα
##κεινται
##ηκότος
Πολυ
φωτὶ
χρώμενος
##vers
καθολικ
post
ταν
Ἀτρε
##ίῃ
##λοί
##πεύ
##υσσ
##ύνης
φασί
##ίζετο
θέλω
Ταύ
ὅρκον
ἠγά
ἐπελθ
παλιν
##υμά
ἐπιτυχ
ἐπιῤῥ
διατελ
αἰθέ
φαίνονται
νοῆσαι
πατήρ
θέλων
τοιούτους
πλούτου
ἐπειδήπερ
μαλθακ
Δεί
ἀτά
##πικ
εἰδοποι
μέλος
γνοὺς
συγκρ
##άζοντες
ἀσυμ
πολιτευ
νηστε
συμμαχίαν
ΘΚ
δαψ
μεγάλῳ
λογικῆς
##ώτατοι
ἀθροι
καινὸν
ἠνάγκα
ἔστη
##φόν
##03
ἐπιδεί
διαδ
##μνησ
##χθον
ἐρωτῶν
##λικῶν
δασ
ἡδονῇ
γεγρά
ἀστὴρ
πλευρὰς
ἀνθρωπε
Χρύσιππος
85
ων
ἁλί
ὃϲ
##ύματα
δέχεσθαι
##σταις
μικρὰν
τρίτην
##υμένος
ἐϲτὶ
λεκτέον
Σωτῆρος
ter
αὐ
ἱλα
##ματά
##ρονό
##άνῃ
ποιήσας
ποιότης
καταλειφθ
οἰκεῖν
##ακῶν
δίαιταν
ζῶντας
τμῆμα
Βαβυλῶνος
ΚΑ
Φοίν
##πιπτ
ἀκολού
μορίων
ἡμετέρας
ἀγαγεῖν
Χερ
##θύ
ἐγρηγορ
καλύ
##ρωται
ἄνθρωπ
ἕκαστοι
χρηματι
οἵδε
δρό
ἐπειγ
ἑωρακ
ἐπαγγελλ
ἐνυπάρχ
ἀπεκρίνατο
ζῳδίων
ιδ΄
ἐτρά
ὀθ
ὀδόν
##άνας
παρέχει
εἰπών
κρό
πότε
##πέμπ
νόμους
##βαλεν
θηρίον
φυγῆς
ἀριστερ
ἔτυχον
αὔξησις
στέρησιν
co
χό
##μητ
##ϲοϲ
##τεί
καθιστ
συμφέ
##λουσι
πρόϲ
ἐναντίου
##ίσματος
κατάφασις
Αἴας
λοιποῖς
δυσχερα
82
##ίοιϲ
##τικαῖς
αὐστηρ
ἀποδέ
καθαί
νεφέ
##λευτη
ἐλαίῳ
##μειναν
##ματός
Πέρσας
εὐσεβείας
φοι
ἐά
##καις
##ποντας
##λοντες
οἷά
καλὴν
σκότος
παντός
πέτρας
##άζονται
ἐπίπεδον
##λιπὼν
Εἰπὼν
νοσήματος
αὔξεται
θάλασσαν
θυγατρ
παιδείας
ἀναστὰς
ἀδυνάτου
πραττο
ὡσπερ
##τᾶν
καλλι
##έρω
κοτύ
μέλη
μέσος
μακαρ
δύσ
δέχεται
κεφαλὰς
ἡμετέραν
μυθολογ
ἐγκεφάλου
lib
##ov
κατῴ
ἐξει
ἐφοβ
νεφρο
ἐχούσης
οἴκο
ἀσώ
πολιορ
διάθεσις
##υμένους
##κριτον
πορείαν
Αὐγ
χολὴν
τύραννος
λέων
ἐλη
Ἰδοὺ
##ημε
##ῆτο
##ΡΜ
##άνω
##δοσθαι
ἀρχή
##τέων
κρίνειν
σπορ
πρώτους
##ίστων
##σκειται
Ἀντιό
Ὀδυσσέως
ἀμοιβ
ἐχρήσατο
φη
##ίνα
##ίνη
καταλαμβάν
ἀγενν
σφοδ
##πόμενα
ἀριθμοὶ
ἀδελφοῖς
Παφ
##τειχ
ὑγρῷ
ὑπομον
λογισμὸν
μεγέθη
σίτου
εὐπρεπ
Συρίας
τραφ
##ύουσιν
##ζόμενοι
συνελ
μέλλει
γράφων
δεινῶς
μάχη
ἀργυρίου
καλούμενος
πλεονεκ
πυνθάν
βούλεσθαι
ϲυϲ
##ρυθ
##ῆρας
##ομε
ἐπιϲ
##ούδα
##φαί
πλευρα
Θεό
##μηται
ὑγί
λιμένα
πεζῶν
γονεῖς
Πελοπόν
ἐνιαυτοῦ
ζήτει
tem
βρω
ἦς
##ρουσιν
##χείας
δυϲ
ποιητής
κυνῶν
Οἰν
συμπερι
ἐμνημόν
δηλαδὴ
κήρ
φοιτ
##ήτους
##φικ
αὐτή
εἴωθεν
μέλει
γινομένη
ἀναγκαίως
καιρῶν
##ωρίων
πειρά
συμφορᾶς
πολίταις
κόλπον
ΒΔ
Θησ
Σιν
ναι
ἄχθ
ἱμά
##χιν
##ίος
ταρα
ταμι
ἀγανακτ
διαφέρειν
οἴεσθαι
αἰσθήσεις
χρησί
ἀνάγκην
##οβο
##μάτου
Μεγαρ
ἐκκλησιῶν
Σικυ
##πεμψεν
σκότος
Ἀριστό
τύραννον
84
Βορ
ἱμ
##ομοι
διακό
##άνην
αἰῶνας
πολλούς
ἀρσεν
συναχθ
θαυμάζειν
ἐναπο
Κάδ
μεσημβριν
ΕΓ
##νουν
##Bi
ὑπηκό
##έντας
στέγ
ἀρχαί
λιμῷ
ὁποῖα
##έβηκεν
τετελευτη
il
Ἡσί
##τίας
##ίνον
γενομένου
γενικῇ
βακ
##πλέ
##ίονα
ἐπικει
μακρῷ
φυλακῆς
ἡγεμόνα
ἀπείρου
ἀκολούθως
εἰδωλο
στρέ
ἐστα
ἐπάγει
μεμιγ
##μβανεν
μόνους
δόξας
Περσικ
πολιτεύ
νόσον
αἰχμά
κρείττων
ἔνεστιν
ἐνέργεια
ἐξαίφνης
χάριτος
ἴδωμεν
Ἰωσὴφ
χριστ
##ώσατο
##όσι
##ζητ
συγγρά
πέλας
ὀργῇ
##βάλλεται
##ηκότας
ἀθανά
Λιβύην
τεκμήριον
##μός
##έτ
##έστατα
##ρεπε
##ροτά
##τρίβ
κατακα
πάντη
##ημά
τάς
μεριστ
κενε
ἀγνοῶν
ἐπισυν
μηδεμι
Εἶτα
dis
dem
##έου
##ζουσι
##ήτων
##ουμένῳ
##ῖνοι
##πτρον
ἔφοδον
παντός
σχέσιν
δυσα
ὑφ᾿
δεινῶν
λίθους
ἔπαινον
ἡγεμόνας
γεωμετ
ἑταίρων
δείκνυται
Παλαιστ
εἰλικριν
XI
##διν
ἐξῆν
ὀνόμα
ἱεροῖς
μικρόν
δικαιοσύνη
ἐποίουν
Οἰδί
φονεύ
Πρῶ
ιδ
τέν
ἔσῃ
ᾤοντο
χρῆσις
ἰδίας
ἐπειδή
##γειον
δόγμα
ἔρρι
ἐγγυτ
##πτετο
Πολι
##σταντο
ΠΡΩ
τή
τυπ
ἄκων
ῥοδ
##τία
##ική
ἐπιτρέ
αἰγι
ἐφί
##ητὰ
##ίκους
αἰσθήσεως
βοη
γεγέν
κατηγορικ
ὁμωνυμ
Ἰερουσαλὴμ
##κή
##τῆσαι
##ύ
##ώτου
##ῇσιν
ἐπαί
ἐπεσ
ἔχετε
ποιοῦντος
##ργου
##βετο
ὑπόκειται
ἀναιρεῖν
Ἀγησί
ἐβασί
sit
κνή
ἀλώ
ἡνι
##βδομ
##άντιον
μητέρα
ὁρμή
##μαρτύ
ἀνδρά
Εὐφρά
χωρεῖ
ἐποιήσαντο
Ἀχιλλεὺς
δένδρων
βροτῶν
καρποὺς
φευκ
πεπληρω
μηδένα
Βά
Μάρ
ἴδοι
##ύγ
##χο
##ήσωμεν
##ζουσιν
παγκ
ἁπάσης
θέσιν
##όρῳ
ἐγγυ
ἐγένοντο
μνημ
Κλεοπ
ὀψὲ
νεκροὺς
τρε
ἔτʼ
##φή
εὐθειῶν
σχηματι
ἀσύ
σαφῆ
θανεῖν
ἐλάττων
ὑπαρχόντων
πυθόμενος
πλοῖον
ἐδείχθη
μειράκιον
##λῆσαι
##όδῳ
αὐτὸϲ
##μωνι
##εσσα
ἁπάσας
σπαρ
κατηγορεῖν
ἰδιω
ἐπήγαγε
θέρ
κυπ
πῶϲ
πλοῖα
φλέ
ἔλλει
##ίνω
διαθέσεως
εὐφρα
ἀναπε
περιφαν
λοιπὴ
##πίπτειν
Ἀντιγόν
πλευρῶν
πικρὸν
ἀγγείων
διαφερόντως
ar
etiam
Τῷ
ῥάβ
##ώτων
μεσου
##σεώς
συντα
##ύνει
ὀρθὴν
##ater
σημει
δίκης
ἀμφοτέροις
ἐδεῖτο
χωρίου
πίστις
ἐπισκό
ἀντίκειται
ἐλλεί
μᾶλλόν
σμύρνης
##έβηκε
κων
Ἔν
ῥεύ
##ἀν
ἐξή
διαλέγ
ἰδίων
σχημάτων
ὀρθῆς
δεινόν
συμβεβηκότων
μακροῦ
μαθηταῖς
Ἡρακλεί
εἵνεκα
εὐνοίας
##ϲύλλαβα
αν
νεῖ
φλ
##ρᾶ
##κεῖν
##ωρον
ἐποχ
συνη
γενήσεται
ἀναγωγ
##ύνεται
##τόϲ
ἑκάστοις
φιλόσοφος
πόρρωθεν
ζητοῦμεν
Θήβας
Δημήτριος
Κικ
Μαντ
##όκερ
##ητὴς
ὅλῃ
##κοπὴν
γεγονότων
##lig
καταφατικῆς
Λιβύης
xx
βοῦν
ἀριστ
ἡλίῳ
Ἰα
Ἰχθ
##όεντα
##XX
πλοῦν
μόνως
κρει
λαβοῦσα
##atum
ὀνομάζειν
ἡγεμὼν
πεπαιδε
ἑρπε
ἐξουσίας
ἐλέγετο
κομιδῇ
ὀπι
διήγ
ἀνεν
προκ
##δεκά
εὐδοκ
ὑπόστασιν
##στῶτος
ἄγγελοι
ἀπαγγέ
ἐγεγόνει
ἐρι
Ἔρω
ὡρο
##ττοι
##έσιν
##όει
ἀνῃρη
##λες
ἐξὸν
διαμαρτ
γενησ
μετασχ
ἀκά
σώμασιν
λέγοντας
Δημό
φίλον
ὡρισμένον
δώδεκα
ἀνῃ
ὑπει
ὑποχ
μεταβαλλ
##ίκη
##ator
μονον
δευτέρα
ἀποδί
φεύγων
ἐβού
ἐζή
ἐλέγομεν
Bar
Βεν
Δεῖ
ἄτα
ἐδω
ἑλεῖν
##άσῃ
##κησαν
##ένει
περιτο
ἀγλα
##άζοντα
##anti
γνώσεως
θερμότητα
φθορὰ
σπλάγ
δύναιτο
pot
##gen
δεξα
κατηγορίας
πίστις
πανταχόθεν
φόβου
Παρθέν
χειμῶνι
θαρρ
βλαβερ
συνθήκας
Ἐφ
##κλιν
##βιος
αὐτή
λέγοντας
ὑποκεί
κοινὸς
ὑπερε
ἑνός
ἔλεος
στρατιώ
ἱκανὸς
ῥητὸν
ἐχρῆτο
ἑρμηνε
διαρθρ
ἠρεμεῖν
βοήθειαν
Κρο
##ρʼ
##σσω
##τύχ
ἀπελθ
προαίρεσιν
μετέχειν
οἷσι
##μβα
##κεις
ἀθανασ
ὡμολογ
ἁπασῶν
λυγ
##υσις
##ψομαι
##εῖπεν
##σασιν
##τονος
ἐξά
συνέχ
ἀποκτ
##στιγ
ἐφ̓
##λθομεν
λέλεκται
μορίοις
##κείμενος
χιτ
στενοχ
μοχθηρ
καταφυγ
ἅγιος
οἴκοθεν
so
##φουσι
##όρας
##ῦρον
ἀπί
##ηνι
ὑπουργ
προσπεσ
ἐλή
##ώνη
αἰτίου
##στικοῦ
χρυσοῦν
ὀλίγου
καλουμένη
##κινδυν
##ωτάτω
φηϲιν
ὠφέλι
homin
ὕπερ
##σηται
##ὼθ
##τικῆϲ
##μεί
περιγ
λαθεῖν
κολ
ἐφθ
ὅλοις
λέξει
##ans
πείθεσθαι
τύχῃ
παντάπασι
κέχρηται
πυρί
ἐᾶν
##dem
τεμν
κατεν
ἐξαρκ
ἔχθραν
##γετε
συστα
ἀναγρά
ἑκάτερα
φροντί
παιδίον
##ρούμενον
Σκορ
ἴσασιν
Μιχα
ὑπακο
Ἀγαμέμνων
ἐπιπολῆς
ἱκετεύ
Καππαδοκ
ῥιζ
##ώδους
ἀποκατα
ἐμφερ
ἀπεχ
λεγόντων
ἐλθόντες
κυνὸς
ἀνομοι
νεῦρον
ἀντιστρέφει
μῖσος
##κτυλον
ἀναπνοῆς
Ματθα
κέρ
ἐψ
ἐλλι
##χης
##ουϲα
ἀρχαί
ψυχαὶ
μόνων
##είη
φωνή
δυνάμενοι
κάλλους
λήγοντα
αἰσθητοῖς
##έβειαν
ἐνδείκνυται
εἴδωλα
ἐνώπιον
87
##θρε
##ήθησαν
##στό
##σασαν
οὔρων
ἀκμὴν
σχήματα
παιδικ
Ἀνά
χεῖρες
προτάσεως
##φέρεται
Δημό
ὅρκους
δρόμον
ἀτόμων
Ἄρει
##ροπ
συμφοραῖς
##λέσθαι
οἴμοι
##λευρον
τρίτος
βραχύ
δεξιὰν
ἔμβρυ
Οἷ
Πάρ
Ἕκτωρ
##ύω
##κουσι
μεθι
##λοπ
##διδά
ἐμά
ἐπιστρέ
δεινὸς
πολέμους
σύστασιν
ὑποκειμένων
Ἀγαθ
ληφθῇ
εἴδωλον
ὑδατ
app
Μυσ
βίᾳ
γλί
##ήσατε
ἀναβα
τινʼ
μέσος
##λοισι
ἀναγκαίως
##γγυ
μείζον
ἀποστρέ
γράφειν
##ογώνιον
Θηβαῖοι
Ἰσαὰκ
ἄκουε
reg
πρῴ
##μαχον
ἀπαν
μεγε
##άνοις
ἐξο
οὕς
γενομένους
ὑπερβα
##ξωμεν
βαρυν
Εὐρ
Ἀθηνᾶ
Φιλό
προειρημένων
βαδίζειν
οὐδέπω
τυγχάνει
κήρυ
##έσει
##ίδ
ἀνώ
##υντο
δεδο
μεγίστη
##βουλε
ἀδελφὴν
διάθεσιν
κυλίν
100
ποιητῇ
παρακολουθ
φοινικ
∠Ε
##θρας
##ναί
πολλὸν
ἀκηκο
δύσιν
##χθέντες
τάξεως
σκώ
νόσημα
ἑκάστη
ἀδικίας
Ἰουδαίοις
##ψαντο
χωρίων
χύ
ἕτερόν
ἡδύ
##ύοντα
##οθε
##ῆρι
προς
μελῶν
προή
συνων
καταχ
ἐγίγ
τόποις
##μοιον
ἁπτο
ἁρπ
κωλυ
γάμου
κηρωτ
δαιμόνων
κελεύσας
ἰατροῖς
ἐνιαυ
αἱρεῖσθαι
θώρακος
φλυ
Ϛ΄
ἀήρ
Ἰσθ
ὠκ
ᾔσθ
##εσθαί
##ξως
##pt
##αιϲ
ἐνοικ
##ρισε
προσην
κινδύν
ἰδόντες
##έχθη
τριχῶν
##λευσαν
Εὐβο
##λήθη
##βολαὶ
γαστέρα
μουσικῆς
φαρμάκου
παραπλησίως
ἄρρενος
ὀγδοήκοντα
88
μήν
ϲε
Ῥοδ
##ύσαντες
##εισι
##ροντι
ἐπιπέ
ποιεῖς
δέοι
δέδεικται
##εύϲ
προφητικ
##στήσας
ἀπορρή
θερμὰ
ἐλάττους
ἀγνοεῖ
προσθεὶς
ἐπισκέ
Δημητ
λογισμοῦ
κατηγοριῶν
Σελήνη
στρατοπέδου
##μμων
##go
##ρονα
εὐλόγως
##τικῶϲ
σχήματα
##ρακας
πατρίδι
δεσπότην
ἐνώπιον
opp
Ἐλε
ᾠκο
αὐτάρ
ὑποκ
καλῷ
φιλοτι
ἐπίρ
ἐξετ
θάλα
σκοπὸς
ἑπτά
##έβηκε
Καλλί
γειτ
ἐπιστημῶν
Γεν
Μυ
Μῆ
Πην
##αφ
##σάν
##τιαν
##ρισκ
προοιμ
κατό
##θαί
##δημον
##ευσε
χρηματ
ἐκκλησια
ἁγίων
κοινωνίαν
ὀδυρ
dies
##oph
εὗρε
ἁφῆς
δάκρυα
##ὶμ
##ουχὶ
κατατε
λέγοιτο
στρατευ
##λυται
ἁμαρτιῶν
##άσματα
φιλάν
πράξεως
ἐλαίου
πολέμιον
λέξει
##untur
ἀφορμὴν
βαδίζειν
αἰχμάλω
##φως
##κατο
##όνδε
##έρῳ
##ρηκε
ἀκοὴν
κατεσκευασ
##φανος
ὑγί
ταὐτόν
συναγαγὼν
πορφύ
ἀπιέναι
μνήμης
εὐσεβείας
86
λυμ
οι
πώ
ἄγνω
ἴχνος
##ήσαι
τεί
##σαμένου
##ληϲ
παρό
##ρχον
ἀφῆκεν
##βαρον
Αἰνε
γραμμάτων
κοινωνεῖν
διανοίᾳ
ἐχρήσατο
ἀπέκτεινεν
ἐθαύμα
σάλπι
ἐσι
ἤγαγεν
##ϲτη
##ήμασι
##λεστ
συνιστα
ἀνακλ
ἀρρω
##ότητας
##ata
οἰκετῶν
ἑτέρους
φυσικὴν
μεγάλη
##ότατος
κείμενον
ὀρθαὶ
θατέρου
Πό
ἀῤῥ
ῥημάτων
##λίων
##κκα
προτρέ
εἶθʼ
ἀναγνω
##άντες
δελφ
αἱμα
##σμου
##τέλε
πάντη
ἐναντίας
##στής
ἀνέμων
βιβλία
κινουμένων
##ῆναί
φθεγγ
ejus
ἀμν
##χνε
##άριον
##φοντα
διαστή
περισ
προσέτι
##χθῇ
νοητὸν
παντί
##λικῆς
βούλε
ἀποφατικῆς
γωνίαν
βωμὸν
##σθείς
εὑρίσκεται
ἀθάνατον
Κωνσταντινου
μαγ
##οντεϲ
##οικι
##ράτου
ἀγρι
##ίζοντα
##ίζοντος
ὁρμη
χαλα
δευτέρας
ἀστέρων
Ἀποστό
ἔρωτος
ὄρεξις
τοσούτῳ
ἡμικυκ
Ἀαρὼν
vir
ξι
τραπ
ἑτοί
##πλουν
##όσιν
##μαί
ἀπαγωγ
ἐπιγρά
εὐπα
ἀναξ
##γεγον
ἐφορ
##τέρω
ὀρν
ὀρέ
παρεληλυθ
δυνάμενος
##βαλλε
φρόνησιν
ἀντικειμένων
aber
gen
not
Μά
Πριά
Φί
ἐρί
##ιξ
##σμένος
##ϲτον
##βλε
##δαί
##σκέ
##πτῃ
ἀριθμόν
χρόνους
Ἀρχέ
γλῶσσαν
ἀμέλει
##ργα
##υπα
##ώσασθαι
##θησεν
##ησόμεθα
##έρῳ
##άζουσι
οἴκων
αἰσθήσεων
τρίγωνον
στρατηγοῦ
μεγάλης
πειρᾶσθαι
ὕβρεως
παραπλήσιον
νεωτε
Φερε
ἀῤῥω
ὤμο
Ὥστε
##σμένον
##ζετο
##ὼϲ
##λλατ
συνδέ
ἀναστάσεως
καταδε
##ησάμενοι
συστρα
οἰκίαν
ὑπερέχ
ὑπάρχουσιν
##στικὸς
γεννηθ
σελήνη
ἀνδρείαν
πυρετοῦ
περιέχοντος
μονονουχὶ
Con
Κτη
γέρας
ξί
ἕξομεν
##λκε
##ϲθέν
##ΕΙ
ἐκπεσ
##ίνοντος
##ρολογ
ἀνακε
ἐμφύ
##ητὸς
##ωτέρων
διαφυλά
βουλεύ
##ραφεν
δυνάμε
##γγας
ὅση
##βάλλων
οὐδέτερον
##ώτατος
γλίσχ
Her
he
##πομ
##τευσεν
##λλας
προτι
εὐωδ
##ύνη
##νησε
τίνων
ἱστορίαν
Ἱερεμ
θύειν
σήμερον
##ιε
ἐξαγ
##ίουν
πληρώ
κρατη
γυναικε
τύχοι
Σωκράτους
δεῖνα
χιλίους
φυλάττειν
προσθή
εὗρεν
ποιήσασθαι
νήσου
ἐπιτήδεια
Πατρὶ
ταλαιπωρ
ἱματ
ὠθ
##ώσης
δικ
μελί
##στατοι
##ποτ
στέρ
μηροῦ
ἑαυτόν
##κτή
Διό
θάλασσα
βελτί
ἀδιά
ἐπιφανείας
super
Μί
Πέρ
Σευ
νῶ
νού
ἐσε
##χεις
δευτέρα
##τήτων
βούλονται
μείζω
ὑπομι
Τιμό
Θρᾷ
Ἕκτορος
μεγαλοπρεπ
γʹ
δωρ
ὄμματα
ὅτ
##σασι
καθῆ
##ωτέρα
νόσου
##όροι
οἰκείους
φαντασίαν
τουτον
Σωκράτους
##λεκτρυ
##κυν
τος
##ουσί
θεραπ
##θέα
ἐσπ
ἀπορίας
συμπτω
θορυβ
γλαυκ
παράλληλος
ὕπαρξιν
ἐπιχείρημα
δαψιλ
ὅσιον
##λυτ
##φών
διη
##λιῶν
ἐμμε
ἀφέ
##ωτέρων
##οίμην
σκῆ
ἄρθρα
λίθον
ἰαμβ
ἐχθρὸς
Διόνυσον
XV
us
δολ
χυ
Ἁγ
ἐόντα
##στρέ
παρῄ
ἐξελθ
##θετε
καταλαβεῖν
##έροις
γελ
λαθ
##λλοντες
σωθῆναι
ἁπάσας
##quam
ὑποκειμένῳ
δοῦλοι
σήμερον
δημαγωγ
as
ΕΡΜ
ἦγεν
##μεῖ
##ϲτά
##ωται
##φθησαν
##ρούντων
τινά
ἀρξα
##άζουσιν
τρόπους
##ήσειε
σαφέστερον
ἐποιήσατο
##μετροι
ἔπαιν
ὠνομά
Αἰγύπτιοι
εὑρίσκεται
Πλαται
πλείστων
πολυπραγμον
Τυ
ἀρά
##νοια
##ωθι
τοὶ
##ρατε
ἀπεν
ποιήσειν
##άντος
περιγραφ
συμπό
λέγωμεν
πάσαις
δύναι
μόνης
παρεσκεύα
συλλαμβ
βουλόμενον
Παύλου
##στικόν
ἀπόδειξις
ὀργι
δείξει
θανά
σημαίνειν
Ἀντίπα
προνοίας
Σκυθῶν
ἀσφάλειαν
οὑτωσὶ
Μέ
ἅλ
##ύσεις
##τεις
##ῖτιν
##ίσατο
παλά
ἀποῤῥ
παραληγ
μέμψ
##ρικοῦ
λύπην
ποσῷ
##all
πρέπον
ὅντινα
##οειδὲς
ἁλὸς
κινδύνους
##ωδῶς
wh
Κρόν
νάρ
##στρά
##ρητος
πάρε
##λήματα
ἀξιό
ἑκατέρα
δυνατὸς
ἁρπά
παράδοξον
ὀλίγοις
δημιουργὸς
βλέπειν
loc
Πυρ
##σμένων
##έῃ
##κτην
##ώμενα
##φοντες
ἐνῆν
##στὼς
ἀπῆλθεν
προφη
ὑφηγ
θεωρίαν
μηνὶ
ἐπολέ
βέλτι
ἀσπίδα
nost
Λίβ
ῥομφα
##πτιον
##ῶντι
ἐντα
##στροφ
ἐκκεν
##ίνους
προσδε
προσέχ
ἀνθρώποι
σαβ
ἀπατη
κύκλων
θεραπείας
δένδρον
ἅρμα
ἐπίσκοπος
ἐλάσσονα
σπονδὰς
ἀει
ἅπ
ἐπηρ
##σιας
##σειαν
περισπ
κεκρυμ
μερικ
μεγάλων
ξένων
βελτ
##ίωσις
κισσ
γεγραμμένον
ἰατρικῆς
ἀθρόως
##οὺλ
ἄτε
##ιμος
##κτι
##ϲί
##βί
ἐπιδι
ἀποχρ
ἀναί
ἐγκλ
##βασις
κακὸς
##πόμενοι
παρελθεῖν
ὑπάρχων
##κότος
λίτραν
τοῦτ᾿
μετρεῖ
φρόνημα
τόνδε
ἐκάλεσεν
Ἀντώνιος
ἔλεγχος
ἀφικνεῖται
ἄνισον
Β△
μοί
νά
πτισ
ἀτα
ἵσταται
##ῶμαι
##δείκνυ
πετρ
ἀγῶνος
##στολοι
κοινόν
μένον
βοσκ
##χνων
##βεβλή
ἀπόλλ
οὐδέπω
##πεμψε
φαίνονται
κεφάλαιον
98
##γῳ
##ήμασιν
##σανδρος
ἀναδ
μετέχει
##πασαν
ἀγεν
πολί
##ers
γνή
δηλῶν
σύγκ
##φέρων
αἰσθητήριον
ξένον
ὠφελεῖν
ὄχλος
Τιβερ
ἐγκέφαλον
Πελοπόννησον
ἐγίγνετο
ΖΘ
ζε
λῦσαι
##λλοι
εἴτʼ
εὐφροσύν
κατανα
ἀγαθὴν
ἰδίοις
κρυ
ἀντικείμενα
##θέσθαι
ἐσπου
Ἀρτε
θατέρου
πολέμων
##κότων
ἄκρως
χάρις
ἄγγελον
Τηλέ
κοῖλον
ὀφειλ
αἱμοῤῥαγ
Βακ
φεί
ὄχθ
##οδό
##ρός
##ωρα
##ύματι
##τρό
καταλαβὼν
##anus
ἐπικύκ
φοβηθ
ποιήσω
ὁμοιότητα
ἐνδεχομένου
κυνηγ
ἑλκῶν
τήνδε
ποίει
ὑπῆρχε
ἀνεῖλεν
Ἀντωνίου
φαρμάκων
ΚΕΦ
ἀγνω
ῥαγ
##ύμοις
##υος
##μενόν
εἶδοϲ
ποιοῦσα
παραγγ
Ἀνδρομ
χρυσῷ
##πτουσα
τοιούτῳ
##λόγου
πλευρᾶς
πόνους
δηλῶσαι
ὀνομάζει
##ωτέρους
διττὸν
Νέστο
κέρδος
τἀληθὲς
γελοῖον
βρό
ἑσπερ
##μίων
##έωϲ
##φραστος
##ζευ
ἐπλή
ἔχοιεν
συμπαρ
##γιγν
κακίαν
λοιπαὶ
δόξαι
Εὐσ
Κύρου
108
μηδενί
ϲυντά
ἡλικίας
ἔθνοϲ
ἐπιτηδείων
ἐδίω
ibid
Δανιὴλ
##πίου
##γεῖ
##αρχον
Διδύ
πιστὸν
##κοντι
##λέα
γραφὰς
τίνων
ὀδύνη
δεδομέν
σφυγμὸς
ἀσθένειαν
εν
ἁμάρ
##οδε
εἰώ
##σθεῖσαν
προθε
##έγραπται
##τρης
##σταῖς
δευ
ὁρᾶτε
μένος
ἄρσεν
ἱερέων
χωρὶϲ
διδασκα
τεκμή
ἀγορᾷ
προσέθηκεν
παραπλήσια
ἁλμυρ
κεχρῆσθαι
ᾤχετο
##νησεν
##μών
##έβλη
##γοι
##ίπ
##ῆρες
αὐτῆϲ
παρεν
συνηθε
ἐχέτω
παρεί
τιμω
Ἀριστε
κάθετος
##θήματα
ἐξελα
ἐλαίῳ
ὀφθαλμὸν
μορίῳ
ἁμαρτάν
προκειμένου
##μορφ
ἀρχιερεὺς
##όπομ
χιτῶνα
τἀληθῆ
ἀλεκτρυ
ὅποι
##ήτως
##θουσι
ἐκχ
##όνον
τόδʼ
κοινόν
σύμβολον
##τεια
##ήσειε
##έοντι
ἄτομα
κεκιν
ποιητοῦ
ἀποκρύ
δένδρα
ἐμψύχ
vel
ΒΗ
ληρ
Ἥφαι
##ημένων
##δού
##ανν
πρόσ
##εσσαν
ὑπάρχουσι
χρόνων
διαφορά
δυσεν
κωφ
βούλοιτο
ἐπιθυμίας
τελευτήσαντος
ὑποκειμένου
ξένους
νῆες
βαλαν
Ἀφροδίτην
ἔτεσι
ὁκόταν
Βελισά
ΕΘ
Πίν
ἕτεραι
##ιανὸς
διή
διελθ
ποιούμενοι
##τρώ
λέγωμεν
ἐφό
ψυχρὰ
δοθὲν
νοεῖται
πέμπει
##ουσί
βαρύ
φρονήσεως
κατέστησαν
θερμαιν
συμβέβηκεν
##δήλω
ἐπεισ
μεσημβρ
τηλικού
διαλέγεται
Νεί
ϲοφ
Ἄβ
##υκε
διδό
##λογισμ
##θασιν
κολά
##χεως
πολυτ
ἀρτ
ὀρνί
##ακῆς
ἑκάστοτε
πέμψ
κρεῶν
χυμὸν
δικαιοσύνη
ἀποτελε
φλεγμονῆς
παροξυν
νήσῳ
##πλάσιον
δέρματος
κλέος
δακρύων
Ἀρτέμιδος
##ΤΙ
καυ
αὐτάς
ἐκδικ
##ίνοντος
ἐξεν
συνηγ
ἐμπερι
##ύνας
μένων
οἰκείως
συμβήσεται
πυκνὸν
θερμασίας
ἐδείκνυ
φθείρεται
ἀθάνατον
##έσεις
##όγι
##ali
##ίσατο
ἀνη
ἔχεσθαι
ἀποφαν
καθαί
προσέχειν
ἐμνή
μεταβάλλ
##κτῶν
προσελθὼν
μαθητὰς
διέφθει
ἐβουλεύ
σφαῖρα
θεοφιλ
φαιδρ
ἀκόλουθον
τριάκοντα
πτο
ϲχ
##υλά
##εῖο
διαχ
##ομέναις
πεδίῳ
πολῖται
##άζοντα
διεφθαρ
ξηροῦ
φίλων
ἀδυνα
##ήγησιν
τεσσαρε
βέλος
κλει
φυτὸν
##γους
##ζομένων
##ΡΑ
ἐπιτί
ἀπολεί
##ησόμεθα
κύνα
πόλεσι
δεισι
##φερον
ἐπίστασθαι
λογικ
καρδία
ἐγκω
##ϲαντεϲ
ὁρισμός
Κύριον
##σθέντες
τοσούτου
ἀδυναμ
ἤκουσαν
ὑψηλο
ἀμέλει
μεσημβρίαν
Σάρ
τυ
ϲημ
##γαν
##b3
##στρ
ἀνεί
##υνον
##όνιον
κατασ
##τωπον
ἀφωρισ
μέρεσι
##στοὺς
στρατὸς
ἀπόδειξιν
συμβαῖνον
##πτοντας
φέροντες
λειπ
πρέπει
πόλεων
πληγῆς
πολιορκίαν
βραδυτ
##ύτητα
92
σατ
##ύλος
##εταί
##λός
προδι
##οροι
ἀφεὶς
κοχ
##τερός
ὑμέ
ἀνάστασιν
σοφοὶ
σώμασι
##κλῆϲ
Παμφ
ζητοῦντες
ἐσή
διάφορα
μεθ᾿
τοιαύτῃ
ἀπειθ
ἀσθενεστ
φαντασίας
ποιηταὶ
κρίσεως
##όμενός
γεγόνασιν
ἀναγκαῖόν
##μπτωμα
λ΄
ἠέ
ἦμεν
##ίδας
##ῴη
ἐπιπλ
ἀπογε
γενομένων
##δειξε
φιλη
ἰδέας
ἰσχυ
##ώνιος
λευκόν
ἀποφατικὸν
συλλογισμὸν
ὑγρότητα
ἐργάζεται
##ωτάτην
##ϊκὸν
θνητῶν
χρωμάτων
πεσεῖν
ἑκατέρωθεν
μελλόντων
πτέρ
ὀλέ
##ύμως
##υίας
##τούντων
ἀπή
εἶπαν
ἐξεῖναι
##γονοι
βασί
##ίονος
ἀδικεῖ
φυσικῶς
Ἀθηναῖος
ὑδάτων
ἀνατολῆς
ὀλίγῳ
ἀποθνή
τέσσαρας
χῶρον
ὑστεραίᾳ
89
his
Ζε
ἰστέον
##σσας
##μὲ
##εισῶν
##τιμος
ἐννε
ὑπν
συμφερ
νόμων
Χριστός
γεννᾶται
Φιλιπ
κάλλιον
κτῆμα
ἐπιχειρεῖν
ἐπιστολῆς
Μενελά
Πέρσαις
ἔξοδον
ἄπορον
σωφροσύνης
υἷ
##γρ
##lich
##εντος
##εργον
##μαθεῖν
πατέρων
ἐπιτα
διαλύ
συνεῖναι
##ωρία
φανερόν
γνώρι
πουλ
παιδία
φιλοσοφεῖν
ἀφορμὰς
Ἀλεξανδρ
αὐτοκράτωρ
##τούμενον
ὀξε
ὅσας
ὤφει
##ρσι
##βῶν
##σκαιδε
##λειῶν
ἔνδειαν
ὑπάρχων
ὑγρόν
ἄξιοι
σχεδόν
ἀνα
κόλπου
φρουρὰν
##ύσασθαι
##ονό
εἴληπται
##μβον
πάθει
##ύνονται
##πειρ
πρόϲω
γινομένης
##ate
ἔλεον
μηνῶν
πληγὴν
παρθένον
ἡγεμόνων
φαῦλα
ὑπεροχὴν
ἀτεχν
θεασάμενος
Ἀσσυρ
ἀόριστον
μάλιστʼ
ἐλέγετο
νῶτα
ἄλγ
##ϲτιν
##δ᾿
προελθὼν
ἐξελθεῖν
ποιο
##ούϲ
προσῆκεν
καλόν
##ίζοντας
εἰδώ
πυρός
κυά
##υμένην
Σαοὺλ
ἀμεί
σκοποῦ
συγγενῶν
##σθέντα
σκολι
Δῆλον
Κά
Ἀπε
ὁπην
##δμε
##ωτη
##φουσιν
τοίχ
##στάναι
##ριζον
τεκν
περιφ
##άγους
##τάς
κἀπὶ
ἐπίστε
τρίτῃ
##θήσονται
##ξενος
μυελ
ὑπόκειται
χερσα
κτῆσιν
ἔφασκεν
καταφατικὸν
δεσμῶν
ἔρημος
ἄδικος
##φρόνως
ναυσὶν
πρωτό
συμπέρασμα
κλέ
φλό
ἐτύ
##ϲθη
##λλʼ
##κατον
τοιάδε
##δοντος
##σσεν
Θεόπομ
θέσει
στρατηγοὺς
ποσόν
χαρᾶς
ἀποφαιν
ὄρεξιν
ἀλλοτρίων
εὐεξ
ἐδήλωσεν
Κικέρων
Β∠
Νη
γηρ
φοίν
ἄφων
ἠγα
##άσθη
##λλετο
οὐδ̓
ἀποσπ
##δαῖς
γένωνται
##αῖα
λαβόντες
στόματι
Μιλή
Σκιπίων
Θα
πῶ
##σματος
##τίαν
##ῆμαι
διωκ
##ούϲηϲ
ἀκά
φυτοῖς
##λθοι
ἡγοῦνται
ἐδύ
##ψασα
φάλα
Τιμα
λαλεῖν
ῥίζης
ἐντελέχ
Παι
κάρ
ὅρου
##τοειδ
##εῖλεν
προκείμενον
ἐπιλε
παροικ
συντυχ
ἐμβαλεῖν
ἀρχάς
##ηκότα
##δίδου
##θέντας
σαρκῶν
προσέταξεν
διδάσκειν
ἀποθνῄ
ιε΄
αἰχμαλώτους
Βρ
##ρσιν
##άμενοϲ
##τρη
##ven
ἐκλήθη
##υτὰς
##θαμεν
πάνθʼ
ἐφύλα
ἰδίου
γεγονότα
Σαμου
##τοῦνται
κάλλει
ἀρίστους
σιτίων
##ίστησι
ἀγγέλων
Is
ἀο
ἦγε
##μπτῳ
##πόν
##aes
##ber
εἰλημ
##ριοϲ
##αρὸν
##ροί
παραλή
##πουσα
##ματικοῖς
μικρόν
##έβησαν
εἰρημένοις
θυσιῶν
##γέλιον
Διονύσῳ
τρυφῆς
πεῖσαι
χυλὸν
Ἀθήνησι
τέσσαρες
ἐρημ
θορύ
συκοφαν
##όμενόν
θρα
ξεῖν
σῷ
ὥσθʼ
##κτοις
##όσι
##τρᾳ
καταγε
αἰφ
##χθὲν
μάλʼ
μεγίστου
εἰπὲ
ἀντιδια
μονάδων
ἀκούω
πνεύμονα
λάβῃ
Πατέρα
χυλὸς
Ἡρακλεῖ
##μβολα
MgAg
εἰρήκαμεν
ἀδιαίρετον
ἄλογα
φρένας
du
Κηφ
κόν
Ὁκό
##εύειν
##λλης
##μενόν
πού
##σκη
##erv
χρησ
ἄγριον
δίχα
συμβαίνειν
##πτοντος
σκεύη
οἰκουμένην
μεγέθη
σπονδύ
Πέτρος
ἐντυγχάν
Δείξας
ΜΝ
πῖ
πίνειν
ἰκ
ῥῆ
##ύουσι
##ξαις
ἐντι
πατέρες
##λεκτον
ποτὸν
κατην
ἀναλαβ
ἀφεῖναι
ἀφθαρ
Πατέρα
αὑτόν
πεντη
Ἰσο
##τικοί
##ect
πληγὰς
κρίσεως
χυλοῦ
ὀγδό
νύκτα
XXX
μοῦνον
90
ζῆλον
ἐὼν
##τ᾽
##ph
ἀναπνε
ἀνατολὰς
##γαλέ
συνεβού
φύεται
θερμό
##τίθεσθαι
ὀργιζ
πολιτείᾳ
##ταρτος
σχολὴν
τέσσαρα
κρειττ
ζεύ
ληφ
ἔδα
ἰθ
##όλυμα
##ς΄
τεθε
##ρεπέ
παρόντα
δέῃ
δοθείς
##ξατε
γινομένου
μήτηρ
ὑγρα
ἐπικου
ἱκανὰ
τυχὼν
Λυκοῦ
διάνοια
δογμάτων
ἄξονα
μακάριος
θεῖναι
φλέγ
##ῷδε
##λαξ
εἴσ
ἔνδοξον
ὀρειν
##δωμι
##νημον
πληροῦ
##isse
##δέξασθαι
##ρυξ
ἐπίσκο
γιγνόμενα
κίνδυνος
διπλοῦν
διδασκαλίας
λείπεται
τυράννου
δογμάτων
φλυαρ
Πάν
##είᾳ
##ζομένη
##βού
##σιόν
χρῆν
πάρο
##χθέντα
##ust
θερμαν
101
τίνας
Πολλ
Μαρα
Κρόνος
τεταρτα
ἀγάλματα
AB
leg
κῦ
Ἠσα
##δ᾽
##ίστως
ἐνίων
##μενε
ἀποχωρ
ἀναμε
λέγεις
ἀγέν
συνεξ
ἀναγκαίων
ἁπλῆ
##ιστοι
κεφαλήν
στρατηγοὶ
##ίσματος
τρέφειν
ἐπιβουλῆς
εἰσαγ
ἀναθυμία
μειζόνων
ἱμάτιον
οὑτοσὶ
##ύμενοι
##άδες
##ωτέρα
##ῆι
##xit
##ke
εἰθισ
##λιμ
παραδί
ὑποκρι
τάχιστα
##ρναν
μεταβολή
ὑπεξ
πίστει
παρθένος
δεσπότης
σφισι
ἐπαγγέ
βασίλεια
τηλικαύ
ὀμν
ἐνύ
ἔχεται
κατακε
φιά
##τέρες
ὀρύ
καιρόν
##ann
ἡγούμενοι
##βαλον
πονηρὰ
δηλοῦται
ἰδέαν
φόβον
φωτι
σεαυτὸν
ἠκολού
Λή
Πεν
ἐθερ
ἐπυν
##όνας
ἀπολέ
ἀγὼν
##σκετο
πρόβλημα
##μήθη
κρατί
ἀλλήλας
ἐντελε
ὑγρότητος
οἰκοδε
νομίζουσιν
εὐχῆς
ἱστορίας
στοχ
μυρίους
ἕλκειν
Τρῶες
πνο
φέρει
Ἡφα
##οτομ
##ωσαν
##φας
##ψονται
ἀνῄ
##ποδος
μέλ
##ατρον
ἐρυθ
ἀρϲεν
##βεβαι
ἐκκλησίαν
φυσικῆς
ἤκουσε
ὀνομάζεται
ἀποδείξεις
ἀριθμός
τεττάρων
θόρ
νάρ
σά
##χοϲ
##τήν
ἀντʼ
εἴπῃς
ἀναπτ
κύνες
##tim
πατρικ
διάφορον
inc
ζηλωτ
ποταμόν
θεωρίας
μνηστῆ
πόντον
ἀντίφασιν
ἀλήθεια
πέμψας
ἀπέκτειναν
Ὀδυσσέα
Ἕκτορα
πλεοναϲ
96
sch
ἥδιον
ἦγον
ὅϲ
Ῥου
##σητε
##γχος
##eh
##ίτου
ἐντολὰς
ἐξανα
ποιοῦμεν
καταφαν
ἔφευ
##πόδων
καρτε
σαυτὸν
ἑκατον
##δυνα
πολυειδ
##οειδῆ
Δαμα
ἤθελον
ἐγνώ
παραλληλόγ
διαμέτρου
97
Γέ
Λέγ
Ἁλι
ἠπί
##όδους
συνί
##γονα
παρατα
περιγεν
##δημε
δέχεται
##ητὴν
##ίζοντος
μέσων
##ηρὸν
διαφθεί
##ηκας
##φθῆναι
ἔφθα
##ηθι
##tic
ἱερουργ
ἀναγκαία
τετραπ
κενόν
103
θυγατέρας
λίτρας
##φέρεσθαι
σκόπει
κῶλον
σφαῖραν
μεσουραν
94
ὁδῶν
##άδην
##ότεραι
##υόντων
##ώματι
##ουμένην
ἐπη
ἐκό
ἐκπλη
ἀποκλ
ἀκή
σκύ
λεγομένοις
θέαν
ἁρπα
ἔστʼ
δυναμένους
ὑγιὲς
θεραπείας
##odo
ϲυνε
ὁμοιο
παρασκευῆς
δημιουργὸν
ἐδόκουν
δεύτερος
συγγνώμην
ἐνόμι
Σαμαρε
ὤτων
##αὐ
##έρες
##τρέχ
παραδιδ
προσπί
##ρουργ
ἀδεῶς
κραται
ἐνδό
Ἀπόλλων
##γραμμα
ὀρθαῖς
ἔγνων
κεχαρισ
Φυσικ
λιν
ἐτα
Ἐριν
##ωμένους
γευ
##σμός
λιμοῦ
ἡδοναῖς
ἐκκλησίᾳ
νέους
ἀσφαλὲς
##τούμενον
Θρᾴκης
ἐμποδὼν
πίστει
ἐϲτὶν
Jos
res
βίαι
ἀσθέν
ἄπε
ἐγε
##μὸϲ
##ωσα
##ωτοῦ
##uli
##στί
##πεδεύ
##έγρα
##ξαντας
πρότερα
Αἰθί
ὅπη
ἀνάπαλιν
ἑκατόν
ἐλάττονα
συμβαίνειν
ἐργά
εὕρεσιν
γενναῖον
Φερ
ῥῆσιν
##ουμένης
##ρετος
κοσμο
##άρχων
τάξεως
##ϲαϲθαι
prim
πείθειν
ἀτμ
εὐδαιμονίας
κοιλίαν
ὄρνις
##atione
κλίμα
ναυσὶ
διατρίβ
ἄποι
ἤμε
##ίλλου
##iae
ἐπισχ
ἀξιοῦν
γράμμα
δώσειν
γονέων
πλείονας
δοκιμα
φλέβες
συκοφαντ
θώρακα
διαλέγεσθαι
ἐπιφάνειαν
σθέν
τηκ
ψῦ
ἀερ
##ωβ
##ζονται
ἀντέ
προχει
##ομβ
##λητος
ἀποφά
παραδειγ
##πεια
##πεις
##λωνται
πυρέ
σταφυ
ἀπαρα
δεξιοῦ
κλίνεται
##στήρια
##ωτέραν
ὅνπερ
τέσσαρας
Phil
Γά
ΝΕ
Ἐφέ
ὀλε
##ήσαμεν
ἐνά
βαστ
λέγουσα
αἴσχ
δύναμαι
Ἀθηνᾶν
λέξις
ὀρθὴ
##ραπεζ
104
λύσιν
διπλάσιον
παιδείαν
ζῶντες
##γινώ
συνέβη
μνᾶς
ἔγκλημα
κατακλυσ
Ol
##ουμένη
εἰκα
##ρισαν
νοτι
φιλία
ἐπανι
εὐχὴν
κύκλος
Δημοσθένους
γραφαῖς
##λευθερ
ἀποτελεῖ
λίμνην
βρώ
ἤθους
##σσεσθαι
##μεῖναι
##θῶσιν
##γδο
##ρικοῖς
προδό
γινομένην
τέθει
σοφίᾳ
ἑνός
ἑκάστῃ
ἐλεύ
ὀργάν
στρατιᾷ
γραμμὴν
ἄτοπα
γάμων
ζητῆσαι
πρεσβυτέρων
ὑπῆρ
Πλατῶν
##λλὰξ
VI
Ταρκ
ἄλυ
ἔστησαν
##a3
##ζομένου
##ομη
##θεϲιν
##τραι
ἐμβαλ
##παί
δέξασθαι
πρόκειται
τάχος
τροφῇ
ταῦθ
πιστεύειν
μῆνα
καλουμένων
κινδύνου
ἐδέξατο
ἀλλότριον
ἄπρακ
ἐσθίειν
Τοξ
ἔθηκεν
ἤρετο
ῶν
##ίλας
ἀνύ
ἀνυπ
ἀπῄει
ποιῇ
##θησε
γενναι
ἀφεστ
##κειαν
ἄρτους
##στικῷ
ἐλεειν
##στήσατο
##arch
##σθέντας
δυναμένων
##κότα
νοσεῖν
συμβέβηκε
Ἀγρί
μύες
φιλανθρώ
πάρος
φιλόσοφ
μονογενῆ
95
Μαν
χελι
ἔμπει
ἴϲ
##όραν
##δεῖ
##γχυ
##ίτου
##bi
##ΜΑ
##λλοις
παρῆσαν
ἀναμν
ψυχρῷ
##σσῶν
ἀντιδι
τρίχας
ἑκάτερος
ἀξιῶ
ἐλεγ
ὀξεῖαν
ἀπαλλά
Ταύρου
τύπον
##ωτάτους
προφήτου
ἐρευν
βορει
πεπραγμένων
Πελοποννησ
Di
auch
ἔστε
ἐνύ
##λεὺς
παραγωγ
τέχ
ἀδή
##άγοι
ἄλλοθεν
πρώτως
Ἰουστιν
##φερε
χειμὼν
ἄπειροι
Ἰουδαίους
θερμότης
μῆλα
βαρβάρ
ἀναιρεῖται
στρατοπεδε
Εὐρώπης
Ἡρωδιαν
ἐβά
ἠρέ
##έεσθαι
##έμεν
##θοντο
##ενται
##ησάμενος
προσέχ
##πουσαν
ἀμφʼ
σχημάτων
ἑτέρως
ἐλάττω
πολιτείας
πεποιθ
ἐναργε
ἐπείπερ
νήσους
σωφρονεῖν
Ἀργεῖοι
##όμενόν
ita
τυμ
ἀλύ
Ἄρη
##οὺϲ
##ΐαν
ἐξοχ
συνέχ
ὑποπ
##λλονται
##κιμον
##ττονται
δικαστήριον
τετταρά
ἐπικε
ἀκριβὲς
##βάλλεσθαι
107
ἐπαύ
δεύτερα
τηρεῖν
ἥντινα
ταραχῆς
λαμπρῶς
Dei
μανθάνειν
φρούριον
Κλεοπά
πίν
πόνων
ἄστε
Ἥλιος
##κλου
##ένων
προῖ
##ρχεσθαι
ἀποσχ
συμπεσ
προσί
##ήνας
παρεκ
##τήϲ
νόμι
Πατρό
κατηγορίαν
##λακτι
ἀμφοτέρας
ἕνδεκα
διδάσκων
συμφορὰν
πιθανὸν
ἀβλαβ
σταυροῦ
σωφροσύνην
Ἑλένην
ἀέρι
ἐπικύκλου
δῷ
ιγ
ἐοι
ἠπεί
ὀθον
ὄλ
##χιον
##όλως
##ῖλαι
καυλ
##τοιν
##εῖπε
ἡμισ
##ρίαις
ἐγγεγραμ
##σκου
συμφέρει
κινοῦντος
φαίη
μέλλων
ἰδίου
μένων
παιδο
##λόμην
πανουργ
ἀριθμοῖς
##λευσιν
##κληται
##θείσας
ἀντιστροφῆς
Αὐτοῦ
ἐννέα
ἀσεβῶν
δούλων
Πάλιν
93
μὲ
σῶσαι
ἀή
ἀρω
##εβ
##den
##στρου
##ρχετο
χρυϲ
οὔνομα
περιβό
##ράγ
προσλαβ
κινήσει
μεταβάλλει
μέμνηται
ἱερὰν
ποταμοὺς
ἔγωγ
ἀλλήλας
σύγκειται
θέσει
ξύλα
Λυκῖνος
ἀνομο
##έλλειν
μέλανος
Λάκων
βλεφ
ια΄
atque
ἔθνεσι
mul
Μυκ
Στρα
ἕβδομ
ἰᾶται
ῥοφ
##ῶε
##ώμενα
εὐμε
παραλαβ
##λέως
ἀκμα
πρόσε
##λυθε
φίλου
quidem
μείζους
ὁρισμῷ
διαιτ
Σιμων
ἀγάπης
Βαβυλῶνα
αἱρέσεως
διενο
παρεκάλει
Σπαρτι
ὡροσκό
γλυ
ὄψε
ὅροις
##ουμένοις
##όνες
ποσὶ
προβλη
κατό
ἀλληγορ
ἀνατρέ
προσεν
ἐμβαλὼν
πεφυ
ψυχρόν
δοθῆναι
##πις
##δωκαν
αἰσθήσεις
##ith
χαμαι
φωνήν
λευκὸς
τρίτη
ἀσθενῆ
ἀσχολ
αἰγιαλ
κδ
χόν
ἠκού
##ύσε
##εῖχεν
ἀναμνη
περιι
ἀφθον
μιμη
##βολῶν
##χνου
ἑκάτερα
κυαν
ἡμέραι
φοβεῖσθαι
##ίστους
καθεύ
σκοτειν
νοῦσος
Ναβου
ὁπότε
ψηφι
ὄξος
οἰνοχ
sim
ΓV
Νῦν
Τοὺς
᾿Α
##σίου
##έσεις
##ημένον
##ϊος
##ρονι
##ίνουσα
ἀποτ
χρό
##οφορ
ἀληθής
πιε
κάλλος
γαμε
παλαιὰ
θεραπείαν
κατάφασιν
##οδοι
ἰατρὸν
Θηβαίους
δοκιμά
ψήφισμα
πολλαπλασι
χε
ἀσι
ἀδοξ
ἐμοῖς
ῥί
##πφ
##de
ἀνθʼ
ἀναφαν
ἐγίνοντο
γενικὴν
##υκται
πάμπο
##τίοις
ἀληθῶν
φθέγ
παιδί
κόρην
##μινον
ἀπορία
παλαιοῖς
Ἰουδαίοις
ἁμαρτία
φορὰ
σμικ
φιλοσοφίαν
περιεχόμενον
ἄπιστον
ἱμάτια
ἀναγινώ
εἶδός
Βενια
γορ
Ἔρως
##ητοι
##ώσαντες
##ῖτις
αὐλῶν
προτέρων
##άνι
τινεϲ
ὑποχωρ
##ττονι
ὀρέγ
##οντοϲ
ναὸς
##πηξ
ζωοποι
δίπουν
μεγαλ
div
ἐπιδεῖξαι
τύχην
ἐκέλευον
σπεύ
πέμπειν
ἤθελεν
κἀκεῖθεν
πρωτό
ἀποστόλων
ἀσώματον
μηδεμιᾶς
Φρ
ς΄
Ἰώ
##ten
ποσὶν
##όνου
##λιμπ
##πού
οἷοί
οὗτός
##ττοντος
δίδου
ἐν
ἄκρου
ἴσασι
διδάσκων
οὔτ᾿
ὁλοκα
Κλέ
ὁδε
##ιανοῦ
##κτέον
##ήτῳ
##ήσῃς
##ωμο
##ξῃς
##στός
##τοιχ
παρακατα
##ράς
ἀρχαίων
κολο
διαφθορ
δόξειεν
##ίσους
βάσεως
ἐπιθυμίαν
κοιλίας
βιβλίου
γαστὴρ
πόνος
##πινα
πιστὸς
Ἀντώνιον
ἄνεμος
σεαυτῷ
δέρμα
ἐπειρᾶτο
ἀοιδ
προείρηται
ἀκόλουθον
φηϲι
In
Θυ
##ow
##θρώ
μέμφ
δύσ
βοηθείας
##ρικὰ
ἀδικίαν
κωλ
ἁγνε
ἐπισημα
##σάμενον
αὐτόθεν
κερά
Δαρείου
καταφρονεῖν
μέλλοντος
ἀπέκτεινε
ἐτόλ
corp
διπλάσιον
Ξάν
ὡσαν
##φονται
##λεῦσαι
ἐκπλή
συνδέ
ἄρτου
##τής
δακν
ἑκατέρων
##πησαν
Αἰγόκερ
ἐλάχιστον
ἀποκτε
βαρβάρων
ἡμετέραν
ξύλων
##ώδεες
μέλιτι
Φιλίππῳ
στρατοπέδῳ
νεωστὶ
γεγόνασιν
91
Λυσι
κδ΄
χελ
ψέγ
ἔσθʼ
Ἐρε
Ἑκατα
##έεσθαι
##ίδι
##ουμένῳ
##αιραν
##ομον
##μένειν
αἰνί
##σκεις
γεννή
γενητὸν
##ῖνι
ὑπολαμβάν
δέδοται
βουν
χρησί
βαρυτ
ἀδικεῖσθαι
χρυσὸς
πονηροῦ
γράφων
διαιρεῖ
##τολὴ
ἡμετέρων
Πελασ
Ἀρχι
κειμένων
Χαλκι
δωρεὰν
ἐμπειρ
κρείττων
##undum
ἄφεσιν
διφθόγγ
Οἶ
Σμ
Συρίαν
πέραν
ἑκού
Ἐρυ
##κηϲ
##ώδει
##ipp
##τηρη
ἀποπλη
##υρω
πλήρης
μαζ
μεταβάλλειν
##άζω
βουβ
ἀντιποι
κύριε
δῆλος
Ἀθηνα
καθαρῶς
λαμβάνων
δωδεκα
πειρᾶται
εἰρήνης
ἐπίσκοπον
ἀσύμ
ἐλλιπ
cu
λυθ
Ἁβρα
##τῶ
##ησθε
##ίλια
##βηρ
##δεῶν
συντι
##ομένῃ
##φαμεν
δόγματα
φιλίαν
##φέροντα
συμβεβηκός
πεπηγ
γεννᾶν
##atio
φερόμενον
φαινόμενον
σεμνὸν
##στῶτες
Μενέλαος
λείπεται
ἐλεύθερον
Πρῶτον
Κί
Κλει
Στρ
Ἄρα
ῥώ
##όπων
##δυμ
##ήσεσιν
##λλεν
##ματός
ἐκποδ
##ικήν
ἐστρά
##θρᾳ
πόρ
##ωτήριον
##φθαλ
μόνῃ
##κνος
ἄρθρων
σατρά
δαϲ
μεγάλοις
εἰρήνῃ
χαλκὸς
διδάσκειν
Οὐκοῦν
Σελήνης
comm
Mon
eo
was
κραν
κλή
ἔκα
ἠγων
##κλεί
##ώσειν
τερα
##θείας
περιτε
ἐμφυ
μέσα
##ροφορ
##λυσις
δυσε
ὀργάνων
ὀφθαλμὸς
συμβέβηκεν
διπλῆν
κἀκεῖνα
τυραννίδος
Νι
Φά
εἲ
λού
ἅτινα
##λῆσθαι
##θωσιν
##ειϲ
ἀπογ
δεδειγ
##τερά
πλείων
κοινὰς
##άζουσι
πολεμι
πράγματι
μαλακὸν
διώκειν
ζώοις
ἐξελέγ
##σθείη
Ἰερουσαλήμ
Κόριν
ϲφ
ἵστασθαι
συνίσταται
κατασχεῖν
προσά
μασχ
τόξον
τίθησι
ἀδελφῆς
ζωήν
δείσας
κἄπειτα
δαίμονος
Ἰακώ
ἑκατέρῳ
πάρεστιν
ἔφυγον
συναναιρ
γίγνονται
is
Ποι
λεῖα
ἔην
ὀμμάτων
ὁμό
##ρὺ
##σέ
ἀπουσ
ἐκδε
##ίνουσα
παρη
##αριν
εὐπε
ἐμπορ
##ούσαις
δοτικῇ
γινωσκ
δυσσεβ
φυσικοῖς
ξένος
ὄψεται
ἔσωθεν
εὐσέβειαν
Ταραντ
σαφέστερον
τετταράκοντα
Φαί
ὄτι
θεὶς
μέσα
ἐχρη
οἰκεῖ
τρισχ
ὑπάρχοντος
##iter
##κειντο
ὁμοιότητα
ἡλικίαν
Πολυκ
χυμοῦ
Πλάτωνα
ἑορτῆς
Ξενο
Στωϊ
ὀσφρ
τραπέζης
ἐπίρρημα
Κω
θαυ
κλε
ῥʼ
##όσιν
##ίνοις
εὐα
παραλαμβαν
κοπ
κακία
μάται
##κτόν
##θιοι
ἀμει
ἀπέστειλεν
γάμους
κάτωθεν
στρατείαν
ἁρμόζει
ἀψύχ
acc
ζῳδιακοῦ
Πλού
Χοσ
βίας
ἐβο
##σμένοι
διαρκ
προοί
πεπέ
##ηθεῖσα
##θις
ὑπερορ
##κόσια
Περσε
λεγομένου
##int
##θήσεσθαι
ποταμοὶ
##τροκ
ἐνέργειαι
ἀποκρί
ἐθνικὸν
##τροπὴν
κυβερν
sanc
ΙΙ
Μιν
ἦμαρ
ἴδῃ
##ίτην
##ουμένους
##τείαν
διοί
προδ
προτέρου
##ικον
##ροτον
συνόδου
προσκε
ἐμπι
ὑποτα
μέτρα
##ηγεν
##ωτὸς
##χετε
ἀπελα
##στάτην
ins
εἰργασ
ζωῇ
Κύκλω
105
ἀξίωμα
χαλκῷ
πηχῶν
ἀνδρείας
κράσεως
σύμμετρον
ἠρέμα
πεποίηκε
ἐδύνατο
ΔΒ
Σὺ
δραμ
ιγ΄
φρέ
ἑλέσθαι
ἕψ
##πησεν
##τάτων
##ώρη
##rum
##ᾶι
##λλαβ
ἀνωτέρω
προελθεῖν
##ολόγ
##ωτάτων
##ηθὲν
μιμή
ἄρκτον
πνευμάτων
ἐπεκ
##itus
βουλομένους
εἰδώ
θέα
διαφοράς
οἰκείοις
ἔπειτʼ
εἷλε
##υμένης
102
γιγνομένων
ἐπιμελείας
χυμοὺς
Δημοϲθέν
μαχαί
μάχην
ἀναθυμιά
οὐδεμιᾷ
ποιότητας
ἁμαρτημάτων
ἔφερον
ὀρνίθων
ὃτι
##les
##ριανοῦ
##τηδες
διακο
συντά
συνιστ
αἰώνιον
##σχα
##ργους
##δοτον
##λίαις
νοη
οἰκτρ
ἀπορίας
πονεῖν
τρίτης
πένθος
φαντασίας
παιδευ
πεζὸν
διελέγ
σκοπο
ἐξομολογ
παραδείγματα
Stoic
ΔΖ
Λαβ
Σίμων
βίαν
μ΄
ἅψασθαι
ἑάλω
##ότεροι
##ήσαντο
##αντας
##λαθ
ἀποκρι
##δοῖ
##δομα
ὑποτείν
βασιλί
##μάτιον
##στολον
τροφὰς
πυρι
παλαιᾶς
##ρισμοῦ
πλούτῳ
ὑψηλὸν
σφαίρᾳ
ἄνεμον
εἰ
πεπλαν
Ph
tu
πῃ
Ἐλι
##γῃ
ἐκκει
πρού
##κακ
παρηγ
##στιος
ἀνατρέ
στρε
##παϲ
κινοῦνται
σφεν
πρόκειται
##tio
ἀξιω
##βάλλουσιν
Συρακου
Μακεδονίαν
ἐβασί
τέτταρας
παραστῆσαι
ἀμφότεραι
temp
Denn
Φοῖ
γόν
##νησ
##όρα
##ονον
##εῖϲθαι
##ματί
##στώτων
##ριόν
##λαστον
##θημι
στύ
##λέσας
πολυγ
ἀγαθά
##τήσας
##δές
οὐρανόν
ὑγρο
φυγῇ
πορφυρ
ΑΒΓΔ
Τοῖς
θρά
ἄριστοι
##fec
ἐναν
θελή
καθορ
μετέχειν
##σκουσα
##δηλος
##δειξ
μεταπεμψ
φαλα
βουκό
σεαυτοῦ
εὑρέθη
δευτέρας
109
ἀμετα
##λεύσεται
##ορεύει
σπουδαῖον
φρόνησις
αἴτιοι
##ίστησι
παραυτίκα
μεγεθῶν
Cant
θρυ
ἱκ
##όδων
ἀνοί
προεῖπον
δεδη
λαῶν
δόμων
##ράκοντα
λοιπὰς
φίλε
φίλα
διαφοράν
##ύκλιον
στάσεως
δώσω
Ἀττικῆς
βλέπων
Τίς
Παῦλον
ἐμφαίνει
αὐτοκράτορος
ὑπομένειν
ἀλλοίωσιν
ὀνειδι
ἥρπα
νεῖκος
sie
Νίκ
ἑώρων
ἥπα
##θαλ
##ύοντες
##ώτεροι
ἐπελ
##κεσθαι
##σαιμι
μηθὲν
##υσὶ
οἰόμενος
κεκτ
ἀγαθῆς
γράψας
σαφην
ἁμαρτίαν
κρίσις
χρώματα
προσώπῳ
Τροίαν
λίμνης
εἱμαρμένην
συμπτώματα
βραχίονος
οὐκέτʼ
ΑΚ
Δία
φήσομεν
ὥρισται
##άσει
##κώς
##υτος
##βοι
πρᾳ
αὐτοκίν
παρων
παραχωρ
##πολί
ἀφειδ
##ίζουσα
σφά
##κνον
ἀντιλογ
Ἀντί
πρώτοις
##φυσιν
Ἀρειαν
δόξας
μαρτυ
ἀληθείᾳ
τοιαύτῃ
ἡμετέρας
στάσις
ἐθέλειν
συμφορὰς
ἔμφασιν
χαρακτῆρα
Διόνυσος
λοχαγ
ed
mag
sum
Γαλά
Σί
δαῖ
ϲώ
##πή
##υφα
προπερ
προλαβ
##αλγ
ἐγγεν
τοιου
##μάτου
τάφ
φύσεις
νόσος
μήτρας
τροφήν
χαλβ
133
ἀκούσας
##τῆρας
σπουδαῖος
##σθείσης
κέντρον
ἐπιφάνεια
πάντοτε
κυκλοφορ
Κέλσος
Ad
ζῆ
ἡλ
Ῥωμ
##σόν
##λυγ
##βιον
##ΛΙ
##υναν
ὑπέρ
##ρετα
μετεν
περιέχει
##λειφ
ἀφῖ
ὑποθέσεως
δοθεῖσα
ἀσώ
##άγεται
πεπτω
##ρούμενοι
ὕπνῳ
Ἀφροδί
##ηκολού
συζυγίας
ἀνταπο
παραγενόμενος
##καίδεκα
σιδήρου
διεφθά
Ἡλίου
##θί
##θοδος
##οιῶν
διοι
θεατ
καθει
τοιόνδε
στῆναι
##υσάντων
##γιγνώ
ὁμοίαν
ἀγαθοποι
##ῆνας
ἀρτι
σκαι
λαβόντα
τρόπων
φυσιολογ
Ἰουδαίους
θανατ
μεσο
ἐπισκέ
εἰσελθὼν
περίττωμα
συναγων
##δεσμος
πυγ
ἰδεῶν
##νοις
##άσαντο
##ήμων
##γειρ
##ΗΝ
##έντι
##ίνηται
ἐξί
τινί
##ήνου
νεφέ
ἐρᾶν
ἀκοῇ
ὑπάρχῃ
##κλησιν
μαντεύ
μεταβολὰς
βούλει
ἀρτηρίαν
##ώδεσι
ὀρχη
Πομπήιος
Πρωταγ
ὀπισθ
τω
ἐλογ
ἐληλυθ
ἔθηκε
##χῃ
##eis
##ήρια
ἐνίων
αὐτάς
ἐξου
ἀνασχ
περιπε
πόρον
ὑποδοχ
ὁμοία
##ευδ
ἄρτος
φρονῶν
κοιλί
##τυπον
ἀστραπ
ὀλίγων
μόλις
ἀποστόλων
αἰσθητά
Ἀχιλλεῖ
βεβαίως
Παυσαν
τράπεζαν
χαῖρε
τουτονὶ
συμπτωμάτων
κήρ
ἁψ
ὁρί
ὅμι
##άσεις
θεωρίαν
οἷσιν
ἀρξάμενος
Ἀθήνη
##λεύσεται
μεγάλους
##στικὰ
συμβεβηκότος
##ραπτο
πονηρὸς
λύει
##σάμην
βασιλικῆς
γινώσκει
σιωπῇ
ὁλοσχ
Θεμιστοκ
Ἥρα
##ῖε
##ias
ἐπιχώ
##σταθ
##υσάμενοι
##τοῦς
τέλη
ἀρέ
##άζετο
λεγομένη
##μινθ
##φυγον
##ίστους
χωρίῳ
σύνοδον
ἐπαινεῖ
ἐπιβουλὴν
ἀπολογίαν
πιθανῶς
μυρία
εὑρεθῇ
##πεπλεγ
Ἀλκμ
ταλάντων
Πελασγ
Jo
νῆϲ
ἔξει
##ληλύ
##κοον
##πεσον
ὄνου
δογμα
##γγυς
Οὐαλεν
κατηγορίας
Μετα
λύπη
καθαρὰ
Πολέ
ἀκροα
ξύλου
πεζοὺς
φίλος
σφυγμὸν
ἐναλλὰξ
δούλους
γλῶσσα
προαπο
ἡμέτερον
φοβου
Διογένης
op
Βηθ
στολὴν
ἀμηχαν
##κησε
##τυρος
διι
πατέρας
εἴποις
ἀνατομ
ἐμπέ
Ῥωμαϊκ
σύμφων
ἀξιο
θεωρίας
##ίστῳ
κομιζ
σηπ
μεῖζόν
μουσικὸν
χρωμένους
ἀρεταῖς
##lex
Θεοδωρ
παραδείγματος
ἀγγέλων
ὑπο
προαιρέσεως
ἀντιφάσεως
κλιν
ἀσα
Ἵνα
##βλέ
ἐκομ
προμη
προγεγραμ
##ομολογ
ποιούμενος
ἐμήν
##πλῆ
##χείᾳ
νότον
ἀναγκαίου
σώμασι
πεντά
νυκτερ
πηγὰς
θησαυ
κελεύει
μηδέποτε
ἄχρηστον
ἰοῦ
##ύοντας
##έην
##υκα
##υλλά
##φέρει
##ύρων
##ζουσα
πατά
ἀνασπ
##μοῖο
παραλε
μετ̓
##χεσθε
εἰσέ
υἱός
##θυμος
εἰδότες
σύνε
μαρτυρίαν
117
##μαντος
ὑπομνή
βάθους
ἔσομαι
ἁρμονίαν
διάνοια
ὀρεγ
ἀφροσύν
ἑτοίμως
gr
λημ
ἔθεντο
##οπα
##ίστην
προειρ
##λουμένων
ἀφῆκε
ἀρχάς
βασιλεία
οὐσίᾳ
##ῆϲθαι
βουλομένῳ
ζηλο
φιλία
##θεῖσαι
ἀνάγκῃ
##entes
##βλητον
##antur
##λέγει
δορυ
εὐρυχ
δαιμόνιον
μακαρι
κᾀνταῦθα
Δαρεῖος
γαίης
ἐπουραν
Κου
ἄσκ
##λὰ
##ΠΟ
πρίν
##δείας
##ικός
##λησις
συνεδ
##φεύ
ὑπάρχοντα
θανάτῳ
ἱκανὴν
##βάλλουσι
μεγαλό
φθορᾷ
ἀπηλλ
##ύτητος
βέλη
θησαυρ
θεοφι
ἐτύγχανεν
διαφέρουσι
διδάσκαλος
ὄνειδος
θόρυ
ὡσανεὶ
ΓΗ
σπό
ὡν
##ρᾶν
##ξέν
ἐπῶν
οὐρη
##άντι
##άνθη
παρί
διαγ
δεδήλω
ἐλή
δέξασθαι
πόλεωϲ
δίκη
φιλτά
ἡδονήν
μυστη
ἅπασα
ξηρᾶς
Ἰσραη
ἀριστερὰ
Πλάτωνα
##ωτάτη
φάσκων
ποιησάμενοι
τῶι
δρόμῳ
μᾶλλόν
Διονυσίου
θρι
ψύχ
ἕωθεν
Ἦν
##έου
##ήκαμεν
##όνους
προτιμ
##ρεσβε
##μένει
κατακρ
##ποί
##ύντες
μακ
βασιλεία
ἄρτιον
##χριε
ἰσχὺς
βουλομένων
πολεμίων
διάφορον
φανερὰ
ἀνδροφ
106
αὔταρ
διαιρεῖν
##οῖνιξ
χρήσασθαι
ἔρχονται
ὀφρ
ἐκτετα
ἑρμηνεύ
φρόνησις
ὀφείλει
Φαραὼ
σὸς
ἄγοντες
##ώτης
δισχ
μεμ
προσθε
##ρουμένων
##εύεται
##τήσατο
ἀπεψ
φερόμενον
πάσχει
Ἀπόλλωνα
ἐκέλευεν
ἀληθινὸν
περιπατεῖ
γινώσκειν
ὁππό
αἰδοῖον
κλήρου
ἀδύνατόν
bon
Ῥ
βέ
χέρ
ϲὺν
##ύματι
##παλ
##ύθη
##ah
##ζομεν
##ταξαν
##ρακι
ἀνηγ
ἀπέχει
παροῦσαν
##τέλειαν
κού
δεῖξιν
##κάς
##ίζουσι
κρίνειν
##κτρα
##τέρᾳ
ὑπερέχ
ὑπερφυ
κατεσκευ
##γνωσις
βεβι
νυκτός
πόνου
ἔμφυτον
Ἑλένης
πορεύεσθαι
Ver
mit
Κυπ
ἀταξ
ἁγια
ἤπειρον
##ώσης
##δεσιν
ἀποθάν
##ραντες
δέχεσθαι
τάδʼ
βασιλεύς
εὑρισκ
ἀνεψι
ἐδυν
γαμβ
τουτέων
νοσήματα
##τήριον
##υμένης
μενος
πηγῆς
Πυθαγορε
τραγῳ
ἁφὴν
ἀθρόον
εἰρήνην
ἑσπέρας
ὀδόντας
Λού
Μενε
Μουσῶν
Τύχ
Χαν
κλύ
κύνας
ὥσθ
##λοῦντες
##θριον
##ίγν
##δεσμον
##μεθʼ
παραδι
γελά
περιρ
μάστι
Θεοφ
##tius
##ουσʼ
ἀναγκαίας
ὀρθογώνιον
μερικὸν
##τοῦντι
προσήκειν
κρίσις
κἀκεῖνοι
ἰδέαι
Αὕτη
λέχ
σῦ
ἑωρ
##ύλον
##ώτας
##ῖνες
##ίτης
##ήκαμεν
τοϲ
ὑπαγ
μεμφ
ἐπικαλ
##λούντων
ἐστρα
δεηθ
μαται
##βαίνει
##ίζουσιν
ἰδέαν
ἔφησεν
##ότητες
##θνηκεν
Ἑλλήσ
τρίτος
ἐπιθυμία
ἐξαπ
πολυτε
ἐγκώ
μετεω
δεσμοῖς
δήποτε
τεκμη
##στῶτας
μισεῖν
ῥίζαν
ὑγείας
μνήμην
ἀμπελῶν
##ῃρῆσθαι
vi
Τρύ
##τερά
##μενεν
##δεστ
##λοιντο
θεμε
##υτόν
ὑποκείμενα
μέση
τάχει
εὔκρα
##ωρίᾳ
πρώτας
ὀργὴ
κόλ
σύμφ
λίθοις
θεραπείαν
λύσις
##σθέντος
ξύλου
πέμπτον
Κελτῶν
ὁπλίτας
ἀπολέσθαι
ἐφαρμό
ἀκρόπολιν
Λόγος
ἀκολούθως
κελ
##εῖλε
ἐπύ
##τουϲ
καταμην
##θρος
παραδό
περιεργ
ἐμὴ
##στοὶ
##άγῃ
σχοιν
##one
μήθ
μικρᾶς
εἰρηκέναι
μονάδος
Οὐχ
##ρακται
##βοηθ
##θεῖσιν
πειρω
κοινωνίας
θαρσ
μητρός
Πτολεμαῖον
Ἑβραίων
μηδέπω
ῥιπ
Σοφοκλῆς
στῆθος
κατεργα
ἀσυλλόγι
ΖΓ
Κυζ
Τῇ
κί
ἐδη
ἐθι
##όθι
##ηγε
##ήκασιν
##ΩΔ
ποτήριον
παρῃ
εὐσχ
αἰνί
##ησάμην
ὄνυχ
ἀφηγ
ψυχρο
σφί
##κτὰ
##λήσας
βασιλείᾳ
ἐπιστά
διεζευγ
##ξαιτο
μεγάλως
εἰρήσεται
##ura
ὅμοιοι
κοιμ
ξηρῶν
αὔξει
ὠνομα
##ίκνυται
Βαβυλ
πρεσβύτερον
γερουσ
Ἡρώδης
θαλασσ
Νῶε
μού
ἠθέ
ἰσθ
##ξῳ
##ίσαντες
##τομον
ἐπιλαβ
καθάρ
φύλλα
##στάμενον
εὑρήσεις
ἐπιθυμεῖν
κοιλίαν
ἀληθεύειν
γιγνώ
ἑπόμενα
cont
##ττομεν
ἐλέχθη
θεοσεβε
scri
διαφέροντα
Κάσ
Χαρί
ποίαν
##ρευσεν
αἰὲν
σφά
ἀναγραφ
##ροφὴ
ἀνεκ
δεικτικ
αἰσχρὰ
φιλοσοφία
παχὺ
πράγματι
##έτωσαν
Αἰγυπτίων
Σεβα
βλάβην
προφητείας
αἰσχύνην
ἕτοιμον
ἄφνω
χθόνα
ἐδήλωσε
Πάλιν
Ἡράκ
στρου
ἀγε
##ύη
##ht
##στῆς
εἶδες
ἐπιδέ
ὑποθ
##ίζον
ὁμοίων
σκαν
δῆλα
μάλι
##φορᾷ
μυστήριον
##γνωμον
χαλεπα
ξένε
φίλους
προστιθέναι
ἀνθρωπο
ἀγένητον
pa
Δέ
γόνα
ἀλω
ἤρε
ὀβο
##σίαις
##άσθαι
##ζούσης
##στ΄
##όνῳ
τιθέ
παρηγορ
εὐκατα
ποιοῦντας
καταφερ
ἀγώνων
##ητόν
##άγουσι
οἰκοῦντες
γένε
εἰρηκέναι
##χισε
νέοι
πένη
ἔθνει
δακτυ
βάρβαρον
ἔρωτι
ἑκατέρῳ
εὐνοῦ
Πέλο
τέλειος
ἐπιχειρη
dec
ΓΘ
Τερ
θλιβ
ἰὼ
##χανα
##πέν
##ώσῃ
##ΑΡ
πεφύ
λείαν
##τίον
ἀπεκ
κύκλοι
ἀποστῆναι
ἐλθόντα
##στειλαν
εὕροις
ἐπιφανείας
ὀλιγωρ
##ρούμενος
αἰδῶ
παθὼν
νοητὰ
Κωνσταντῖνος
βλαστ
Πελοποννήσου
ἀσφαλείας
Δήμη
ἥδιστον
ἀλλοίωσις
ἐπιμελεῖσθαι
συνέβαινε
σφαίρας
ΕΚ
εὐ
ᾅδου
##άδων
##δροϲ
##θνη
##γξ
##ινο
διεί
ὑπαντ
κατέχ
##μένι
##λοντα
##ίωνι
##άζον
##πέδε
ἐπίστασθαι
ἐγγιν
Ταῦ
φαινομένων
προσέταξε
Ἀντίγονος
ἀποφάσεις
τέτταρα
τοσαύτην
VIII
ΖΒ
οῦ
ὁποι
ῥεύ
∠Ζ
##άσαντες
##έοντα
##μενοί
##αρσ
τοιγ
ἐφρόν
ἀγαθὴ
εἰσέ
ἄνθρωπε
##πίπτειν
##λέους
ἑαυτούς
##λαστος
##καλυμ
κωμικ
##υμένα
λαμβάνοντες
Γαλατ
Ἀλεξάνδρειαν
τύπον
τἀνδρ
ἆθλον
Er
Euc
Βερ
κʼ
ὁ
ὅσπερ
##εως
##άκων
##ζῃ
τομ
ἐπιθ
ἄνθη
μέθοδον
##erunt
##θυμον
##ita
σοφοῦ
##φρονες
ἀστέρες
πάσχα
πάσχον
πνεύμονος
ἀφικόμενος
θυσίας
Κυρίλλου
βαλὼν
##οκλέους
δείκνυσιν
πέριξ
κρόκου
παραλληλόγραμ
ag
Ἀ
Καν
Κιν
πελά
ἀρα
ὀμό
Ῥο
##χην
προρ
##λασε
συνεί
λεληθ
συστή
ἀντιτε
φυσικοῦ
##τροπον
##λόγῳ
ἀπέκτειν
δώσει
γενέσει
νύκτας
αὐχένα
ἀλήθεια
ἀτελῆ
##κισχιλίων
Δευ
Θαλ
##ρεις
##ίσης
ἐπαρχ
οὔσῃ
πότερα
##πλεῖν
##μητον
οἰκή
εὐθυμ
##βουλον
ἀνεχ
κρατερ
quid
ἀπόλλ
ἐπέκεινα
118
Ἀντιπά
παρασκευὴν
τροπὴν
##παιον
οἰκουμένης
παρεισ
ἑταίρους
μάχης
Τούτων
χρησιμ
σφοδρο
κατόπιν
Θά
Μέγ
θρέ
ἐὸν
ἰὸν
##ατι
##ύουσα
##σπον
##κόν
διατά
ἔχθρας
ἐγερ
κεραμ
ἐφή
οἶδας
##ρωσεν
ἀδελφιδ
ὀξύ
##ιδὼν
ἐπιμελη
ξυμμά
ἐκάλει
##πτισμα
Πλατων
Ἀσκληπιά
πραττ
Ἀγαμέμνονα
βοηθη
πρῴην
Βαλ
ἀεικ
ἅλις
ὁσι
ῥημάτων
##σσαι
##πτης
##ῷτο
##τιδι
ἐπάνω
ἐκφύ
παρόντας
##λοσ
ἐγκέ
μάλιϲ
νεὼν
##φθέγ
μήθʼ
##κτῃ
φανεῖται
δικαίου
θέσεως
ἐπισημ
Ἰωάννου
ἀμφισβητ
συγχωρη
ζυγὸν
τυραννίδα
κέρατα
Ἄγγε
ἔθει
ὦμον
᾿Ε
##ότου
##στίαν
##λεων
προκρ
##ρεον
##ομένοιο
δέομαι
##τίθε
##γενῆ
##ραφε
ταὐτοῦ
σημαίνειν
##κότας
νομίζουσι
##τεινε
ἐννοίας
κράτος
##ερευν
χθονὸς
συντελεῖ
##φηνεν
Καρχηδόνιοι
ἀλόγων
ἁλῶναι
φλέγμα
γεγένηται
Μαντιν
ὁλοσχερ
Th
no
Θή
κῶν
Ἕρ
᾿Ι
##men
##σαχῶς
ὁρῶσι
##ώνυμον
##οβαρ
συναληθε
ὀδύνης
ἀσθενεῖς
διαιρεῖσθαι
##άσματα
ὑπομνή
δημιουργοῦ
μέγιστα
συντεταγ
εἱρ
ἰατροῦ
ἀποβλέ
ἑωυτοῦ
μιμεῖσθαι
κρατῆσαι
ἐσπούδα
ψύ
Ἄλε
ἐτί
ὀστοῦ
##άσῃ
##έοντα
##rae
##όνευ
προτέρων
##ρονος
διαστα
ἀποκαλ
καλῶ
μέρεσιν
σφιν
##ξετε
αὖτις
εὑρέ
φιλίας
ἀκούοντες
εὑρήσεις
θεωρῶν
θεραπεύειν
πιστευ
ὑποκειμένων
ἐξαπέ
πράγμασιν
ἐποίησαν
λάβοι
αἰδοῦς
##βάλλοντες
Λόγου
ἀπέθανεν
Cho
σοῖς
ἥκω
##ύσῃ
##ηρα
##υψ
##θρο
##ῴκι
##λετε
προβαλλ
ἀναλαβεῖν
##ησίς
##γεγρά
##ποντον
περια
λόγοϲ
##άζοντας
ὑπερβαλλ
υἱόν
##στικόν
##μερος
##βησαν
ἀξίως
##ήσουσι
σύνθεσιν
πρεσβύτερος
ὥραις
φθαρτὸν
ἐδίδου
χάριτι
συγκλή
διαφόρους
Φανερὸν
Τά
ἕκτον
ὁμή
##ωδέ
##φοϲ
##ξάμενοι
ποιν
##τηρίων
βαδι
##ero
##τειῶν
##καλεῖτο
ἔπεισε
βραχυτ
πιστεῦσαι
ἰχθύ
προστάγ
πραγματείας
πηγὴν
προβάτων
ποίμν
Ἰωάννην
κάρτα
ζώων
ὁπλιτῶν
Ζυγ
λού
ἐγεί
ἔθους
ἰέναι
ὑφορ
##παις
##έουσιν
##ίλα
##ίσεως
ἐπορεύ
παλ
διαμε
ἔχωσι
τινές
δέονται
##ίκʼ
ὁρῶσιν
ἐρεῖν
συζ
ἀπεχθ
φίλῳ
ταὐτο
δίκῃ
γράψαι
ἐλάττονος
##φύλα
ποιήσαντες
λειμῶν
δρυμ
ληψ
τροπῇ
Ποσειδ
νήσων
Ἱεροσόλυμα
ζῳο
ὑγείαν
κεφαλαλγ
Μήδων
ἑσπέραν
ὀκτω
Κυρίῳ
θέρους
σῇ
σαλ
ἀθέ
##πὸν
##ύσατο
##͂ν
##λλῳ
##στῆναι
##ένης
καθό
καθότι
οὕνε
##θητε
##σκοι
τόποι
##μπειν
πρῶται
Παλλ
##πληγ
χειρουργ
Μαξι
σημαινόμενα
δεδιὼς
##δροχό
Κριοῦ
Μωϋσῆς
δανει
wie
Μερ
Μιλ
μαι
πῦον
##λῷ
##ϲοφ
##δίᾳ
##ταγμα
##ωνα
##υτῆς
αἰκ
##δοί
πάτριον
ἐκεῖναι
οἰκίᾳ
ἀντικα
βασιλεύ
ἐπιστραφ
##τεῖτο
πράττων
ἐγγρά
πολέμοις
πεπόν
##els
τουτέϲτι
ἀγαπᾶν
δίκαια
δεδοικ
##σημον
ἀπηλλαγ
Ἰωάννην
ἑλὼν
ὠφελείας
ῥινῶν
Παρμενί
ἐπιεικε
Οἴ
οὐ
ᾔει
##φετο
##όρει
ποιότητα
περιελ
πάμπαν
##ττόν
συγκρο
##άγουσιν
γίνηται
ὀρέ
##δωκα
πρόσκειται
τέμν
πέπον
##όρως
γνώμη
Σαταν
λίθων
ἠξίω
εὐεργεσίας
ἐλπίδα
Ὀδυσσεύς
βέβαιον
γέλωτα
Νείλου
Vol
ap
am
all
Σει
ἔθα
ἱστα
ἴθι
ὀπο
Ὄλυμ
##προν
##ce
καλοῖς
διηρ
ἀπῄ
ὑπ̓
θείαν
καταπον
τινὲϲ
περιει
συμπά
##σσουσι
μεγάρ
##ηθήσεται
##κόϲ
##ino
βιαί
##cip
Πτολεμαίου
ἄκρατον
τηλικοῦτον
συμπεράσματος
ἠκολού
ἐβούλετο
Γαβ
ἀτον
ὅρῳ
##χοδον
##ιχ
##τυγ
ἀπρεπ
τιθέ
ἐξηρ
συντό
θείαν
##μερα
δεῦρ
##ττόν
ἐρέ
##έχονται
##τέραις
ἀνδρεῖος
Ἀθηνῶν
ἄγεται
μονα
τρίψας
συμβέβηκε
Ἀντιοχ
φεύγει
ὑπαρχούσης
πηγὴ
τερπν
τερμινθ
ἐλάττονι
περιπατεῖν
εὐδαίμονα
##ζευγν
προηγουμένως
Κρατ
Choer
Aug
ΒΘ
Κολ
Φρύ
ψοφ
ἔοικ
##ίσκον
ἐπλη
ἐκπλα
παρέχεται
##υτὴς
ὑπολαβὼν
##ομέναις
μεταχει
λεγομένην
##λθωμεν
##θανον
ἐλεγχ
##χειρον
λαμπρό
##υμένον
χορὸς
συγγενῆ
πνεύματα
πραγματείᾳ
Κωνστ
ἔσχατος
ὀνομάζουσι
δεσπότου
ἀποδεδ
ἤθελε
διαίρεσιν
τετάρτῳ
Δελφοῖς
Καίσαρος
κεφάλαιον
Φίλιπ
Χοσρό
Eucl
Κροῖ
ἐμοί
ἥμαρ
##ύετο
##ππ
##άσι
##έλλει
##υλακ
##ύμοις
εἰρων
προθέ
αὐτοὺϲ
##κοί
εἴθε
εὐβου
ἀναλύ
μετρη
περιττω
##ητὰς
διαφυγ
κύριοι
οἴομαι
##ato
φρονί
##φρονας
μάχαις
μαθητὴς
114
πεποίη
##ente
ὑποστρέ
ποδὶ
φλεβὸς
κινδυνεύειν
τυράννων
ῥίζης
ὠφέλειαν
φιλοσόφων
ἀρτίως
Ἡσίοδος
Τυν
ἠμ
##λυπ
μεμε
##λασεν
συνελθεῖν
παρατηρ
πρῶτόν
ἐχώ
ἐναντίαν
φθόνον
ὑπάρχουσα
##itum
ναῷ
##ενεχθῆναι
νικήσας
γωνίας
that
χαρίζεσθαι
ὑπακού
τραχή
πτώ
βελτίω
ἀνεῖλε
διαφόρων
ἕτοιμος
Ὅμηροϲ
θρόνον
ὠφέλι
ἐπισκεψ
τεθνεῶ
ἔπαινος
ἀσθένειαν
mens
ΕΑ
##σδʼ
##μῶ
##γουσιν
##yp
##εῖχον
προανα
διαλεί
ἀναστή
μηδα
οἷϲ
μεταβαλ
##γιος
##υρίους
βουλόμενοι
κύστιν
θέας
πειρασ
##ροιο
ἀγνοοῦντες
##νιγ
κἀντεῦθεν
μύρ
διαιτη
εἵπετο
γεγραμμένα
καταστῆσαι
αἰσθητηρ
##στρεψε
διαφοραῖς
ὄφις
ῥοπὴν
πάντοθεν
ἅπαντ
Τυφ
Ἀλφ
Ἀρείου
Ἐφρα
Ἰδου
ἐπλή
ἐπιτά
εὐτε
##λοιπον
111
πόνῳ
ἰατροὶ
ἀριστερὸν
λογισμοῖς
τυραννί
Ἀπόλλωνι
##λέγειν
ὀνομάζουσιν
Ἀντίοχος
παραδεδ
πάρεστι
ὡσπερεὶ
παραληγόμενα
κή
ἀλι
ἐτέ
ἡλίῳ
ἐκτα
##υμερ
τιμη
βαθεῖ
ἐμι
##μπτον
πιέ
##γεια
κἀγαθ
ἄρχουσιν
ἀξιώ
##chen
πορεύ
χυμὸς
μοίρᾳ
κατοικοῦντες
Ἐπιστο
γραμματε
προθυμίαν
τεσσαράκοντα
Κῦρον
Λοκρ
πρωτότο
ΘΗ
Μακ
θεῖ
ταιν
Ἡγ
Ὀρχ
##στίας
ἀπέχεσθαι
συντρ
περιέχει
οἰδ
καλὴ
ἀγαπη
##ίζον
##υπηγ
πιστοῦ
##ang
διάφορα
##φρονι
##λήψεως
σύμπτωμα
ἕνωσιν
ἄτομον
ἐθέλει
τύχη
φαρμάκῳ
ἑξηκο
τεσσαρα
κτίσεως
Νομ
Πελ
δερ
ἁλώ
ἰξ
##οτέραν
##δουσιν
##fer
##ανῷ
##ινε
ὑπά
καταργ
παραλλά
##χεα
τάξις
##πωρον
ἑκάστῃ
ὀνομάζει
##τεύων
θεωρία
κατασκευάζει
τυράν
##λαμβάνεσθαι
μαθόντες
ἐννοίας
Πάτροκ
ἕλκη
βασιλεῦσιν
συνεισ
πλείστην
σύμπαντα
ἀφίκοντο
ἐτύγχαν
βίος
##ήκασι
ἐπάν
μεί
εἴκα
ποιήσεις
αἰώνιον
##δις
##σκέ
##υσὶν
οἰχ
δέονται
οἰκία
ἐναντίου
ἐπεθύ
qua
δίφθ
κἀκεῖνον
Βαϊ
ἁρμονίας
##entia
ἐπιτήδει
κῶλα
γαῖα
ἁλισκ
παραπλήσιον
ἀμήχανον
ὑπερηφαν
αὔταρκες
Mar
κῶνος
τρη
φῶ
ἐτη
ἰϲ
##ύλων
##ουμένης
προτέρα
##δεα
διαλυθ
ἔχωσιν
συνθε
ἀναγεγραμ
μετή
λέγουσαν
ἀρρεν
νόσῳ
##λοισιν
Εὐσεβ
κύριε
ἑτέρᾳ
θηρε
##φερεν
##δές
ἀστέρας
115
πλήρη
ἐβό
τέκνοις
ἀφαιρεῖται
ὥρμησαν
τεθνάναι
Καισα
ἐπῄνε
ἐκποδὼν
eum
ἀλη
Ἀτρ
ἠδίκ
ὁδοῖς
ὕμνον
##ημένοι
##ζης
πρόνοιαν
##λαστ
ἐπιλέ
##έρχονται
ἀπολιπ
ἀποτρέ
ἀναλί
##ράτης
##πτεν
ἀκό
εἰπόντα
##αινόμενον
ἄγουσι
##ορευ
##βάσεως
μαθημάτων
ἐξαπο
λίθους
νηῶν
##καρτερ
κράτιστον
χολὴ
ἐπιστολὰς
Μιλη
ἀρεταὶ
δευτέρᾳ
κωλύειν
πεφυκὸς
##σάμενοι
ὑβρίζ
Ἀριστοτέλους
ἐπιεικῶς
ἐπισκόπων
##ώδεα
κάλλιον
εἴδεσιν
γεγόνασι
ἀτεχνῶς
Ναβουχοδον
Fr
Hom
Βό
θι
κυμ
ϲυ
ἥκων
##πλεύ
αὐτε
προγνω
ἀποδρ
δεόμενος
##σμων
##μβος
ἐρώ
##ond
##οίη
λευκὰ
τετραμ
ποιεῖτε
##che
126
κελεύων
Θηβαίοις
κρείττονα
ἐτελεύτησεν
ἔδαφος
θαυμασι
Τρύφων
cr
γλί
ἄδικα
ἕστηκεν
ἕδρας
ὁλό
##ύνεσθαι
##πάρχ
ἀλλοί
ἐξευ
συνθή
δεήσει
##ομένηϲ
##θασι
πολυκ
πάχος
##τέρως
Θεός
ὁρμώ
##ττόμενος
##λυτον
κἀμὲ
τιμὴ
Ἑλλάδι
##κωνος
ὑγιῶς
ἀσθενὴς
φεύγοντες
τελειω
πραγματείαν
κείσθω
διαφέρουσιν
προτάσεις
εὐαγγέ
Ὀλύμ
Μανα
Στε
Τοια
φέγ
ἄῤῥ
Ἀμβ
ὤμων
##πτέ
##εῖραι
ἐνή
τελικ
παρέχει
ἀναγν
καταδ
##διώ
μέροϲ
##πτώ
φασίν
πλείων
##λωμεν
φανῇ
##ημιῶν
##αχαρ
αἰσθητόν
##τολῇ
ἰδιωτῶν
φυλακῇ
μορφῆς
ἀποδεδειγ
οἰκουμένην
φάρμακα
ὄρνε
εἴδεσι
στενοχωρ
ἑκού
##κτοι
##ῂς
ἀνατολὴν
καθάρ
καταλεί
πλήρ
πάντο
ἐρώ
ὑπερέχει
πέρα
##γωνι
οὐρανόν
εἰκόνας
##υμένοις
##ίστοις
ἐπισκο
γεγενν
ἰσχυρὰ
Ἀλλʼ
ἀναισχυν
##θάδε
προείρηται
##obis
Σωκράτην
παραλληλόγραμμον
##πέρ
##κτης
##γγι
##λεῦ
##άνθης
ἐπιτί
ἐπιλέγ
##λιξ
συντό
##έγνω
λόφον
##μάχῳ
οἰκία
##κληρον
ὑγρόν
Οὐραν
δίδωσι
ἀδικημάτων
τελευτῶν
λέγοντι
σκοπῶν
μῆτερ
θαυμά
Ἐντεῦθεν
φαινόμενα
νεκροῦ
ἐξουσίας
Κυρην
ἐπέκεινα
ἰατρικὴν
αἱρετὸν
ὑπάρξει
πυρετοὶ
ἔμβρυον
ἑτοίμως
vol
Τέ
φρικ
ἡδί
##σίοις
##έουσι
##έστερος
##ημένα
##φρόν
##εῖχε
##ληπτ
##κούντων
οἷά
##ωτάτου
φαίη
κατεργ
ἄρχουσι
ζητούμενον
##πηχυ
συνεχώ
κατέστη
λογικὴν
##λούμενον
λαμβάνεται
ἰχθῦς
διαιρου
παντοδα
ἔσπευ
ἀσεβεῖς
αἰσθητικὸν
##γόνους
διαφοραί
βουλεύεσθαι
παρακαλῶν
δουλεύειν
##03E
Ἀγησίλαος
wer
φρα
φήσας
##τυρ
##ῖνε
##ζομένοις
##τείας
οὐγγ
##σιε
ἀνερ
ἀπαί
ταγ
##καϲ
##ικῶϲ
διαγν
λέγοντι
πελι
##λλοντα
Θεόν
##άζον
ἄρξασθαι
εὐθύς
ὑπάρχουσαν
##ότητες
Εὐαγ
ἑκατέρας
θεωρῆσαι
Αἴαντος
ῥᾳστ
λίθου
Ἑρμο
ἀφικέσθαι
χρώμενον
Ἀχαιοῖς
σιτία
ῥᾷστα
ἐπιτήδειον
Καρχηδονίους
φρόνησιν
##μούμενος
φαρμακε
Πόντου
σιδήρῳ
ἄνθρωπός
Olym
Νέρων
Φαι
ἀλόγ
ὅϲα
##σοισι
##έριον
##όφ
##ήθην
##βαις
##ΤΟ
##ησόμενον
##γεγεν
##δοξα
λεχ
φιλέ
τέλουϲ
##πανταχ
##αιρέ
ἐναντίως
σοφιστα
##λευον
δικαίων
Οὐδὲ
ἀστρονομ
Ἀρχιγ
γενέϲθαι
ζῶα
verb
κρύφα
ἐγκρατὴς
τείχει
ἰσημερινοῦ
προστίθησι
omnia
Δαμασκ
Rom
ζῶσιν
φῄ
ἐῤῥ
ἠθῶν
##σμένων
##τυν
##όδοις
##ϲίαν
##βῃ
##dic
τομῆς
ἀνισ
##ίνος
τοιῷδε
##λέσαι
##βετε
##τίθενται
##οίαις
##άγγε
##ρέων
σύμφ
λιπ
##υφν
##βάλλων
##ηϲιν
γεγραφ
συναγαγεῖν
134
Ἱπποκρά
προκειμένων
κινουμένῳ
Αἰγυπτίους
ἡμιό
οὐδέτερον
μίξεως
ἔπαθεν
ῥητορικῆς
ἄψυχον
Ἰδουμα
γλω
ἔμεινεν
ἠδʼ
##ρρό
##άμου
##πηται
##τυμ
##τοῖ
ἐπό
ἐνίοις
ἐντολὴν
προτέρου
##μένηϲ
διακριν
##θεὶϲ
συμπαρα
##παυσιν
ἀγορα
τίθεται
##σσουσιν
##μοισιν
σκω
##άσμα
δυσωπ
μυὸς
Αἰγιν
νέας
113
πράξεων
μείζονι
##στρατον
θυγατέρα
γυμνά
ἔδοσαν
μνῆμα
ἔπεμψαν
ἀποδείξεως
φάλαγγα
ὑγίειαν
δεισιδαιμον
MN
Βροῦ
Δικ
σή
ῥό
##ππε
##έστερα
##ωμένον
τοῖον
##τείᾳ
χρῆ
συμμέ
##ῖνοϲ
κεκλ
##στοχ
##λογοι
##άζοντος
παρεκε
##καιρον
ἐγγραφ
ἐπανελθεῖν
ἁγίοις
πλήθη
ἐπαινῶν
ἡλικίᾳ
ῥητόρων
πόνους
ἀθρόως
πρόσωπα
δέσποτα
πεποίηκεν
ἄργυρον
Ζαχαρ
Κολο
Φορ
ἠκ
Ἰό
##ασθαι
##λεῖς
##θαις
##ῦσις
##̀ν
ἐπίν
ἐπέχ
τιμαῖς
παρόντων
##σίην
ἀρκε
κύλιν
ὅλας
φρονήσεως
δόγμα
δόξειεν
εὐδαιμονίαν
Ἐπίκου
Σικελίᾳ
##ληπτέον
δύνει
ὁμωνύμως
##ationem
πεδία
ΚΘ
ἔρι
ἔδοξ
##μνε
##ύνεσθαι
##βδην
##ΥΣ
##τεως
αὐλῆς
##μασεν
προτέρας
καθηγ
ποιόν
παραπε
##οῖεν
σύστασιν
ἀρετή
ἔκλει
δίφ
ταῦρον
##ότατοι
124
Μαγν
ἀποφατικὴ
ὑγρᾶς
χορὸν
γυμνὸν
κειμένων
μουσικὴν
γεγραμμένα
πυρετὸν
ὁμαλῶς
ὑπερβολὴ
βλεπ
##στραμμένον
ἐπιφάνεια
ἀποκτεν
ἤμην
ὁρά
##ύλῳ
##άδι
##δία
##βαι
ταυ
##σεώς
εὐλαβε
##ούσιον
προσέτι
ὑποδεί
μετασχεῖν
μέσην
ὁμοίου
##ώνυμα
##inem
λέοντος
βεβουλε
##ρισμὸς
παιδία
110
ἐθέλοι
εὐθείαϲ
##ρούμενα
φαῦλος
περιέχον
εἰώθει
φαυλό
ἐδωδ
ἐγκωμι
φῄς
ἆρά
##νησιν
##άσιν
##υα
##ώδει
##cl
##ίοισι
ἐκρά
προελ
κατάρ
εἴην
εὐημερ
##γοντι
παραδέ
πόσιν
ἐλπι
Καί
ἔνθʼ
κακία
φύλακας
οἴχεται
αἰσθήσεων
τιμᾶσθαι
εἰρήνη
ὀξεῖα
θυμι
μείζονι
καθαρὰν
ἐλάλησεν
πορευθ
##θήσονται
##ικαῖς
βλάβην
ἐναργὲς
προνοίας
πείρας
##ηνεγ
κορυφῆς
μετοικ
Λόγον
βελτίους
συγκεῖσθαι
σίδηρον
Dio
ιζ
χιλίων
ἁλουργ
ᾤμην
##εο
##ή
##ῴκει
ἀποπν
καταλέγ
##ράμ
##ύναντο
ἰδίους
πέτραν
λεγομένοις
οὐρανίων
##orr
κατηγορίαν
λίθῳ
συμβήσεται
ὀδύνην
ἐργάζεσθαι
πλείονι
##πεπτα
βραδύτερον
μάντις
δακτύλων
Θεόφραστος
συγκεχ
χρόαν
περιτομῆς
ἀῤῥωστ
Μαραθῶν
La
χιλ
ἥψατο
Ἰλίου
ὅττι
##ύμου
##οπτ
##σὸν
##ῆες
πασχ
ἐκτός
##λαμπ
##ίνοντο
δεόμενον
##σκῃ
εἰσά
οἰκέ
βοὸς
##θέσει
##ρικὴ
χωρῶν
οἵας
εὖρος
βούληται
λέξεις
δυναμένοις
ἐπιθυμιῶν
116
νικᾷ
ἐλπίδι
ἀντιστρέ
κερδα
ἄστρον
ζήτησιν
Βυζάντιον
ἀποφάσεως
χαίρειν
ἀμαυρ
ἰσχύος
Christ
Ἀννίβας
ἐπαγωγῆς
Und
Συρί
δῶμα
ἠδύ
##ύσης
##σάντων
##όρον
##γως
καμ
ἀνήρ
ἐκοι
ἐκόμι
##τησα
ἀποφύ
ἀναπο
γελα
##άρης
δέδοι
ἀκμῆς
##τέρως
ἐναντίαν
εἰκῇ
μανίας
ἀμείνων
127
σηπε
σκληρὰ
##πτωκεν
ἐρωτᾶν
λογισμῶν
##φόρον
παρουσίαν
ἀτιμά
ζηλοτυπ
haec
it
ma
sa
ΛΜ
θέσθαι
ιν
λάρ
φῂς
χοι
ψή
ὀλισθ
ὁδηγ
##άπε
##έστατα
##ίστῳ
##ρασθαι
παρω
ἐξῃρη
ἐστρατο
ἀναλυ
παραδοὺς
πλάνης
##ωρος
ἐμνή
##μιλλ
πάρα
φαϲ
Καμβ
ἀντιπαρα
##κόσι
κατεπ
ἀριθμός
ἴσοι
μικρὸς
τρίγωνα
οἵπερ
##πληξιν
βιαι
χαλκὸν
ξύμπαν
βελῶν
γενναίως
ἐπαγγελίας
##βάλλοντα
ἐστερη
##λειπται
εὐφραν
ἄκουσον
κεῖνται
χθὲς
θαυμάζω
τμήματος
ἐπεζεύχθωσαν
αἰσχρῶς
intell
Ab
Or
tam
x0
Πρία
πὰρ
φόρ
ἄτερ
ἔῃ
ὄγδο
##ολον
##ηθείη
##ήτοις
##δᾳ
##δερ
##φησαν
##όρευ
##δετο
##λοχος
##λούς
##τίθει
ἀδό
ἐρῶν
ἀρκέ
##isti
δίδωσιν
πεντή
λέοντα
##βάλετο
καθαρὸς
σκεπ
ὑπερα
ὀδόντων
κεκομ
οἰκοδό
##ττουσα
μικροῖς
σκιὰν
φαρμάκοις
χρηστὸς
αὐχέν
γεωμέ
φοβερὸν
σελήνη
διαίτης
τολμῶν
Ἀπόστολος
ὁποῖόν
ἐξαίφνης
ἐξευρεῖν
πατριάρχ
ἐνταυθ
ἔφευγον
ΒΚ
κβ
κηκ
πηρ
ἁπανταχ
##ύτερον
##ωνος
ἀνωτάτω
ἐπιμι
ἀναγνώ
ἐμφύ
μεταλαμβάν
ἐχουσῶν
##κόσμ
##άσσει
##τειον
αἰσχρόν
125
Μασσα
γνώριμον
ἰδιώ
τρέφει
διδασκαλίαν
ἀνθρωπίνων
Νικό
ὄχλου
ἡγεμόνες
##πεμψαν
ἀποστερ
στερήσεως
ἐνυπάρχ
φθείρεσθαι
Ἐμπεδοκ
anno
Ἑρμῆν
Μιχαὴλ
Olympi
Nic
poss
κλοπ
μίσ
ἀσελ
Ῥομ
##φεν
##φὴν
##φιον
ἐπον
ἐπίν
ἀντεῖ
παρούσης
διαπερ
διασαφ
συναι
##έρω
τούσδε
προσέχειν
ἐμῷ
ἐφύ
ἀκον
##ίωνος
νεμ
μόνους
σχιστ
σημεῖ
##άσματος
αὑτῇ
##λούμενοι
μεταξύ
σμύ
αὐξήσεως
στερεὰ
##λάβῃ
δοκιμ
Νέστωρ
σύμμετρον
Δελφοὺς
πλευραὶ
Σατ
χριστιαν
ἠδύ
ἦρος
##λὼν
##έριος
##ψῃς
ἐνδοξ
παλλακ
##ίναντες
ἀποτυχ
ἀναλύ
ἐλαι
##πειθ
πρόσθε
ἐπιστῆμαι
ὀξυτ
πεισθεὶς
φάσκοντες
διαβόλου
παρθένου
φυλάττειν
πειθαρχ
αἰσθάνεται
λανθάνειν
ἱκέτευ
ἁμαρτημάτων
εὐδοκιμ
ἀριστερᾷ
Ἐρυθρ
ea
ἕδρ
ἥξειν
##νια
##είων
##ίτων
##ήκει
##εῖσθαί
##στὴ
##λαυσιν
τιτ
εὐων
ἀναφορὰν
##θροις
παρακο
##ελό
βασιλί
τίθεσθαι
κακό
νόον
Ἀριστα
##ίσου
ὀνομάζειν
συμβαλλ
θέλει
##θαρσιν
βελτίων
δάκρ
ἀκαθαρ
ἀναισθ
ἐχθροὶ
ἤρξαντο
συνάγει
Βοιωτῶν
ὥρμησεν
μεγαλοψυχ
τράχηλον
Ἀθήνησιν
Na
Δεσ
Νά
Στί
Φαβ
γόν
λήγ
πτέρ
Ἄρεος
Ἥραν
##ύρῳ
##μωϲ
##λίαϲ
##ὼρ
##ταξις
##στήν
προαιρε
κατήγ
ἐπιβα
ὄνομά
##δοτο
ἀφῃ
##τοῦμεν
ἀγρὸν
πρότερα
ἰδέ
ἀντιπά
θερμόν
γένοιτʼ
ἀμμωνι
τάξις
##δόνα
μάχας
αἵτινες
δεξιᾶς
120
ποιήσεις
τυγχάνουσιν
ἐναργῆ
##ίνασθαι
συμμαχίας
ὀσμὴν
τεττάρων
κεκρατη
αἰσθάνεσθαι
δεδομένον
κεκτῆσθαι
διν
χρί
χριστοῦ
ἴδιος
Ὁρ
##οσμ
##ϲτερον
##γω
##ῆρεν
προνομ
ἐνίους
ἐπιτρο
##τητι
##σχεσιν
ἐγκλη
συμφύ
ἔφυγεν
##ραφον
ἅπαντος
##λαντος
τοσοῦτο
ἐλεφ
##λήμ
παρέσχεν
μεταβολῇ
φάος
σύνθετα
ἀποθανόντος
ἐρωτᾷ
διαπρα
day
neque
ἀνώμα
ἠδύνατο
Πλει
κᾆ
κνή
ἀλά
Ἀζ
Ἐτε
Ἐρασ
ἡρω
ὁμόν
##ώρῳ
##ωμένη
##θάρ
ἐνίοις
ἀπεσ
ἐκώλυ
##ομαν
##τηρί
ἐξῆλθον
περιορ
μέρεσι
ὁμοίας
##λωνος
##ήνη
εἰκῆ
##τεῖα
Σαμαρ
παιδός
141
##σσοντες
γεγραμμένων
τροπῆς
πληγῇ
συγχωρεῖν
##κρίθη
παραδείγματα
βουλευτ
Κρῆ
ἐνεγκεῖν
ἐπυνθάν
St
auf
ξυλ
Ἰφικ
##έθη
##ὰδ
##καλέ
##ίνοντας
καταμήν
τούτοιϲ
ὁμοίαν
δοκοῦντες
ἐναντί
λεγομένου
εὔχεσθαι
ἀκριβέστερον
μαρτύρων
ἀξίους
εὐχὰς
λυπεῖσθαι
##igen
σπέρματα
πελάγους
ἀμφιβολ
μηδέπω
##λῆφθαι
ἔδωκαν
daß
Πομπηίου
Ὁμοίως
Σπαρτιά
μανθάνειν
Exod
cp
Τοι
Τότε
θω
ἁμάρ
ἅλωσιν
ἑώρα
ἥπερ
ἧτταν
##ροῦν
##ίππου
τομὴν
προκε
##καμ
συνᾴ
##κούς
ἀρχόντων
μαστιγ
μέλη
##φθειρεν
νοεῖσθαι
ἄρθρου
##άζοντος
quem
τετραχ
##δικος
θάτερα
θέσις
νέμον
##θαργ
##θουϲ
Λεων
θυσίαν
##σθέντων
χρώματος
Ἀλκα
σέθεν
φλεγμονὴν
ὑμετέρας
ὄρεσι
ὄφιν
προαιρέσεως
ἔμαθον
ἦρχε
σαρκο
γήρως
κήρυκ
τεκμήριον
Ἑλλήσποντον
with
Πιν
ϲτα
ἅμʼ
ἐτή
Ἰά
ὡπ
##χʼ
##ιππος
##μία
##πλευσεν
##gr
##όντεϲ
κατέχειν
παρόντι
ἐξά
ἀποστή
εὐδι
φακ
τόξα
##χείᾳ
Καθ
εἰπόντος
κρῖναι
μιγ
##βολήν
συλλή
μονομαχ
Οὐδὲν
οἵους
οὐδενί
ὅρκων
μενον
στόλον
πτῶσιν
ὄγκος
ess
βλέπειν
ἐπισκόπου
κοιλίην
στεφάνους
πέμπτον
μεγίστας
Γαλ
θνή
λυμα
Ἐρατο
ἤγαγε
ὁκο
ὑδρ
ὠργ
##πλο
##βό
##lem
##ΐδα
ἐνά
##σιά
μεθέ
κατή
παρῳ
ἐξισ
γεῦσιν
##μάχ
μιαι
γινομένη
νομίσας
χρησμὸν
βοῆς
σαπ
Ἑλλησ
ἀξιοῦντες
##δυναμ
θυμόν
##οπραγ
τοιαύταις
ὑπόστασιν
κλῆρος
φαινόμενα
ἀλλοτρι
βασιλέων
φάρυγ
ἀναλογίαν
παρουσίας
νίκην
συμπερα
σοφιστῶν
ζήτησιν
ἀνατέλλει
##itatem
ἐσθίειν
ἥπατι
Jud
Κίρ
Λικ
θυρῶν
ὅρια
##νό
##σμένα
##ϲτοϲ
##ήσαντι
##ότερόν
##ζόμενα
##ῦος
##la
καλε
##ρεων
καθ᾽
παραδέ
ἀκμ
νεμε
εἰσορ
μόνας
ἐναντίαι
##δέα
Εὐρύ
φωναῖς
135
122
γεγεννη
χοροῦ
σημείου
ἐκάλεσεν
τροπὰς
ποιητικὰ
Ἑλληνικῶν
προφήτας
διαίτης
τρυφὴν
Μακεδόνας
χάριτας
διαφέροντα
Plut
προσθήκης
Ἄλεξις
Βαι
ΙΠ
Σου
γαρ
ἀι
ἄδειαν
ἰχ
##ισται
##τούς
##ειρε
##ματο
##λασιν
διαλλά
καταμε
ἀγαθός
πρόδηλον
##κοντο
πνεῦ
συλλε
προσεπι
κίνδυνος
πρᾶγ
παράκειται
112
θύραν
πρέσβε
κρίσεις
ἐπιτηδευμάτων
μορφῇ
σκέλος
τέσσαρες
῾Ρωμα
ἐπολιόρ
πέριξ
igitur
τὲ
φήσει
ἁν
##λυσ
##υίας
##ωμένου
εἰδη
περιο
##σκαι
γενικὴ
τρω
##μνησιν
##ουσαλήμ
##αιρῶν
ἐπιστάμενος
δυνάμενα
##καιδεκά
πράξει
ὀξυ
##urch
##θεῖσι
χρυσίου
ἐπιθυμία
λογικὴ
κομψ
ἀμείβ
##ele
ξυνέ
λεπτυν
αὐτόθι
συλλογισμο
Διονύσιον
Χρύ
ἀπαιτεῖ
Συρακοσίων
ὑβρί
##στηρίου
εὐδαίμων
ἐκκέν
συνουσίας
ἐρήμῳ
Ἀντιόχου
Θεόπομπος
ur
τραπεζ
ἀδο
ἄμοι
ἄλογος
ᾗπερ
##αξ
##λοῦσιν
##ητρ
εἰμί
ἐκκρί
κατωρ
εἶπας
αὐτοί
μαστ
##μνου
##μνος
##ίκν
ὁρίζεται
##μοισι
βουλευσ
##θεισῶν
Ἀθανα
συνεχές
πενθ
ἀμετά
123
γάλακτος
##ibi
προσήκοντα
δωρεὰς
τριακοσίους
ἀλαζ
ὑγεία
στρατοπέδων
λαγω
Ἱεροσολύμων
ὡραῖον
συμπλοκῆς
ἀμφότεροι
προπαροξύνεται
ἀσεβείας
Hier
Ζήνων
Νύμφ
Προφ
ἀστα
Ἰθά
##ύοντο
##άδ
##ήτης
##ωδέ
##Ϛ΄
##σθέ
οὐκέτ
διαδε
γενόμενα
οἰόμενοι
##ίουσι
ἀγχι
μεταμε
πάμπο
Αἰακ
ἀσφά
πλησμον
ἄρχει
τροφήν
##aeus
ψευδῶν
ἀμετά
##νυται
νηὶ
γλυκεῖ
πηγν
Κυρίῳ
συμφορῶν
διαβόλου
ἐνιαυτῷ
τοσαύτης
φιλοτιμίας
δειχθήσεται
διαιρετὸν
ἀλλότριον
οἴδαμεν
διαστήματος
Ἀσσυρίων
ἠδύνατο
ΔΓ
Τρί
γού
μῦν
ἅν
ἕπονται
Ἐλευσ
Ἔχει
##έουσι
##ειαι
ἐνθάδε
ἐπιγν
ἐπιφα
##θηκῶν
##άρῳ
##ημά
ὑποπτε
##ωτάτων
εἰσά
##ῆνον
πρότερος
θερμῶν
πατρί
νόσος
παλαιὰν
δυναμένου
γενεα
##ογγον
βασιλικὸν
Μωυσῆν
θαυμαστόν
τριγώνου
πλούσιος
πονηροὺς
προσηγορίαν
θεοσεβ
ἁρμόζει
ἀπέθανε
δακτύλους
ἔναγχος
##ήγγειλεν
αἰθέρα
βούλεσθαι
Φιλιππ
προῖκα
πεντήκοντα
ΗΒ
Το
ἑστηκ
ἠνε
ἠελ
ἦχον
##σύ
##όχ
##ξους
##ήσαντας
##αιος
διανα
παυ
##ηνέχθη
προορ
προτέραν
εὐφροσ
χρει
##δαγ
ὑποτά
μεταβεβλη
##ωτέρας
δεῖξις
##μητο
ἄρτων
##μαιος
παιδοποι
##τήρια
##ίστοις
ἑκατέραν
ὀνομάζεται
ἁμαρτάνειν
παράσχ
μόγις
πεποιῆσθαι
ἔπεσεν
μαρτυρίας
ἀφικνου
ἐπιστολῇ
Πνεύματος
πτῶ
ὁμιλίας
αἶψα
ἄρρενα
ἀνατολῶν
ποικίλον
Ἰακώ
τετράγωνος
στρά
δείκνυσι
καλέσας
Εὐρώπην
αἰγῶν
φιλανθρωπίας
διδάσκαλον
ἔβλα
ὕπατοι
Βελισάριος
Alex
Ση
δʹ
κλά
μεῖον
τμά
φρά
ἑαλ
##́ρ
##ῖδας
##ΑΝ
##ρασί
εἰναι
ἐκοιν
ὑπαί
ὑπελά
##δεσαν
##ικες
αἰώνων
στρεφ
πετειν
##ηκό
##δοντο
##αίμην
##ίζομεν
φύλλων
πόρους
##tig
##δωνι
φίλη
ἐλεη
ἀπαθῆ
θεωρεῖ
λαμπρὰ
ἐχθροῦ
##καρπ
κινδύνοις
Ἀμμων
βροτοῖς
σιτία
ἀποδείξεις
αὐτοκράτορα
εὐχαῖς
ἀπέθανον
ζημίαν
ἐτύγχανον
ὄρχεις
##τάληκτον
ἐσπουδα
ven
μῶν
ἧϲ
ὕπατος
Ὑδροχό
##ισμὸν
##φηνε
##ψημα
##ίδῃ
##up
##βορ
ἐντέρων
ἐνθουσι
##ριμα
##ένα
συνοι
καταστα
##ησά
δεξάμενος
##ώνυμ
τάξεις
##δραμον
χρόνοις
ναί
ἑτέρως
##ζεκ
ἐπίστε
θεραπεύειν
Ἀριστοτέλει
##χώρει
γνωρι
στερεῶν
ὕψους
δικαιοσύνῃ
φημί
ἀσπίδος
βάρβαρ
##δραμεῖν
ἐχώρει
πρόϲωπον
ποιοτήτων
Κόρινθον
ἐνταυθοῖ
fol
##άσθη
##ῖός
##ύσῃ
δισμ
διϲύλλαβα
προδε
##άνιος
ἐπιορκ
##πονον
ὑποκά
ἀγαλλι
ἔνδειξιν
πέρατα
##πίῳ
##λυσαν
λοιπὴν
##αίρεσις
ἀπόστολος
119
Ἀντιφῶν
ἐργάζεσθαι
εὕρηται
##χώρησιν
ἔφασκε
καταφατικὴ
λογισμὸς
πλείονας
##ήσωσιν
ἠρεμεῖ
σκυθρωπ
Ἀλεξανδρείας
ἐξομοι
αἱρέσεως
Πόντον
Ἄρτεμιν
γεγένηται
col
νού
οὒ
##ήσετε
##ψομεν
συνιδεῖν
καθί
καθῆσθαι
αἰτεῖν
##λοντας
πεδι
##άρθρω
σκη
##λήσει
ἐναντίοις
πνευμάτων
μέγʼ
##δόσθαι
ἀναγκαίαν
##ίονα
ἑκάστων
##orem
ἄρχοντι
μεθόδου
γνώμῃ
βιο
χαλκοῦν
##entur
##θερμα
προθυμίας
πόνον
ζητεῖται
ἐδείξαμεν
ἀτελὲς
αὐτοκράτωρ
ἐτύγχανε
τετραγώνου
αἰχμαλώτων
ἑκουσίως
στυπτηρ
νεφρῶν
φλόγα
νυκτεριν
Jes
caus
Κλειν
Τὰς
ἡρώων
##ττοῦ
##θῶμεν
ἐπηρε
τετολ
διαλυ
##κοσίοις
εἴχετο
ἀναίσθη
##θηκα
##ύνθη
##ρωσις
συγγένειαν
##λικος
πανοῦ
λεγόμενος
##δέως
##έβλη
ἁπλῆν
##άγῃ
συμβού
προειρημένα
##φιλο
γωνιῶν
ὀνόμασι
ὑπομεῖναι
ἀτεν
Ἀγά
πεζῇ
γεγενημένον
##ott
δαίμονα
σπλην
ἔπαθον
ἅρματα
φόβος
πλουτεῖν
ἡμίσει
αὐτοκράτορα
##tionem
παμπό
οὐράνια
x003E
Χαιρ
ἡ
φήσομεν
##λίᾳ
##sum
##ζομένου
ἀπλ
ἀπῆλθον
παῦσαι
τεθη
##λαχ
θεοσ
ἀφιγ
δηλου
δόμους
ἅπαντι
##atr
##στάμενον
θέατρον
ἄγουσιν
ἐγγύς
λογικῶν
ἀμετρ
γεγενημένων
ὑπαρχούσης
συνήθειαν
διαρρή
καταφεύ
πόνος
ἥδεσθαι
Μελχισε
Κωνσταντίνου
πλείστοις
σχέσιν
δοκούντων
φθινοπ
κρᾶσις
ΖΑ
Τοῦτον
γή
νέων
ἰων
##χομεν
##σρα
##υρι
##δουσι
##δησεν
διοί
##άνε
θεότητος
μέτρῳ
μεταποι
Καδμε
πάθει
Θεαγ
##άγω
μήκους
##κτὸς
πιμε
αὖτε
##βουλεύ
ἡγοῦντο
ὑγιὴς
138
ἐπαινῶ
Πλάτωνι
βασιλικῶν
ἀνταγων
τοσαύτας
εἰρήκαμεν
τριχῇ
secundum
Δημητρίου
Εὐσέβ
Μενελάου
φάλαγγος
Ἁβραὰμ
Ἰακώβ
Στο
βῆμα
θυρ
φέρων
##δίου
##μαγ
ἐκτείν
##όνι
εὐεργ
καθυ
αἰδε
ἐμπλ
ἐμπί
##erum
##ρωσε
εἰσή
καὶ
σαφε
ἀνεπα
οὐρανοὺς
εἰδικ
κρατῶν
ὀφθαλμοῦ
μακρᾶς
128
γωνίᾳ
σκληρο
δαίμονας
διαπρά
πέμψαι
ἀποκαλύ
ἐμπειρίαν
μυριάδες
θρόνου
βρέφος
Ὁμοίως
θάρσος
πεντεκαίδεκα
ἀδη
ἴχνη
Ὅσα
##ίταις
##ᾶραι
δισσ
ἀπάντων
προβα
διατηρ
##ησάντων
ἐμά
ἀρρ
##θισεν
ἀντιφα
##λοιπεν
ναυπηγ
σπό
##θέντι
γιγνόμενον
##λότης
φοβηθεὶς
130
##entem
ἀλγηδόν
κᾀπὶ
βροτο
ὑβρι
ἐστεφαν
ἀφεψ
Ἰούδας
Μωσῆς
πεδίου
Σπάρτην
εἰρήσθω
νομοθέτης
Τρῶας
νενομισ
##οβοὰμ
ἀκάθαρ
Κέ
Μή
θρε
ἐα
ὧδέ
ᾐσθ
##έι
##ίθ
##gl
##ενο
μεμι
##ομι
##σεί
αὐτομά
##αρά
ὑπομεν
Κατηγορ
##ρουσα
##μηχ
##είς
##ττόμενον
φθόνος
σαυτῷ
σώφρων
νόμοις
ἀδελφοί
λευκός
##εύς
χρήμασιν
θύρα
βοηθεῖ
##κυρα
καταφατικὴν
παρθένων
##φόρου
τρέφεται
ὄφεις
Σαμουὴλ
ιθ
νον
τεν
Ἐνυ
Ἡρο
Ἤδη
##πτιος
##υῖαι
##δών
##ζοντο
##ΕΣ
αὐτόμα
τῇσιν
συνθέ
εὐμαρ
##θησις
μέμν
ἀγροῦ
μέσης
##κάλυ
ἑαυτὰς
##θέου
πρόβατα
Ἀθανά
ἀκούοντας
θεωρίᾳ
##τικοῖϲ
ἀποφατικὴν
προεκ
νηὸς
πόντου
χωριζ
γενέθ
ἀνθρωπίνης
σφυγμοὺς
βασιλικὴν
Πλάτωνι
φόνος
ἑρμηνείας
Συρακού
Μηδικ
κτίσμα
Μακεδόνες
Αἰγύπτῳ
##ύτητος
ἐψηφίσαντο
ἀλόγων
τράχηλον
Ἀλεξάνδρου
ᾔσθετο
τεσσαρεσκαιδε
Βροῦτος
hum
ΘΖ
Τάρ
ἐοί
ἔμπε
ὁσημ
ὄσφ
##παλον
##ήτην
##ῖδος
##όϲ
##ῆθεν
##ῆσαί
##ήσατε
##ώθησαν
##ῦϲ
##τεχν
##τικαί
ἐπαιρ
ἐνδο
προή
ἄλλωϲ
καταξι
##υραν
##ράτῳ
βαθύ
λεπί
ἐρύ
κρίν
##θανε
οὐδείς
εἰρηκὼς
##ψατε
κακοπα
σκεψ
##ίωται
βιβλία
##γαγόντες
διανοίᾳ
κληρονό
##τεινεν
ὀλιγοχ
θερμαίνει
διαστέ
αἱρετώτερον
στρυφν
καταπλασσ
Κορινθίων
πίστεις
μάλιϲτα
sem
Δειν
Κό
ζώντων
οϲ
ἐϋ
##λκει
##pr
##καλων
##όνει
παραβαλλ
ἐμπο
πάχος
μεταλλ
διαφόρους
##αίους
##αίρεσις
ἐχούσας
##πέμπε
κρατή
χειρί
##ρέθη
θέλων
136
ὑπεκ
προσαρ
πεποιηκέναι
##υμένη
##τευσε
χαίρει
κυριεύ
ὡμολόγ
##κλειτος
ἔπραξεν
μακάριος
εὐαγγέλιον
οἴδατε
οἰκιῶν
στρουθ
κᾄ
κτή
ἀλεί
ἐτρέ
ἕδραν
ἠσπ
##λοῦντας
##κώ
##ύτης
##βει
κακοπ
##ονας
ἐπώνυμον
##σεταί
##λιοϲ
ἀναζ
##άνας
μετάν
τραν
ἀφύ
##δρά
##λλοντος
##ηρύ
ἀντιπα
Εὐμεν
ἀμφοτέρας
διάστασιν
Μεγ
κοιμη
παρέδωκεν
132
Ἑρμό
δαιμόν
Ἀχαιοὺς
ξηρο
##μορφον
γενναῖος
λῃστῶν
μονάδα
γιγνώσκειν
παρεῖχεν
νῆϲοϲ
γόνυ
nun
on
sich
Νου
βαι
σῆμα
ἐδωρ
ἐκβαλεῖν
προκό
παροῦσα
διακρι
##υχον
##θηκαν
##ούργ
συμβολ
ἐμπλη
##πασα
πεφύ
μέτα
##πιδος
συγγνώ
κύρια
##λωϲ
βοή
σώζειν
##φυγε
λιμένος
δόγματα
τρίτῃ
ἐπαχθ
##μένοιϲ
θαυμάζειν
φέροντα
βιω
ἱστό
ἀνδραγαθ
ποιότητες
ζωγρά
ἔλλειψιν
ϲτε
##σόμεθα
##κηται
##έστατος
##ϲίαϲ
##ώσω
##ωμένος
##ώσῃ
##ΙΝ
ἀνοσ
##ένων
προτέρας
συνερ
ἐστὲ
κατασπ
δεκτικὸν
γενόμενοι
σεβα
γινομένην
καρκ
φθόγ
βοᾷ
##σθείη
Ἀρτα
μερικῶν
ὀφθαλμο
ἐκκλησία
131
πράξεως
##βαλλεν
Σκύ
γεγραμμένον
ἕξουσιν
Τροίας
γεραι
κρατήσας
φλεγματ
ἅγιοι
ἀνωμαλίας
ἔμμεναι
##έγραψεν
ἁμαρτήματα
##οποτα
ᾠκοδό
Πηνελό
wel
νέα
ρι
τικ
ἄρας
ἐτό
ἦεν
ᾐτι
##χαι
##έοντες
##ημένων
##ῇν
τοί
διῆλθον
ἐκδι
τετι
ποῖος
ἀπολύ
##μούντων
καταχρη
##ποίη
##σκος
ὄνος
##σμαι
μαρα
τέρας
φυτοῦ
ἀντιλαμβαν
ἀρετήν
##στάμενοι
ἀπορεῖν
ὀφθῆναι
ἀξίας
λάθρα
χρήμασι
##irc
πικρῶς
ὁμώνυμον
χείρω
σωματικῶν
γοητε
κόλπῳ
τυγχάνειν
προσκυνεῖν
γνωρίζειν
προσηγορίας
ἄλσος
καλούμενος
μεγίστην
συνθέτων
ἀπλανῶν
##γινώσκειν
θεσπέ
Πολέμων
Augus
Δύ
Μᾶ
Ψαλ
νων
σῆ
ἅλα
ἡνω
##έῃ
κασι
τιθέναι
διασω
εὐπό
##τρην
##πετε
καταβα
##κιστον
φασί
τόποϲ
νεωτέρ
νεφῶν
συγκείμενον
##θέϲει
ἄρδην
δόμον
##φαλον
##isc
εὔχ
τρόπων
##ιστοῦ
ἑκατέρας
λιθαργ
γνώμας
γνώριμον
λογικοῦ
τελευτῆσαι
σκεπτέον
121
βιβλίῳ
λύπης
##γράμμα
βοηθῆσαι
τέχνῃ
ἰχθύων
ποιητικὴν
ὀκτώ
Ἀβραάμ
μυριάδων
Μάρκε
##τροπῆς
σῴζειν
πῆχυν
##ήγγειλε
στράτευμα
Βρετ
ΖΔ
ΗΖ
Μοῖ
γυ
γό
κονι
πνιγ
##εθ
##ύμενοι
##ίμα
##ωνίου
ἀπονο
παῦ
ἐπιτο
διακό
συντριβ
παραλεί
προσγεν
κε΄
τριχῶς
##υπτο
αἰσθόμενος
αἰσθήσει
κόμην
##πνιον
ἴσοις
ἀπορίᾳ
##βιοϲ
δουλείας
προηγεῖται
διώκων
προφήτην
σπεί
εὑρεθῆναι
διαφερόντων
προσηγορίας
Ἀπολλώνιος
πεπραγμένα
ἡμικύκλιον
Λοκρο
προβλήματα
λῦ
χρο
ἄγεσθαι
##ήτους
δισχιλίους
##οῦϲι
##σιμοι
μελέ
μελῳ
εἶπα
##ούμην
μετέχει
ὑποζ
ἔνυ
##erit
ἀκοὴ
ἀντιπ
κόρης
φωναὶ
Ἰουστ
οὐδενός
δίκαιοι
ὀλίγας
ὑγρὰν
ὀστέον
ἑπόμενος
νῆας
χώρᾳ
οὐδαμῆ
χρωμένων
ἀλλοιώσεως
ἁφὴ
παρρησίαν
λάβῃ
ὠφέλειαν
κέρδος
πεπέρεως
Ἐρασί
Al
mund
Ἄτ
ἴν
##σσαις
##rib
##ῳγ
##υνόμενον
##τημορ
εὐδαί
ἀνακτ
μητρο
ὄνον
ὑπολεί
##υθῇ
##ειργασ
##κότι
μάλισθ
οἰκείως
ἐλαφ
ὅμοιόν
καίπερ
Χριστόν
κατάστασιν
δρᾶμα
ἐπιδέχεται
ἑκόντες
σκιᾶς
ποίησιν
ἀφελεῖν
εὐπραγ
σχολῆς
φαίνηται
ἐγνωσ
Δημήτριον
γεγόνασι
Συμε
Λακεδαίμονα
συνυπάρχ
usque
ἐντελέχεια
Sim
mor
βίαι
κτύ
ἐτιμ
ἤλεγ
##τραπ
##ΩΣ
##ριστε
παράν
##θεμα
##θετοι
καταπλη
καταλαμβαν
καταψηφ
##σχες
πλάνης
γενομένη
κεκοιν
μέτριον
##λεύθερ
ἀνδρεῖον
σύνεσιν
πράττει
ἀδικίας
ἐγέννησεν
κατέστησεν
##ιστὰς
δυνατω
τύχας
##μαντα
κεκλι
ἡμετέρ
πνεύματα
δωδεκά
Σελεύ
αὔξεσθαι
ἠγά
συζυγία
##κτηται
ηὐξ
εὐκλε
τοσούτων
θεασάμενος
ἐβούλοντο
ὁμώνυμον
##βεβλήσθω
Im
Δοκ
δεν
κέρα
ὡρί
##νημα
##τάρ
##σθον
ἀνθε
ἀνέβη
παρῆλθεν
##θευ
ἀποδιδόναι
ἀνατέ
##έραι
βασ
##τοῦσα
μηδ᾿
##ηκότα
##δίην
##λικὴν
τάχει
##βαλέσθαι
γράμμασιν
δυνατὰ
Εἰσὶ
##κείμενος
##ίστως
αἰσχρῶν
νέφος
τροπα
δεικνύν
συνέδριον
συμπά
Ἀττικοὶ
##ill
διελεῖν
ἤκουον
καλούμενοι
ἐγενήθη
μέλανα
ἐκπυρ
τέλειος
τάχʼ
συμφέρον
Λί
βρέ
φθι
ϲι
ἀλέ
ἠερ
ἠρώ
ἤνεγκεν
ἰᾶσθαι
ῥοι
##είου
##oli
##ήσεσι
ἐπιδει
παρί
ἀγρῶν
##μησις
##ηθέντων
φανήσεται
ἔριν
##δέξαντο
Παλα
γαμ
βούλομαι
γράμμα
Ἱππό
δείξομεν
ὥστ᾿
καινὴν
ἐπιφανείᾳ
πεντακοσίους
βούλεσθε
κάμνοντος
περιϲπᾶται
ὑποκεῖσθαι
Κέρ
ὀ
##ηθείη
##ϲκευ
##ξοις
##τιθέναι
##σθῶσιν
παρόντες
συνηγορ
χρύσε
λέγοιτο
λελεγ
##μφισ
κεκρι
##ίζεις
τέτ
γένοϲ
σοφοὺς
πολιτικῶν
ἀνεπί
λέγε
##γγραμμα
γεγονότος
κίνδυνον
##ητικοῦ
κατέλιπεν
##κράτει
στρατηγοῖς
δωρο
ἱστορίαν
ὑπέσχετο
κρίσει
εἴποιμι
ἀπιστεῖν
τοσούτους
χρώμεθα
ἔλθοι
βασιλεῦσι
μακροθυμ
ἀγάπην
ἐπιτελεῖν
ἑταῖροι
Γλαῦ
ΜΕΝ
ἐλεφάντων
ἐῶ
ἤγαγον
Ἵπ
##λήν
##ήσαμεν
##ly
ἐπελθεῖν
##λεμος
##ομος
##ρονό
##λησα
##ρούς
##σταί
##σταγμα
καταλέ
##ησὶν
##ηκὸς
εὐθύ
δύνασαι
οἰκείου
λύειν
στρατηγῷ
ἐπανέ
Αἴαντα
ὑπόθεσις
λαμβάνων
##λαττο
μετεχ
πόνοις
##άνδρῳ
##οειδοῦς
Ἀντίγονον
παραγίνεται
ὁρατῶν
Λιβύῃ
παρρησίας
προφήτου
φιλοσόφου
Θεοδο
φαύλων
ἐγνώ
εἰργάσατο
οἰκέτας
ἐθάρ
Τηλε
ἀνυπό
σύμπαντα
ὕπατον
ἆθλα
εἴσοδον
Ps
ni
Α△
Μώσεως
θέρος
ιστ΄
ἔναι
ἴασιν
Ὁμή
ῥευ
ῥῖνα
##κησιν
##όρος
##θομεν
εἰν
προτέραν
##άνους
παρῇ
συνορ
θεμι
εὐταξ
ἀνακομ
παραθ
δεόμενοι
πόθον
##υκεν
κοπι
##ίουσιν
μεταθέσεως
##τερʼ
νεώτερον
μένον
σκώ
ἀμή
##emus
##σθένους
χρυσοῦς
##κράτην
γραμμῶν
ἀργύριον
ἐνεργείαις
ἀσθενὲς
##ήγγε
##λμησεν
εὐθείᾳ
ἀναιρου
αἰτιατ
ἐποίουν
πεσὼν
Ἱεροσολύμοις
##ίσκος
Ἀλκιβιάδης
φιλόσοφον
##archus
ἄστεος
Μανασσ
ΓΚ
Σύ
ιϛ
νει
τήμερον
ἆρά
Ἄττα
Ἡσι
##ύμενα
##δομαι
##όνοια
προλέγ
συνίσταται
εἴσεται
ἀναθε
##παυ
δέλ
ἐλύ
##τάτην
##μαρτυ
##χαί
##ισσα
##ώνυμα
ἔκτο
μυστήρια
ἔπεισεν
βραχεῖαν
ἀπαλλα
##ταχῶς
137
χρήσιμα
##πτωσιν
περιεχόμενον
ergo
ἀτελεῖς
πλείοσιν
Καλλιρρό
ἐξαπατ
κληθῆναι
αἰθέρος
ῥυπαρ
Θρᾳκῶν
ἁμάρτημα
ὑποκάτω
Reg
Γελ
κτην
σὰ
σπο
τ᾽
ἐθῶν
ὧδέ
##φυγεν
##ώνη
##τακτο
ἀνωτάτω
##άνια
##θεμεν
##μολογ
##τερός
##μοια
βουληθεὶς
γινομένου
ἐπιστῆσαι
δόμοις
##άλλων
##κάτω
σοφοῖς
##ήσῳ
εἰκόνος
δικαστῶν
προσελθεῖν
##λούσης
μυστήρια
βραχέα
Ἰουδαίας
##πέμψ
συλλογισμῷ
θυγατέρων
ἀποκριθ
ὀστέα
ἐνδεχόμενον
πόλεμος
τραυμα
εὐδαιμονία
Αὐτο
νομοθέ
βαλεῖν
εὐνού
ὑγιαίνειν
ἐπαγγέ
ἀπερι
ὀρθοτον
πλείστοις
ἴδῃς
ὑποχόν
ρ΄
ἅγια
Ὅθεν
##άσθαι
##μπλ
τοί
##ουμένην
##ίναις
παρέχειν
##αρος
ἀναφα
πλουσι
ὑποδεχ
λαφύ
##φασι
Κασσ
διαφυγεῖν
τέμενος
##αίῳ
ἰδών
ὑπερεχ
Αἰγα
##ύνων
λοιπόν
ἁπλου
δυνατοῦ
ἱστοριῶν
τοιαύταις
συμβῆναι
σκεῦος
Φιλί
συλλογισμός
ὁποῖος
γωνίαι
φυλάττεσθαι
ὀστέα
βραδύ
ἐλέγομεν
διαλεχθῆναι
ἀρίστων
ὑστέρας
##τούμενος
imper
χάριτι
πόρρωθεν
Καρχηδόνα
αἰτίους
μαθήματα
ὁμοιομερῶν
διαστολῆς
Δήμητρος
περιττωμάτων
Olympias
ὡπλισ
Gal
ΗΚ
Κἀ
Τίς
θολ
λύειν
τειν
φή
##άσω
##τῆσθαι
##ήκασιν
##ώσεων
##τατοι
##ῶνες
##οῦσί
ἀπελθὼν
ὑπη
θεσ
περιπεσ
##λέωϲ
πάντωϲ
##λογόν
##άζῃ
κρέ
ἀνθρώπινον
ἐποίησας
##τικούς
κακοχ
στενά
Ἰταλίᾳ
αἰτιῶν
Αἰγυπτίοις
##cipi
μνήμη
Anti
σκότους
Ἀμφικ
##ύτητι
ἐκάλεσε
ἀπεργα
##τιθέμενος
δεσπότης
ἀθάνατος
##έγραψε
προβλημάτων
κασιγν
nach
μεῖναι
Ἐπί
ἥμερον
ἦσθα
ἱϲτο
ἴστω
##μνεσθαι
##ήσεσιν
##δρί
##φειαν
##ἢν
##ταρχ
ἀπάν
ἐκδεχ
θεία
θεάσασθαι
##οῦντεϲ
##μιδι
##πλαν
στρατη
πέλει
##ρικῷ
ἅπασαι
νέου
φυσικὴ
προειρημένα
χαρά
στομά
ἀκούων
Ἀλβαν
κώμας
μέλανα
χυλῷ
στρατεύματος
μῆνιν
Ἡρώδου
μάλιστά
Μεσοποτα
πάροδον
συντόμως
Βαν
Πίν
ἁμά
Ὑπο
##δὸς
τελῶν
##ροσθ
συνθέσεως
ἄλλʼ
##υτὸς
##θημεν
##ομένως
##πτόμενος
νεβ
τάφος
##σίης
βουλη
##ηθέντος
ἐναντίους
Ἀνδρο
ἐπεχεί
δυσθ
δυὰς
ἑκάτεροι
ἡδοναὶ
##ζευχ
μανίαν
ἀνέμου
ἀγνοίας
κλειν
λύπην
χώρα
Πνεύματι
πτύ
φόνῳ
πυθέσθαι
ὑδαρ
πελτα
γάλακτος
βαϲιλε
ὁμώνυμα
Chrys
φιλόσοφοι
Ὀρχομεν
Βού
ἑδρα
##έστερα
##όον
##ψωμεν
##ᾶνα
ἐπιμέ
##τηκεν
διαγων
ὑπολειπ
πάτρια
##τάχθαι
ἐναντίοις
##ρικόν
##στάτους
##θείην
##φεσιν
##δόνος
κόκ
δυναμένη
καθαροῦ
##ίωσις
Ἀντιφάνης
γλυκύ
κώμην
σκέλη
Καλλικ
Ἑβραίων
φόβῳ
χωριστὸν
ἐξαίρετον
κατειληφ
ἐπερωτ
φευγ
γενικῆϲ
ἀνίσχ
καταισχ
ἀπροσδοκ
διαθήκης
ἀτρεκ
ἀκρίβ
γειτνι
Κρόνου
ὑποτείνουσα
NAB
voc
Ζω
Κυθ
Λά
Μαρτ
βρό
στρέ
χλευ
##μίν
##ηρά
##ϲῃ
##ϲμα
##ψύχ
##βοις
ἐπ᾽
αὐτοφυ
##ίνως
παροῦσιν
##λιτος
ἀποσκευ
ἀναφορ
##άνῃ
ἐγχέ
ὑποχον
δέοντα
ἰδέα
##ξασθε
ἀπεδεί
κατελθ
##λαντα
δυνάμεθα
ἡγούμενον
μεγάλοι
κατηγορεῖ
θυμιά
συμβεβηκότα
##ψαντας
θέλημα
139
147
ψευδῶς
δεικνύναι
ἄκρῳ
ἀδιαί
λυπεῖ
##διδά
δευτέρᾳ
Λαζ
εὐνομ
##οτάτους
##ήγγει
θηρίων
κρείττονα
χιτῶνας
aliqu
ψόφος
διαθήκην
ἐπιτήδειον
ἐπειδήπερ
cod
Νεῖ
ἀβου
ἐσα
##ύλων
##ύχα
##λματα
##έῳ
##ήσεσθε
##όρων
πρύμν
πρυτα
ἐπέρ
θείῳ
ἀναλώ
##μοσιν
πολλοί
παραφροσ
στροφ
συμφέροντα
αἱματ
##μνῄ
##ατρί
ὑπερκει
ἐναντίωσιν
ἀνευρ
Ἀρκε
πενίαν
ἐνεχεί
##δέξατο
ἐπιθυμεῖ
πύλαις
συμπλέ
δουλεύ
πυκνὰ
χρώμενοι
σέο
ταραχὴν
ὑψηλοῦ
##ΟΥΣ
σιγῇ
ζητοῦσι
μνήμη
ὁρίζοντος
παραδίδωσι
ἐβασίλευσεν
κὼ
ϲτό
##σματι
##θαιρ
##ίδιον
##ώσατο
##ix
##pos
πρη
πατέρες
ἐκφα
τεῦ
μεμην
ἀποκαλύ
##δαϲ
πόλι
προσυπα
ἀφῆ
ὑποκρ
μέθης
##ύνῃ
##φαρα
ἔναντι
##χθέντων
##τάτους
γινόμενος
##γειρε
##κάλυ
σοφίᾳ
ἀρετή
τελείαν
δήποτε
δυσκο
ἀπόρ
ἔστησεν
ἐκκλησίᾳ
χρεὼν
##κτικόν
μνησι
ὀδόντας
ἡμέραι
προειρημένοις
ὥρμησε
δρόμου
Ἀγαμέμνον
δακτύλων
νομίσαντες
Ἀμαζ
Περικλῆς
κυκλοτερ
Ἀθήναις
προσδιο
εἰδωλολα
Ἀντιγόνου
ge
Βά
Θησε
Κυκ
νυ
ν΄
ἄφι
ὑφα
##ηταὶ
##ηθείς
##ξά
##ίμου
##ζοντας
##ώρημα
##ῶνδε
ἐπαί
διῆλθεν
ἀνανε
ἐκτίθεται
##ομή
ἐπιθέ
γεγα
##αντά
##σμόν
κοτύ
##ίκον
μόνας
τάχους
##είῳ
συγγραμ
μήτ
##ηθήσεται
φύϲει
αἰτίων
πιστῶν
##δέων
ἀνθρώπινον
χωρῆσαι
##φυρα
διαφορητικ
ἀκριβὴς
Χριστός
χαλκε
129
πράγμασι
μείζους
σεληνι
πένης
142
##τευσαν
παχυτ
Ἀττικὴν
ἐθέλω
conf
##ωτάτοις
τοὔμπ
ἀσφαλῆ
θαρρῶν
κώμη
ἐρεθ
τύραν
Μωυσέως
εἰδότας
ὁρατὸν
Σύλλας
##λλυσθαι
Λέοντος
Αἰτωλῶν
ἐτυμ
##μπτῃ
χάρακα
φρεσὶ
πολλάκιϲ
xv
Πρό
Τρώ
##άλω
##ωλύ
##ριγέν
τες
ποὺς
##ρεὺς
διασκε
διαγωγ
ἀποπε
τινοϲ
##υχα
ἐγκει
##νεϲθαι
τρώ
φιλή
πέμπτῳ
ὀξὺς
##τεύει
μαρτυρί
ξηρὰν
πονηρίας
μόρον
Πολυνε
φεύγοντας
ξένοι
εἵλετο
ἀντίκειται
θερμαίνειν
##μαρτεν
δράκων
##δὲκ
κείμενα
ὑβριστ
ἰσοσκε
σῶμά
νόμιμα
ἔδωκα
βασίλειον
ἐνταῦθά
ἀμπέλου
Ἁγίου
πρυτανε
Ῥηγ
∠Γ
##τραχ
##ζοντος
ἀπηρ
##ριζε
τετυχ
ποίαν
##σασαι
##λιά
διαῤῥ
παραλαβεῖν
##λοντος
##δροι
##κιμος
##δοντι
##βεβα
##θια
ἐναντίως
νομιστ
διάκον
λιμὸς
συνεχεῖ
λέλεκται
ἱκανὴ
ἐπαφ
διδαχ
φέρουσα
λαμβάνεται
140
παντοκρά
πλάγιον
ναυτικὸν
ἔπραττον
κτήματα
κτημάτων
ἐνόμιζον
δουλείαν
παντοδαπῶν
Ἰλλυρι
μεσημβρίας
γενεαλογ
Κόνων
ζεῦ
Ἀνε
##σπό
##ίγνεται
##ίδες
##ῆκται
ἐνη
##οῦϲα
##λείᾳ
ἐκκε
μετου
##λαῖ
αὐτοῖσι
συντομ
##λοποι
αἰεί
δεομένοις
ὄνομά
ἐμόν
δυνήσεται
μεταφορᾶς
##ειδῶν
εἰσπνο
ἰδίῳ
οἰκητ
σχηματ
σεσ
εὔχεται
λιγ
Ἀρταξ
διαφοράν
δυναμένου
ἀληθεύει
ἐπανελθ
χαλεπόν
σύνθετον
λειπο
ποιηταῖς
χαίρων
κατοικοῦντας
συλλογισμοὶ
κρείττονος
Μακεδονίας
θύρας
φιλοτιμίαν
ὄρνιθες
ἀνωφελ
νωτια
ἀκριβεστ
ὁμολογουμένως
ἀντειπεῖν
συναμφοτέρου
Ἰβηρίαν
wird
ἔγωγʼ
δίφθογγον
nos
Δαι
Κρί
Κίμων
βόρ
νος
ἕψε
##πτος
##λοῦντα
##έουσιν
##ίστασθαι
##yr
ταυτὸν
##λασαν
συνηθείας
χρήσεως
##τρους
αἰτεῖ
ἐγρά
οὔποτε
ἀγῶνι
##γκη
κοινότερον
##ττοντο
##λής
##δίδωσιν
ὀρέων
πέμπου
##κόμι
δυνάμεθα
Ῥωμαίοις
φωνή
οἰκείοις
ἐνδέχεσθαι
ἐνεϲτ
θάλασσα
ψευδής
ὁρῶντας
καλουμένου
ὀπώ
βέλτιστον
οἰκονομίας
μεγίστης
##entis
ὀγδό
ὁμόσε
φεύγειν
ὑποτεταγ
ἰδιώτης
καταφάσεως
τηλικαῦτα
ἐντυχεῖν
θρόνου
ἡδέως
Ἐπίχαρ
διδάσκαλος
ῥῖγος
ἱμάτιον
ΕΔ
Πόπ
κλυ
νουσ
ἄφρων
Ἰβηρ
##ωτον
##ωπι
##ωθέντα
##θωμεν
##ux
##ριχος
ἐξεί
ἀπολαβεῖν
προσγ
##πασ
μέτωπον
κινῶν
##άζουσα
οἴεσθε
##itas
σύμβου
δεινοῖς
ἀκριβοῦς
ἐγκλι
νεκρὸς
##σωνται
ἔρχεσθαι
ὁμῶς
ἀρχιερωσ
ἀπώλετο
σιτίων
φλέβα
##ριγέν
ἐπιρρ
scil
μονογενὴς
Ἀλεξανδρείᾳ
Σκύθαι
Δαρεῖον
Σκιπ
κηδεμον
βλη
ζῶσι
πτύ
σῳ
ἅλας
Ἐρετ
##οθέ
##ξάμενος
##ίοι
##ΜΟΣ
##λλῃ
προτρέ
κατ᾽
##ρετε
##ίνοι
παροιν
##ρχου
ἀποκοπ
##στικοῖς
οὗτοί
ἐφύ
ἐφάνη
ἀκοντι
μόνοι
γένοιτ
ἐπεξι
κόκ
##λευεν
πολιτικὸν
πρώτας
##ρότης
θυρε
ἀνέστη
κομή
συμβῇ
ἁγίῳ
χεροῖν
Ἑρμε
ἐνδεχομένης
##σηπος
διελὼν
μέλλω
στέαρ
Πυθαγόρας
οἰκονομίαν
πτερὰ
θαυμαστὰ
δριμὺ
ἑβδομήκοντα
πυρετῷ
ῥίζαν
δυναστείας
ζητητέον
Μαχ
σὴ
ἅμ
Ἐλ
ᾑρη
##γουσι
##ήμεθα
ἀπέχ
##λεχ
προβεβλη
##ρούντων
##ρίθ
##αλοι
συμφέρειν
##υσί
κινηθῆναι
τίκτει
διαφθεῖ
ἔντερον
##δραμεν
κἀμοὶ
ἀμυγ
προφερ
βασιλέας
##stanti
Ἀριστοφάν
ὁμολογεῖται
##βάσεις
##ροιζ
νέμε
ἀποστραφ
ψευδοῦς
ἡμετέρων
##λόγους
σωτήριον
εὕρομεν
ἐνδεχομένων
##δύνε
μύθων
στεναγ
ἀντιστροφ
ἡμισε
πελέ
προστιθε
τριγώνῳ
δωρεᾶς
ὀλίγοι
##ωτάτη
ἑκατέρᾳ
κοῦφα
ζητοῦσιν
πληροῦν
##itate
ἀφείλετο
Στη
λυτ
μῶ
ἥκοντα
ἦτορ
ῥεῖν
##λοῦσι
##δως
##pse
διῄ
μελικ
##ίνοντας
##έραι
##θείᾳ
μετει
οἰμ
##τέμν
##ονταί
##στορ
##ώνοις
##ρουϲ
ταὐτά
ὀξέως
##φέροντες
σαφὴς
prin
ἰσχυρὰν
προειρημένοις
ληπτέον
φλεψ
Σικελι
##κολουθ
μέλλειν
Ἀντίοχον
Δαρε
τολμηρ
ὑποστῆναι
δέρματι
παρακαλεῖν
κοιλίης
διαστήματος
##μοσύνην
##βολαίων
Αὐγού
πειράσομαι
Λυκοῦργος
ἀκήκο
αὐτοκίνητον
τέρ
ἔρε
ὄμματος
##ατε
ἐπακ
##ρηϲ
καταγν
##μιόν
##ητά
##χθην
τάλας
ἐροῦσιν
κατεσκεύα
δύναμ
ἁπλού
δικαίῳ
φρονοῦντας
ἐξετά
διάγνωσιν
##ρειον
τοὐμὸν
##κτικοῦ
φορᾷ
ἐλευθέρους
##τροπος
156
##μαρτύ
quia
τοιαῦτά
κλαυθ
ἐγενήθη
γίγνηται
ἀναιρεθῆναι
λιβάνου
πληθυντικῶν
Θρᾴκην
καθιερ
σίδη
Dominus
ἄμπελον
διφθόγγου
μασχά
κήρυγμα
Ch
XL
Μο
αὕ
χλαμ
ἶσον
ὀβολ
##ύσω
##τᾳ
##sc
##IV
ἐκό
θείῳ
ἄνθρα
καταλαμβάνει
##σοντος
ἔννοια
νεώτερος
χαμαὶ
πυρῶν
πρώην
ἐκκλησίαις
προειπὼν
143
148
δείξας
ἡσύχα
μουσικὸς
ναυαγ
θαυμαστῶς
##οτάτων
##οτάτην
Μενέλαον
θειο
Ἀναξαγόρας
στρογγύ
τεταραγ
θαλάττης
δεσπότου
##στρατοπέδε
θυγατρὶ
βελτίων
μὶν
ἀτί
ἀλόγως
ἑπόμενα
##ύου
##ετʼ
##έες
##θός
τοκ
διωρ
ἐκτειν
ἀπολειφθ
εἴπα
εὐή
ἀφῃρη
ἀγροὺς
##eris
##ποιτο
σφέας
##γενν
##δίαις
πανοπλ
λοιπόν
πολιτικῆς
ἑνδεκά
ὀρθὸς
quibus
##θεῖεν
##κτικῶν
153
ἀκολουθή
δάκν
ἀκατά
αἰτιᾶται
ἀλλοιοῦσθαι
κατηγό
ἀπάτης
τμημάτων
χθονός
ἀκρατὴς
ἀγγεῖα
ἡμέτερα
ἐρωτηθεὶς
παραδίδωσιν
ῥιζῶν
ἐκκέντρου
Se
cog
Νο
Στα
Ἐρ
##ιόν
##πτους
##φευ
##ύμενα
ἀπάντων
διαλλαγ
συνήθη
##σχοντο
παραδοξ
μέτε
##eret
κοινοῖς
ἰδίοις
τίθησιν
##λήθησαν
σεως
δόλῳ
ἐπετέ
##ρικῇ
ποταμοῖς
ἱστορία
κακοὶ
##τρία
ἰσχυρὸς
##alis
οἴκοις
ἔφασκον
πηδ
ἀφανῆ
ἔγραψαν
ἀναιδ
Ἑλληνικὸν
δύνηται
κᾀκ
πιστὰ
Ζηνὸς
μνήμης
ἐντολῶν
ταλαιπω
ἐπείπερ
ἄμπελος
ἀσώματον
Βρετταν
Sp
durch
Κάρ
κζ
φρί
ἁμ
##ελον
##δὰν
##γερ
##γγων
##ξοδον
##ίσιν
##ΤΥ
ἐπερχ
##λεγκ
ποίας
τιθεὶς
ἐξελθὼν
θείᾳ
##μοσι
ποιότητος
##δακρ
##υργ
μεταδ
##ίζομαι
##χεος
ἔνστασιν
##ειδῆ
##αῖοϲ
ἀνάκλα
##λίους
ἀπεφ
χρησάμενος
φωνήν
##τινοῦν
κυά
βούλησιν
βάσει
ἐνδεί
##ίωσαι
##γένοντο
φέρον
ἐργάσασθαι
δημοκρα
ἀντιστραφ
ἀνέβη
καταστρέ
Ἀρίϲτα
##πυρον
ἐγενόμην
ἐπιπολ
παύσασθαι
ἀγγέλους
ἀμερὲς
Ἀλφει
λάρυγ
ubi
νέον
νώτου
τυπτ
ἄκαν
ἰϲχ
ὁν
##ράν
##έλλων
##ανόϲ
##ρασιν
ἐπόρ
ἐπελθὼν
##σθιον
παρέρ
παροῦσι
##λισσ
θεία
εὐφορ
##αλερ
πλοῦ
προσδια
πεπέ
κινοῦντα
##χθήσεται
##τίαι
##σσους
πρόθεσιν
ἀσύν
πνευ
ἀνεί
##ίσματι
χρυσο
ἐπανή
ἐλάχιστον
σκεύη
πορείας
167
φαινομένων
##κινον
τύπος
προστιθέ
εἰσαγωγ
πολέμῳ
κολάζειν
ὑπῆρχον
παρακελεύ
Γάιος
Ἰνδικῆς
ἀκίνητον
ἠρέμα
IX
Γαν
Δυρ
Δίων
πλακ
ἀη
ἀρού
ἄκαρ
Ἀκά
ἠπι
##ισεν
##πρου
##έσαι
##ήϲαϲ
##ίτηϲ
##ήτῳ
ἐνδιδ
ἐκώ
προκοπ
συναντ
ἀναφέρεται
ὑποκάτω
ἐρᾷ
##δωροϲ
τιμήν
##ψευσ
γεγρά
ἀποστό
174
##ulus
ὁρισμῶν
##ρίαϲ
γινώσκων
προφήταις
ἐδείκνυ
ὁπόταν
παρουσίαν
πλείστων
συκῆς
διαδοχῆς
γεγράφθω
##λλαβον
Imper
νενε
ἀήρ
Ἠλέ
##αθ
##ήκασι
##ζομένης
διακα
ἀνασ
αἰτη
δεόμενον
διαφόρων
##eri
##χθεῖσα
##ρωσαν
ἐκεῖνό
ἀληθεῖ
##γειαν
##λφι
εἰδώς
κύων
κρατο
##τινι
ἀξιοῦσιν
##τεισιν
κωμ
##πτοντο
##ime
μεταβολήν
δρᾶσαι
ἔπεσον
παχύ
διαφέρουσιν
σφοδρὸν
βέλτιστα
Ἀρίστων
ἀνατολικ
ἥδεται
##iii
ἐντολῆς
πατρῴαν
λουτρὸν
ὀφείλει
μνημονεύει
Ἐπικού
ἵδρυται
Ἡρόδοτος
δείπνου
Πίνδαρος
ὁπηνίκα
σολ
Ἄρατος
ὄμμασιν
##τραφ
##ᾶσαν
##ᾶσθε
##ωνυμ
##τιζε
ἐπονομ
προσδεχ
ἐμὰ
ὑποζυγ
ὧνπερ
μάται
συλλη
##άρχους
ἡγούμενος
σύμβολον
149
διαιρέσει
μειδι
μαρτυρίαν
διδάξαι
ἐδόθη
##σταλτέον
##λάβοι
Κύπρον
Ἀσσυρίων
κῆρυξ
Ὀλυμπιάς
ἁμαρτωλῶν
ὀνομάζουσι
ἀπολωλό
omnes
χαρακτη
πολιορκου
rep
tra
Λητ
δώσει
ἀμιγ
ἄστει
ἅλω
Ἀπορ
ἔταξεν
Ἠλεῖ
Ὑδ
ᾠο
##σμένους
##σιππον
ἐκρα
ἐκτρέ
##ρχονται
συνάγεται
πόλλʼ
##λειαι
##τέχν
δέους
##ίζῃ
πλείστου
συνεί
φθόγγ
##δέχετο
ἐπίγραμμα
λιμὸν
ἐδί
μερικὴ
ὀργάνου
ἀκούει
συνεχῶν
##κείμενοι
κακοὺς
νέοις
κοινωνεῖ
##δοξοι
155
144
στάσεις
παρασκευα
κελεύσαντος
τεκμαί
συμφορᾷ
πλείονι
χρηστὰ
##χυς
τερον
πολιορκίας
Ἀμύν
βορρᾶν
Deus
ἐλπίδος
περαιτέρω
Δημόκριτος
ἐλεύθερ
Μιλτιά
##όλυμα
##ΤΑ
προαν
##ίνιον
##υμέ
ἀποτέ
ἀναλά
καταλύ
κεκο
μέλας
##πειαν
ἑαυτήν
##θές
συνεστ
##δίδωσι
ἄρκτους
κατεσθ
##ήσηται
εὔνους
##ραγωγ
πέψεως
σιδή
φροντι
ἐδύναντο
ὕδασι
ἐνετεί
146
ἀσθενείας
δρᾷ
βελτι
δηλοῦσιν
νῆσοι
τραῦμα
ποιητέον
Λιβύ
σάρκας
παρουσίας
κλαί
παραιτη
κέντρου
λευκο
φήμη
ἀγάπης
ἀπολωλ
ἐρήμῳ
Τούτων
Σαλωμ
προφάσει
παραλλήλων
Ὠκεαν
ἐνενήκοντα
ἐβασίλευσεν
θορύβου
ΖΚ
Τελ
Τρῳ
αʹ
κλί
λάρ
λυχν
ἀτρέ
ἕκτῃ
ἠφαν
Ἰσμ
##αμεν
##νιον
##ωμένοις
##ίσθησαν
ἐκκό
τετά
αὐτομο
διακοσμ
περιβεβλη
##δρό
ἐφικ
ἀγών
##ηκότων
γνά
##ξειε
##ani
προφέ
λιχαν
Οὐεσ
γεγονότες
χρυσῆν
ἡγεμό
##στρατε
βιοῦν
κέντρῳ
Τιτ
δηλοῦσι
def
εἴρηκα
κειμένην
προκειμένης
βασιλικοῦ
ἔσσεται
ὁρμῇ
ἰατρικὴ
ἀπείρους
μάρτυς
πάροι
ἔμψυχα
αἰσχύνης
##μετρη
ῥινὸς
ἐμποιεῖ
Λυσίας
ἐκέλευσεν
ὑπομένει
παραπλήσια
διαθήκην
ὄφεως
ἀνομοιομερ
fe
ἄρου
ἔπαρ
Ἑλικ
ὠς
ὧδʼ
##μίας
##δός
##ώσασθαι
ἐπω
##σεταί
ἐπιγε
παραλιπεῖν
##υριν
μηρὸν
##δρους
##δειπν
##είης
πρόσε
πόρων
ἱερὸς
δειλίαν
σιτο
τροχα
159
φέρονται
##λόγοις
##ulo
ὀνόμασι
διδάξαι
ἐθεασ
ὀπίου
χρωμάτων
μηχανὰς
ῥίζας
τρέφεσθαι
σκευασ
Ἀργείους
Πρωτε
Epigrammaticiεἰς
γείτον
Ἄρτεμις
Ἀγγέλων
κήρυκα
ΔΙ
ΘΑ
ἐοῦσα
ἑλί
ἦττον
ὡδὶ
ῥῖνας
##ήρων
##ίσει
##ῷς
##OA
##ένης
ἀνηκ
ἐκπεσεῖν
##υμαι
ἐπιθεῖναι
ἀποϲ
θεμέ
καταγραφ
##ομένοισι
πείσ
ὑποθέσεις
ὁμοία
δύσεως
##ene
κατεί
ἀδελφόν
ἀξιοῦσι
σπηλα
##τίαις
γαμεῖν
##στάμενος
##δικον
χρυσᾶ
λύσιν
ταχύ
ἐπανῆλθεν
ἐξαμαρτ
τοσαύτη
πολιτείαν
τουτέϲτιν
##δίδου
κυνηγε
ἀνέμων
##egor
φίλοι
ἔρχομαι
φυλάττεσθαι
αἱρεῖται
ὕβρει
Ἀριστάρχου
##όμενοί
ἐδόθη
Ἀρκάδων
παραφυλά
potest
##γεῖλαι
ἐθεράπε
Πεί
ναρκ
ἔλ
ἤθει
##ατα
##μίου
##κός
##ώτην
##ῖπτον
##τιστος
ἐπῳ
δικτ
##ένε
προῆλθεν
ἐπιβολὴν
ὑποφ
##μφθη
δυνήσεται
##τίθησι
##κτρον
ἴσους
##χνιον
πυρί
κεφαλήν
φανερὰν
ἀνδρί
##ωσάμενος
152
θυγατέρες
καθεστηκ
πύργον
ἐργά
ἄκροις
Γαΐου
πεζοὶ
ἀνέστη
Κύριε
ὅρκοις
Σεμέ
ἀκολουθίαν
κατορθοῦν
ῥηθὲν
##σμούς
ἀπείρῳ
γίγνοιτο
μαλά
##λοίμην
ἑστάναι
ἕξουσι
νεκροῖς
πλείστας
νόμιμον
ἀγκῶνα
ὠμοπλά
ἰσχύος
Λουκᾶς
Ἑκαταῖοϲ
aus
yo
Τροιζ
ιζ΄
ϲοι
ἑταί
Ἰδομεν
ὕλας
##νιος
##ισμοῦ
##ογον
##θῶ
##ᾶνες
δικαν
διάρθρω
##οῦϲιν
παυσα
##λεσα
μεστὸν
##λαί
##ίνηται
ἔχωμεν
##στεραι
γενομένην
προσί
ὑποφα
##λινδ
ἐφιστ
πάμπαν
φύλλον
πέπλ
##λυε
βορε
βοηθε
δυνάμενα
##τεῖαι
ὑφέ
δίψ
γραμματι
##τρεφ
μεθυ
158
πείθει
φυλάττει
αὐτόματον
καινῆς
γενέσεις
Ἀχαιοὶ
##ίδαο
##οκλέα
Ἀπολλόδωρος
στρατόπεδα
ἀπάτην
ἀίδιος
σφαγὴν
διαφόροις
ὠνόμασεν
κεῖνος
als
Πορφύ
ἄνισα
πλουσίων
συμπόσιον
##βίβα
ὀβολοὺς
Σειρ
τρεπ
ἀζ
ὀνε
##μαιρ
##λεῖται
##γνε
##ζομένην
##σιουργ
ἀποσταλ
##τικὸϲ
παρατά
δεσμὸν
##σμῳ
ὑπολεί
δεῖγμα
νοητοῦ
##κτόν
##λοιϲ
ἀπεχώ
ἐπεμβ
##πωσιν
διάδο
##μήσας
Μεγά
θερμότητος
ἱππό
λαμβάνουσιν
βούλοιτο
κλῆσιν
ὀλίγην
καλουμένης
θύγα
θυσίαις
γενεὰν
θερμασίαν
δαίμονες
Ἐπιγράμμα
φράσαι
δεσπότῃ
##τούσης
θᾶσσον
ΕΖΗ
βότρ
πολλαπλασ
ἐπιπέδων
καθήμενος
ἀπονέ
ἀποδιδοὺς
δεσποτῶν
κεκοσμη
Ἀγρίπ
λώ
ἔταξε
ἡτοι
ὕστερα
##ρὰν
##ρῆσθαι
##σφι
##πλου
##κωσιν
##ήσεσι
##ωτο
##ύμα
##ήτως
##ώρων
διῃ
παλι
προτρεπ
##ρείας
ταρά
ἐξῆ
##στιον
ἀναλω
στί
##ύνοντες
εἰπόντες
##έχοντο
ἀκολά
ἐχούσας
βασιλεύειν
πρόφασιν
ἀνδρει
συλλέγ
κάρα
ζωήν
γενέσεις
δείξῃ
τελευτῇ
ἐπισφαλ
##γέντες
162
συμπρά
συγγενὲς
ἰχθυ
σημείωσαι
μέλλοντι
λαλῶν
παρανό
ἀθανάτων
παρεμβολῆς
ἄψυχα
Stob
Γαλατῶν
διαφθεῖραι
Cr
Κεντα
Ταυ
αύ
λβ
πέρ
στον
ἁδρ
ὀμ
##έστατον
##υγα
##φοντος
##ψανα
##ύου
##ξην
ἀνῆ
ἀπέρ
##λευτ
ποία
καταλῦσαι
δεομένων
##θαὶ
λεόντων
καλῆς
##ίζομεν
τίθησιν
κακά
πόσα
ἀσμένως
##ξωσιν
κάθετον
ἀπόκρισιν
ὁμολογῶν
τίνʼ
τελευτᾶν
πείσας
πλευρᾷ
ἀποκρίνασθαι
πρεσβείας
δούλου
ἀπαιδε
Δαυὶδ
φρένα
φαύλως
Πέτρου
XXV
εἰρήνη
μεγίστη
##οὐκ
ἀγάπην
σπερμα
αἰ
τἀγαθὸν
τέτταρα
πλούτου
Καρκίνου
Σέλευκ
Θησέως
Πελοποννησίων
δορυφορ
βεβιω
εὐαγγέλιον
ἀμμωνιακοῦ
ζέ
ἄβ
Ἕτερον
Ἴστρον
ὑβρ
ᾔδεσαν
##ύδα
##χά
##μεῖον
##εσι
##δαις
##δυμα
##δρευ
##θῃς
ποτι
μελά
##δευ
εἴληφεν
ἐγέ
περισσε
πεύκ
ὑποτά
ὁμοίου
##χθων
φυγα
πρόσθε
##ακος
σύμπ
etc
θηλειῶν
σταδ
ἐλαυν
ἐλάλησεν
κακοδαιμον
κοινωνίας
μεγάλῳ
σύνθεσιν
ποιήσῃ
161
μισθοῦ
ἐθέλῃ
ἡγεμονικὸν
εἴποιμεν
βαλανε
συζυγίαν
πεπονθὸς
δεδιέναι
ἀντιστρέφειν
ἐπίκλησιν
ἀπαλλαγῆναι
νύμφης
ὀνομάζουσιν
φλογὸς
τόλμαν
##πολεμ
Κτησι
Βακχ
προοίμιον
πεποίηκε
στικ
ἅς
ἐαριν
ἑλλην
ὅθι
##ϲου
##ϲϲα
##φοβ
##rt
##ζοι
##αιρα
##σθήσονται
ἀνέβ
ποθʼ
##λιτῶν
##ρχοϲ
##γεα
ἐμβρ
λαόν
μεταφορ
##πτώ
##ώνῃ
στρατόν
##ίζοντο
γινομένοις
ἀνάγεται
ἀνεῳγ
##άσου
ἐσφ
ἡδονή
γυναικί
γεννᾶσθαι
σκελῶν
##ήσων
φιλοσοφία
157
πραγματευ
τεκεῖν
κυρίους
Σιὼν
ἀποδεχ
γεωμε
ἥνπερ
σάρκας
ἀμβρο
ῥίζα
ἀλλότρια
θρόνον
ὑπάτους
Σοφοκλῆϲ
ἀπομνημον
ἔαρος
Ἀστυ
κυλίνδρου
προπεριϲ
##υλλάβ
ipse
med
Μασ
βέβ
νώ
φονε
ἀθέ
ἄπορ
ἤνεγκε
ῥήσεως
##χοῦ
##ύοντα
ὑπή
ποθειν
ἐπιζητ
##λιχος
πλήρεις
περιέχεται
περιγεγραμ
μέτρου
##πτρα
τόποι
ἀργαλέ
##ρωνος
ἀντιλαμβάν
πέπει
πόδα
σωλ
##δραμε
κόρ
λοβ
ἀπέστη
##τίθενται
ἐπίπεδον
θερμὸς
θάλ
ἐπανελθὼν
παρέσχε
φοβούμενος
πείρας
θύρ
ἑπομένων
ὁρισμόν
ἐπιχειρεῖ
##ωθιν
ἀνθρωπίνην
ἀκατά
ξύλων
ναυτι
φαῦλοι
##στρεψαν
θήραν
στάσιν
ἔκρινε
δεσπότην
διηνεκῶς
δύναιτο
βοηθημάτων
καθόσον
ἐπυνθάνετο
Λύ
Νό
βῶ
ζώντων
χή
χον
ὀλυμ
Ὅρα
ὐπ
##ύονται
##xx
##ρακος
##μενός
##άνδε
##άντιος
διαθέσεως
ἀποδοκι
θερα
δεόντως
οἷός
##κειον
ἀκοντ
ὁμοίους
δύστην
##τίαις
εἰσῆλθον
ἰδοῦσα
##νησι
πιέ
##λικας
δυάδος
##βεβλῆσθαι
διαφορᾷ
ἀπόστασιν
ἑκάτερος
##καλεῖται
ἀπορεῖ
##στάτην
ἀπαλλ
ὑπάρχοντος
ὁμολογίας
μνηστε
##νυσθαι
θαυμάσαι
166
ἐγκωμ
νεκρῷ
ληπτέον
##ίαιϲ
λογισμοὺς
they
τελευταῖα
ἀπώλειαν
ἅρματος
##ωτάτην
συστο
πήχεις
##βαίνοντες
ἐπισκοπὴν
κρηπ
ψεύδεσθαι
συμπεράσματα
ὑπήκου
ἠγνό
ἔκρινεν
##θνηκε
ἐμνήσθη
Cic
βρώ
ἐμοὺς
ἑωθιν
##τίου
##όεν
##ψυ
##όραν
##ίδη
##ήσῃς
ἄνισ
πόλων
##λειος
ὑποβ
ἀγρίων
##ert
νεώτεροι
ἀντιθέ
λιμὴν
δίμετρον
ἔπειθʼ
τρίχας
αἵρεσις
ἀκριβέστερον
##υμένοι
πίτυ
Ἐνταῦθα
νικῆσαι
160
δρομ
##υμένην
ἐλπίδων
βραδύ
##δρομον
δεσμὰ
ὁπόσα
δήπουθεν
φηϲὶ
Θεοδό
βαϲιλέωϲ
λῆγον
στιγμὴ
##τιθέμενος
ἀγγέλους
ἀλκὴν
δαίμονας
ἀναπνεῖν
χαριζόμενος
ἥρμο
σύμμαχοι
συντόμως
Κλυται
Μύ
φλα
ψάμ
ἀρη
##ύοντος
##έσις
##όπι
##όεις
##δίαϲ
πρᾴ
ἐκλιπ
τεύ
ἐπιβά
ἐξήρ
θεάσασθαι
εἴδομεν
αἰκι
##δαλα
τούτοισι
##ούσιον
εἰσάγει
ἑαυτά
##λάου
τάφῳ
ὑπερή
ἱερᾶς
πληγαῖς
διεστηκ
ἐπίσταται
##χαῖς
##ξενον
ποταμός
ἐνεδρε
συμβεβηκότων
##κτικὰ
παρέλαβε
##μεινών
φαντασία
μαρτυρεῖν
τρέπεται
##μήθη
their
πρεσβυτέρους
ἔνιαι
##στηρίων
δώσω
ἄνεμοι
πήγνυται
φιλοσόφου
φίλτα
διαδοχὴν
Ἐπαμεινών
κηρωτῇ
Κλέαρχος
φαλακρ
τεσσαρακο
fuer
Πί
κγ
χοῦν
χόρ
ᾔτει
∠Β
##χρή
##άγετο
##ῖψαι
##βέ
καυσ
##οῦσʼ
ἀπῆλθε
##λεμον
##λαμψ
##λαμῶν
παρ᾽
παραρ
πόσα
##ηγορικ
##ίαϲ
Καπι
σφέ
ἀδή
κρίνεται
γυνή
##πίμπ
δυάδα
##ρικὸς
##ύχου
##θείσῃ
Οὐι
γαϲ
σύμφων
ὑγιείας
διανοεῖσθαι
καθεστ
βάθει
Gregor
εὐδαιμονεῖν
εὐδαιμονίας
ἀκρίβ
##ημεριν
Ἀμφί
τρυφερ
συστέ
πλοίων
ἔπραξαν
καρποφορ
θυγά
εὐσέβειαν
Θουκυδίδης
ἀποδέδεικται
ἐπακολουθ
εὐχερῶς
ὠφέλιμον
Ἀρτεμί
divin
αὐτεξ
Δικαι
Κλέων
Φοί
ϲύμφ
##ύσαντο
##οτέρων
##μεται
##ηταί
##ωμένους
##φαρ
##βομεν
##ριός
προτερ
ποιότης
τινάς
αἰώνων
δεϲ
##ποὺς
συμβαλὼν
ὑπολαβεῖν
##δροις
##λίαι
σκή
ἐκείνας
##ριθμη
##υπά
μια
καιρός
τελείως
δόξαι
##χειρα
εἷλον
##eth
παρέδωκε
φιλοσοφίᾳ
σχετ
164
ὀνόμασιν
χρηστέον
vers
πρεσβύτεροι
μαλά
ὀσμῆς
Μάγν
κάλλιστα
Πομπήιον
Ἀκαρν
κινηθήσεται
ἐδέξατο
νύξ
τόλμης
ὀργάνοις
γοργ
Ὄλυμπον
τερμινθίνης
φέγγος
cap
ep
Τό
κρισ
ἴδον
##ύας
##ιοϲ
##έοντος
##ῆτα
##βια
##ώρ
##ΐῳ
ἐνίκα
διερευν
##μαϲ
##σιδος
ἀπ̓
##κεϲ
θεὰ
ἀναβι
ἀναπεί
##τέθη
μαθή
ἀγκύ
##ῦνον
##λόγει
κόρη
δίκτυ
##θήκην
φρονοῦντες
οἰκείου
διάκρισιν
ὁμολογοῦσιν
##ιστῶν
χαλκο
μακρῶν
στοιχει
πιστεύων
κοινωνὸν
##όμαχος
δημοσίων
Διονύ
νῆα
ἐπιβουλευ
ἀποδείκνυ
σκέλη
ποιησάμενος
ὑγιαίνειν
κρείττονος
Καρχηδονίοις
προσηγόρευ
Περιπατη
Θεμιστοκλῆς
συνέβαινεν
Καλλίμαχος
δεῦρʼ
Bi
ΚΜ
μίσ
τας
Ἰώ
##ϲθ
##ήτω
##ώπῳ
##δαλον
##ουβ
ἐκφαν
διαβεβαι
αἰτῶν
περιπ
ὑποδεί
ὑπογρά
##τέων
αὑτά
οἰκοῦσι
ἀντικατα
βασιλευ
πρώτους
ἄγχι
δυνατῶν
θανά
λίμνη
ἡγεμόν
διανέ
τόνου
151
##φιλον
νικηφ
πύλης
ἐναργέ
Ἀριστοτέλην
δηλοῦσθαι
ἡσυχίας
ταπεινὸν
##τῆρες
##μνημον
πικρὰ
λαλεῖ
σπλῆνα
παρθένους
Εὔβ
συμβουλευ
ἔτεκεν
##ίῃσι
ἑταίρας
##ήϲεται
ψιλὸν
ὕβρις
ἐκπεπτω
φυλασσ
ἀνεῖλον
λάβωμεν
διατριβὴν
γλαφυρ
εἰώθασι
ἐδίδαξεν
ἐλαττόνων
ιη΄
εἰλήφθω
ἄχθος
Σευη
γούνα
Κλω
ΝΞ
Φάβ
φήσαντος
ἰά
ῥιγ
##βελ
κανον
##ληπτον
##τηρίῳ
##έρᾳ
θεά
ἀνακά
ποιμὴν
ποιούντων
αἱμορ
##τοῦσαν
πάντ
##erem
τάφρον
γένωνται
οὐσίαις
ἄρρην
##άζοντας
πληροφορ
σοφός
##oris
διάλεκτον
κρατοῦντος
τροφῶν
πενθερ
ἀστρολογ
γνώσει
Μακεδό
ἦλθες
uns
βλέπει
ἐθελον
πρωτε
##ττοσιν
ἀρίστην
σχολῇ
ὑπεροχὴ
ὑπερβολῇ
Βαβυλῶνι
ἠπείρου
σπεύδων
ἀγωγῆς
##tione
ἀμύνεσθαι
##λλακται
ῥώμην
πλείοσιν
σύνεγγυς
ἐπράχθη
ἕβδομον
ἀντιφατικῶς
Antip
Ἐπιγράμμαϲι
fl
Μίνω
ΦΑΙ
πτα
ἀσε
ἀλεύ
ἁλί
##γʼ
##γοις
##ξάμην
##τιθεὶς
ἐπελά
προπη
προεῖπεν
##υμι
εὐτρεπ
ἐγκρά
κολοκ
##μβρο
ἐφέ
μεταλαβεῖν
ἀγαθός
##είσθω
##ττῶν
ἐχει
ἀντισπ
νόσους
ἐκείνας
φιλοφρον
##ano
##αρχοι
λέξεων
##ρήθη
χωρίοις
προειρημένον
202
Παρθυ
τέχνας
ὕπνους
ἀγαπᾷ
βλάπτειν
πρεσβείαν
προνοίᾳ
ἀναβιβ
σιωπᾶν
ἀπαγορεύ
μάρτυρα
ἀποτελεῖται
ἀμβλ
##όχειαν
συνθέτου
ΔΕΖ
Ξέρξης
φλέγματος
πώποτε
Κηφισ
ἀμειβ
Οὐεσπασι
Re
Κλή
σοί
ϲεϲ
ὤκν
##γυ
##hn
ποία
ἐξήγησιν
##ησίς
στὰς
κινήσεων
##λόγων
Περδίκ
λοιπά
σώζεσθαι
δικαστὰς
κύστεως
##φεσι
##βολι
ὑπάρχουσαν
σπουδαι
καθάπαξ
αὔξειν
ἐλάττους
μεγάλως
ὑγρότης
ἀπέστειλεν
ζῶντι
προστέ
προκειμένων
πεπονθέναι
καλούμενα
ὄψον
δένδρου
ἀπηλλά
ἀντικειμένων
γνωρίσματα
πλείοσι
προσηγορίαν
ἐνυπν
ἀίδια
ἐσθῆτος
συνάγειν
Προμ
ἑταῖρε
Συρίας
##γένετο
ἀλεξ
ἀναίρεσιν
ἀναγκαῖόν
φῦλα
ὁλκά
διαλέγεσθαι
διδάσκαλον
Εὐαγγελι
ἐδήλωσεν
ὑγίειαν
ἀναθυμιάσεως
ταὐτομάτου
Alexand
Τρα
Φοῖνιξ
φόρους
##αίου
##ύρους
##σμασι
##είαν
##ὸξ
##ινν
##οικον
ἐνδέ
ὑπόνοιαν
##ρίδα
ποιμα
καταμαθεῖν
οὕνεκα
πόσον
γενήσεσθαι
##δοτοϲ
τίθενται
##μνῳ
ἔντερα
ἰδίῳ
##άγησαν
##ακὸς
εἰκός
μεριζ
εἰϲὶ
παλαιὸς
βάθους
##τής
σαρκός
163
καλουμένην
πυκιν
τουτου
χάλκε
χρήσιμος
ἀλλοιοῦται
κρείττω
μονάδες
νίκης
Φοινί
ὀρθογων
ἐτελεύτα
regn
Ἀντίπατρος
πουλὺ
werden
sapi
Βανδί
Μαυ
γηγεν
νά
Ἔφε
ἰὼν
ὅλους
##ωι
##ίδε
##ῷα
##ΥΚ
##ονες
διῄρηται
##θητο
ὑπολειφθ
##ξια
μεταβάλλον
τίϲ
##μηκες
ἀμφότεραι
σεβ
##κόσιν
Ῥωμαίους
ὀρθὰ
εὔχομαι
μεγάλαις
ἁμαρταν
ἀπέδωκε
ἐσόμενον
δυσπνο
γεγυμνα
ἰσό
ἰσάκις
##ides
φάτο
150
χρήσιμα
165
168
Υἱῷ
##ωτάτῳ
##μωμον
πρωὶ
τραχήλου
σημαινόμενον
σπονδῶν
ἀνήκε
κούρη
καταντ
ἀγαγὼν
ὄρνιθος
αἴτιόν
Αἰσχίνης
διατρίβειν
παρθένου
καθεύδειν
ἀχώριστον
ἀξιόλογον
φλὸξ
Naz
ΔΗ
δρι
ού
Ἀλα
Ἡμεῖς
ἱμερ
##πνα
##κώς
##όη
##δὼ
##ῷος
##αια
πρᾷ
διελθὼν
ἐκλέ
τεύχ
##σανδρον
ἐπικατα
##μένες
διαυγ
συνδυ
##ησὶ
παραφρον
##πιπτον
Καμπαν
##χθήσεται
τρισχιλίους
##τήτων
θέλειν
##λάς
πράσσειν
οἰκείους
φανερὸς
Ἰουδαίας
δυνατοὶ
βάσεις
χειρός
σύνθεσις
ἀδιορ
ἠξίου
Πέτρου
##ώδεσιν
πεῖρα
σωφροσύνη
Πολύβιος
συκοφάν
alter
ἀναγινώ
##λάβῃ
περιβόλου
προφανῶς
νεφροὺς
ἐνιαυτοὺς
Ἀλεξανδρέων
εἰδώλων
ἑκούσιον
la
ΚΒ
Πό
κλον
ψυκ
ἀκε
ἐσκε
ἠρά
ἧν
ὁριστ
##φί
##ύλῳ
##ουϲαν
ἐκπνο
##ρεω
##ρεψ
διασταλτέον
θεμέ
εὐτον
##έρειαν
##νεκεν
##σκοντι
ἐμῇ
πάντ
ἀρχαῖοι
##στορα
##θείϲ
μονάδα
##ici
τρόποι
ἀπορρο
εἷλεν
Ἰουδαίαν
λίθοι
ξηρῷ
ἐσχατι
λεπτῶν
145
ἐνδεχομένην
ἀδιαιρέ
ῥητίνης
πλατύ
ἀναβὰς
ἀπαγορε
συστῆναι
σωτηρία
αἰδοῖα
ἄγνοια
διώρισται
καταγίνεται
δυναστείαν
ψύξεως
σοφιστὴς
παρεῖχε
βασιλεύοντος
Κρήτην
ἀποκτείνας
γλώττης
συμμέτρως
λιθαργύρου
cae
Βρού
ΗΕ
δον
ιθ΄
φυρ
ἄπω
ὄρθ
##φραν
##ψηται
ἐνορ
πατά
συνδε
εἴθ
##σαιεν
λαόν
μακρα
##χεϲθαι
##άζομαι
σκί
##λήμων
##άζομεν
ἀσπί
ὅπλον
εἰρημένην
θέμενος
##ωϲιν
ἀδικῶν
ἐνεστῶτα
##ψαμεν
ἀργύρου
φοβούμενοι
Ἀντιόχειαν
##θῇς
βραβε
##ρίζεσθαι
χρώμεθα
##στῶσαν
ἔγραψα
χείλη
χείρους
δεσμῷ
πρεσβυτέρων
ὅρασιν
παρειληφ
Συρακόσιοι
##μμετρα
##ίσκος
τμᾶμα
δάκτυλον
εἰληφέναι
παρεῖχον
Ἀσδ
ἐντυχὼν
τέτταρας
ἐπωνυμίαν
ὁλοκαυτ
Δημοϲθένηϲ
συγκλήτου
Πρα
Σημ
Φειδ
θέρος
Ἐρασι
ἠβου
ἠλευθ
Ἡλι
ᾠὰ
##μμεως
##μπτειν
##προφ
##ύσασθαι
##ζος
ἐπάλ
##σθης
##λεω
ὑπώ
##ικας
ἐπιβαλλ
ἐξώ
παραβα
ἐμποδι
ἀφει
ἀγρο
διαφθ
##ηκότες
##ώνους
##ίζω
##είτω
##σίονα
πόδες
ἀπεστ
κόρον
κεφαλαι
ἑκατο
##ζοντι
##λλαξε
Σαπφ
ἐπαύσατο
γεννῆσαι
μεγάλῃ
θάλατταν
νηπ
186
ἐθέλων
ἐπιφανῶν
λήψεται
πολίτην
ἀφαιρεῖσθαι
αἰχμαλώ
περικει
κινδυνεύ
τολμᾶν
τριακοσίων
νομίζω
τοσούτου
εὐφρ
θυσιαστήριον
ἐσσεῖται
ἐγγύθεν
Ὀλύμπου
Φαρνά
δημόσιον
προϋπάρχ
γήρᾳ
Δημόκριτος
Πατρόκλου
ἀκρίβειαν
Νεῖλος
βηχ
ἁμιλλ
Ἅγιον
ἕκτῳ
ἠλα
ὠχρ
##οτέρων
##ώμασι
##ύρ
##ὲμ
##ίσθαι
ἀνύ
ἀπισ
##ηνοῦ
παρή
οὐδ᾽
ἀπολειπ
##άνιον
αἰαῖ
παραβολῆς
γενητῶν
##υσά
κολυμ
μέσῃ
##κεια
##λίην
συγκρι
##ξαμένων
ὑπερβολῆς
σεσω
##λικοῦ
λαβών
σοφῷ
Εὐθύ
τοσοῦτος
##άρχῳ
πυρέ
προσεδό
γεγονότα
θερμὴν
μακρὸς
ἐπαμ
φέρουσιν
ἄλλοισι
φυγὰς
##υμένα
189
ἐπιδημιῶν
Τίγ
##ign
βωμοὺς
κρείττους
τιμωρίας
Λυκού
φλεγμονὰς
πείρᾳ
συμμάχοις
στρατεύεσθαι
ἐσχάτην
σῖτος
περιέχοντος
φαρμάκου
αἱρέσεις
σφαλερ
πλεονεκτεῖν
κνήμης
Κτησιφῶν
ges
σπι
ϲαφ
ἁμα
ἄξων
ἑὸν
ἥβης
ὀπί
##ατος
##πτην
##ψουσιν
##ήσασα
πρι
ἐκτός
κατέχει
ταρι
ἐπιψα
συνῆν
##θεσθε
οὖτος
##ησέ
##ούμεναι
##σκαν
ὑπολή
##τέλλει
##στοί
##ηκότος
φυλῶν
ἔφερε
κρυφ
παρεί
##δέκατον
ναυτ
τελεία
προσεποι
ἄγρια
##μένουϲ
ποταμοῖο
οἰκείῳ
ἐνετεί
ξηρόν
ἀμείνω
##τικοί
λάθρᾳ
λαμπρὸς
στάδιον
χαρὰν
ἐνδεχομένη
coni
ἀγαπῶν
ὁμιλεῖν
ἐρεί
Πυθαγόρου
σημαινομένων
διεξελθεῖν
τριγώνων
πινόμενον
μονάδος
σταυρὸν
##πέμψαι
##πέμψατο
παροιμίαν
ἀνωμά
θήλεος
προσφέρειν
τοξό
ἐγκέφαλος
εἰώθασιν
τοσοῦτοι
σίδηρος
θάλαττα
Αἰθίο
κονιορ
Gregorius
ΚΖ
αὶ
δῃ
κἢν
ῥ
σεῖο
Ἄργει
ἔρις
Ἰδα
##ογρά
##άσιν
##ήτας
ἐκίν
ἐκκό
ἐκβαλ
δέει
δέοντος
##ύνου
μεταβαλεῖν
μεταβολαὶ
καλὰς
ἐρυσι
συστάσεως
ἀντικείμενον
βασιλείᾳ
ἱερά
##μοῦσιν
δίκας
γραφή
##τυρον
ἀστέρος
φέρουσι
συμβλη
ἁγίας
βιάζεσθαι
Τιγρ
φθορά
σκιᾷ
πληγῶν
##παια
ἐννοεῖν
σάρξ
δούλοις
ἀρχιερεῖς
καταλιπόντες
ἐξιέναι
αἱρεῖ
κτίσεως
ἐμφαίνει
Ἰωνά
νομίζων
κἀκεῖσε
τετάρτῃ
δάκν
ἐχρήσαντο
συμπληρω
δεύτερα
Γλαύ
παρεκάλουν
ϲτρατηγ
πεποίηται
διαφθαρῆναι
ἐμνημόνευσεν
Ἀποστόλων
ἀπαγωγῆς
κρειττόνων
Ἀντιπάτρου
Ἀμμωνίου
θυμιάματος
Αὐγούστου
red
ΚΡ
θάν
Ϲικ
ἐδο
Ἰώνων
##νῶν
##ῥ
##πλευσαν
##κτας
##ήϲει
##ξὶ
##στῆρα
##λευρ
##όντοϲ
προξεν
κατηφ
ἐπιτρί
συνίστασθαι
##ναγκα
ἀποθε
εἴλη
##τρύ
καταῤῥ
συμβαλεῖν
συμπλέ
ἀφρον
##δησε
ψυχρῶν
πολύν
νεώ
##ττόμενος
συσχ
υἱοθε
##νητον
λεγομένη
εὔχρη
δαφ
inf
μεγάλαι
φρονήματος
ξηραιν
##γένηται
προτάσει
188
χείρων
οἰκονομίαν
ὅρασις
κόλπος
φηϲίν
κεκαυμένου
κατισχ
Μένανδρος
ζήτησις
ἐτελεύτησε
Βασιλε
##έγνωσαν
πανηγύ
natura
περικαλλ
αὐτάρκως
στρεβ
ἔοικας
πλήρης
ὁμόνοιαν
Ἑλλησπόν
εὐεργέ
nihil
Cicero
Δῖός
Λυγ
Μοι
Μουσ
Ποϲ
ἄλφι
Ἰὼβ
ὀϲ
ὀϊ
Ὀν
##ρυπ
##άσαις
##δρά
##ὲψ
##ϊα
##λλή
ἐπέχει
ἐκτί
##όνοις
προθ
##σετο
##δεὶς
##ίνιος
ἐπιτυγχ
##στεῖ
##γελλ
ὑποκριν
κινούντων
ἀγρῷ
##λωνα
ἀδίκων
συγγ
συγκρί
κρίνει
τίθεται
σχεῖν
εἰρημένας
σύστημα
ἀδελφὴ
##amus
στασια
θυμός
λέξω
ἁμαρτήματα
λαμβάνουσι
ἐναργέ
ἐκ
εὕρω
προσέθηκεν
οἴκημα
κέντρα
κριτήριον
Ἱπποκράτης
μέλλοντας
ποιητικῆς
βωμοῦ
ἴσχειν
πνευματικὸν
θηρία
##ebat
δεδιότες
κτήσασθαι
διχο
Κόλ
προστίθησιν
διαστήματα
ἐκέλευσε
##στράτου
form
ῥάχιν
Ἀννίβαν
Γότθων
Σέξ
ἔρριψεν
Σκορπίου
νῶτον
παρῄνει
ὑποπτεύ
θέαμα
Ἰακώβ
ἑαλω
οἰμωγ
te
Μην
ζό
χων
ἐάσας
##ύῃ
##ἐκ
##ΟΙ
##μασ
ἐκπι
ἀπολυθ
ἀναδε
αἰρ
περιέχεται
##φαίνετο
φαμέν
##κάλει
##τέθη
##υπτος
##σθητι
διάθεσις
ἡγούμενον
πράξας
##άγη
ἑτέρωθι
γεγονότων
ἐπίσταται
##ασπι
κύκλους
μαρτύριον
ἐλευθέρων
σύνηθες
##βάλλεσθαι
γλυκέος
Ἀγησι
κριτὴς
##ϊκῆς
γενεὰς
##δρομῆς
ἐλέγχει
##ρῶσθαι
προσώπων
βόες
χρονι
καταβὰς
Ἰούδας
σῴζεσθαι
##τιθεμένων
εἰργάσατο
Ἀσκληπιοῦ
μῖξιν
διαφανοῦς
ΒΑΓ
ἐλεύθερος
διαστήματι
Ὀρφ
ἔβλε
τμήματα
ῥώμῃ
δημοκρατίαν
Ἠλείων
Πριάμου
λέχος
Κυζικ
ἐτυμολογ
ἐνετείλατο
Nazian
ΑΝ
Θρά
Κν
Σού
ρε
ἀλυ
ἀγεί
ἐοί
ἠλι
ἤνυ
##άδης
##όκα
##φῃ
##φρά
##tem
##ώμασιν
καμή
##ειπε
##ανῶν
ἐπουρ
ἀνέχ
##λεγε
ὑπεί
##ίνητον
##όνους
παρούσης
διατα
διαπον
##λοφ
ἀποβαλ
ἀναλαμβάν
καταπλ
##πορε
##πολέ
##λέος
πάθεσιν
οἶκτον
ἔφε
ἀρή
γίνοιτο
##ημαρ
##άζω
##λίοις
##τόμενα
βουλόμεθα
##ριαμβ
Ἀρσά
μερικὴν
πλεῖσται
γραφή
ταχεῖαν
πεπρω
ὁπόσοι
##uld
γέρον
λυπεῖν
διηγεῖται
τεκμαιρ
ἀπιὼν
πειρῶνται
ἀντίφασις
μισεῖ
ἀρίστη
κανόνα
πτερύ
φθαρῆναι
ῥηθήσεται
θαυμαστόν
λῃστε
ὑμετέραν
ὑγιεινὸν
θνητοῦ
ἐχώρουν
ἀλόγου
Διομήδης
παραλληλογ
ἐπιτήδει
Νικαίᾳ
πλείοσι
χόλον
φλὲψ
esset
Gott
δόντες
κνί
ϲῶμα
ἀμο
Ἄμμων
ᾔδειν
ῥήματος
##ύμασιν
##ίσθαι
##οικε
ἀπικ
ἐκλύ
διαπλά
##τικώτερον
πολλή
γεῦσις
ἐμπεί
δέδωκεν
ἐφελ
##ηρύ
##δοντας
##ήνας
τίθεσθαι
ἀντιγρά
##μοῦσι
διάφοροι
διάμετρον
ὀργήν
ἔγχος
θεωρεῖσθαι
καθαρῷ
Μαυρ
##τολήν
192
ἀναιρεῖσθαι
μαχόμενοι
νενο
ἐρεθι
πελάγει
φιλανθρω
ἐπινοίᾳ
ἐδέξαντο
γνωρίμων
καπνοῦ
Δαβίδ
σκυτο
Ἑλένη
βουλόμεθα
ἀγχοῦ
διαιρετόν
ἀθάνατος
φθείρεται
ἀδύνατα
ἀίδιον
ich
Μό
Πλη
ἑ
σποδ
ἔκρυ
##πυρ
##δνα
##ζεις
εἰϲι
ἀνάρ
##ρικοὺς
ποθεν
κατώ
περάτων
διαθέ
ἀνακρ
ποιότητας
##στασαν
##υτά
αἰῶνι
πολλήν
παραλαβόντες
##ομένα
##παυται
οἰκτ
##μισ
κινῆσαι
##πειον
##ρωτο
οἰκτεί
##λυτος
ἀσέβειαν
φθόνου
ἀπεσταλ
ἀπεκρίθη
##σθείσης
διδόντες
σύγκειται
πέρατι
τροφή
πολέμια
πολέμοιο
##υμένῳ
ἀστρά
ἀστέρας
πίπτει
ἐφεστ
ἀξίων
γέροντα
οἴκησιν
##ile
ἐλευθερι
περιττώματα
ἔγνωμεν
ἤρκει
ἀνδρείᾳ
κρείσσων
τιμωρίαν
ἐδεσμάτων
κεραμε
ὑμετέρων
μονάδων
ξανθὸν
##μούμενοι
Σπάρτης
ὁρισμοὶ
ἀπροσδι
πεντηκο
ἐοικότα
ἐγκώμιον
γλίσχ
οὐγγίας
ἀδολε
θεσπέσιος
Nazianz
Pa
nobis
Γο
ΔΑ
Κάλ
γῆϲ
πτε
σν
Ἀβι
Ἡφαι
##άσεις
##ίμου
##mod
ἐποπ
##σιτος
##τωνος
##λαστα
ἐπιδεχ
διαλεί
ποιήματα
##σχος
##ησομένων
στῆσαι
ἀρχόμενος
ὑποθέ
##άρου
##μπτε
##χθέντος
εἰπόντες
ὁρώμενον
ἔφρα
συνεστηκ
πέδον
##ήσητε
τελείως
ἄρχον
μονοϲ
##στικὰς
θηρίου
μάχαιραν
θερμότερον
ἁμαρτάνειν
ἀγνώ
κακοδαί
ἐσχάτων
154
ante
185
ὀνόμασιν
ὑπομνη
δείσαντες
βάπτισμα
ξυμμαχ
##δύνως
frg
ἐξηγεῖται
ἀναισθησ
ἀνιαρ
πηγῶν
##endum
μέλλοι
τυφλὸν
ἀφελέσθαι
πλάγια
ἁφῇ
##ύσομαι
συλλαβῆς
συλλαβὼν
ὁρῶσα
παραινεῖ
ἀποδιδόναι
δειχθήσεται
ἀμοιβα
##σφατον
σύγκρισιν
ᾠδῆς
Σωκράτει
πρόϲκειται
διήγησιν
σκῆπτρον
ϲώματοϲ
νεμεσ
ἰχῶ
Ἐπίχαρμος
Aeg
Σο
δοι
ηὑ
Ἄργους
##λὲς
##δοῦ
##ίδηϲ
##der
καύ
ἐνδια
διήρ
ἐπιτηρ
##κεα
διατρίβ
εἴργ
καταληφθ
τοιᾶ
γενομένῳ
##σμός
λέ
##μβῳ
##ώνια
##σσῳ
ἀμφί
##οίμεθα
νοσῶν
##άζῃ
##βολάς
παρεγγυ
πανήγ
κατευθ
Περσί
τρίτης
δικαίοις
ζητούμενον
οἰκεία
##ρόϲ
##φέρουσιν
διανομ
τελευτὴ
ἐφεδρε
λύπη
γάμος
##ϲαντοϲ
ἀναιρῶν
ἑβδομα
##υλλο
στερεόν
##μώτατον
μνήμῃ
erat
##έτωσαν
##οτάτη
τοιαῦτʼ
Σάμον
βάρους
μαθηματικῶν
Πολύβιοϲ
τετάρτην
πύργων
βραχίονα
Μιθριδάτης
συμμετα
τέκνων
δυσεντερ
ἀρτίως
ἀναθυμίασις
Δοκεῖ
eorum
Σό
Τισσα
βίων
κβ΄
τῆν
ἡσσ
ἥκι
##πρά
##ωθὲν
##ψά
καλοὺς
##ανά
##ρακα
##ερά
##εργα
##ριδι
τελεῖν
##ρεγ
##ίνεις
##ληπτέον
ἐπισχεῖν
διακω
συντρί
καταχρ
προσω
πεπί
ἐφά
Θεόν
ἀμφορ
φύϲιν
ἀντιληπ
ἀληθής
ἐπεδεί
προφέρ
ἀπέστησαν
πάσχοντος
σωτήριον
##θήσεσθαι
παιδείας
Ἰνδοῖς
ἐπιφανεστά
##οποιὸς
Θηβῶν
ἀγαπητ
παντελῆ
διαβιβ
παθητικὸν
##κούσης
λήψεται
ἡδέα
διαθέσεων
ἀπαλλαγὴν
φήμην
κλύδων
συγγνώμης
παραδόξως
Αὔγ
ΚΑΛ
ἀνδράσιν
ἀῤῥώ
τηλικαύτην
apud
Στοᾶς
ἁπλουστ
Τισσαφέρ
car
po
Γυν
Λογ
κλεῖ
ἀβα
ἀτά
Ἡρά
##έθ
##ήσαν
##ύονται
##ίλας
##ῆας
οὐσίαι
διερχ
τεθα
προτέρ
συντέ
ἡμάρ
ἐμβά
τίμιον
συγκείμενον
οἰκεῖος
ὑπερβάλλ
χωρίων
##τυχον
ἀπόφασιν
ἀπόλαυσιν
##φέρετο
ὑπάρχουσιν
βάλε
##βάλλετο
ἀργὸν
πράττει
γάλακτι
Florr
διηγεῖσθαι
τραπέ
ὅρκου
στερεοῦ
βλάπτει
βάρους
ποιητικοῦ
ἀλγειν
Πυθαγόρει
πυρετοῖς
ἀπείρων
βουλεύσασθαι
κοιλίη
πλεονεξίας
ἐλεύθεροι
ἐδήλου
πεποιηκέναι
Christi
ὡρμη
γηρά
τετράγωνον
φαίνηται
στρατιώτας
δεδογ
δυσεντε
διεφθάρησαν
διαρρήδην
σαφεστ
ἀναλάμβανε
Ber
Ma
θλ
μω
ξύν
ἄϲ
##άρια
##ττας
##ήλα
##ωμένοι
##φθα
##ύομεν
##ζέ
##ζομένους
τομὴ
##ωνι
ἐνθα
ἐντός
##λεγεν
ἐκκριν
ποίας
μελί
##λασσ
ἔχοις
θεούς
ἐμφορ
##υσί
##ίασι
##λλοντο
##τίθεντο
##άζου
##θέως
φιλομαθ
##ρέθησαν
##ρικὰς
##μψαι
μάχεται
ζῴδιον
ἄξιόν
##κριται
ἰσόπ
ἐργασίας
μετρεῖται
ἀνθρωπίνης
Φαέ
νίκῃ
##φόρος
##ando
2220ʹ
πολυπλα
τάλαντον
διαφανὲς
δακτύλους
διατριβῆς
συμφέροντος
κοῖλα
Ὀλυμπίᾳ
προυπάρχ
πληρῶσαι
Κορίνθιοι
ἐπορεύετο
Τουτέ
ἱμάτια
Στωϊκοὶ
ἄσκησιν
σῦκα
τἀνδρὸς
pos
Ε∠
γέλ
Ἀσίᾳ
ἕξεων
△Ε
##νυχ
##όεντι
##ωμένην
##het
##ΤΕ
ἐκβαλλ
προά
ἐπιθεὶς
διαγνῶναι
ἀποπτ
ἀπολυ
ἀναστάσεως
καθότι
ποιοῦντι
καταμετρ
περιχαρ
##σμιον
ψυχαγωγ
ἔντε
##αίοις
##έχονται
δηλη
ἄρξαι
ἐπιστητὸν
##ίονος
δαμά
κάλα
κατηγορουμένου
δίδωμι
σταδίοις
ὀφθαλμούς
ἀκριβολογ
μαθηματι
ξηρότητα
ἔλαθεν
##πτουσαι
λάβε
κλίνης
171
169
##λυμμα
Παρά
χυμοῖς
δουλείας
249
ὀνομαστὶ
Ἀχιλλεύς
ἀνθρωπίνων
κέκληται
##δρομος
ἠρεμίας
προϊὼν
##πλασσε
ὑπεροχῆς
Ἄλλο
##υτάτω
δηλωτικὸν
σπερμάτων
φιλαργ
Ἀλκιβιάδου
ἀναμιμνή
ἀρέσκει
παλινδρομ
Μαξιμ
Num
min
occ
Αἶ
Σφ
έν
γυῖα
δομ
ρον
τέγ
ἐθρ
ἠι
ἠλέ
##εὐ
##όουν
##ωτέρας
##ύμου
##ήτοις
εἰλή
αὐτέ
ἐπιζευγν
##υτῇ
##σχῃ
συμπεπλεγ
πόρους
κακὴν
συγκριν
οἰκοῦσιν
ὀρνί
##λέσθαι
φανείη
##isi
ἀνάθημα
λέξεις
νόησις
##θείαις
Οὐο
δίδοται
ἡδονήν
ἀδικοῦντας
ὑπάρχῃ
φυσικὰς
νυκτῶν
ἀπειργ
##τριοι
191
ξένοις
προϲώπου
αὐξάν
νυνδὴ
ἀνελὼν
ὄγκῳ
ἀνατομῆς
εἰδότα
##υτόνως
ξίφη
ἀφέψημα
ἀπάτης
ἑταῖρος
ὠνόμασεν
πραχθέντα
Ὑπερεί
Οὔτε
ἡδέα
Ὠκεανοῦ
Ἰάσον
ἐγχειρί
ἀλώπηξ
Μυτι
ξίφος
γηραι
ἄῤῥεν
δέδοικα
Ἔφεσον
were
Γραφ
Κρέ
ΤΩΝ
κάν
πίσ
ἄγοντα
ᾀδ
##πρ
##ϲεται
##ίσι
##ζουσαν
καμν
##ανδρον
πρην
ἐκφερ
ἐκφύ
ποσσ
##σαμένοις
##σασθαί
##ίνοι
διαβα
συνδια
##κοος
καταλή
παραγιν
##ποῖς
μητρό
ὑπογρά
λαοὶ
κινητικὸν
νεαρ
οἶν
γνή
##σκετε
Διοσ
ὑπερβάλλ
##τήσει
ἀπεστε
σύριγ
σύμβολα
##ores
ἁπλοῦ
##στικῇ
κατηγορούμενον
διάφοροι
##urr
κενόν
ἀδικίαν
φανεροῦ
οὐδενί
λύπας
##ale
ὀστέον
195
δώρων
Ἀνακρ
Ἀρχελά
κειμένη
πλάτους
Νικάν
πρεσβευτὰς
ὁρμὴ
Ἱεροσόλυμα
ξίφει
φρενι
εὐκρασ
Ἀντωνίῳ
imp
Εὐριπίδου
διατριβὰς
περιϲπω
γλώττης
##isset
ἐγκαλεῖν
Ὀρέστης
Ἡρώδης
ἀκάθαρ
φιλάνθρωπον
ἐμνήσθη
πλεοναϲμῷ
μηδαμοῦ
Nazianzenus
Am
ihr
Βοσ
Φθ
βήματος
κταν
σό
ἰγν
##κμα
##όην
##θυρ
##ύκ
##στρος
##οῦτε
##σιωπ
ἀνεσ
ἐκώ
ἐκπί
προτα
##δευμα
ἐξεργ
διατά
διακοσίους
θετέον
εὐδοξ
ἀναθήματα
##γασμα
ἐγὼν
προσπι
προσπί
πάθεσι
##στολὴν
##μνημα
δύω
##τάτων
δέοντος
σχιζ
γινόμενος
μένος
##ουσά
ἐπίθετον
μικρὰς
##φορὰς
ἀδελφός
δικαίους
τελείαν
ζωή
μερικῆς
ἐπιθυμῶν
κοιμω
κρεμα
##λούμενος
γάμῳ
##ρούμενα
184
##φημον
ἀναστῆναι
Αὐτὸς
πραγματείαν
προκειμένου
ἄστροις
προθυμίᾳ
ἀποδείκνυ
πεσεῖται
πεπερασμένα
συμβουλεύ
κείμενος
πονηροῖς
##φέρονται
ἀμέσως
##ενεγκὼν
αἰδοῖ
##πέμψας
Κύπρις
θηλυκὸν
Φωκέων
συμπεράσματι
ἥδιστα
propter
Λεύκιος
ὁμοιομερῆ
δούλου
Ἥφαιστος
Ἡφαίστου
σκώλη
ἠ
ληγ
ξυρ
στεῖ
ἰητρ
ᾄδειν
##σορ
##λύν
##ξίαν
##ΛΗΝ
##IX
καρχ
κακι
καμά
##ωνον
##τιοι
παύεται
##σεος
ἐπιγρά
παρίστησιν
ἐξαιρέ
##θεϲιϲ
θεοί
ἀναβο
καταγελ
##θημερ
##πολ
##τανῶν
##erm
##ίζουσα
##είδ
γένοιντο
##αυξ
Ἀνά
##φαλαι
ὀρθή
##έβληται
δικαίαν
ἡγουμένου
σπέν
##ζεκι
##στάσεων
αἵδε
δραχμῶν
ἀστρο
172
γυμνὸς
Ἀναξι
uni
ἀριστερῶν
κράτιστα
πραγματεία
μορφὴ
οἰκονομίας
ἐλέγχει
κρεῖσσον
ἀπαρέ
παρέχων
ῥητορικὴν
ξηραίνειν
ὠνόμασται
habet
αἰσθανόμεθα
μελετ
Αἰθιόπων
ὑπηρέ
ἀκροατὴν
προφάσεις
ἔφερεν
##ώνιοϲ
Πινδ
LXX
serv
Δύ
Ζα
ὅδʼ
##ύσαι
##οπον
##πλει
##ϲῶν
ἐνδει
κατωτέρω
ἐπιλαν
##ναί
##λογα
##υτέον
##στερόν
οὔτοι
περιπλε
ὑποταγ
μέρεσιν
##μάτι
ἐκεί
##γενὴς
φυτε
πόρον
νόημα
##ότητά
τέμνειν
εἰκόνος
ἁπλῆς
ἡγουμένων
θέλῃ
Παύλου
πράττοντες
δυσφορ
χρυσίον
##ασάμενος
##cha
ἐπαΐ
ἔπλετο
##γένεια
##τράβων
καλουμένων
ἑπτά
μαρτυρίου
τραύματα
ῥητοῦ
σκηνῇ
ἀφαιρεῖν
μέλανι
ἑστὼς
χωριστὰ
τετάρτῳ
διαλεγόμενος
Φρυγῶν
##ive
μειζόνων
μακάριον
ἠθέλησεν
κυβερνήτης
δυνάμεσιν
Θρασύ
ἄγνωστον
πληροῦται
Ἀρίϲταρχοϲ
Ecc
Νεῖλον
φλό
ἥρως
##νέ
##ιδος
##ικαὶ
##οσκ
##ξαί
ἐκπορευ
διαμον
διαθέσεις
εἴχομεν
ἀναπέ
##σχει
ἀκμά
μέμφ
τέλεον
τέταρτος
νεωτέρων
οἶα
τάφου
##δίω
##λεύσας
πληγεὶς
ἐπεδείκνυ
##τηρίου
τοσόνδε
ἀξιοῦμεν
στρατιὰ
κωλῦσαι
##str
ἀμελεῖν
ἀθλι
γιγνομένων
ἐπιστήμῃ
Ἀλλ̓
##βρεις
Ἀχελ
παρασκευῇ
##ϊκοῦ
ἀκακ
τοσούτοις
ὄχλων
νέος
ἐζη
ἀπαγγέ
ποικίλα
πόνοι
Μάρκος
πύλας
παρακαλεῖ
ξηραίνει
##fici
Βοιωτίας
Leib
illius
Ῥοδίων
παρόσον
μακάρων
θυγάτηρ
ΘΒ
Χεί
ἔδε
ἦϲαν
ἶρις
##άσω
##ηχαν
##ωμένοις
##ΐδος
παί
προλαβὼν
##όνδυ
##πεμπε
παραλαμβάν
βασάν
ἀφό
λείας
ψυχάς
##πιστ
##σσοι
συγκρί
##ξαϲ
νοήματα
σκί
σχέσει
αἴγ
##λέων
φθά
##ora
##στική
ἀμφοτέρους
γεγονώς
δίαιταν
ἐγγυτάτω
##βάτου
προειπεῖν
κοινωνία
διέφθειρεν
Αἴγιν
κηρὸν
λίθοι
194
exc
ἐπιστολῶν
Τίτος
χρηστέον
ἀκολουθήσει
μυρίων
μίξας
περιφερείᾳ
ποίησον
ἀκουόντων
ὑψηλό
ἔπραξε
Καλῶς
ἀθρόον
ἐπιτρέπειν
ἀγάπη
τέμνει
Διομήδους
μαντεῖον
θαλαττ
σύμμαχον
βακχε
ἀνθρώποισι
Παμφυλ
γόνυ
Ἀφροδίτης
κακοχυμ
Aegyp
Str
θύν
φῇ
Ἁγν
ἐόντες
##άναι
##άριον
##σμένος
##προς
##τρίαν
##nis
##ίσει
##βή
##ᾶϲθαι
##τερε
προγεν
τιθα
##τραις
##στερόν
##ησόμενος
γελοῖ
περιά
περιπνε
λέγουϲι
##δούς
πάθοι
##ητὶ
καλός
κακίᾳ
##τίθησιν
##πέμπει
τέλη
inv
ἀξιόχ
σπουδά
χαλεπώτερον
170
ἐγκλί
οἰκοδό
##στήκει
πρέποντα
εἵλοντο
σπέρματι
σφοδρότερον
θαρρα
αἰτιᾶσθαι
Χρὴ
ὄρνιν
ἐφαπτ
ὑψηλό
χθονὶ
ὑπολαμβάνειν
σῶμά
ψεύδεται
στίχος
Πειραιᾶ
ἐπίσταμαι
Ἀντίπατρον
σύγκρισιν
ἴϲωϲ
MAB
le
Μοῦσαι
Νέ
Νιν
Τάδε
αυ
βρά
θνή
φρί
ἑπόμενον
ἡτοί
Ἰλλ
Ὅτε
##ρῴ
##λῆϲ
##θίου
##ζόμενα
##ώσω
##ΐμ
##ηνὸν
ἐπιχεί
##έρως
##κοψε
εἴληφε
εὐρύ
ποιήσεως
παραστή
##δαπαν
##θηκας
προσφέρειν
ἀφεί
ἀρχομένων
καλοῦντες
##πλῶς
ἀκάν
##στοργ
πολυφ
##era
τέτακται
φυλὰς
σκῦ
##θεικεν
ὑπεροψ
πέτρα
γινομένοις
νομίζει
##γωνος
ἑνί
σώφρονα
##τυχε
ζῷόν
συναφ
μακράν
##ose
φυσικὸς
διέτριβ
ἐσχάτων
ἔπαι
πύλαι
190
φράσω
περικε
τυφλὸς
συνιέναι
μνημονεύειν
ἀλλοτρίοις
ἐπισκοπῆς
##τιθέμενον
φθονερ
παρακολουθεῖ
πλεοναχῶς
Αἰσχύλος
φαρμακ
Σπάρτῃ
σύγκλητον
Ὀρέστην
ϲυλλαβὰϲ
ἐνίκησε
ἄφθονον
ἐϲτίν
ἀδύνατα
Διδύμων
ἐπίσκοπος
Ἐπίκουρος
ἐγκλημάτων
ἀσελγ
ἄπωθεν
Hoc
βʹ
σέβ
φῶτα
ἄμετρον
Ἀπα
ἠπει
##ισθῆναι
##ϲια
##υες
πρεϲ
##σαμένων
##ικῆϲ
##τημό
συνελθόντες
##ναται
παραλογισμ
ἐμπεσεῖν
λόγιον
##μπων
##σωπος
στραφ
##σσόν
δῆτʼ
παρεσκεύα
χρηϲ
ἀνεβό
##ωγραφ
αὑτὰς
ἀπόστασιν
ἐλαύν
εὑρόντες
##είσης
δυναμένοις
πεισθῆναι
σκοπεῖσθαι
ἐσχάτου
λαμβάνοντες
##γένης
208
193
φεύγοντα
ἐπιδεῖν
στενὸν
γενεᾶς
Νικηφ
τραχὺ
ἀνδρεία
ἀπολογίας
ζῶσαν
ὡρισμένον
ἐκάλουν
ἐρημίαν
διαίρεσις
ἐπισκόπῳ
γράφουσιν
φροντίδος
ἐξετάζειν
παρακελευ
Κρήτης
Κλαύ
ἀποικίαν
ἄδηλα
Νέστορος
ἐνανθρωπ
Τοσα
eius
pec
Κνί
Σχ
Χε
χίλιοι
ἀρο
ἑστῶτα
ἕλοιτο
ὑμεν
ὕβρεις
##ημένους
##δίας
##ίγνω
##ίσαντο
##ΙΚ
##λλιον
##ραγμα
τοῦδʼ
##μαϲιν
ποτοῦ
ἐπιπεσ
##λισχ
ἐξῆλθε
ἀποκό
ποιῷ
ποιμν
καταγέ
##ποντι
##σκορ
πόσις
##αντίον
λεύ
ἀκανθ
τέθνηκεν
πρόφασις
##ττονας
Αἰο
Αἰλι
κόρας
##ότηϲ
λοιπῷ
λευκὴ
λιπὼν
σπή
##βάσεως
μαντικῆς
Ἰουδαίαν
μαθημάτων
θεραπεύει
ἐποίησα
##θαρσις
##ψειεν
συλλογισμόν
##δήμου
πόντῳ
γλυκύ
Λεπτ
φίλοις
χρώμενον
πεπερασμένῳ
ἁρμονίαν
πρεσβύτης
γάμον
σωτηρίᾳ
προφήτην
νεκροὶ
ἐβουλόμην
στάσις
imm
Θήβαις
μειζόνως
παράλληλοι
ζῳδίου
καταστήσας
Λατίνων
χαρακτηρ
ταρσ
Αὐγού
ἀνδράσι
Ἐφεσ
ἐμάχοντο
ϲυντάξεωϲ
ἀρωγ
intelleg
σχιστῆς
νωτιαίου
##υλλάβωϲ
ΑΜ
ΤΟ
θῦσαι
χη
χλω
ἄριστ
ἄλευρον
ἕστηκε
Ἐρυθ
ὄστρα
Ὠριγέν
##όριον
##ίοισι
##ήρυ
##ῦσαί
ἐπαρκ
ἀνέγ
##ριπ
κατηρ
διακομ
διαλογι
ἀπολιπεῖν
θεᾶς
ἄντρον
##τρύων
παραλογι
πλάνην
ἐφόδου
##ονταί
δύʼ
σφυρ
##άζομεν
γινομένας
ἐπιστὰς
δόγματος
##λοιπ
πανδημε
ἐπεδεί
διεληλυθ
πολεμίους
ὅσσον
##ηϲεν
##φωνον
ὀφθαλμῷ
πεισθ
τἀδελφ
ἐντελέ
κεκραγ
##ριζεν
συνέσεως
φερομένων
ὁρῶντα
180
196
##σάκις
ἔπεμπε
ὕπνοις
ἡδύ
Τίμων
ἀπαιτεῖν
sei
ἀπώλοντο
Χαλκη
κινδυνεύει
τυράννους
ἀποφάσει
Εὐρώπῃ
ἀναπνοὴν
φροντίζειν
Πορφύ
συνημμένον
ϲυλλαβὴν
##μοσύνης
βδελ
##στρατοπεδε
παρατάξεως
χιτὼν
θεραπαιν
ἐβάδι
πολλαπλασιάσας
ἐβοή
Φοῖβος
ἐπίνοιαν
ἀκρίβειαν
Ev
vit
Μαλ
Σκη
Φυ
ἁλλ
Ἐμ
ἤρχετο
Ἥρη
##ιμα
##σμασιν
##όεσσαν
##ϲιον
##ίμους
##ειμι
ἐπῆλθε
εἰδεί
ἀπέχεσθαι
συνῆλθον
εἴθι
##μέ
συμμ
οἷοι
ὑποχεί
ἀκμῇ
εἰσάγει
##σκεψιν
##ττόμενοι
κραι
δοκοῦντος
δῆλόν
παρεγένετο
##ουστος
διεστ
##θανεν
βαρεῖαν
ἀνεξ
ἰσχύν
ἑκατέρων
δυσμῶν
δυσμὰς
γεγονότος
γεγονότας
ταῦτ᾿
κενῷ
##stan
Ἰουδαῖος
στρατηγίας
##ροισι
παρέλαβεν
ἀποστρέ
##οδώρου
201
add
μισθὸς
χρώματα
ἀντικεῖσθαι
ἀντίθεσιν
νίκη
παρθένοι
Προσ
διαρρή
ὄγκου
ποιήσω
προστιθεὶς
μετέωρον
πεπονθότος
λῃστ
φόβου
βλέπων
θνητὰ
##τιθεμένων
ἀπολέσαι
κλήρῳ
βάρβαρος
δυνηθῇ
ἀγωγὴν
##γένειαν
ταφῆς
εἴασεν
μεριμν
προδοσίας
ἀποθνήσκειν
ἴδιόν
ἡμέτερον
μεσημβρινοῦ
Εὐφράτην
Βαϊμ
ὄγδοον
πανδημεὶ
men
κικ
σειρ
ἕψεται
ἥττων
ἴωμεν
ὀπω
##ύμασι
##ήσθω
##ξάντων
##ζόμεθα
##ϊς
##μαϲι
ἀπωθ
ἐκλέγ
ὑπασπι
ποσαχῶς
προχειρ
προαίρεσις
##έρειαν
ἀποπα
##ρησα
θεοῖσι
χρέος
καταπι
δεδου
##πολλον
##δοτε
ἐφημ
πάνθ
##μπεται
τέλοϲ
##τίους
##τίθετο
κρέας
κύα
##εύων
##ριθμή
ἱεροσ
##λθαι
σύγ
ἁπλοῦς
##ισάμενος
##ica
γράμμασι
ἐνεδεί
ἐπικεί
##ψασθε
μαρτύ
κομίζων
ἰσοπ
κατασκευῇ
σκεπτέον
μνησθ
τόνδʼ
φυγὼν
ἐλπίσιν
παντοκρά
Νικίας
γραμματικὸς
διαβὰς
πεντακο
πεντακοσίων
Deut
στρω
θύρα
συχνοὺς
θνητοῖς
##κισχίλιοι
Φαρισαῖοι
θεοπρεπ
##πιπτόντων
συνέχειαν
ἐφθέγ
ἀπογείου
βίαιον
εἰδώλων
##γεγράφθω
μοναδικ
Ὑδάσ
ΗΓ
ΜΑΡ
θώρη
ἀϊ
ἀλύ
ἔλη
ἦτε
Ἴβη
##κεῖ
##όπ
##ui
καπη
αὐθά
μετων
παρώ
στέα
λέγετε
##λειμμα
##δειξαν
ψυχρόν
##βαϲ
##ωτέον
Κατ
##μηϲ
##ξαμένου
βουκο
##άγου
τρισμ
##αιρεῖται
##κοντά
##φαλος
##στησι
λαβὲ
τρίψας
θέλημα
λευκὴν
φρονήσει
ὁμολογῶ
ἐκκλησία
λογικόν
ἐνδεδ
ἀπειρο
173
γνώρισμα
##τριμ
199
197
Γαλλ
from
contin
βλέποντες
λήγει
λήθην
ἡσυχῆ
ἐλέγχειν
αὐχμηρ
ἀτελὴς
μάρτυρες
ἀφροδί
μαρμαρ
δυσχερῆ
νύκτωρ
εὐνοίᾳ
ψεύδους
νόμισμα
ἑταῖρον
σκότους
στίχον
Βοιωτίαν
ἠγνο
περιττοῦ
μισθοφόρους
ἐμβαδὸν
τέκνον
προσεκύν
Θεοδώρου
##πούδα
Στίχ
νέμονται
λαφύρων
τοιᾶσδε
had
ΘΓ
Ρωμα
ζα
θέρ
νησι
πτό
πταρ
ἐᾶσαι
ἡβ
ἰοβ
##οτέραν
##οτέρους
##πώ
##τὲς
##ηταί
##ώριον
##δρίαν
##θώ
##ύοντος
##uti
##gel
##ταῖϲ
##ραί
αὐδ
ἐναλ
ἐκλύ
ὑπορ
τεθῇ
διαμένει
λείαν
##δρʼ
##αγκά
##πτὸν
##γιστον
φαϲιν
##τέρʼ
κοιναὶ
ἐκείναις
Αἰθί
δόλον
σοφόν
φιλοτί
μάχεσθαι
δαΐ
##οίαις
ἁμαρτεῖν
##όρθωσιν
##lim
ἐπιθυμίᾳ
ἀστρα
μαρτύριον
##κτικὴν
ἁγίαν
ἁγίῳ
χωρίς
##τροπα
221
συνέστηκεν
ἑπομένων
ἔπεμπον
##ocr
Νικο
Λυκό
εὐαγγελίου
βλάβης
παθημάτων
φρόνιμος
Δαυείδ
##πλεον
διορισμὸν
Ἑβραίοις
ὁμωνύμων
ὑψηλὰ
ἰσοδυναμ
κριθῶν
##μικται
ἀψευδ
διακεῖσθαι
θησαυρὸν
νύμφην
Ἰωσή
Σκύθας
προσφιλ
ἡττηθεὶς
πυνθανόμενος
δοκούντων
Περικλέους
ἐλέφαντας
κοὐκ
ἀντιλέγειν
Ἀνδρομά
μέλαιναν
ἐνδόξων
ἀποκριθεὶς
Μελχισεδὲκ
Τή
δωρη
ρμ
##εα
##έης
##δρια
##θός
##βύ
##ft
αὐταρ
ἐνει
παρο
διατί
θελ
θείᾳ
θεώρημα
##τικώτερον
καταλαμβάνει
##ησομένους
παρασ
παραλλαγ
γελῶν
##θημάτων
μετώπου
πόσῳ
λέγουϲιν
ἐμπα
##τέως
##ίασ
καλά
ἀκη
##πειδὴ
διαφυλά
φυλλ
κρέα
##λήσεως
νόσημα
λαβόντας
λεγόμενοι
quas
κατηγορίαι
πράξεσιν
διαφοράς
##σπαρ
ἀκούσῃ
κατέσχον
##πόλεως
κοινωνία
179
##υμένοις
##τριβε
200
δήμου
247
ἀφανὴς
διδασκαλία
γραμμαὶ
ποιητικόν
##ήσωσι
ἀκουστέον
πεπονθέναι
σκευῶν
πονηροὶ
φωρα
##θυνον
ἐκφεύ
περισσὸν
σύμμετρος
ἐσχάτως
ζημίας
συνουσίαν
ἕλκεα
φῦλον
ἔκτισεν
Χαρίκ
χλιαρ
λανθάνειν
Ἔρωτα
προθεσμ
διέφθειραν
ὤφειλεν
αἰφνί
ἀσελγε
iv
Λιγ
Σμύ
βίους
σαγ
στηρ
χλο
ἄμικ
ἴριδος
Ἱέρων
ὄροϲ
##ύος
##κύ
##τν
##ζομένη
##ῦσα
##hi
##τεσσι
ἀνοσι
##ριφ
##ική
##ορηγ
διαλαβεῖν
ἄνεσιν
περιβαλ
προσνε
ἀκηκό
μέθοδος
ἀγαλλ
τέττι
##λευμα
φιλοφροσύν
##καιδεκά
βουλομένοις
κατέσχε
λύει
ἱκανοὶ
##φάνη
κατασκευάζειν
ὑπεσχ
ϲυνεϲ
φαντασίᾳ
##ήγησιν
205
ἄκοντες
ὀλιγο
ῥήτορες
διελέγ
σφυγμοῦ
εὐτυχίας
ἀρτηρία
ἀποτελέ
δράκοντος
ἀναβλέ
ποίημα
αἱροῦνται
ὁμωνύμως
ἐδέοντο
βρῶμα
##δραμὼν
χαρακτὴρ
μηδαμῇ
ἀποδιδρά
ξυγγεν
Τούτου
ὠνόμασε
Ἐκκλησίας
παμπληθ
ὄμβρων
ἀπεργάζεται
ὁμονοίας
πραττομένων
ἡνιοχ
ἠπίστατο
τέχναι
Ἡρωδιανὸϲ
μεταπεμψάμενος
Βηθλε
δωροδοκ
ἀμήχανον
mort
tot
war
Βρεν
Δίων
Ξανθ
Πάντα
ὁτῳ
ὄρεσιν
##λτου
##τται
##τίας
##ϲία
##ῶδεϲ
##θ᾽
##ίσκον
##ζομένῳ
κασσ
##τανε
##οιτό
##εῖά
ἐπώ
ἐπῆλθεν
ἐκφων
ἐκπυ
##τωνι
τετιμ
προσκει
κατω
##ροα
διαμένειν
εὐστ
καθαιρε
##δαίμων
##σκι
γενομένας
##αντὸς
##υκέναι
##ύνοντο
##υθέντες
ὑπεράνω
εὐθυ
ἀπεστά
##δόκη
##θέμεθα
ἀναγκαίας
βουλήν
##άσηται
ὅσʼ
ὅσσα
σπάρ
ἕνεκά
θηλείας
Εἰρ
λογίζεσθαι
κατορ
ἀγνοῶ
##θωνα
βιβλίου
πολιτεία
καρπόν
αἰσθητὴν
δρῶσιν
καλουμένους
240
μύθους
ἐργασίαν
καταφατικῶν
ἐνέπ
περιττὰ
σκιὰ
οὐδαμῇ
πληγὴ
νεανίας
συνήθεις
ἀκολουθίαν
ἀρίστου
Λυδῶν
τρέφειν
Χαλκί
ἀπολαύειν
παραγενέσθαι
συναγόμενον
ἀσπίδας
μέλανος
ἀκίνητα
ψιμυθ
ἐπισκοπεῖν
ἐπιχωρί
Οὗτοι
φιλανθρωπίαν
νύμφη
ναυμαχίαν
ηὔξ
##σημος
##όμενός
πλεονεξίαν
προηγουμένως
φεύγουσιν
ϲτρατι
ὑπηκόους
ἐγγυτέρω
ἐξαρκεῖ
appell
Ταρκύν
Chrysipp
διάρθρωσιν
περιπνευμον
Si
iis
Ιl
Προϲ
γειν
ἑστάναι
ἔπλα
ἠφάν
##χαλ
##οτέρα
##ρυν
##όου
##ωγαῖς
##ψάμενοι
##ίοισιν
##ίσῃ
##ῳκ
##vi
προν
ἐνθύ
οὐαὶ
ἐκπορ
αὐτοτελ
##ίνηϲ
##ικώτερον
ἐξί
ἀποτυγχ
##τρώ
καταλυθ
ἐμηχαν
##γνυνται
λαμ
λαθρα
μεταδι
τίκτου
δεῖπνα
##τάτη
φυλαττο
θερά
ἐπιστάμενος
γίνηται
κατελά
##ξωσι
ἐπίτρι
νόσῳ
Ἑλλὰς
χεῖλος
δεινοῦ
ἐλαίας
ὑπόθεσις
τοσαῦται
χαλεπὰ
ὑψι
ξύμμα
τελειότητα
##ρίζων
ἐπιτηδεύματα
φάσκοντες
κρίσει
πολίτης
##λληλον
συζυγιῶν
ῥαψ
στόμαχον
καπνὸς
ἐμβληθ
στέρησις
νύμφ
μεμαθή
ἄθλων
ὀλοφυρ
γλώσσης
##inde
κατεῖχε
ἐνίκησεν
δικαστηρίῳ
ὑγίεια
Κωνσταντινουπόλεως
Πορφύριος
Γ△
Μειδ
Νυμ
μογ
ξό
ρα
χλα
ἔμενον
ἤθροι
ὄμμασι
Ὠριγέν
ᾧπερ
##μία
##πλι
##φθεί
##αιρον
ἐντει
##ρισις
ἐκλέ
προτέρῳ
προγεγον
ταξι
ἐπιζευχ
ἐξελά
ποιέειν
##σχου
γεῶδες
περιτυχ
γενομένοις
##πασε
ἐφυλά
ἀγαλ
παρεμπ
σώζεσθαι
δυνάμενοι
λέων
φρονιμ
##στήρων
δεινὴ
θεωροῦντες
σημαίνουσιν
ταχυτ
γεννηθῆναι
τροφαῖς
μεγάλας
χαλκοῦς
μεγαλα
ξένης
οὑτος
κορυφα
ἀκούσαντες
##act
κειμένου
ἔδοξαν
##ττουσαν
ἀντίπαλον
ζητήσεως
θαρσα
##ϲϲω
ἀρκεῖν
ἀρτηρίαις
δεσπότας
Σωκράτην
διττόν
τοιαῦτά
συσκευ
ἐσχάτης
ὄρνιθας
εἱμαρμένης
ἐγχωρίων
ἀρξάμενος
προτάσεων
ἀλλοτρίας
Μωϋσέως
κηρύγματος
Ἀντιοχείᾳ
ἐδίδαξεν
πέπονθεν
αἰχμάλωτον
λαθὼν
πετρῶν
κῦδος
Φυσικῇ
Αἰγόκερω
tamen
Plutarchus
Μᾶρ
Πίνδαρος
At
nomin
Γν
κτεῖναι
μβ
ος
ἄκοντα
ἄξον
##σμένην
##πωμα
##κέν
##έστεροι
##ωμένα
##ΟΓ
##λεσάμενος
##ίναι
ἐπιτρό
εἴρ
##γαί
αἰπό
##δαὶ
##υστος
πεφρον
##σμους
##δησαν
ἐφεί
ὁμοίας
##ίκησιν
ἑαυτήν
νοῶν
ἐχόμενον
##νηϲ
σωφρόνως
##δόθη
διεπρά
χρησάμενοι
ἀνάστασιν
ἀδελ
ἑνί
εὔκ
##ραγαντ
##πησε
εὖτε
βραχὺν
κατέλιπε
ταχίστην
ἀγνοίας
182
203
Παρὰ
Παρνα
μύρον
Λεοντ
##στῶσα
εἵποντο
ποιητικὴ
##οειδὴς
ἀναβῆναι
ἐλπίδας
μάντιν
στάσεως
ψεύδεσθαι
μονογενοῦς
ἀκριβείας
##βάλλοντες
λιβανωτοῦ
Χάρι
ἰητρε
βελτίω
βασίλεια
κάρτα
ἐντελεχείᾳ
σθένος
magn
κύλινδρος
Ἀγαμέμνονι
ΜΑΡΤΥ
sag
Βηρ
κί
φόνον
χύ
ἅλες
Ἄλλη
ἔσε
ἴδοις
##κὸν
##ημεν
##ώτερόν
##ικός
εἴθʼ
εὐκο
ἄνθους
περιγρά
συμβάλλεται
συμβάλλεται
##μιϲ
##μνης
σφαιρῶν
δοκοῦντας
αἰτίου
##ακὴν
ἑκάϲ
ἁπάσαις
τρόπαιον
ποτῷ
Οὐλπι
δήμα
ἀπορία
##μάς
βραχυ
##aris
##ητικὴν
κατέλαβε
δυναμένην
χρείᾳ
##ψαντι
κατασκευάζειν
κατάστασιν
226
ἐνδεχομένως
adv
καινοτομ
Ἀρχί
##ωθήσεται
καταστῆναι
ἐπέτρε
ἑορτά
γινώσκομεν
σωματικῶς
ἡγεμόνος
αἶγας
περικεί
προσδοκᾶν
φάρυγ
ὀσμὴ
##σσετο
κείμενα
συντελεῖν
ἐτόλμησεν
παραδείγματος
χλωρὸν
Κορίνθου
Μεγαλο
πανηγυ
ἡρμοσ
ἐξαίρετον
Ἀκραγαντ
συμμετρίαν
ἀφορισ
Ῥόδον
ἑρπετῶν
ψῦχος
δεδηλω
summ
πιστοῦται
Col
ΕΙΣ
Σά
φραγ
ἀλόγως
ἅμι
ἐβι
Ἐγ
ἡλί
ὥν
##λύειν
##έμενος
##υλί
##θῶσι
ἐπῃ
ἀπλοῦν
##ρικοὶ
##ένας
εἶμι
##άνος
##ικά
συντέ
συνωμο
ἀποτο
ποιόν
γεραί
οὔτις
περιγε
λέγον
πετά
πάθοϲ
ἀκμάζ
μέση
##χεων
##ειδὲς
##ματιϲ
κρίνων
νοήματα
##ωματ
##λυον
##στηρίου
##ώνην
κάθοδον
ἀπέστειλαν
Οὐρ
ὑφέ
εἰϲιν
ἀπορῶν
##γνωθι
##ητικῶν
##βάλοντο
στρατηγός
συμβι
μῆλον
χρήσιμος
anni
βιώ
206
προσέθηκε
εὐδαιμονία
σημείοις
##πτωκε
Λιβύων
##ττοσι
##ωτέρους
ἀποδείξει
ἐτελεύ
ἐνιαυτῶν
ἴσχυσεν
πλεονεκτ
συζυγίαι
##entiam
δωρεῶν
ἐφαπτο
ἐφαίνετο
ἔπραττεν
θρασὺς
##πλάσιον
φηϲὶν
καλούμενα
διακριθ
Λέσ
ἐπισκόπους
νουμην
ἐκαλοῦντο
ὁκόσα
Θεσσαλον
συμβουλεύειν
ἐρυθρὸν
ἄξονος
ἄσπε
ἀπαθὲς
ἄργυρος
ἠρώτα
##βροκό
Τηλέμαχος
Τοιαῦτα
Μαραθῶνι
τετιμη
ὀλυμπι
Ag
nam
pop
κίον
πῆμα
πώς
τὴς
Ἤλι
Ὑπ
##ρρο
##πτη
##ϲτή
##ήσοντας
##ωμένου
##ΕΝ
##ἀγαθ
##ἄν
##λλους
##λλουσιν
τεκτον
κατέχειν
αὐτουργ
##όνῳ
ἐπισκευ
ἐπιγεγραμ
ἐπιβολῆς
συνεν
εὐποι
##σταμαι
##μετα
καταληπ
##ούπολιν
##ποδας
ἀρχόμενος
ὑποτίθεται
λόφου
##δρω
##σσά
##μησα
##λήσεις
##δίαι
κύβος
ἄρκτου
##πέμ
τιμωρη
λοιπῆς
ἐπίδειξιν
ἐπίπεδα
εὔκο
##ίσων
ὀξυγ
συνεχής
ἐγέννησε
τἀμὰ
πεπλασ
##μανθάν
δίκαιόν
##edi
χιόνος
κηρῷ
ἰατροὺς
exp
Κύρου
γενετῆς
δέκατον
ῥήτορος
μικροὺς
ὀποῦ
συλλογιστι
παρέθετο
συγχωρεῖ
θαυμαστὴν
ἀπείρου
βεβαίως
ὑπηρετεῖν
παρακαλῶ
στήθε
Ἡρώδην
ἑσπέρας
Πορφ
ἐρήμου
καταφάσει
σπλάγχνα
Κιλικίας
μεγίστοις
διδασκάλου
δυνάμεσι
οὐράνιον
θώρακα
Εὐρυσθ
νοητοῖς
μάλιστά
ὑποχονδρ
πρᾴως
Post
rem
φῶμεν
ἄῤῥω
ἐτι
ἱστό
ὅκου
##οτον
##σμένοι
##μώ
##έοντες
##έριος
##ότε
##τομος
ἐνίους
##στῆσαι
ἀπονε
ἐκή
ὑπον
##ίνατο
διακοπ
εὐκό
δεκ
##ποδες
ἐμπεσὼν
##ργων
##μιγν
ὁμοφύ
διαφόροις
πρῶτόν
##λογίαν
##αινόμενον
##ξαμένη
κρίνεται
##ite
##δόμενοι
ἀπέδωκεν
σιαγ
ἔκλα
##ρότερον
ἀπόκρισιν
ἑτέρᾳ
##ητικὴ
τοὐπίσω
##ψανον
##ide
Φιλα
ὑπετί
χιὼν
ἐπισυμ
βιβλίων
223
ὀστέων
Πολυξ
μνημονεύειν
ἀχά
μοίραις
ταπεινοφ
σκιρ
συλλογιστικῶς
##σαρκ
ὁμιλίαν
Κλεό
ἀρτηρίαι
ἠρεμοῦν
σκέλος
##φόρων
λεχθὲν
λεχθήσεται
ἀπαντᾶν
Δελφῶν
Σαρπη
χιτῶνος
πήχεως
τετάρτη
προσεχῆ
πατρῴων
Κυαξ
Ἀλκιβιάδην
θαλάσσῃ
φοιτῶν
δικτά
Βροῦτον
παραδειγμάτων
προσδιαλεγ
ϛ΄
ἄγον
ὗς
##χρον
##σμένα
##υλος
##ωθέντες
##ῤῥ
##όλων
##ύσεις
##εῖρ
##οῦσί
ἐκολ
ὑπ᾽
ὑπελ
προτείν
##καθεν
##λισκ
ἀναπλ
##μοῖ
##ούμενοϲ
ἐγρ
στυφ
ἐμβαλλ
##υκτον
##ίζοντι
δοθεῖσαν
Κασ
##αινομένων
##οίης
νοημάτων
πρότερόν
καρδι
τέτακται
κατεφρόν
##λθῃς
Ἀθηνᾷ
ταὐτ
##ισάμενοι
διάστασιν
ὅσος
στρατιάν
ἡδονή
##λλαξεν
ἐνεστ
γραμμὰς
ἐπιθυμίαις
Σαμο
ἀξία
ἐνεργῶν
σύνταξιν
βιβλίων
ὁποία
##ϲεων
ἐργάσασθαι
ἔ
ὠνομά
Ἀχιλῆ
δόξαντα
λαλῆσαι
ἀντικρὺ
πρεσβευ
βαδίζει
βωμῷ
μέλλουσιν
συνάπτει
εὑρίσκομεν
θεωρημάτων
συλλαβεῖν
ἀφιέναι
νεύρου
##ξηρα
συμπλοκὴν
χρῄζει
κιβωτὸν
Καίσαρα
προσηκόντων
Ἡρωδι
πότνια
σωφροσύνης
##μνησο
ὁππότε
ἐξαπίνης
εὔκρατον
διεζευγμένων
contra
Δευκαλ
ἐπιτροπε
MA
lo
who
Δωδ
θέρει
χρι
ϛʹ
Ἡρό
ὠμὸν
##ύθησαν
##ύνετο
##φών
##ῖσαι
##ξοντα
##ῆμά
##ζούσης
##dam
##ὴμ
##ΟΡ
##ουδα
ἀνθη
##λεγον
προχωρ
ἀποσβ
ἡμᾶϲ
##τρέχ
καταλαμβάν
##ησάν
παραμε
περιχ
μαγεί
##ητός
δοίη
##ηρῶν
τίθησι
δύσκο
##ττεις
κρίνει
δοκοῦμεν
##ηθέντα
θερμοῖς
##ότητός
ἀσύμφ
φθά
ἀπεγνω
ἰσχίον
χωρίῳ
ind
ἐγγίνεται
εὑρήσομεν
νοσημάτων
##ρνι
ἀπειρη
##ίχοντο
ποσόν
175
γράψαι
σπουδὴ
καλουμένη
##κρινε
μύθῳ
Λεω
264
ἀγωνίζεσθαι
μίμημα
σφυγμοὶ
##τῆρι
ἀληθινὸς
αἰδὼς
λεχθέντα
πυρετοὺς
πλείστην
νομίζουσιν
κτίσις
Ἱεροσολύμοις
ἀπλανοῦς
προσχωρ
βαπτίσματος
δεκτικόν
ἀποστολικ
ἐκινεῖτο
Ἀντιοχείας
Schol
Κερκυρα
Μεσσηνίων
ἠξίωσεν
Apoll
ἐκόσμ
τέχναις
ἀπολωλέναι
Εὔβοιαν
Αὔγουστος
coll
circ
Χάρων
Χαιρέ
γ᾿
δρακ
στρό
ἄθρ
ἔβαλλον
Ἐγώ
ὀμω
ὕϲτερον
ὧραι
##ύλους
##ιμοι
##μᾶν
##ότως
##ίσῃ
##ὰτ
##Οὐ
##λλιος
πατέρας
παλαί
προτειν
προαίρεσις
##ρεϲιν
##έρχεσθαι
θεώ
##πεκ
##σαιμεν
πεφευγ
εἰσῄει
ἐχειρ
ἀντιτα
##δωκας
δῆλόν
##βολή
εὐθην
ἀπευθ
ἀναγκαίαν
βαρέως
δειμα
ἐσή
##τίοις
ὕδασιν
ταῦρος
εὑρήσει
##οικοι
ἱππα
##ίχου
##σίαι
γράψας
ἐγκλήματα
οὐδέτερα
τραυμάτων
τεκοῦσα
ἐναλλά
ἤκουσας
βωμο
πυθόμενοι
εὐνῆς
διασώ
αἱρετικῶν
φιλοσόφους
Ὀδυσσεῖ
φρόνημα
ἁπτῶν
αὐγὰς
ἐμφρά
λανθάνει
ἐφέρετο
συναγωγὴν
ἀπολελ
διαστολὴν
quoque
δημοκρατίας
σβενν
filius
ἐδήλωσε
πρεπ
ἀνῃρέθη
ᾠκοδό
ἀναθυμίασιν
εὐρυχωρ
θόρυβον
Χρύσιππος
Ἀρταξέρ
θεῖν
ρν
φθα
ϲὺ
ἀτρέ
##ότερόν
##ημένα
##ώμασι
##οιτό
ὑπεί
κατέβ
##ρχοι
καταδικ
καταλειπ
περιπά
συμπαθ
ὑπολαβ
κινοῖτο
μετακιν
μεταβολαῖς
ὁρᾷν
##λωσεν
##λασσε
ἑκατέρα
διαφορά
##στήρ
γράφε
μανι
##οπρεπ
δεξιῷ
κατασκευάσαι
ξυνι
219
225
λαμβάνεσθαι
187
βοηθῶν
##κυς
248
τρέφεσθαι
ἐξουσία
καινὰ
262
ἀγαπητὸν
ἀκραι
συντελε
εἰκότα
Ἐπιδα
σκοπι
Πελοπί
σιωπῆς
βιαίως
εὑρίϲ
ἐπινοῆσαι
##γόνοις
ἀπολαύ
πέμψαντες
κορυφὴ
παύεται
πλουσίους
βρῶσιν
Φοινίκης
ϲύνδεϲ
ἀετὸς
ὑποθέσει
ἐκράτησε
καταφάσεις
Γάιον
ἥκεις
ἁλμυρὸν
Βελισα
Φωκί
ἐφίεται
τείχους
καθῆκον
παλάμῃ
βιαίως
mensis
συναισθ
μετάνοιαν
διαφθειρ
Γρηγ
ΕΠ
Θέτι
Πανα
ἁβ
Ἐζεκ
Ἔστιν
ἠμέ
ᾠκοδομ
##λθε
##τῆρος
##έονται
##δινον
##ήτω
##ῦξαι
##ies
ἀντο
ἀποθάν
καταρχ
πλοῦς
συμμί
κινούμενα
ψυχικῶν
μεταφο
##μνῃ
ἔννοι
μόνως
πρόβλημα
φυτεύ
##άζεις
συγκιν
##σίη
ἀντιπαρ
##λές
##onis
πληροῖ
κἀγώ
εὑρετ
##ord
##ρεια
δεινοὶ
Κύρῳ
λύκος
χρεών
ἐπαίνων
κακοή
213
##ute
συνέσει
207
γλυκὺν
παχυμερ
κορύ
ξυμβ
μουσικὴ
μαθήματα
εἱστήκει
ὑπαρχόντως
ἀνομίας
ἀλγεῖν
ἠρεμία
μίξει
μοῖραι
ἐπαγγει
χείρων
συναμφότερος
κατηχ
προσεχὲς
ἀμύνασθαι
ἔφυγε
πύργους
διωρισμένον
ὑποψίαν
Γότθοι
ὄνειρον
φαίνοιτο
Παφλαγ
ἀλώπε
Μάρκος
μοίρας
##ζευξεν
ἐδείκνυτο
χαλβάνης
ὠφέλιμον
Bab
Nr
Κοιν
Οὖ
Τιν
Τεῦ
Τύχ
κλεί
κρουν
ναρ
τὼς
ϲτά
ἄμου
##άσια
##ῶδές
##ξωνται
##ίσκων
##ίστης
##ζόμεθα
οὐθέν
##μαθʼ
##σιαι
ποθὲν
προειδ
ἐπιλέγει
##ίνομεν
διαδο
ἄνθ
δεομένους
δυνηθῆναι
καλεῖς
##υθέντα
εἰσέτι
##ίζοντας
ἀντιλαμβάνεται
##θειται
φθάν
πλημμ
πολεμῶν
βαρὺς
##θείης
Παλλά
τετμή
μυστήριον
κενώσεως
σύνεσιν
εἰσιέναι
ἐπαίνου
τελευτήν
ἁγία
##ρνῃ
μεγάλους
216
δικαιοσύνῃ
λίθῳ
##υμένους
198
εὕρι
χυμοὶ
252
κέντρων
Πλὴν
ἀκρωτήριον
ζητῶ
ἐπείτε
συλλογισμοὺς
Νεοπτ
σέλας
ἁρμονία
διεξέ
ἐραστὴς
λουτρο
ἐνθάδʼ
μαθηματικὰ
ἀφικνοῦνται
γράφω
ἄφες
ἀπωλείας
ψόφον
προφάσεως
κατεῖχον
idem
σφραγῖδα
Λακεδαίμονι
ὄφεων
διδασκάλου
κοτύλας
Ματθαῖος
##ργασται
ἑκατοντά
Συρίᾳ
Σαλωμὼν
gl
Βασ
ἠμε
ὐπο
ὠκύ
##κχε
##υιῶν
##όδοις
##βρι
προγν
##λιόν
##κοψεν
εὐλάβ
##τικρὺ
καταπο
##δαρον
στόλου
πλωτ
περιπεσεῖν
##σκοντο
ὄνων
προσερ
##δηλα
μέσας
##βαῖς
συγκλ
##κνῳ
ἀκοὰς
τριττ
υἱεῖς
αἰτίοις
Αἰγι
βαρεῖα
οὐρανίων
##ori
##ψεσι
ἡγήσατο
σπινθ
κατηγορῶν
ἔκφυσιν
ὀξεῖς
χειμάρ
##ητικῶς
γυναικεῖον
##φέρουσι
##κέας
ἐπανέ
ἀμείνους
##πτουσαν
φυγὴ
καρπῷ
ὁδόν
κληθεὶς
προσέτα
251
235
ἰχθὺς
προσήκουσαν
κιθα
γεγενημένην
οἰκοδομεῖν
ἐπιτετα
ζώῳ
##λληψιν
Σωκράτει
ποιήσῃ
σκότῳ
Συρακούσας
παρουσίᾳ
πεφω
ἀκτῖνες
##ώδεες
Φοινίκων
μεγίστων
παρακολουθεῖν
ἐγχωρί
ἀρχαίαν
αἱρέσεις
ἀποδημίας
ἔμαθεν
Ἀρτέμιδι
Τουτί
Βοιωτοὶ
ἐλαττόνων
ἀφαιρου
Ἄρειον
αἰνίττεται
πελιδν
παρωξ
σμύρνης
Imperator
hat
Τειρε
ζοφ
τᾶι
φήσει
Ἄπολλον
ἠκού
Ἰξ
Ὅπως
##χοντα
##μάν
##ΩΛ
πρόνοια
ἐνυ
##ταιϲ
##ριαι
μετεῖ
μεστὰ
συνόδῳ
##μένες
πολλάς
##ησόμενον
ἐγκρ
μετάν
τοιῶνδε
στέν
ἐμπλά
τρύ
κεφα
πάθεσιν
κιννα
φαϲι
ἔνδοξος
##λογεῖν
εἰσῆλθε
##σίῃ
##ττοντι
ἐχαρ
οἰκοῦντας
##τέρω
κύματα
##εύει
λοιπαῖς
μισθω
ἄρτιος
##κόμενοι
##δραγ
##ese
λοιπὸς
τρίβων
διδόντος
τουτέων
χωρία
κάκι
##ίσῳ
κατηγορίαις
ἀπορρή
γαμη
φανερῷ
γραμμῇ
##ψαϲ
ὁμολογοῦντες
ἀνδρο
##τήσατο
##elb
γέλω
ὀδόντων
ἐλθοῦσα
258
σωτηρίου
προϲτα
μέλλοντες
δάφ
ἕλκων
πλήρωμα
ὁμώνυμος
ἀπολογεῖσθαι
Μέμφ
διοικεῖν
δικασταῖς
##βούλου
ἀφικνεῖσθαι
πλατὺ
ἀραιὸν
ἀγάπη
αὐτοκράτορος
ἀλλοτρίων
λεπτοῦ
κομιδῆ
ἐγεγόνει
##λάβοι
φύλακα
πτηνὸν
Ἡσαΐας
φαυλο
μοναχῶς
Θρᾳκ
σπλάγχνα
φιλανθρώπως
χρόαν
Ἀθηναίων
##ίγνοντο
Τυνδά
πρέσβεων
Ἐρετρι
Sed
Λέων
αἲ
λον
φάγ
ἀχν
ἄτιμον
Ἀβε
ἐλλει
ἔριον
ἔζη
Ἰο
##ύμους
##τῶδες
##ήμων
##λλουσι
##στριον
##σθμα
ἀνευ
ἀνοχ
ἐκλεκ
##λακι
ἐπιδιδ
##ορρο
διαβολῆς
##ρχοντο
εὐλόγ
##τικόϲ
##μοντο
γενοῦ
##ωτάτου
πολύς
πρόσφ
ἰδού
φύλλοις
##λωτον
##λαβες
ἐπιστήσας
φθό
ἀνεκτ
ἔκκρισιν
##σπόν
ἀκούουσιν
##στάμενα
κατέσχεν
δραχμὴν
λύσις
##ρήσθω
μνησθῆναι
γῆμαι
λίθοις
πανταχῆ
χαρὰ
νομίζει
255
Ἀγχ
εἴρηκας
ἑκών
φυλακὰς
ἀκαί
ἑορτῇ
δύνωνται
ΑΒΓ∠
βλάβη
γεωργὸς
πείθεσθαι
sein
ὀλίγοις
διακρίνειν
ἐπιπέδου
μάντεις
κροτά
ἄπιστος
περιέχον
λείπει
κάλλιστον
ἀόριστον
Λυσί
σπανι
##έγραψαν
ἱππεῦσι
περιουσίας
Μιθριδάτου
ΓΑΛΗΝ
προσανα
φλεβοτομίας
δυσκρασίαν
στυγερ
Ταρκυν
δαῖτα
##γειρος
Ἰσραηλιτῶν
Κροῖσος
ἥμαρτον
por
put
λέβη
σβε
ἄκα
Ἀσω
ἠῶ
ἤλθομεν
ἰτα
Ὑπὸ
Ῥω
##χορος
##σίους
##άσθησαν
##ήμεθα
##ώπων
##ώμασιν
ἐναί
ἐκρ
προχεί
αὐτομά
διαγρά
##ναζε
καταπέ
καταδύ
πολλούς
παραλεί
ἀγῶσι
μέτρα
διαφεύ
##ίκῳ
τέκτον
στρατό
οἶος
ὁρμῶν
ὁρμω
##ττόμενον
##μαιον
##μαινε
##ύνθη
πληϲ
πληρου
ἐπίτηδες
πολεμικῶν
ἀξιώματα
##άσματι
κυμα
θηρίοις
ἀδικία
##μέτρου
χειραγωγ
ἁμαρτία
κατάληψιν
178
πείρᾳ
πάσχοντα
181
γλυκερ
ἐμαυτόν
βραδέως
Ἡρακλεί
243
ἰχθὺν
Λεον
conc
γεγραμμένων
##τομὴ
##τομῇ
ὄχλους
ἀκολουθίας
φράζειν
Ποσειδά
συνάπτει
ἐγκατέ
γνωρί
ψιλοῦται
ἐπιπολά
Ἀπολλό
ϲυμφ
κένωσιν
ἐκβληθ
ἐοικέναι
##τιθέμενον
##ήγγειλαν
ἀναχωρεῖν
χρόα
omnibus
τραγῳδίας
Ἴωνες
ἀνεχώρησαν
παλαίστ
Κάδμου
πάρεστι
Ἀριστείδης
Ἀπελλ
ζῆλος
Κατηγορίαις
Νινευ
ait
Θωμ
γᾶς
φής
ἔμεινε
ἤχθη
Ὠρίων
ῥωμα
##ύριοι
##σίῳ
##ῖμα
##ίτας
##ῴου
αὐλὴν
##ριανὸς
ἐκαρ
ἐκλήθη
##ένει
##ένηται
μεμερ
κατέν
ἀλλαγ
##ίνουσαν
##τηκε
διακοσίων
συναί
ἀπολαμβάν
εἴης
##δακ
δεόντως
ἐγκαρ
##νεκται
πότον
ἐμπνε
κελεῦσαι
##μβρ
φιλικ
πάτερ
πρόβατον
τάλαινα
##ήνην
ὑπερβάλλον
##τάτη
##λόθεν
##λίαις
τιμῶντες
βουλομένου
ταὐτά
σπάν
φιλάν
πράττουσιν
διάβολος
βούλῃ
μάχεται
κομίζειν
##eder
Ταύ
φερόμενος
νηπι
θύραις
συμπλεκ
συγγενὴς
γεγενημένης
Λιβυκ
Μιτυ
σκηνὰς
ἀρχιερέα
συλλαβῶν
ἑκατέροις
Πελοποννή
τετάρτου
προστεταγ
ἀπάτη
ἕτοιμοι
θηλυκὰ
δαιμονίου
ἐλάσσονος
ἀθλητῶν
πολυτελῆ
αἱρέσεων
Κορίνθῳ
ψευδοπροφ
πολλαπλασια
ὁκόσα
Παρθένου
ὑποκείσθω
ξιφ
##στροφον
ἄλγος
τυμπ
πρωτότο
ἀψύχων
αὐτομάτως
Ϲικελ
ὀρνίθων
Οὐολού
sens
über
Δό
Δωρί
γύναι
της
χόν
ἄτ
ἐῴκει
Ἔπειτα
Ὑμεῖς
ᾤχοντο
##ωτα
##cri
##βεται
##yn
##̀ς
ἐνθε
##στία
προγεγεν
ταὶ
##καλύ
##όνοια
τιθέναι
θεοῖσιν
περιλαβεῖν
##άροις
##θατε
πεπι
ἀφῄ
ὑπολαμβάνειν
##ύντα
μέμψ
νοοῦμεν
##άρχου
##ρισάμενος
ἀπεδεί
φρονεῖ
δευτέρων
##γνωσκ
ὁμολογοῦσι
Σαλα
συμβὰν
θέα
φάσκειν
218
##βιά
φυλάσσειν
##υμένος
ἄκρᾳ
250
##φραγι
ἐξουσίᾳ
γονῆς
ὅρκος
κρίσεις
ἀρετάς
προβάτων
##ροσκοπ
στιγμα
Ἕκτορι
ἀπολωλε
σπανίως
ἥρωας
λυπηρὸν
ἔκτεινε
ὑπερηφάν
κραυγῆς
ἐγγυτέρω
virt
ἐμφύτου
ἀπόλλυται
τηλικούτων
πῶλον
θερμότης
θησαυροὺς
κῶνον
Φίλιππος
ἑκούσιον
βοήθειαν
Ἀσδρού
ἐνετείλατο
ΓΑΛΗΝΟΥ
Luc
Mens
doc
sac
Δίωνος
Δομε
Ναβ
Πῶ
ὄλβ
##λεῖσθαι
##κκον
##έξατο
##ψη
##ζομένοις
##εῖδεν
ταλαί
ἐπιοῦσαν
##μεσθα
καταπτ
αἰὼν
##έρουσι
προσπ
ἀφυ
ἀφρόν
μαχι
##τανον
κακὴ
##φθῇ
δέοι
νόησις
##άζουσα
κατεαγ
τιμᾶται
##δέϲ
τρίτα
##γγου
τελείου
##φυρον
##τινος
Οὐά
φιλίᾳ
ζωή
##μότερον
ἑτέρωθι
Μελι
ὁμολογίαν
ἐπανά
παρέδοσαν
πιστεύσας
##ider
211
πονηρίας
##ριζόμενος
##τευον
204
γέροντος
239
269
σημείῳ
276
δάμαρ
ἀκρω
ῥήτορα
μικρά
νέφη
ἑρμηνεύεται
Πυθαγορικ
##entibus
τυγχάνων
ἐπιβλέ
ἐγεννή
βιβλίοις
μονάδας
τετάρτην
ψόφον
καθαρι
πατρῴας
##πεμπεν
ἦρχεν
ἐπιεικέ
διοίσει
Ποσειδώνιος
γέλως
μεγαλαυχ
Ath
fuit
nul
ΕΛ
Μου
Σισ
εῖ
μὰν
φει
ϲα
ἑλέσθαι
ἔλυσε
ἡπα
ὁριϲ
Ὀξ
##μῖν
##άσεως
##δυμος
##ωθεῖσα
##θῆναί
##eat
##ίλου
##ώσαντες
κα΄
##τεω
##τεροί
διισχ
##έντοϲ
##ένους
συνεὶς
##ναὶ
ἀναϲ
ἀναφέρεται
κατασκε
καταγωγ
##ησίν
παρακλ
ἐμπέ
λαός
##μβων
##λίης
ἀντιτά
##νηθες
λεγομένης
τιμᾷ
##κλητον
##έαϲ
ἐγγύ
ἄλλοιϲ
ἁγίους
φερομένων
χορδ
ὠνομ
ἰδιότητα
Πλωτ
266
πάσχουσιν
δίκαιοι
ἑξῆϲ
μυρίοις
ὄψονται
συνάγεσθαι
Μαρκι
##φθαρται
Αἴγυπτος
στρατεύματι
κολάσεως
Τροίᾳ
ἐπίκου
ἀρξάμενοι
illud
##μοσύνην
παμπό
παραλλήλου
κεφάλαια
ἀπαθὴς
ἀλλοφύλων
Ἡρακλείδης
xxx
ἐμπειρίας
τιτθ
λεπίδος
Ἰβηρίας
Sal
by
num
sibi
λεῖπον
ξ΄
τὠ
ἐσω
ἠπί
ἤχ
ῥὶς
##ύεις
##χορ
##έοϲ
##tere
καὐ
##ταο
##τιδας
ἀντερ
ἐκτή
τελικὸν
προδη
προϲε
προθέσεως
##ρεσσι
ἐπιθέσθαι
ἔχῃς
ἀπολώ
θεότητος
##σχέ
δεόμεθα
πλινθ
##υγας
προσδέ
##άρην
##ηρυκε
τριπλα
οἴνων
##ραμος
##ώνῳ
θέλῃς
##λούμενα
ὀξυν
κενὴν
τοὐν
ταχεῖα
πίστε
##λεῖφθαι
ἀμείν
μῆνες
σύνοδος
229
246
βεβλη
Ὀδυϲ
προσαγωγ
ἀφανεῖς
δάκτυ
προηγούμενος
Νεμέ
ἀμφοτέραις
ἀρχιερέα
ἐπαγγελίαν
δωρεαῖς
##φέροντο
διακρῖναι
φοβερὰ
γραφαὶ
##τιναοῦν
πινέτω
χείρω
ἄλφα
##τιθέμενα
σφαγῆς
##πώποτε
αὐγὴν
##plic
σίτου
δαίμονες
μεμνημένος
ὁρισμοὺς
θατέρῳ
Χαρι
χάρακος
Ἡρώδου
ὀθόν
συνωνύμως
σπονδύλων
μυστηρίων
κτηνῶν
pass
ΚΓ
Τζ
κθ
ϲου
ἔστησε
Ὅπερ
##τίαν
##έοις
##ώτερόν
##ψύχ
##ein
##ίειν
##ώρισται
##ειπεν
##λλερ
ἐπῄει
ἐνὸν
διηθ
ἀπέβη
αὐτέων
παλιγ
μετελ
προφα
ἔχουϲι
ἀνακιν
γεφύ
##σκηται
ἀφ̓
ὑποδι
μεταβάλλ
ὁρώμενον
αἰτίᾳ
κόμης
φιλοπον
καιρόν
ἀμὴν
ἔλεξε
ἀδελφε
##ψεσιν
διάβασιν
##θήσει
ἑκατό
λιθο
κατηγορούμενα
Ἀργεί
ἀπόλω
ἔστει
θέλω
τίνας
φάραγ
ἀπεικά
ποιητὰς
νομίζεται
ξύλῳ
##στήσατο
πόνοι
##κυῖα
ἐπιδραμ
διαφέρουσι
σωτηρία
γονὴν
ἡδὺς
φίλ
φιλόϲοφ
ἀποκρου
γραμματεῖς
οἰκοδομὴν
##οειδεῖς
##δρομὴν
νενόμι
σπληνὸς
σάρκες
ἀσεβῆ
γλῶττα
πνευματικῆς
##φυραν
ἕλκους
ἐπιβὰς
ἀποτελεῖν
ἀτόμους
βλασφημίας
ἐξαπατη
ψύξιν
ἐκράτει
ἐμψύχων
κτείνειν
Τούτῳ
Κράτης
βροντῆς
ἐκινδύνε
ἀσεβείας
ἀφροδισίων
Κωνσταντινουπόλει
##έβληται
ὑμέτερον
Χανανα
ὑποθώμεθα
παρεκελεύ
βάρβαροι
συμβολικῶς
Μάρκελλος
στικτέον
univers
Μαγ
Μολο
ἀδοκ
ἐμαρτύ
ἠδί
Ἴστρου
ὀστοῖς
ὅϲον
ὑλακ
ὦρ
##πʼ
##έστατοι
##ϲτε
##ώταις
##φουσα
##ῆνες
##ζαι
καϊ
καλο
##ενά
##τικαί
##εῖδον
##εῖσθαί
αὐταί
##υμά
##ίνουσαν
##λιε
διατειν
συνάγει
εὐώνυμον
καθηκ
##πεμπον
κατακό
παραί
παρατυχ
πόθος
πόθῳ
βακτη
προσφέρεσθαι
δογματι
##πιστον
##τάτῳ
νεώς
ὁρμὰς
ἄλλοθι
ἀσπά
##δόσεως
πολιτειῶν
θέλοντες
προσεί
λευκῶν
πέρατος
ὀξύτητα
##λκειν
θηρεύ
ἐπικεί
θερμὴ
ἐλάχιστα
μαρτύρων
κατασκευὴ
κακού
ὁδός
κτεν
κτῆσις
Κορνή
ἀκούει
ἀριστεροῦ
μαχομένων
##υλλος
ἤρκε
ἡμιολ
ἔλεγες
ἀμφοτέρωθεν
διττὴν
πλοίου
προφήτας
Κρόνον
νομίζοντες
σιγᾶν
##κρίθη
κεκτημένος
λευκα
ὑστερ
ὁμογενῶν
προαιρέσει
ἀριστοκρατ
Aristot
ἀντι
δυνάμεσιν
ἠγαπη
Θυέ
Laë
στυπτηρίας
ἀδολεσχ
ἀπαρέμφα
ev
Γάλλ
Δαλ
ΚΗ
Πραξ
δανε
θιγ
Ἰσχ
Ἴδης
ὁλό
ὁμί
ὁσάκις
ὤμους
##όος
##υρε
##ήϲεωϲ
##ast
καρα
καρη
καῦμα
ἐπέν
ἐνθέ
##σαμένῳ
##ίνθου
συνο
συννο
##νακος
ποιουμένων
ποιούντων
##ούλου
ἐγειρ
πλήν
περιπέ
γενηθ
προσπα
ἀρχῆθεν
κινῆται
πάρ
συγκοπ
##λαιϲ
Αἰμι
##itatis
ἔφησε
τρόποι
##θήσῃ
χώρην
ταχὺς
##ιζόμενος
ἀγνοίᾳ
μεταβολήν
ξυνα
πολυθρ
ἐνεργοῦν
214
212
σύνθεσις
περίοδον
καλουμένου
183
μεσότης
κελεύειν
233
κριὸν
ὠφελεῖσθαι
πραΰ
κατοικεῖν
τραχεῖαν
προϊόντος
εὐεργετεῖν
ἀληθινοῦ
παθήματα
διακρίνει
βόας
ἐκφυγ
συγγραφέων
ὁπλῖται
##τούσης
ἡττᾶσθαι
δυσχερὲς
ἐπιχωρίων
ἀπιστίαν
παιδιᾶς
ὁμογενῆ
Θουκυδίδηϲ
πορρωτέρω
ἐκθλί
##πορεύεται
πολιτεύεσθαι
παγκρα
ὀρνέων
Τιμαίῳ
ἀποθνῄσκειν
καταχρηστικῶς
Ἐρασίστρατος
Γανυμή
aud
ἄπα
Ἁβροκό
ἔπλη
Ἐρώ
ὁτου
△Β
##ύνε
##σοισιν
##άτης
##λῶσαι
##λαιναν
##έτης
##ηδὸν
##ῶτες
##ωθήσεται
##θλα
##αιτα
##ανόν
ἐπομ
ἐπιτέ
ἐξουσι
διαγρά
ἀναλί
ἀναίσθη
ἄνοιαν
βαδί
ὑποκο
ἐλοι
τίκτειν
##λάμενος
πρότερόν
ἐρρύ
αὑτούς
##πόρ
##πόϲ
ἐκεῖνό
νοήσει
##ρωνα
γίνεσθαί
κύρ
ὑπερέ
λαβόμενος
πολιτικὴν
##χαρι
βουλόμενον
##άσειν
θατέρῳ
Ἀριστογεί
χειρω
ἄπειρόν
δικαιότερον
φοβοῦμαι
χιλί
ἀπειρίαν
222
ἰσχυρῶν
ἰσχυρότερον
λύεται
ὑγρότητα
μεγαλό
261
265
μαχόμενος
ἀδυνατ
νέφος
σωματο
δράκοντα
προσιέναι
ὀψοφ
##σάμην
ἀπώλεσεν
pers
Χριστιανοὺς
##ϲαιϲ
πληθυντικῶς
##ώδεσι
διαλύσεις
Γεωργ
Πομπήϊον
ὀσφὺν
ὑποθέσθαι
ὑλικὸν
θυσιαστήριον
φύλαξ
τἀγαθὰ
Περσέων
Ἰλιάδι
ὁμοειδῆ
κόλασιν
ἀδίκως
ἐμνημόνευσε
ἐψεύ
παραδειγμάτων
τέθεικεν
πεπλανη
θράσος
ὅμιλον
πρωτότοκος
ἐβόα
ὄρνεον
συστολῆς
##ημαρτη
ὁτῳοῦν
Laërt
φὴς
χόρ
Ἄπ
Ἐχ
ὡδί
##νά
##χοντες
##σή
##ετά
##τραπε
##γμάτων
##ΐᾳ
##σιός
παλί
ἐκτά
##ρεί
##γαϲ
καταμαθ
##υκὼς
λόχον
μέτο
μέμνη
##κιϲ
φασκ
δεῖξον
πλεύ
##γενῶν
ἀρό
ταύρου
συνεπ
σχι
ὑπερέχει
νόος
εὐθύνας
λεγόμενος
βουλομένῳ
ἁπλού
νόησιν
ἐσέ
δίω
##χειρί
##τεύεσθαι
στρατηγίαν
δικαιοπραγ
##γέλλετο
##κτικῶς
##μετρός
228
176
τύπῳ
πατρίδας
μετεσχ
βραδύν
τεχνικῶς
Αἰγύπτιον
ἑορταῖς
ἰατρῷ
περίοδον
τετραγων
##ρινον
βωμὸς
ἐνιαυτόν
τηνικ
μύρ
##τούμενοι
πεφυκέναι
θηρίον
##σάμενον
πλούσιον
πονηρίαν
ὀλίγους
πλεονάζει
διασώ
στρατεύειν
ὑψηλῶν
αἰτιατικὴν
ἐμπρη
φροντίδα
ἀμπέ
ἀέθ
ἀπολεῖται
comp
δεδεγ
διαθήκης
##λλοτρι
διετέλει
ὀνειρο
MiT
Θερμο
ἑῴαν
Οἷον
ἐπαγγέλλεται
σφενδον
Λοκρῶν
βαϲιλεὺϲ
Vind
eos
Πάντα
ζῶμεν
κζ΄
μδ
σεί
ἀλόγου
ἤσαν
##οὔ
##συχ
##λκον
##έρες
##όλως
##ζώ
##ταρχος
ἐπλαν
τῶνδʼ
ἀπ᾽
ἐκγ
ποτῶν
προκείμενα
##καστον
ἐπιλύ
##λοιν
##άνθη
##έρᾳ
βαφ
προσο
πελαγ
##εὶμ
ὑποδέ
πᾶϲα
Καύ
##λογόν
##είσης
δῆμοϲ
μένοντος
##oniam
##πνου
χρησμῶν
μήκους
##ιασ
##δέσθαι
μάστι
πατρὶς
##στάτου
δειχθῆναι
μονό
##ηϲε
μερικὰ
κυδοι
κίνησίς
εὑρέθη
σημαίνουσι
ἐλάττονι
##ροισιν
τόνος
ὁπόσον
Ἀθηναῖον
σωτῆρι
ἀδύνατος
τύπους
σκευα
κράσει
ἀνδριὰς
κεκαθαρ
Πέτρον
κατειργ
ἀπονέ
πρόσωπόν
Πατρός
ἐκράτησεν
ἡνίκʼ
σπανίως
διαλέγεται
ἐμπίπτει
##βήρων
ἔκτισε
ἀδιάφορον
σκορπί
πέπρακται
ὀμφαλὸν
ἀιδι
κατωρθω
αὐτόματον
Κᾶ
Μορ
ΝΟ
Πή
γόνα
τηλ
ἀλεγ
ἐτρά
ἴδεν
Ὀλύ
ὑοσκ
##ύροις
##ισε
##θμε
##yri
##ze
ἐνέγ
##στρέ
μεγι
προέσθαι
##λαφ
##δεσσιν
##ικοί
ἐξικν
ἀποστά
##κοοι
##έγραπτο
εὐκα
καταδίκ
αἰθερ
πολλοῖσι
τρεῖϲ
λαοὺς
μέτρων
μέσοις
τόσον
##τέραις
γνωσ
##μητος
##τέα
τόλ
γίνεταί
ὑπερβολαίων
γένοιτ
##κουσον
κατεψ
κατεστήσατο
χαριστ
##άρχει
κάμνων
ἄγουσα
Ἑλλάν
ὑφι
στείχ
Σαυν
Σαβα
ἐπαγαγεῖν
τυχόντα
217
φυγάδας
ἰσχυρᾶς
ἐργάζονται
##ληφέναι
δείξω
παχεῖς
254
234
238
##ilis
260
Ἰταλι
κιρ
Ἀχαιοί
σπέρματα
ζητήσεως
μικροὶ
##ωτέρου
δεσμωτήριον
ἑκατέραν
λάβωμεν
κινδύνῳ
θηρῶν
πλάγιον
ὡμολόγει
εὐπορίαν
τετράγωνα
ἐκφυγεῖν
καλούμενοι
ἀθρόοι
Μεσσήνην
μιμεῖται
μελικρ
πρέσβεις
φήμης
λῆμμα
ἐπιπλοκ
ηὔξατο
ἁπάσαις
συναγωγῆς
στηλῶν
ὑπομένειν
δέσποινα
χρησίμων
ἔλλειψις
γλίσχρον
πάρεστιν
βέλτιστε
ὀσφραντ
ἐπύθετο
ἀσφάλειαν
αὕτως
sind
uti
ΓΛ
Μανι
πτυ
πίνα
σάβ
##σόμενος
##ώ
##ΠΟΣ
προεν
ἐπιλεί
διαβολὴν
ποιούμενοι
καταδικα
##πούσης
τρῖ
##γνυσι
λαός
οἰόμεθα
κολοι
μαγε
μετατε
μεταλαμβαν
##ώνιοι
σφον
πρόσκειται
##ττόντων
##ξαϲθαι
οἰκίαις
βασιλεῦσαι
##λωσαν
μισῶν
##άλλειν
ὅπωϲ
μέγιστοι
φιλοστοργ
βοῇ
ἑκάστους
ναυκ
##στάτη
κάλει
##θής
##άσσω
συναγαγ
μαντευ
σύνηθες
##τρεχ
Χριστόν
##ρήσεως
ὑγιείας
##κτικὸς
μόγις
Αἴτ
τήνδʼ
##ρθωσιν
Δηι
παχύ
φωτός
μνᾶν
πολλαχῇ
μέλλοντι
αἱρετόν
λυπου
πραττόμενα
ὑπομένει
χῶρος
μετέχον
Κομνην
ὠνομάσθη
ἐπιχειρημάτων
##ηραρχ
στομάχου
wenn
θῶ
ἀδραν
ἐδοκ
ἒν
ἤρα
ὅσης
ὠμὰ
ᾤκουν
##χθείη
##έεται
##κορ
##βαινε
##στησον
εἰσκ
ἀνία
τεὸν
##ίνομαι
τιτρώ
ἐπιπε
ἐπιπλή
συνηρ
##σταγωγ
περιδε
περιφρα
περιιδεῖν
προσφυ
λεία
μαχαί
ψυχρὸς
δοθέντα
ἀκόν
##πιοι
##μπῳ
εἰσεν
##ξαντι
τριπλασ
ἀναγρά
γινομένας
σωματι
παρεπ
##λικες
φθάσας
##λεύειν
ἀνδρός
Ἀθηναί
ὀρθοῦ
πατρῷον
##inus
πέτρας
λιμν
λιμένας
ἐδώ
ἐδημι
γεγονότες
##λκεται
θαλλ
βραχὺς
βραχεῖα
βούλωνται
##δέξασθαι
##πάσας
##ίσματι
κεκλή
κηρὸς
ἡμετέροις
ἰδιῶται
##ϲαντο
230
τρέφεται
συγγενείας
##ρίζεται
δεδώ
πεντακισχιλίους
μοχθηρὸν
μοχθηρῶν
πόνου
λαμπρὰν
##eben
ὁπλο
Κωνσταντίνου
μάντε
ἐθέλοι
διαθέσει
σῴζεται
ψαλμῷ
λουτροῦ
πολυτελῶς
##συνον
corr
Ἀρκάδες
##όμεθʼ
##όμεσθα
ὁμολογουμένως
Ἑκάβη
ἐπισκέψασθαι
ὤμοσεν
ζευγ
κλήρου
βουλευτήριον
[...]
