{
  "version": "1.0",
  "truncation": null,
  "padding": null,
  "added_tokens": [
    {
      "id": 0,
      "content": "[PAD]",
      "single_word": false,
      "lstrip": false,
      "rstrip": false,
      "normalized": false,
      "special": true
    },
    {
      "id": 1,
      "content": "[UNK]",
      "single_word": false,
      "lstrip": false,
      "rstrip": false,
      "normalized": false,
      "special": true
    },
    {
      "id": 2,
      "content": "[CLS]",
      "single_word": false,
      "lstrip": false,
      "rstrip": false,
      "normalized": false,
      "special": true
    },
    {
      "id": 3,
      "content": "[SEP]",
      "single_word": false,
      "lstrip": false,
      "rstrip": false,
      "normalized": false,
      "special": true
    },
    {
      "id": 4,
      "content": "[MASK]",
      "single_word": false,
      "lstrip": false,
      "rstrip": false,
      "normalized": false,
      "special": true
    }
  ],
  "normalizer": {
    "type": "BertNormalizer",
    "clean_text": true,
    "handle_chinese_chars": true,
    "strip_accents": null,
    "lowercase": false
  },
  "pre_tokenizer": {
    "type": "BertPreTokenizer"
  },
  "post_processor": {
    "type": "TemplateProcessing",
    "single": [
      {
        "SpecialToken": {
          "id": "[CLS]",
          "type_id": 0
        }
      },
      {
        "Sequence": {
          "id": "A",
          "type_id": 0
        }
      },
      {
        "SpecialToken": {
          "id": "[SEP]",
          "type_id": 0
        }
      }
    ],
    "pair": [
      {
        "SpecialToken": {
          "id": "[CLS]",
          "type_id": 0
        }
      },
      {
        "Sequence": {
          "id": "A",
          "type_id": 0
        }
      },
      {
        "SpecialToken": {
          "id": "[SEP]",
          "type_id": 0
        }
      },
      {
        "Sequence": {
          "id": "B",
          "type_id": 1
        }
      },
      {
        "SpecialToken": {
          "id": "[SEP]",
          "type_id": 1
        }
      }
    ],
    "special_tokens": {
      "[CLS]": {
        "id": "[CLS]",
        "ids": [
          2
        ],
        "tokens": [
          "[CLS]"
        ]
      },
      "[SEP]": {
        "id": "[SEP]",
        "ids": [
          3
        ],
        "tokens": [
          "[SEP]"
        ]
      }
    }
  },
  "decoder": {
    "type": "WordPiece",
    "prefix": "##",
    "cleanup": true
  },
  "model": {
    "type": "WordPiece",
    "unk_token": "[UNK]",
    "continuing_subword_prefix": "##",
    "max_input_chars_per_word": 100,
    "vocab": {
      "[PAD]": 0,
      "[UNK]": 1,
      "[CLS]": 2,
      "[SEP]": 3,
      "[MASK]": 4,
      "!": 5,
      "\"": 6,
      "#": 7,
      "%": 8,
      "'": 9,
      "(": 10,
      ")": 11,
      "*": 12,
      ",": 13,
      "-": 14,
      ".": 15,
      "/": 16,
      "0": 17,
      "1": 18,
      "2": 19,
      "3": 20,
      "4": 21,
      "5": 22,
      "6": 23,
      "7": 24,
      "8": 25,
      "9": 26,
      ":": 27,
      ";": 28,
      "<": 29,
      ">": 30,
      "?": 31,
      "@": 32,
      "[": 33,
      "]": 34,
      "`": 35,
      "{": 36,
      "|": 37,
      "}": 38,
      "~": 39,
      "§": 40,
      "¨": 41,
      "«": 42,
      "¯": 43,
      "´": 44,
      "·": 45,
      "»": 46,
      "½": 47,
      "×": 48,
      "é": 49,
      "ë": 50,
      "ó": 51,
      "ö": 52,
      "ā": 53,
      "ī": 54,
      "ō": 55,
      "ū": 56,
      "ʹ": 57,
      "ʼ": 58,
      "ʽ": 59,
      "˘": 60,
      "˙": 61,
      "̀": 62,
      "́": 63,
      "̆": 64,
      "̇": 65,
      "̈": 66,
      "̓": 67,
      "̔": 68,
      "̣": 69,
      "͂": 70,
      "ͅ": 71,
      "ʹ": 72,
      "͵": 73,
      "΄": 74,
      "Ά": 75,
      "·": 76,
      "Έ": 77,
      "Ή": 78,
      "Ί": 79,
      "Ό": 80,
      "Ύ": 81,
      "ΐ": 82,
      "Α": 83,
      "Β": 84,
      "Γ": 85,
      "Δ": 86,
      "Ε": 87,
      "Ζ": 88,
      "Η": 89,
      "Θ": 90,
      "Ι": 91,
      "Κ": 92,
      "Λ": 93,
      "Μ": 94,
      "Ν": 95,
      "Ξ": 96,
      "Ο": 97,
      "Π": 98,
      "Ρ": 99,
      "Σ": 100,
      "Τ": 101,
      "Υ": 102,
      "Φ": 103,
      "Χ": 104,
      "Ψ": 105,
      "Ω": 106,
      "Ϊ": 107,
      "ά": 108,
      "έ": 109,
      "ή": 110,
      "ί": 111,
      "ΰ": 112,
      "α": 113,
      "β": 114,
      "γ": 115,
      "δ": 116,
      "ε": 117,
      "ζ": 118,
      "η": 119,
      "θ": 120,
      "ι": 121,
      "κ": 122,
      "λ": 123,
      "μ": 124,
      "ν": 125,
      "ξ": 126,
      "ο": 127,
      "π": 128,
      "ρ": 129,
      "ς": 130,
      "σ": 131,
      "τ": 132,
      "υ": 133,
      "φ": 134,
      "χ": 135,
      "ψ": 136,
      "ω": 137,
      "ϊ": 138,
      "ϋ": 139,
      "ό": 140,
      "ύ": 141,
      "ώ": 142,
      "Ϛ": 143,
      "ϛ": 144,
      "ϝ": 145,
      "ϲ": 146,
      "ἀ": 147,
      "ἁ": 148,
      "ἂ": 149,
      "ἃ": 150,
      "ἄ": 151,
      "ἅ": 152,
      "ἆ": 153,
      "ἇ": 154,
      "Ἀ": 155,
      "Ἁ": 156,
      "Ἂ": 157,
      "Ἃ": 158,
      "Ἄ": 159,
      "Ἅ": 160,
      "Ἆ": 161,
      "ἐ": 162,
      "ἑ": 163,
      "ἒ": 164,
      "ἓ": 165,
      "ἔ": 166,
      "ἕ": 167,
      "Ἐ": 168,
      "Ἑ": 169,
      "Ἓ": 170,
      "Ἔ": 171,
      "Ἕ": 172,
      "ἠ": 173,
      "ἡ": 174,
      "ἢ": 175,
      "ἣ": 176,
      "ἤ": 177,
      "ἥ": 178,
      "ἦ": 179,
      "ἧ": 180,
      "Ἠ": 181,
      "Ἡ": 182,
      "Ἢ": 183,
      "Ἣ": 184,
      "Ἤ": 185,
      "Ἥ": 186,
      "Ἦ": 187,
      "Ἧ": 188,
      "ἰ": 189,
      "ἱ": 190,
      "ἲ": 191,
      "ἳ": 192,
      "ἴ": 193,
      "ἵ": 194,
      "ἶ": 195,
      "ἷ": 196,
      "Ἰ": 197,
      "Ἱ": 198,
      "Ἲ": 199,
      "Ἳ": 200,
      "Ἴ": 201,
      "Ἵ": 202,
      "Ἶ": 203,
      "ὀ": 204,
      "ὁ": 205,
      "ὂ": 206,
      "ὃ": 207,
      "ὄ": 208,
      "ὅ": 209,
      "Ὀ": 210,
      "Ὁ": 211,
      "Ὃ": 212,
      "Ὄ": 213,
      "Ὅ": 214,
      "ὐ": 215,
      "ὑ": 216,
      "ὒ": 217,
      "ὓ": 218,
      "ὔ": 219,
      "ὕ": 220,
      "ὖ": 221,
      "ὗ": 222,
      "Ὑ": 223,
      "Ὕ": 224,
      "Ὗ": 225,
      "ὠ": 226,
      "ὡ": 227,
      "ὢ": 228,
      "ὣ": 229,
      "ὤ": 230,
      "ὥ": 231,
      "ὦ": 232,
      "ὧ": 233,
      "Ὠ": 234,
      "Ὡ": 235,
      "Ὢ": 236,
      "Ὣ": 237,
      "Ὤ": 238,
      "Ὥ": 239,
      "Ὦ": 240,
      "Ὧ": 241,
      "ὰ": 242,
      "ά": 243,
      "ὲ": 244,
      "έ": 245,
      "ὴ": 246,
      "ή": 247,
      "ὶ": 248,
      "ί": 249,
      "ὸ": 250,
      "ό": 251,
      "ὺ": 252,
      "ύ": 253,
      "ὼ": 254,
      "ώ": 255,
      "ᾀ": 256,
      "ᾁ": 257,
      "ᾂ": 258,
      "ᾄ": 259,
      "ᾅ": 260,
      "ᾆ": 261,
      "ᾇ": 262,
      "ᾌ": 263,
      "ᾍ": 264,
      "ᾐ": 265,
      "ᾑ": 266,
      "ᾒ": 267,
      "ᾔ": 268,
      "ᾕ": 269,
      "ᾖ": 270,
      "ᾗ": 271,
      "ᾘ": 272,
      "ᾜ": 273,
      "ᾞ": 274,
      "ᾠ": 275,
      "ᾡ": 276,
      "ᾤ": 277,
      "ᾥ": 278,
      "ᾦ": 279,
      "ᾧ": 280,
      "ᾨ": 281,
      "ᾬ": 282,
      "ᾱ": 283,
      "ᾲ": 284,
      "ᾳ": 285,
      "ᾴ": 286,
      "ᾶ": 287,
      "ᾷ": 288,
      "᾽": 289,
      "ι": 290,
      "᾿": 291,
      "῀": 292,
      "ῂ": 293,
      "ῃ": 294,
      "ῄ": 295,
      "ῆ": 296,
      "ῇ": 297,
      "῎": 298,
      "ῐ": 299,
      "ῑ": 300,
      "ῒ": 301,
      "ΐ": 302,
      "ῖ": 303,
      "ῗ": 304,
      "῝": 305,
      "῞": 306,
      "ῠ": 307,
      "ῡ": 308,
      "ῢ": 309,
      "ῤ": 310,
      "ῥ": 311,
      "ῦ": 312,
      "ῧ": 313,
      "Ῥ": 314,
      "`": 315,
      "ῲ": 316,
      "ῳ": 317,
      "ῴ": 318,
      "ῶ": 319,
      "ῷ": 320,
      "῾": 321,
      "–": 322,
      "—": 323,
      "‘": 324,
      "’": 325,
      "“": 326,
      "”": 327,
      "„": 328,
      "†": 329,
      "…": 330,
      "′": 331,
      "‹": 332,
      "›": 333,
      "⁑": 334,
      "⟦": 335,
      "⟧": 336,
      "〈": 337,
      "〉": 338,
      "﻿": 339,
      "（": 340,
      "）": 341,
      "##έ": 342,
      "##τ": 343,
      "##ρ": 344,
      "##ε": 345,
      "##ι": 346,
      "##α": 347,
      "##υ": 348,
      "##κ": 349,
      "##λ": 350,
      "##η": 351,
      "##ῶ": 352,
      "##ά": 353,
      "##ῳ": 354,
      "##ν": 355,
      "##π": 356,
      "##ό": 357,
      "##ο": 358,
      "##δ": 359,
      "##σ": 360,
      "##μ": 361,
      "##ς": 362,
      "##ύ": 363,
      "##ῖ": 364,
      "##ί": 365,
      "##ἱ": 366,
      "##φ": 367,
      "##ω": 368,
      "##ἰ": 369,
      "##ί": 370,
      "##ἧ": 371,
      "##ψ": 372,
      "##ὴ": 373,
      "##θ": 374,
      "##ʼ": 375,
      "##γ": 376,
      "##χ": 377,
      "##ῄ": 378,
      "##ῷ": 379,
      "##ὰ": 380,
      "##ξ": 381,
      "##β": 382,
      "##ή": 383,
      "##ῆ": 384,
      "##ἔ": 385,
      "##ὺ": 386,
      "##ζ": 387,
      "##ὐ": 388,
      "##ῦ": 389,
      "##ά": 390,
      "##ὲ": 391,
      "##Ἕ": 392,
      "##ώ": 393,
      "##ᾶ": 394,
      "##ή": 395,
      "##ῇ": 396,
      "##ᾳ": 397,
      "##4": 398,
      "##ΰ": 399,
      "##Θ": 400,
      "##ῃ": 401,
      "##ᾤ": 402,
      "##ᾷ": 403,
      "##ὸ": 404,
      "##ὑ": 405,
      "##ὀ": 406,
      "##Τ": 407,
      "##ὕ": 408,
      "##7": 409,
      "##8": 410,
      "##2": 411,
      "##ἴ": 412,
      "##Υ": 413,
      "##Ρ": 414,
      "##Α": 415,
      "##Ι": 416,
      "##ΐ": 417,
      "##Π": 418,
      "##Β": 419,
      "##Η": 420,
      "##Σ": 421,
      "##ϊ": 422,
      "##ὔ": 423,
      "##ἶ": 424,
      "##Φ": 425,
      "##ὶ": 426,
      "##ἄ": 427,
      "##Χ": 428,
      "##Ν": 429,
      "##Γ": 430,
      "##Ο": 431,
      "##έ": 432,
      "##1": 433,
      "##6": 434,
      "##ὁ": 435,
      "##ἀ": 436,
      "##ὧ": 437,
      "##0": 438,
      "##ἤ": 439,
      "##ὼ": 440,
      "##ὅ": 441,
      "##Λ": 442,
      "##Ω": 443,
      "##Ἐ": 444,
      "##Ἴ": 445,
      "##Δ": 446,
      "##ύ": 447,
      "##ἐ": 448,
      "##ὖ": 449,
      "##ό": 450,
      "##ϋ": 451,
      "##ἷ": 452,
      "##9": 453,
      "##ᾐ": 454,
      "##Κ": 455,
      "##ώ": 456,
      "##Ε": 457,
      "##Ξ": 458,
      "##ἓ": 459,
      "##ἁ": 460,
      "##ἵ": 461,
      "##ἡ": 462,
      "##5": 463,
      "##ἦ": 464,
      "##ῴ": 465,
      "##3": 466,
      "##ὗ": 467,
      "##ἕ": 468,
      "##Μ": 469,
      "##Ἔ": 470,
      "##Ἡ": 471,
      "##ῤ": 472,
      "##ῒ": 473,
      "##Ὅ": 474,
      "##Ζ": 475,
      "##ὒ": 476,
      "##Ὁ": 477,
      "##ἠ": 478,
      "##Ῥ": 479,
      "##ἢ": 480,
      "##ἑ": 481,
      "##ἅ": 482,
      "##ᾴ": 483,
      "##ὃ": 484,
      "##Ἥ": 485,
      "##Ἑ": 486,
      "##ʹ": 487,
      "##ὄ": 488,
      "##ὠ": 489,
      "##ὣ": 490,
      "##Ἀ": 491,
      "##Ἰ": 492,
      "##ἥ": 493,
      "##ὤ": 494,
      "##ἣ": 495,
      "##ὓ": 496,
      "##˘": 497,
      "##¯": 498,
      "##ῗ": 499,
      "##Ψ": 500,
      "##ἂ": 501,
      "##ϝ": 502,
      "##ὡ": 503,
      "##ὥ": 504,
      "##Ἄ": 505,
      "##́": 506,
      "##ῥ": 507,
      "##ὦ": 508,
      "##ἆ": 509,
      "##ἲ": 510,
      "##ᾆ": 511,
      "##Ὦ": 512,
      "##ῲ": 513,
      "##ᾗ": 514,
      "##ἳ": 515,
      "##ϲ": 516,
      "##ῢ": 517,
      "##̣": 518,
      "##̓": 519,
      "##ᾠ": 520,
      "##ᾦ": 521,
      "##ῂ": 522,
      "##ᾄ": 523,
      "##ᾀ": 524,
      "##Ὠ": 525,
      "##Ὑ": 526,
      "##Ὄ": 527,
      "##Ἤ": 528,
      "##ῧ": 529,
      "##Ὀ": 530,
      "##Ἱ": 531,
      "##Ἁ": 532,
      "##ᾲ": 533,
      "##ἇ": 534,
      "##ῡ": 535,
      "##ᾖ": 536,
      "##ὂ": 537,
      "##ʹ": 538,
      "##ᾱ": 539,
      "##ι": 540,
      "##ῐ": 541,
      "##ἃ": 542,
      "##̔": 543,
      "##ὢ": 544,
      "##Ἆ": 545,
      "##ᾧ": 546,
      "##ᾕ": 547,
      "##Ὢ": 548,
      "##Ἦ": 549,
      "##Ἢ": 550,
      "##͂": 551,
      "##ͅ": 552,
      "##Ἓ": 553,
      "##ᾔ": 554,
      "##ἒ": 555,
      "##ī": 556,
      "##ʽ": 557,
      "##Ὡ": 558,
      "##Ὃ": 559,
      "##Ἅ": 560,
      "##Ϛ": 561,
      "##ΐ": 562,
      "##ᾅ": 563,
      "##×": 564,
      "##ë": 565,
      "##Ά": 566,
      "##ῑ": 567,
      "##Ϊ": 568,
      "##Ὤ": 569,
      "##ó": 570,
      "##Ὥ": 571,
      "##é": 572,
      "##ᾂ": 573,
      "##̀": 574,
      "##ö": 575,
      "##Ὕ": 576,
      "##Ἠ": 577,
      "##ā": 578,
      "##Ὧ": 579,
      "##ϛ": 580,
      "##Ό": 581,
      "##Ἧ": 582,
      "##ῠ": 583,
      "κα": 584,
      "##ον": 585,
      "καὶ": 586,
      "##τα": 587,
      "##ου": 588,
      "##ων": 589,
      "το": 590,
      "##το": 591,
      "##ει": 592,
      "##αι": 593,
      "##αν": 594,
      "##ῶν": 595,
      "##εν": 596,
      "##οι": 597,
      "##τε": 598,
      "##ος": 599,
      "##σι": 600,
      "δὲ": 601,
      "##λλ": 602,
      "τὸ": 603,
      "##ρα": 604,
      "##έν": 605,
      "πρ": 606,
      "##εῖ": 607,
      "##ὴν": 608,
      "##τι": 609,
      "ἐπ": 610,
      "##ερ": 611,
      "αὐ": 612,
      "##ας": 613,
      "οὐ": 614,
      "##όν": 615,
      "τῶν": 616,
      "##ῆς": 617,
      "##μα": 618,
      "ἐν": 619,
      "δι": 620,
      "τοῦ": 621,
      "πα": 622,
      "τὴν": 623,
      "##ὲν": 624,
      "##στ": 625,
      "##σθ": 626,
      "##ὸς": 627,
      "##λε": 628,
      "εἰ": 629,
      "##ῖς": 630,
      "##οῦ": 631,
      "##μεν": 632,
      "##μέν": 633,
      "##ὺς": 634,
      "##ους": 635,
      "##ην": 636,
      "ἀπ": 637,
      "τὰ": 638,
      "μὲν": 639,
      "ἀν": 640,
      "αὐτ": 641,
      "πο": 642,
      "τε": 643,
      "##ρι": 644,
      "##ται": 645,
      "##εί": 646,
      "τῆς": 647,
      "##ὸν": 648,
      "##ως": 649,
      "##σιν": 650,
      "τὸν": 651,
      "##ειν": 652,
      "##ης": 653,
      "ἐκ": 654,
      "##υν": 655,
      "##άν": 656,
      "##των": 657,
      "ὑπ": 658,
      "##ιν": 659,
      "##τος": 660,
      "##ὰρ": 661,
      "##εῖν": 662,
      "##σθαι": 663,
      "##ρί": 664,
      "γὰρ": 665,
      "προ": 666,
      "με": 667,
      "##τες": 668,
      "##έρ": 669,
      "δʼ": 670,
      "##σα": 671,
      "τα": 672,
      "##σαν": 673,
      "##λα": 674,
      "περ": 675,
      "##κα": 676,
      "τοὺς": 677,
      "##ού": 678,
      "παρ": 679,
      "ἀλλ": 680,
      "##οις": 681,
      "##λι": 682,
      "τοῖς": 683,
      "##ίν": 684,
      "τῷ": 685,
      "κατ": 686,
      "πρὸς": 687,
      "##δε": 688,
      "##ρον": 689,
      "ὡς": 690,
      "##τον": 691,
      "οἱ": 692,
      "##σε": 693,
      "ἐπι": 694,
      "εἶ": 695,
      "τι": 696,
      "##ρε": 697,
      "αὐτο": 698,
      "##έγ": 699,
      "##ίας": 700,
      "##υμ": 701,
      "##ίαν": 702,
      "##ναι": 703,
      "εἰς": 704,
      "##τας": 705,
      "##κε": 706,
      "##λέ": 707,
      "οὐδ": 708,
      "ἐπὶ": 709,
      "##αρ": 710,
      "##όμεν": 711,
      "##λη": 712,
      "##ικ": 713,
      "##στι": 714,
      "χρ": 715,
      "##τη": 716,
      "ἀπο": 717,
      "περὶ": 718,
      "ἄλλ": 719,
      "πό": 720,
      "##ρά": 721,
      "##ρο": 722,
      "ἐξ": 723,
      "οὐκ": 724,
      "τῇ": 725,
      "τού": 726,
      "##ομέν": 727,
      "μὴ": 728,
      "ἔχ": 729,
      "συν": 730,
      "##ελ": 731,
      "##ομ": 732,
      "##άρ": 733,
      "ἡμ": 734,
      "##αί": 735,
      "##αλ": 736,
      "στ": 737,
      "τὰς": 738,
      "##τοι": 739,
      "πολλ": 740,
      "##οῦν": 741,
      "##ῶς": 742,
      "ἂν": 743,
      "εὐ": 744,
      "##ήσ": 745,
      "##ορ": 746,
      "##στα": 747,
      "δια": 748,
      "πάν": 749,
      "##πε": 750,
      "ἐγ": 751,
      "κατὰ": 752,
      "οὖ": 753,
      "##μον": 754,
      "##σχ": 755,
      "##ργ": 756,
      "##σί": 757,
      "##ήν": 758,
      "ἀγ": 759,
      "##σαι": 760,
      "##μο": 761,
      "##να": 762,
      "κατα": 763,
      "θε": 764,
      "##στε": 765,
      "εἴ": 766,
      "##άλ": 767,
      "##ρχ": 768,
      "##περ": 769,
      "ὅτι": 770,
      "##τʼ": 771,
      "##τί": 772,
      "λέγ": 773,
      "##υγ": 774,
      "##εις": 775,
      "##άτ": 776,
      "##λο": 777,
      "##όγ": 778,
      "ἐς": 779,
      "##ός": 780,
      "##κο": 781,
      "ποι": 782,
      "##λί": 783,
      "παρα": 784,
      "ἄν": 785,
      "##θε": 786,
      "οὖν": 787,
      "##αγ": 788,
      "εἶναι": 789,
      "γε": 790,
      "ταῦ": 791,
      "τιν": 792,
      "ἀλλὰ": 793,
      "διὰ": 794,
      "##ρη": 795,
      "δέ": 796,
      "##αυ": 797,
      "##ῖν": 798,
      "οὔ": 799,
      "##ὰς": 800,
      "##πο": 801,
      "##θρ": 802,
      "προσ": 803,
      "##τέ": 804,
      "βα": 805,
      "##άσ": 806,
      "μη": 807,
      "##δα": 808,
      "##θη": 809,
      "##δί": 810,
      "##ρας": 811,
      "##τέρ": 812,
      "##δι": 813,
      "##ὼν": 814,
      "##τρ": 815,
      "ἐμ": 816,
      "##πον": 817,
      "αἰ": 818,
      "##όμ": 819,
      "##έλ": 820,
      "πλ": 821,
      "##μά": 822,
      "##ότε": 823,
      "λόγ": 824,
      "##υχ": 825,
      "##υσ": 826,
      "ἀλλʼ": 827,
      "##ησ": 828,
      "ὑπὸ": 829,
      "##νε": 830,
      "##του": 831,
      "καθ": 832,
      "##ᾶς": 833,
      "οὕ": 834,
      "τί": 835,
      "##δρ": 836,
      "ταῦτα": 837,
      "τοι": 838,
      "δὴ": 839,
      "ἦν": 840,
      "στρα": 841,
      "μετ": 842,
      "ἐστι": 843,
      "##ίων": 844,
      "περι": 845,
      "οὕτ": 846,
      "##άγ": 847,
      "δε": 848,
      "ὑμ": 849,
      "γεν": 850,
      "τοῦτο": 851,
      "##εῖς": 852,
      "##υρ": 853,
      "##έχ": 854,
      "##κι": 855,
      "##θεν": 856,
      "##πα": 857,
      "ἀφ": 858,
      "βασι": 859,
      "##μι": 860,
      "συμ": 861,
      "ἀμ": 862,
      "##κον": 863,
      "##εται": 864,
      "πε": 865,
      "αὐτῷ": 866,
      "τις": 867,
      "καλ": 868,
      "μά": 869,
      "##εὶ": 870,
      "##μενος": 871,
      "##ύν": 872,
      "##δο": 873,
      "ἀνα": 874,
      "ἀκ": 875,
      "##εσθαι": 876,
      "##δη": 877,
      "αὐτοῦ": 878,
      "ἀπὸ": 879,
      "ὄν": 880,
      "##θα": 881,
      "##τῶν": 882,
      "αὐτῶν": 883,
      "οἰ": 884,
      "##άμ": 885,
      "αὐτὸν": 886,
      "##λον": 887,
      "##ματα": 888,
      "##κό": 889,
      "##ύτ": 890,
      "##είν": 891,
      "##ῦν": 892,
      "ἔφ": 893,
      "παρὰ": 894,
      "##οί": 895,
      "οἷ": 896,
      "##ωρ": 897,
      "##λευ": 898,
      "##όμενος": 899,
      "μετὰ": 900,
      "οὗ": 901,
      "##σον": 902,
      "λα": 903,
      "φι": 904,
      "##λλον": 905,
      "ἐστ": 906,
      "##ολ": 907,
      "ἀρχ": 908,
      "##άζ": 909,
      "μηδ": 910,
      "##ών": 911,
      "##ουσι": 912,
      "##εύ": 913,
      "##θέν": 914,
      "##ξι": 915,
      "##γε": 916,
      "δύ": 917,
      "μέ": 918,
      "##οκ": 919,
      "##οντες": 920,
      "##ππ": 921,
      "πόλ": 922,
      "κε": 923,
      "ἐφ": 924,
      "##ὶν": 925,
      "##υκ": 926,
      "##σας": 927,
      "##ίκ": 928,
      "##τικ": 929,
      "##ουσιν": 930,
      "##ὰν": 931,
      "ταῖς": 932,
      "##αις": 933,
      "##όνον": 934,
      "μή": 935,
      "##ρέ": 936,
      "##ες": 937,
      "τούτων": 938,
      "##ὶς": 939,
      "##αθ": 940,
      "##εσ": 941,
      "σφ": 942,
      "##ρος": 943,
      "αὐτοῖς": 944,
      "##ώπ": 945,
      "##τά": 946,
      "##δον": 947,
      "##οφ": 948,
      "##ίδ": 949,
      "##γν": 950,
      "οὐδὲ": 951,
      "##όντων": 952,
      "##σκ": 953,
      "τά": 954,
      "##αῖ": 955,
      "ἐλ": 956,
      "##τοῦ": 957,
      "ἐκείν": 958,
      "##ραν": 959,
      "##μπ": 960,
      "##ετο": 961,
      "πολ": 962,
      "##μη": 963,
      "νῦν": 964,
      "αἱ": 965,
      "##ρω": 966,
      "ἔτι": 967,
      "τό": 968,
      "μεγ": 969,
      "##ρό": 970,
      "##σπερ": 971,
      "οὔτε": 972,
      "##ίζ": 973,
      "μοι": 974,
      "##γον": 975,
      "μέν": 976,
      "##λεί": 977,
      "ὧν": 978,
      "##με": 979,
      "##ηγ": 980,
      "##τὸν": 981,
      "##ισ": 982,
      "##λεύ": 983,
      "##μένων": 984,
      "δυν": 985,
      "ἑαυ": 986,
      "##μβ": 987,
      "##μάτων": 988,
      "##ία": 989,
      "##οὺς": 990,
      "##τοις": 991,
      "##ακ": 992,
      "##ρου": 993,
      "Ἀθ": 994,
      "##πει": 995,
      "##νη": 996,
      "##τή": 997,
      "ἐστιν": 998,
      "ἀνθρ": 999,
      "ὥσπερ": 1000,
      "##πι": 1001,
      "ὅπ": 1002,
      "φα": 1003,
      "οἰκ": 1004,
      "##ῆναι": 1005,
      "##οιν": 1006,
      "##βα": 1007,
      "πᾶ": 1008,
      "πόλε": 1009,
      "##θέ": 1010,
      "##ίου": 1011,
      "##τῳ": 1012,
      "βου": 1013,
      "ταύτ": 1014,
      "πέ": 1015,
      "αὑ": 1016,
      "##ταν": 1017,
      "οὕτως": 1018,
      "##στο": 1019,
      "πρῶ": 1020,
      "οἶ": 1021,
      "κακ": 1022,
      "##ματος": 1023,
      "##οὶ": 1024,
      "##δος": 1025,
      "##στον": 1026,
      "##ιον": 1027,
      "##ήλ": 1028,
      "##όμενον": 1029,
      "καί": 1030,
      "##ξαν": 1031,
      "αὐτὸς": 1032,
      "παν": 1033,
      "μᾶ": 1034,
      "ἀμφ": 1035,
      "νε": 1036,
      "##ίλ": 1037,
      "##κει": 1038,
      "##μενοι": 1039,
      "οὐδὲν": 1040,
      "##πό": 1041,
      "##ωμα": 1042,
      "σὺ": 1043,
      "##της": 1044,
      "##οντα": 1045,
      "ἀνθρώπ": 1046,
      "ἔν": 1047,
      "##κά": 1048,
      "ἔφη": 1049,
      "δοκ": 1050,
      "##σης": 1051,
      "##τερον": 1052,
      "πάντα": 1053,
      "##θʼ": 1054,
      "##όμενοι": 1055,
      "μᾶλλον": 1056,
      "##όντες": 1057,
      "ὑπο": 1058,
      "##κεν": 1059,
      "##ῆν": 1060,
      "δεῖ": 1061,
      "ὑπὲ": 1062,
      "γυν": 1063,
      "ὑπὲρ": 1064,
      "##ποι": 1065,
      "οὐχ": 1066,
      "##θος": 1067,
      "ἤδη": 1068,
      "##εγ": 1069,
      "##πτ": 1070,
      "##λή": 1071,
      "ἔστι": 1072,
      "μέγ": 1073,
      "##λεμ": 1074,
      "##σει": 1075,
      "τέ": 1076,
      "##σεν": 1077,
      "##χθ": 1078,
      "γέν": 1079,
      "##δει": 1080,
      "##λά": 1081,
      "##ρυ": 1082,
      "##στη": 1083,
      "##οῖς": 1084,
      "##ρων": 1085,
      "##είας": 1086,
      "##σεως": 1087,
      "##ευ": 1088,
      "Ἀθην": 1089,
      "μετα": 1090,
      "##ημ": 1091,
      "##λαβ": 1092,
      "ἄνδ": 1093,
      "αὐτοὺς": 1094,
      "##φθ": 1095,
      "##πέ": 1096,
      "ἐγὼ": 1097,
      "##μν": 1098,
      "##έναι": 1099,
      "οὕτω": 1100,
      "##γεν": 1101,
      "ὁρ": 1102,
      "ὥστε": 1103,
      "##τους": 1104,
      "μάλι": 1105,
      "##σκε": 1106,
      "##ριον": 1107,
      "Ἀν": 1108,
      "ἐπεὶ": 1109,
      "φύ": 1110,
      "##θι": 1111,
      "##ίᾳ": 1112,
      "##λογ": 1113,
      "##μαι": 1114,
      "##εῖσθαι": 1115,
      "##λου": 1116,
      "ἐκεῖν": 1117,
      "τρι": 1118,
      "συγ": 1119,
      "ἡμῖν": 1120,
      "πολεμ": 1121,
      "##ραγ": 1122,
      "##ομένων": 1123,
      "##μενον": 1124,
      "##άλλ": 1125,
      "##σμ": 1126,
      "γάρ": 1127,
      "##ονται": 1128,
      "Αἰ": 1129,
      "ὁμο": 1130,
      "##αιν": 1131,
      "πολι": 1132,
      "γν": 1133,
      "##παν": 1134,
      "ἀγαθ": 1135,
      "##δέ": 1136,
      "##μην": 1137,
      "πάλ": 1138,
      "##ῆσαι": 1139,
      "##ξα": 1140,
      "Ῥωμα": 1141,
      "##σσ": 1142,
      "##οντο": 1143,
      "μάλιστα": 1144,
      "πόλιν": 1145,
      "οἴ": 1146,
      "##ξε": 1147,
      "##υρί": 1148,
      "ἔργ": 1149,
      "ἄρα": 1150,
      "ἀνδρ": 1151,
      "εἰπ": 1152,
      "##άμενος": 1153,
      "##ότερον": 1154,
      "δό": 1155,
      "##δό": 1156,
      "μόνον": 1157,
      "εἰσ": 1158,
      "##χε": 1159,
      "ἱερ": 1160,
      "##ριν": 1161,
      "##σαντες": 1162,
      "οὐδʼ": 1163,
      "##κλ": 1164,
      "##μένους": 1165,
      "##ωρί": 1166,
      "παρʼ": 1167,
      "##υθ": 1168,
      "##κου": 1169,
      "##κτ": 1170,
      "κοιν": 1171,
      "ἐχ": 1172,
      "##ακε": 1173,
      "##νο": 1174,
      "##πί": 1175,
      "##φέρ": 1176,
      "##που": 1177,
      "σε": 1178,
      "##έσθαι": 1179,
      "##ειδ": 1180,
      "##σις": 1181,
      "τότε": 1182,
      "φυ": 1183,
      "##τὸς": 1184,
      "##έων": 1185,
      "##ληθ": 1186,
      "κατε": 1187,
      "φίλ": 1188,
      "##ίους": 1189,
      "##ᾶν": 1190,
      "##ρὸν": 1191,
      "##οντας": 1192,
      "αὖ": 1193,
      "##ειαν": 1194,
      "νομ": 1195,
      "##ύχ": 1196,
      "κύ": 1197,
      "ἐπʼ": 1198,
      "παι": 1199,
      "##βη": 1200,
      "πά": 1201,
      "##αῦ": 1202,
      "ψυχ": 1203,
      "##ρθ": 1204,
      "δη": 1205,
      "δίκ": 1206,
      "Κα": 1207,
      "δή": 1208,
      "##τρί": 1209,
      "##φα": 1210,
      "##φαν": 1211,
      "πρῶτον": 1212,
      "ἀπέ": 1213,
      "##ήσας": 1214,
      "ἄγ": 1215,
      "πρό": 1216,
      "##δόν": 1217,
      "##ειρ": 1218,
      "##ύμ": 1219,
      "##θον": 1220,
      "##σω": 1221,
      "##τό": 1222,
      "νόμ": 1223,
      "##τω": 1224,
      "##δικ": 1225,
      "συνε": 1226,
      "##ματι": 1227,
      "##ήσα": 1228,
      "##ομαι": 1229,
      "##θεῖν": 1230,
      "χώ": 1231,
      "##τερ": 1232,
      "##ομεν": 1233,
      "τούτου": 1234,
      "ὑπερ": 1235,
      "Δι": 1236,
      "##ὲς": 1237,
      "Ἑλλ": 1238,
      "##ὴς": 1239,
      "λαβ": 1240,
      "##οντος": 1241,
      "τούτοις": 1242,
      "##μόν": 1243,
      "πολλὰ": 1244,
      "##την": 1245,
      "##βου": 1246,
      "τιμ": 1247,
      "##δαι": 1248,
      "φη": 1249,
      "βασιλέ": 1250,
      "κό": 1251,
      "βουλ": 1252,
      "δύνα": 1253,
      "διʼ": 1254,
      "ἄλλων": 1255,
      "σοι": 1256,
      "##δας": 1257,
      "##ίοις": 1258,
      "ἅμα": 1259,
      "πλεί": 1260,
      "##χον": 1261,
      "πάντων": 1262,
      "ἄρ": 1263,
      "##ρες": 1264,
      "μα": 1265,
      "##χος": 1266,
      "φέρ": 1267,
      "##υπ": 1268,
      "πάλιν": 1269,
      "##μένον": 1270,
      "φιλ": 1271,
      "κἀ": 1272,
      "##θυμ": 1273,
      "ἀσ": 1274,
      "##λος": 1275,
      "ὀλί": 1276,
      "##μων": 1277,
      "##ογ": 1278,
      "ἔχει": 1279,
      "χα": 1280,
      "ἀναγ": 1281,
      "##σθε": 1282,
      "οὗτος": 1283,
      "##κοντα": 1284,
      "πολὺ": 1285,
      "##λύ": 1286,
      "ἐπε": 1287,
      "εὐθ": 1288,
      "δῆ": 1289,
      "##μος": 1290,
      "##πλ": 1291,
      "##μοι": 1292,
      "##ρύ": 1293,
      "##δω": 1294,
      "##κν": 1295,
      "ἀλλήλ": 1296,
      "##ήσε": 1297,
      "διε": 1298,
      "##ρόν": 1299,
      "μι": 1300,
      "φιλο": 1301,
      "##άντων": 1302,
      "ὑμῖν": 1303,
      "λοι": 1304,
      "##κη": 1305,
      "##οῖ": 1306,
      "##τόν": 1307,
      "##μαρ": 1308,
      "τρό": 1309,
      "μὴν": 1310,
      "σω": 1311,
      "πολέ": 1312,
      "##ραφ": 1313,
      "στρατι": 1314,
      "ἅπαν": 1315,
      "##ωπ": 1316,
      "##τὶ": 1317,
      "βασιλε": 1318,
      "##θεὶς": 1319,
      "τʼ": 1320,
      "Εὐ": 1321,
      "αὐτὴν": 1322,
      "##μψ": 1323,
      "πῶς": 1324,
      "καθʼ": 1325,
      "##μου": 1326,
      "τοῦτον": 1327,
      "##λφ": 1328,
      "##οῦσιν": 1329,
      "##τηγ": 1330,
      "μέρ": 1331,
      "##σίας": 1332,
      "##δεί": 1333,
      "##κέ": 1334,
      "δικα": 1335,
      "ἔχειν": 1336,
      "βο": 1337,
      "##εῖται": 1338,
      "οἷς": 1339,
      "ἑκά": 1340,
      "πι": 1341,
      "##άλα": 1342,
      "##λικ": 1343,
      "μάχ": 1344,
      "##ραχ": 1345,
      "##θαν": 1346,
      "##ὼς": 1347,
      "σώ": 1348,
      "ἵνα": 1349,
      "##σίαν": 1350,
      "##ρώ": 1351,
      "##δες": 1352,
      "δύο": 1353,
      "κατέ": 1354,
      "##καν": 1355,
      "ἀκού": 1356,
      "ὅταν": 1357,
      "##ομένους": 1358,
      "ἐπί": 1359,
      "ὀν": 1360,
      "ἡμᾶς": 1361,
      "ἡμῶν": 1362,
      "##σθέν": 1363,
      "##ιος": 1364,
      "##ραμ": 1365,
      "μόν": 1366,
      "ὃς": 1367,
      "ὅπως": 1368,
      "ἡγ": 1369,
      "Περ": 1370,
      "##λων": 1371,
      "##σκευ": 1372,
      "##οῦντες": 1373,
      "μεγάλ": 1374,
      "τρί": 1375,
      "ἕκα": 1376,
      "τινα": 1377,
      "##οῦσι": 1378,
      "##βολ": 1379,
      "στρατηγ": 1380,
      "πρότερον": 1381,
      "##πν": 1382,
      "##κρα": 1383,
      "ἐπειδ": 1384,
      "##μβάν": 1385,
      "##πεν": 1386,
      "ἀδε": 1387,
      "##κων": 1388,
      "αὐτῆς": 1389,
      "##οῦτον": 1390,
      "γενέσθαι": 1391,
      "##ρακ": 1392,
      "ἑτέρ": 1393,
      "##ήματα": 1394,
      "##μοῦ": 1395,
      "ἀπε": 1396,
      "##ρῶν": 1397,
      "##λει": 1398,
      "##βαλ": 1399,
      "##ήσει": 1400,
      "##ηται": 1401,
      "##όρ": 1402,
      "##ίως": 1403,
      "χρόν": 1404,
      "κιν": 1405,
      "##ζον": 1406,
      "ἐθ": 1407,
      "παῖ": 1408,
      "##ασ": 1409,
      "βού": 1410,
      "κατʼ": 1411,
      "##τυχ": 1412,
      "##στερον": 1413,
      "μικ": 1414,
      "ἣν": 1415,
      "λόγον": 1416,
      "##αντί": 1417,
      "##μφ": 1418,
      "##ρετ": 1419,
      "λε": 1420,
      "ἐστὶ": 1421,
      "σοφ": 1422,
      "κρα": 1423,
      "σύ": 1424,
      "ἀληθ": 1425,
      "ἴσ": 1426,
      "λέγειν": 1427,
      "πόλεως": 1428,
      "##όδ": 1429,
      "##ουσα": 1430,
      "εὖ": 1431,
      "ἄρχ": 1432,
      "ἄλλο": 1433,
      "υἱ": 1434,
      "##αίων": 1435,
      "μήτε": 1436,
      "##στή": 1437,
      "τοσ": 1438,
      "τετ": 1439,
      "##ίγ": 1440,
      "νό": 1441,
      "φαν": 1442,
      "ἀρ": 1443,
      "##ότη": 1444,
      "##αρχ": 1445,
      "συ": 1446,
      "##ουμέν": 1447,
      "πλη": 1448,
      "##δʼ": 1449,
      "##ηθ": 1450,
      "##τῷ": 1451,
      "ἐὰν": 1452,
      "##ῖον": 1453,
      "##τεύ": 1454,
      "ἔπει": 1455,
      "ταύτην": 1456,
      "##ροφ": 1457,
      "##ὴρ": 1458,
      "##τως": 1459,
      "ποτα": 1460,
      "Λακε": 1461,
      "##κλη": 1462,
      "##ησεν": 1463,
      "ἀδελφ": 1464,
      "δειν": 1465,
      "##μένος": 1466,
      "##ούς": 1467,
      "ὅσ": 1468,
      "χρη": 1469,
      "##οῦς": 1470,
      "βαρ": 1471,
      "##οσ": 1472,
      "ὑμᾶς": 1473,
      "τούτῳ": 1474,
      "τίς": 1475,
      "##θει": 1476,
      "##ήρ": 1477,
      "##γγ": 1478,
      "χά": 1479,
      "ὃν": 1480,
      "εἰπεῖν": 1481,
      "##άρχ": 1482,
      "αὐτὸ": 1483,
      "##σθη": 1484,
      "ἀντι": 1485,
      "δυνα": 1486,
      "Θε": 1487,
      "##οπ": 1488,
      "##σῃ": 1489,
      "ἐστὶν": 1490,
      "##όντα": 1491,
      "ἐσ": 1492,
      "##φορ": 1493,
      "ἔχων": 1494,
      "ἰδ": 1495,
      "##ξαι": 1496,
      "ὀλίγ": 1497,
      "και": 1498,
      "Ἀχ": 1499,
      "##ρή": 1500,
      "ἐγέν": 1501,
      "οἷον": 1502,
      "##ύπ": 1503,
      "##ταί": 1504,
      "ἀρι": 1505,
      "##δυν": 1506,
      "##άς": 1507,
      "ἀνε": 1508,
      "##λαι": 1509,
      "##κας": 1510,
      "##δαιμον": 1511,
      "ἀνέ": 1512,
      "##σται": 1513,
      "##εῖον": 1514,
      "##άκι": 1515,
      "##δων": 1516,
      "εἴη": 1517,
      "πεν": 1518,
      "##μοὶ": 1519,
      "##ια": 1520,
      "γυναι": 1521,
      "εὔ": 1522,
      "##λυ": 1523,
      "##φαλ": 1524,
      "##τρι": 1525,
      "γρά": 1526,
      "##ττον": 1527,
      "##άτων": 1528,
      "λι": 1529,
      "##ίνεται": 1530,
      "##ξω": 1531,
      "##ίῳ": 1532,
      "##οιο": 1533,
      "οὐδε": 1534,
      "οἵ": 1535,
      "ὀρθ": 1536,
      "σὺν": 1537,
      "μηδὲ": 1538,
      "οἳ": 1539,
      "μηδὲν": 1540,
      "ἀεὶ": 1541,
      "##ύς": 1542,
      "##έα": 1543,
      "##τέρα": 1544,
      "##όντος": 1545,
      "##ρίαν": 1546,
      "φησ": 1547,
      "##αμ": 1548,
      "ἐπέ": 1549,
      "##ούμενος": 1550,
      "ἡμέρ": 1551,
      "##έχρι": 1552,
      "γνώ": 1553,
      "δυνάμ": 1554,
      "πρώ": 1555,
      "##μαχ": 1556,
      "##φρον": 1557,
      "##ούσης": 1558,
      "μέχρι": 1559,
      "αἴ": 1560,
      "ἔστιν": 1561,
      "##μῶν": 1562,
      "πατρ": 1563,
      "##ρίας": 1564,
      "χρόνον": 1565,
      "##ιλί": 1566,
      "##μὸν": 1567,
      "ἁπ": 1568,
      "##σασθαι": 1569,
      "σχ": 1570,
      "Ἀρι": 1571,
      "ἀξι": 1572,
      "##ῆσθαι": 1573,
      "##σθεν": 1574,
      "ἐφʼ": 1575,
      "Ἀρ": 1576,
      "ὑπʼ": 1577,
      "πάντες": 1578,
      "ἀνθρώπων": 1579,
      "##εβ": 1580,
      "##ίνυν": 1581,
      "##λις": 1582,
      "ὅσα": 1583,
      "##ύρ": 1584,
      "μέντοι": 1585,
      "ὑμῶν": 1586,
      "##ρεύ": 1587,
      "##οιτο": 1588,
      "εἰκ": 1589,
      "τοίνυν": 1590,
      "##οισι": 1591,
      "δοκεῖ": 1592,
      "δυ": 1593,
      "ἀρετ": 1594,
      "##άμενοι": 1595,
      "##λῶν": 1596,
      "ἄνθρ": 1597,
      "##μένοις": 1598,
      "##τει": 1599,
      "νέ": 1600,
      "ἑκα": 1601,
      "##εσβ": 1602,
      "ἔπ": 1603,
      "##ξεν": 1604,
      "##ίχ": 1605,
      "##ταῦ": 1606,
      "θη": 1607,
      "##μό": 1608,
      "##μιν": 1609,
      "##ουν": 1610,
      "##ομένης": 1611,
      "ἀνάγ": 1612,
      "##ωσιν": 1613,
      "συνέ": 1614,
      "##ταις": 1615,
      "##τιον": 1616,
      "τελευ": 1617,
      "##μένα": 1618,
      "##μένου": 1619,
      "##σὶ": 1620,
      "##ελθ": 1621,
      "ΣΩ": 1622,
      "ἄλλα": 1623,
      "ἄνδρες": 1624,
      "ἦσαν": 1625,
      "##λλα": 1626,
      "στα": 1627,
      "ἡγε": 1628,
      "##κρά": 1629,
      "##άκ": 1630,
      "##ομένου": 1631,
      "##ίη": 1632,
      "ποτε": 1633,
      "##ιβ": 1634,
      "καρ": 1635,
      "πρεσβ": 1636,
      "σι": 1637,
      "ἐρ": 1638,
      "##μένη": 1639,
      "##τῃ": 1640,
      "φρον": 1641,
      "παρε": 1642,
      "##ίον": 1643,
      "##φυ": 1644,
      "πρὸ": 1645,
      "ἑκάστ": 1646,
      "Αἰγ": 1647,
      "τοιού": 1648,
      "##τάτ": 1649,
      "πράγ": 1650,
      "##ούν": 1651,
      "τίν": 1652,
      "γυναῖ": 1653,
      "##ήσαν": 1654,
      "##ότα": 1655,
      "##ωγ": 1656,
      "##και": 1657,
      "τύχ": 1658,
      "πάνυ": 1659,
      "θεῶν": 1660,
      "ἵππ": 1661,
      "τοιαῦ": 1662,
      "ζη": 1663,
      "##όμενα": 1664,
      "##πω": 1665,
      "##δου": 1666,
      "##ιγν": 1667,
      "##τειν": 1668,
      "λοιπ": 1669,
      "##έρας": 1670,
      "ἀδικ": 1671,
      "##ίσ": 1672,
      "θεοῦ": 1673,
      "ἱππ": 1674,
      "##ῆλ": 1675,
      "##άσας": 1676,
      "εὐθὺς": 1677,
      "πλῆ": 1678,
      "προσε": 1679,
      "μακ": 1680,
      "##άκις": 1681,
      "##οχ": 1682,
      "αὐτόν": 1683,
      "##τελ": 1684,
      "##σιον": 1685,
      "ἔγ": 1686,
      "##τευ": 1687,
      "##μένην": 1688,
      "##ξει": 1689,
      "##ίστ": 1690,
      "ἐποί": 1691,
      "##λακ": 1692,
      "##ξιν": 1693,
      "##μῳ": 1694,
      "ἐνταῦ": 1695,
      "παρέ": 1696,
      "ἰσχ": 1697,
      "##σατο": 1698,
      "##απ": 1699,
      "πολλῶν": 1700,
      "##ύλ": 1701,
      "##ιστ": 1702,
      "ὅτε": 1703,
      "γυναικ": 1704,
      "φθ": 1705,
      "κρ": 1706,
      "##ὓς": 1707,
      "##οῦσα": 1708,
      "οὓς": 1709,
      "##στος": 1710,
      "##μασι": 1711,
      "που": 1712,
      "##μασιν": 1713,
      "##ίγνε": 1714,
      "##κοπ": 1715,
      "λί": 1716,
      "ναυ": 1717,
      "σκ": 1718,
      "χρὴ": 1719,
      "ἀποκ": 1720,
      "##λω": 1721,
      "ὢν": 1722,
      "##ώτα": 1723,
      "ἐπειδὴ": 1724,
      "Ἕλλ": 1725,
      "οὗτοι": 1726,
      "Ἀγ": 1727,
      "##βο": 1728,
      "Ῥωμαίων": 1729,
      "θαλ": 1730,
      "##ηρ": 1731,
      "γεγον": 1732,
      "##τέρων": 1733,
      "ὅλ": 1734,
      "εἶπεν": 1735,
      "εὑ": 1736,
      "ὕστερον": 1737,
      "##δύ": 1738,
      "ξυν": 1739,
      "##εῖτο": 1740,
      "##λώ": 1741,
      "κο": 1742,
      "ἔλε": 1743,
      "##ξας": 1744,
      "##ιζ": 1745,
      "καθά": 1746,
      "##ηφ": 1747,
      "##νή": 1748,
      "##εθα": 1749,
      "##διον": 1750,
      "πόλει": 1751,
      "ὄντα": 1752,
      "αὐτοὶ": 1753,
      "χρυσ": 1754,
      "πλῆθος": 1755,
      "τέλ": 1756,
      "ἀπό": 1757,
      "##θερ": 1758,
      "αὐτῇ": 1759,
      "πλέ": 1760,
      "##δης": 1761,
      "διέ": 1762,
      "ἐξε": 1763,
      "##μή": 1764,
      "##ομένοις": 1765,
      "ἔκ": 1766,
      "##δὸν": 1767,
      "##αῖοι": 1768,
      "##δῶν": 1769,
      "##είαν": 1770,
      "##έως": 1771,
      "##οικ": 1772,
      "ποιεῖν": 1773,
      "θα": 1774,
      "ἢν": 1775,
      "##λιπ": 1776,
      "##σίων": 1777,
      "##μένοι": 1778,
      "ἀργ": 1779,
      "λεγ": 1780,
      "##μεθα": 1781,
      "τοῖ": 1782,
      "Σι": 1783,
      "ἐμοὶ": 1784,
      "##οβ": 1785,
      "##σεις": 1786,
      "δίκαι": 1787,
      "##όφ": 1788,
      "ποιη": 1789,
      "ἐνταῦθα": 1790,
      "κομ": 1791,
      "##χαν": 1792,
      "##φερ": 1793,
      "νομίζ": 1794,
      "αἰτ": 1795,
      "πάντας": 1796,
      "δυσ": 1797,
      "τούτους": 1798,
      "##όνων": 1799,
      "διά": 1800,
      "##ομα": 1801,
      "ἄξι": 1802,
      "αἰσχ": 1803,
      "##ὺν": 1804,
      "δύναμιν": 1805,
      "##τός": 1806,
      "##ούντων": 1807,
      "##ιστα": 1808,
      "καλῶς": 1809,
      "μέγα": 1810,
      "##τύ": 1811,
      "##γων": 1812,
      "ἀμφο": 1813,
      "ὅσον": 1814,
      "τήν": 1815,
      "σα": 1816,
      "##εῦ": 1817,
      "ὑφ": 1818,
      "τρόπον": 1819,
      "ἐξέ": 1820,
      "##κος": 1821,
      "##ρει": 1822,
      "##ροι": 1823,
      "δο": 1824,
      "χωρί": 1825,
      "χεῖ": 1826,
      "##καλ": 1827,
      "##οῦντας": 1828,
      "##θησαν": 1829,
      "γʼ": 1830,
      "##μάχ": 1831,
      "##τυ": 1832,
      "##εργ": 1833,
      "ἐγγ": 1834,
      "##ιοι": 1835,
      "τοιαῦτα": 1836,
      "κυ": 1837,
      "##πη": 1838,
      "ἀρχῆς": 1839,
      "##νί": 1840,
      "##ήγ": 1841,
      "##αύ": 1842,
      "##ριος": 1843,
      "πρά": 1844,
      "ἀνδρῶν": 1845,
      "γῆς": 1846,
      "##βάλλ": 1847,
      "πράτ": 1848,
      "πλεῖ": 1849,
      "κω": 1850,
      "τἀ": 1851,
      "##ρια": 1852,
      "##τέον": 1853,
      "καθάπερ": 1854,
      "##θους": 1855,
      "πατρί": 1856,
      "##τεῖ": 1857,
      "ἔπειτα": 1858,
      "χει": 1859,
      "ἡμεῖς": 1860,
      "##μως": 1861,
      "##τὴν": 1862,
      "##οῦντα": 1863,
      "λόγος": 1864,
      "κάλλ": 1865,
      "##ῶμα": 1866,
      "ἀνδ": 1867,
      "##βαίν": 1868,
      "εἶτα": 1869,
      "σπου": 1870,
      "##ψε": 1871,
      "διδ": 1872,
      "##υσεν": 1873,
      "γῆν": 1874,
      "πολλοὺς": 1875,
      "ἐκείνου": 1876,
      "##αβ": 1877,
      "οὐδέν": 1878,
      "ὀργ": 1879,
      "##αῖς": 1880,
      "##χάν": 1881,
      "##τῆ": 1882,
      "μέρος": 1883,
      "πεί": 1884,
      "##εὶς": 1885,
      "##μης": 1886,
      "βασιλέως": 1887,
      "##στρα": 1888,
      "Δη": 1889,
      "ἑαυτοῦ": 1890,
      "λέγω": 1891,
      "ἕνε": 1892,
      "γοῦν": 1893,
      "οἶμαι": 1894,
      "χαλε": 1895,
      "##ψαν": 1896,
      "θυμ": 1897,
      "##τερα": 1898,
      "##ομένην": 1899,
      "γιγν": 1900,
      "##ψα": 1901,
      "πολλάκις": 1902,
      "##σῶν": 1903,
      "ἐγένετο": 1904,
      "πον": 1905,
      "ἡδον": 1906,
      "ἀναγκα": 1907,
      "ἐλευ": 1908,
      "ταύτῃ": 1909,
      "##τείν": 1910,
      "##αιρ": 1911,
      "##στά": 1912,
      "##ημα": 1913,
      "##θέντες": 1914,
      "##τέρας": 1915,
      "ταύτης": 1916,
      "ὑγ": 1917,
      "##νι": 1918,
      "##τερος": 1919,
      "πόλεμον": 1920,
      "##ήνων": 1921,
      "προσέ": 1922,
      "ἄλλους": 1923,
      "##όντας": 1924,
      "##ρικ": 1925,
      "ἄλλοις": 1926,
      "##οιαν": 1927,
      "Οὐ": 1928,
      "##άβ": 1929,
      "λέ": 1930,
      "##φάν": 1931,
      "##σπ": 1932,
      "πί": 1933,
      "##λιον": 1934,
      "##θις": 1935,
      "χώραν": 1936,
      "##ῃς": 1937,
      "λέγει": 1938,
      "##ουσαν": 1939,
      "ἐπαν": 1940,
      "πέν": 1941,
      "τέχ": 1942,
      "##εῖα": 1943,
      "##πεσ": 1944,
      "πεπ": 1945,
      "φων": 1946,
      "##σοφ": 1947,
      "ἀριθ": 1948,
      "##ρίν": 1949,
      "ἐκέ": 1950,
      "ἔσται": 1951,
      "Λακεδαιμον": 1952,
      "ὁμοίως": 1953,
      "##όμεθα": 1954,
      "##τεῖν": 1955,
      "##ρίζ": 1956,
      "##θάν": 1957,
      "##σὶν": 1958,
      "πολλοὶ": 1959,
      "ἅπα": 1960,
      "ταῦτʼ": 1961,
      "##φε": 1962,
      "##ρευ": 1963,
      "εἰδ": 1964,
      "παρά": 1965,
      "φυγ": 1966,
      "τινὰ": 1967,
      "##ῶσιν": 1968,
      "##στʼ": 1969,
      "πει": 1970,
      "μεί": 1971,
      "##ἂν": 1972,
      "μετʼ": 1973,
      "στε": 1974,
      "##ομένη": 1975,
      "πυρ": 1976,
      "πλε": 1977,
      "ταὐ": 1978,
      "ἧς": 1979,
      "γίγνε": 1980,
      "μαν": 1981,
      "τρ": 1982,
      "##κειν": 1983,
      "##ῆμα": 1984,
      "αὖθις": 1985,
      "##ῖοι": 1986,
      "ἱκαν": 1987,
      "##ειλ": 1988,
      "##φρο": 1989,
      "οὔτʼ": 1990,
      "ἔξω": 1991,
      "ἔργον": 1992,
      "δεί": 1993,
      "##αλλ": 1994,
      "πρὶν": 1995,
      "##ραπ": 1996,
      "ἄνδρα": 1997,
      "τυρ": 1998,
      "ἀρχὴν": 1999,
      "πᾶν": 2000,
      "##μένης": 2001,
      "ἐκεῖ": 2002,
      "##ήσεται": 2003,
      "πόλεις": 2004,
      "θάλα": 2005,
      "μαρ": 2006,
      "κεφαλ": 2007,
      "##είᾳ": 2008,
      "##ούμενοι": 2009,
      "φησιν": 2010,
      "ἁρ": 2011,
      "ὁμολογ": 2012,
      "##δαί": 2013,
      "ἑκ": 2014,
      "ἰδί": 2015,
      "##ῦσαι": 2016,
      "##ούμενον": 2017,
      "##ττα": 2018,
      "ἐποι": 2019,
      "ἄλλοι": 2020,
      "πλή": 2021,
      "δημο": 2022,
      "τινες": 2023,
      "πραγ": 2024,
      "αὐτὰ": 2025,
      "κἂν": 2026,
      "λογ": 2027,
      "##σιος": 2028,
      "##άνδρ": 2029,
      "ἄνθρω": 2030,
      "##άζειν": 2031,
      "ἔθ": 2032,
      "λόγῳ": 2033,
      "##οντι": 2034,
      "ταχ": 2035,
      "Ἀθηναῖοι": 2036,
      "καίτοι": 2037,
      "μνη": 2038,
      "ῥη": 2039,
      "##χωρ": 2040,
      "##θῆναι": 2041,
      "τόπ": 2042,
      "αὑτοῦ": 2043,
      "λέγων": 2044,
      "##ιλ": 2045,
      "##λαμβάν": 2046,
      "##δην": 2047,
      "##αὶ": 2048,
      "βασιλεὺς": 2049,
      "ἱστο": 2050,
      "χάριν": 2051,
      "##λλων": 2052,
      "κελεύ": 2053,
      "τόν": 2054,
      "##ζε": 2055,
      "##χει": 2056,
      "εἷ": 2057,
      "ἐκείνων": 2058,
      "θαν": 2059,
      "##χώ": 2060,
      "##γμα": 2061,
      "##υγχάν": 2062,
      "ἀπʼ": 2063,
      "εἰρ": 2064,
      "διὸ": 2065,
      "ἐγώ": 2066,
      "##τοὺς": 2067,
      "##τρε": 2068,
      "##σύν": 2069,
      "ὄνομα": 2070,
      "πρᾶ": 2071,
      "ἀντὶ": 2072,
      "##έσ": 2073,
      "βασιλ": 2074,
      "Διον": 2075,
      "ξέν": 2076,
      "πλὴν": 2077,
      "κἀκ": 2078,
      "Ἰου": 2079,
      "οὐδεν": 2080,
      "θερ": 2081,
      "##σθω": 2082,
      "##ρισ": 2083,
      "θυγ": 2084,
      "συμβ": 2085,
      "χαλ": 2086,
      "##είων": 2087,
      "##δύν": 2088,
      "##άπ": 2089,
      "στό": 2090,
      "##ττ": 2091,
      "##λίαν": 2092,
      "##ύειν": 2093,
      "##ήσεις": 2094,
      "ὅπερ": 2095,
      "##τρέ": 2096,
      "##τὲ": 2097,
      "Μακε": 2098,
      "πόλις": 2099,
      "##ξεις": 2100,
      "παλαι": 2101,
      "λόγους": 2102,
      "##χα": 2103,
      "Ἀλε": 2104,
      "πολιτε": 2105,
      "οὐδεὶς": 2106,
      "##έας": 2107,
      "τινος": 2108,
      "##ίνων": 2109,
      "##σαντο": 2110,
      "δεῖν": 2111,
      "ἡμέρας": 2112,
      "##δωρ": 2113,
      "##κυ": 2114,
      "##θέντα": 2115,
      "ὁπ": 2116,
      "εἴτε": 2117,
      "##χεν": 2118,
      "σημ": 2119,
      "##σια": 2120,
      "##δρος": 2121,
      "ὥς": 2122,
      "##στιν": 2123,
      "##ίδων": 2124,
      "πλέον": 2125,
      "##ρίων": 2126,
      "Ἀντι": 2127,
      "##χν": 2128,
      "##τοῖς": 2129,
      "ἔσχ": 2130,
      "##βάρ": 2131,
      "##όπ": 2132,
      "φανερ": 2133,
      "##ώς": 2134,
      "##εῖναι": 2135,
      "τοῦτʼ": 2136,
      "ἀνὴρ": 2137,
      "ἑν": 2138,
      "##ιστον": 2139,
      "##στέ": 2140,
      "##ροῦ": 2141,
      "##ησιν": 2142,
      "εἴρη": 2143,
      "ἐπιθυμ": 2144,
      "ἁπάντων": 2145,
      "ὑμεῖς": 2146,
      "Πο": 2147,
      "ἐμοῦ": 2148,
      "σφί": 2149,
      "##οῦνται": 2150,
      "πολεμίων": 2151,
      "γεγ": 2152,
      "##ωσι": 2153,
      "##λεγ": 2154,
      "πᾶσαν": 2155,
      "λόγου": 2156,
      "##λόγ": 2157,
      "##πλη": 2158,
      "τέλος": 2159,
      "μου": 2160,
      "Καί": 2161,
      "λαμβάν": 2162,
      "βαρβάρ": 2163,
      "φεύ": 2164,
      "χωρ": 2165,
      "Ἀχαι": 2166,
      "##σσα": 2167,
      "ἐναντί": 2168,
      "ἀξ": 2169,
      "ἓν": 2170,
      "##ρέφ": 2171,
      "ἦλ": 2172,
      "γένος": 2173,
      "##ήσατο": 2174,
      "σπ": 2175,
      "ἔοι": 2176,
      "ἐλα": 2177,
      "ἕτερον": 2178,
      "χαλεπ": 2179,
      "##λέξαν": 2180,
      "ἔπε": 2181,
      "ἄκ": 2182,
      "ἕκαστον": 2183,
      "##ήσειν": 2184,
      "##νον": 2185,
      "##κατα": 2186,
      "μυ": 2187,
      "##τὰ": 2188,
      "##μέ": 2189,
      "##οισιν": 2190,
      "##ῖα": 2191,
      "ἕνεκα": 2192,
      "νυκ": 2193,
      "##γνω": 2194,
      "σῶμα": 2195,
      "##ήσασθαι": 2196,
      "γέγ": 2197,
      "ὑπάρχ": 2198,
      "Ἑλλήνων": 2199,
      "αὕ": 2200,
      "τροφ": 2201,
      "Θη": 2202,
      "σπουδ": 2203,
      "βίον": 2204,
      "##όχ": 2205,
      "##κες": 2206,
      "##ρους": 2207,
      "παιδ": 2208,
      "##τιμ": 2209,
      "##θων": 2210,
      "πολυ": 2211,
      "Ἀθηναίων": 2212,
      "φύσιν": 2213,
      "νικ": 2214,
      "##ίαις": 2215,
      "##νομα": 2216,
      "Καίσα": 2217,
      "##ύσ": 2218,
      "κατηγ": 2219,
      "##εστ": 2220,
      "##ύων": 2221,
      "ἐστίν": 2222,
      "δί": 2223,
      "##βά": 2224,
      "φί": 2225,
      "##σίον": 2226,
      "σου": 2227,
      "Ἑρ": 2228,
      "ὅμως": 2229,
      "Ἀριστο": 2230,
      "##ῖος": 2231,
      "##ποτε": 2232,
      "ἀκο": 2233,
      "Ἀλέξαν": 2234,
      "##ησαν": 2235,
      "φό": 2236,
      "αὐτό": 2237,
      "λόγων": 2238,
      "τάδε": 2239,
      "##σεσθαι": 2240,
      "οὐραν": 2241,
      "ἄλλως": 2242,
      "παρασκευ": 2243,
      "##θή": 2244,
      "χρήματα": 2245,
      "ἔχοντες": 2246,
      "ἐκεῖνος": 2247,
      "ἐθέλ": 2248,
      "##τις": 2249,
      "Ἀθηναί": 2250,
      "βραχ": 2251,
      "λέγεται": 2252,
      "##ῶσι": 2253,
      "ἐσθ": 2254,
      "τέχν": 2255,
      "νη": 2256,
      "##ρῳ": 2257,
      "##πειν": 2258,
      "##φύ": 2259,
      "ἴσως": 2260,
      "μηδʼ": 2261,
      "τοσα": 2262,
      "δώ": 2263,
      "##ίκα": 2264,
      "μέσ": 2265,
      "διαν": 2266,
      "πνε": 2267,
      "##μειν": 2268,
      "ἀμφὶ": 2269,
      "##ρην": 2270,
      "##δοκ": 2271,
      "γυμ": 2272,
      "προσα": 2273,
      "αὕτη": 2274,
      "##άχ": 2275,
      "##άσης": 2276,
      "περί": 2277,
      "ξυμ": 2278,
      "##ψαι": 2279,
      "##ρὰ": 2280,
      "##λίας": 2281,
      "ἁμαρ": 2282,
      "##βαν": 2283,
      "##νος": 2284,
      "##είς": 2285,
      "ἑξ": 2286,
      "ὕδωρ": 2287,
      "Ἀλ": 2288,
      "ἐλθ": 2289,
      "##όντι": 2290,
      "προσή": 2291,
      "να": 2292,
      "βά": 2293,
      "του": 2294,
      "##ουργ": 2295,
      "ὄψ": 2296,
      "Ῥώ": 2297,
      "πεζ": 2298,
      "τοσοῦτον": 2299,
      "##φο": 2300,
      "ἐπαιν": 2301,
      "κεν": 2302,
      "δει": 2303,
      "##δοῦ": 2304,
      "φησι": 2305,
      "##τρο": 2306,
      "Αἴ": 2307,
      "##μῷ": 2308,
      "##λῆς": 2309,
      "##έρων": 2310,
      "οὐδέ": 2311,
      "ἔνθα": 2312,
      "##λοι": 2313,
      "χρή": 2314,
      "δεξι": 2315,
      "θαυμ": 2316,
      "ἔδει": 2317,
      "##νω": 2318,
      "ἀλλήλους": 2319,
      "##ησε": 2320,
      "##ρασ": 2321,
      "ὄντων": 2322,
      "##στις": 2323,
      "ἐνέ": 2324,
      "οὐκέ": 2325,
      "##ψας": 2326,
      "δυνάμε": 2327,
      "Ἕλλην": 2328,
      "γιν": 2329,
      "ὅθεν": 2330,
      "##γελ": 2331,
      "##ταγ": 2332,
      "δόξαν": 2333,
      "##ίνεσθαι": 2334,
      "##σίους": 2335,
      "λαμπ": 2336,
      "δικαι": 2337,
      "##μῃ": 2338,
      "βι": 2339,
      "ὣς": 2340,
      "ἑαυτὸν": 2341,
      "μετέ": 2342,
      "##πίδ": 2343,
      "##όμην": 2344,
      "ΑΒ": 2345,
      "Ἀργ": 2346,
      "τοιοῦτον": 2347,
      "Τι": 2348,
      "##φι": 2349,
      "##τρον": 2350,
      "Διὸς": 2351,
      "##ᾶσθαι": 2352,
      "Σικε": 2353,
      "νῆ": 2354,
      "##σαντος": 2355,
      "ὑπό": 2356,
      "##ετε": 2357,
      "##όνα": 2358,
      "βασιλέα": 2359,
      "ὀνομ": 2360,
      "##υφ": 2361,
      "##θεῖ": 2362,
      "##ζειν": 2363,
      "##ομένῳ": 2364,
      "Ἰν": 2365,
      "##σαις": 2366,
      "μό": 2367,
      "ὁρῶν": 2368,
      "θεὸς": 2369,
      "χερ": 2370,
      "##ίλι": 2371,
      "θυγα": 2372,
      "κατο": 2373,
      "##φων": 2374,
      "διαφέρ": 2375,
      "Πα": 2376,
      "##μερ": 2377,
      "ἄνδρας": 2378,
      "ἐκεῖνον": 2379,
      "##οῦντος": 2380,
      "κεκ": 2381,
      "##γέ": 2382,
      "##ππος": 2383,
      "ἐργ": 2384,
      "μάλα": 2385,
      "πόν": 2386,
      "ἐδό": 2387,
      "ὅμοι": 2388,
      "Ἑλλά": 2389,
      "##εὺς": 2390,
      "##κέναι": 2391,
      "διό": 2392,
      "οὐκοῦν": 2393,
      "##τέραν": 2394,
      "ὀρθῶς": 2395,
      "##κευ": 2396,
      "##ροὺς": 2397,
      "##λθ": 2398,
      "πυ": 2399,
      "ἐρω": 2400,
      "##τοῦν": 2401,
      "αἵ": 2402,
      "μαθ": 2403,
      "ὄντες": 2404,
      "##σειν": 2405,
      "κακῶς": 2406,
      "δρ": 2407,
      "θύ": 2408,
      "σχε": 2409,
      "ἔστ": 2410,
      "##ριβ": 2411,
      "##μένῳ": 2412,
      "ὀξ": 2413,
      "##σθαί": 2414,
      "##παρ": 2415,
      "ἡμέραν": 2416,
      "βέλ": 2417,
      "μισθ": 2418,
      "Λε": 2419,
      "ἕως": 2420,
      "##ωμεν": 2421,
      "πολέμου": 2422,
      "##δρα": 2423,
      "τρόπ": 2424,
      "Ἰτα": 2425,
      "##ίστα": 2426,
      "ἄνω": 2427,
      "δίκην": 2428,
      "πραγμάτων": 2429,
      "##άτου": 2430,
      "##ορεύ": 2431,
      "νεκ": 2432,
      "##ξειν": 2433,
      "##ότητα": 2434,
      "Σα": 2435,
      "χειρ": 2436,
      "τοιοῦ": 2437,
      "##μὸς": 2438,
      "##άτην": 2439,
      "##ρʼ": 2440,
      "##λαγ": 2441,
      "ὀφθ": 2442,
      "χαί": 2443,
      "##σίᾳ": 2444,
      "λαβεῖν": 2445,
      "ἅπαντα": 2446,
      "##θά": 2447,
      "τοῖσι": 2448,
      "##είη": 2449,
      "##ώτερον": 2450,
      "ταύ": 2451,
      "σώματος": 2452,
      "Συ": 2453,
      "##δρον": 2454,
      "ἄλλος": 2455,
      "##ρᾳ": 2456,
      "Σω": 2457,
      "θαυ": 2458,
      "μέλ": 2459,
      "χώρας": 2460,
      "ὁπό": 2461,
      "χρημάτων": 2462,
      "##φη": 2463,
      "φοβ": 2464,
      "πᾶσιν": 2465,
      "##έβ": 2466,
      "θέλ": 2467,
      "##ταῖς": 2468,
      "##μενα": 2469,
      "##πτον": 2470,
      "πολί": 2471,
      "##ήνην": 2472,
      "ἐπιστ": 2473,
      "κέ": 2474,
      "εἰσιν": 2475,
      "λέγεις": 2476,
      "##ίην": 2477,
      "πιστε": 2478,
      "##αρχη": 2479,
      "Ἡρακ": 2480,
      "##ῶμεν": 2481,
      "Πλά": 2482,
      "##σθʼ": 2483,
      "##τιν": 2484,
      "##ωτῶν": 2485,
      "Ἀλεξ": 2486,
      "πᾶσι": 2487,
      "Καρχη": 2488,
      "διαλ": 2489,
      "ἐκέλευ": 2490,
      "ἀλ": 2491,
      "##ήσαντες": 2492,
      "##σος": 2493,
      "##άνα": 2494,
      "Πελ": 2495,
      "καταστ": 2496,
      "Λυ": 2497,
      "γίνεται": 2498,
      "πατρὸς": 2499,
      "σταδί": 2500,
      "ἐμα": 2501,
      "##ιά": 2502,
      "##ρίου": 2503,
      "ἀνάγκη": 2504,
      "##τικὸν": 2505,
      "##ελθεῖν": 2506,
      "##θέντων": 2507,
      "Κο": 2508,
      "ὀνό": 2509,
      "ἐμὲ": 2510,
      "νο": 2511,
      "##ρὸς": 2512,
      "##νου": 2513,
      "αὐτούς": 2514,
      "##αύτ": 2515,
      "##μʼ": 2516,
      "##ούσας": 2517,
      "##σία": 2518,
      "γα": 2519,
      "##ρία": 2520,
      "##στικ": 2521,
      "ῥᾳ": 2522,
      "τυγχάν": 2523,
      "##φος": 2524,
      "τυχ": 2525,
      "μιν": 2526,
      "##τῆς": 2527,
      "##δομ": 2528,
      "##ίνειν": 2529,
      "Πλάτων": 2530,
      "ὀρ": 2531,
      "##κτα": 2532,
      "ἀγορ": 2533,
      "##δώ": 2534,
      "##βού": 2535,
      "παντὸς": 2536,
      "σκοπ": 2537,
      "Φι": 2538,
      "##μί": 2539,
      "##γραφ": 2540,
      "σύν": 2541,
      "##ξατο": 2542,
      "θέ": 2543,
      "θεὸν": 2544,
      "##οῦμεν": 2545,
      "##μελ": 2546,
      "νύ": 2547,
      "##μαν": 2548,
      "κατά": 2549,
      "##λιν": 2550,
      "##βό": 2551,
      "Θηβ": 2552,
      "τινας": 2553,
      "##δεκα": 2554,
      "ἀνθρώποις": 2555,
      "φυλ": 2556,
      "ἀγῶν": 2557,
      "##τέρους": 2558,
      "##λασ": 2559,
      "##κύ": 2560,
      "##μικ": 2561,
      "##μίαν": 2562,
      "ἄρι": 2563,
      "παρέχ": 2564,
      "##ηλ": 2565,
      "ἐλευθερ": 2566,
      "μει": 2567,
      "##φον": 2568,
      "##φυγ": 2569,
      "πέμπ": 2570,
      "ὅσοι": 2571,
      "τεκ": 2572,
      "##άθ": 2573,
      "##εια": 2574,
      "τοιαύτ": 2575,
      "ἐπιχ": 2576,
      "Πολ": 2577,
      "##λετο": 2578,
      "##ορκ": 2579,
      "ἀνθρώπους": 2580,
      "ψυχῆς": 2581,
      "##ρῷ": 2582,
      "##σίου": 2583,
      "##λυμ": 2584,
      "θαυμα": 2585,
      "σαφ": 2586,
      "##κης": 2587,
      "γραφ": 2588,
      "##ωνται": 2589,
      "##στὸν": 2590,
      "πορ": 2591,
      "##οῦσαν": 2592,
      "##μνη": 2593,
      "πολλοῖς": 2594,
      "ὑφʼ": 2595,
      "βεβ": 2596,
      "##σχιλί": 2597,
      "##άτω": 2598,
      "##φελ": 2599,
      "ποτὲ": 2600,
      "εἰρη": 2601,
      "μον": 2602,
      "ἐνε": 2603,
      "τύ": 2604,
      "##δέχ": 2605,
      "##ήκοντα": 2606,
      "ἐκκλη": 2607,
      "σωτη": 2608,
      "κρά": 2609,
      "λύ": 2610,
      "ποιεῖ": 2611,
      "εἰσι": 2612,
      "κατασκευ": 2613,
      "Ἀθήν": 2614,
      "Πομ": 2615,
      "δοῦ": 2616,
      "ἔδο": 2617,
      "δέκα": 2618,
      "χρησ": 2619,
      "ἔμπ": 2620,
      "ὑπέ": 2621,
      "ὁρμ": 2622,
      "Ἀντί": 2623,
      "Λα": 2624,
      "κακο": 2625,
      "##κεί": 2626,
      "διώ": 2627,
      "πράγματα": 2628,
      "ἔχοντα": 2629,
      "ὑπε": 2630,
      "##αντα": 2631,
      "##ραι": 2632,
      "δῆλον": 2633,
      "δεύ": 2634,
      "λαβὼν": 2635,
      "ναῦ": 2636,
      "ἀκριβ": 2637,
      "Ἀλεξάνδρ": 2638,
      "δόξ": 2639,
      "ἀφικ": 2640,
      "Πέρ": 2641,
      "σοὶ": 2642,
      "##κτειν": 2643,
      "μαχ": 2644,
      "ἰα": 2645,
      "φίλων": 2646,
      "μικρὸν": 2647,
      "##δια": 2648,
      "##τεροι": 2649,
      "πεποι": 2650,
      "##ζων": 2651,
      "##είου": 2652,
      "ὄντας": 2653,
      "##ρεν": 2654,
      "##μένας": 2655,
      "φύσει": 2656,
      "ἄχ": 2657,
      "ὅστις": 2658,
      "μέλλ": 2659,
      "πολεμίους": 2660,
      "κοινων": 2661,
      "##οῦντο": 2662,
      "ἃς": 2663,
      "προει": 2664,
      "ἄνευ": 2665,
      "ἡγεμόν": 2666,
      "ἄξιον": 2667,
      "φιλοσοφ": 2668,
      "##αντ": 2669,
      "##λείας": 2670,
      "φορ": 2671,
      "##ιδ": 2672,
      "κίν": 2673,
      "##σεται": 2674,
      "Δημο": 2675,
      "##ις": 2676,
      "##ρις": 2677,
      "##σεβ": 2678,
      "##ρού": 2679,
      "##δεύ": 2680,
      "ἐπιτη": 2681,
      "τρεῖς": 2682,
      "##τὴρ": 2683,
      "αὐτίκα": 2684,
      "εὑρ": 2685,
      "##σχε": 2686,
      "##έσβ": 2687,
      "##ταχ": 2688,
      "ἕνα": 2689,
      "βούλε": 2690,
      "εἶχον": 2691,
      "εἷς": 2692,
      "##ώσκ": 2693,
      "##αρκ": 2694,
      "δυνάμεως": 2695,
      "Ἀπό": 2696,
      "##τίων": 2697,
      "##χρ": 2698,
      "Καλλ": 2699,
      "##ήθ": 2700,
      "αἷ": 2701,
      "σύμ": 2702,
      "γράφ": 2703,
      "##σθῆναι": 2704,
      "δεσ": 2705,
      "##ώμενος": 2706,
      "##λέους": 2707,
      "γλ": 2708,
      "##σαντα": 2709,
      "οὖσαν": 2710,
      "Λυκ": 2711,
      "νίκ": 2712,
      "##σθεὶς": 2713,
      "ἀνδρὸς": 2714,
      "τεθ": 2715,
      "ὀφθαλ": 2716,
      "ἐμαυ": 2717,
      "##λίου": 2718,
      "##δοι": 2719,
      "##σʼ": 2720,
      "##λοις": 2721,
      "##ροῖς": 2722,
      "μύ": 2723,
      "θάνα": 2724,
      "##γρά": 2725,
      "δω": 2726,
      "##δύνα": 2727,
      "##ήνης": 2728,
      "##λης": 2729,
      "##ηκό": 2730,
      "πεδί": 2731,
      "##μους": 2732,
      "##ήθη": 2733,
      "ἅπαντας": 2734,
      "κακῶν": 2735,
      "##τάν": 2736,
      "οὐκέτι": 2737,
      "πλησίον": 2738,
      "##ίης": 2739,
      "ἡσ": 2740,
      "καθαρ": 2741,
      "ὥστʼ": 2742,
      "στρατο": 2743,
      "##τὴς": 2744,
      "##κην": 2745,
      "πέντε": 2746,
      "εἴκο": 2747,
      "νόμον": 2748,
      "ἰχθ": 2749,
      "ἀφʼ": 2750,
      "σοῦ": 2751,
      "ἐπεί": 2752,
      "εἶχε": 2753,
      "μαρτ": 2754,
      "τοὐ": 2755,
      "θεῷ": 2756,
      "κλ": 2757,
      "##λαβὼν": 2758,
      "ἑαυτῶν": 2759,
      "φόβ": 2760,
      "μέλλον": 2761,
      "στρατιώ": 2762,
      "τοσού": 2763,
      "ἀπει": 2764,
      "##τταν": 2765,
      "##ήσεσθαι": 2766,
      "##ξεως": 2767,
      "αὔ": 2768,
      "γέγον": 2769,
      "##σίν": 2770,
      "ἄλλον": 2771,
      "πάλαι": 2772,
      "##τέροις": 2773,
      "αὑτὸν": 2774,
      "##δυ": 2775,
      "##μοὺς": 2776,
      "εἶχεν": 2777,
      "##τηρ": 2778,
      "ὕδα": 2779,
      "νυν": 2780,
      "##ίγν": 2781,
      "τοιούτων": 2782,
      "##πεί": 2783,
      "ἔργα": 2784,
      "μῆ": 2785,
      "δευ": 2786,
      "αὑτῶν": 2787,
      "χρόνῳ": 2788,
      "##φό": 2789,
      "πεπο": 2790,
      "αἰτίαν": 2791,
      "ὅπου": 2792,
      "ἠξ": 2793,
      "ὅρ": 2794,
      "μητρ": 2795,
      "ὑψ": 2796,
      "##τρα": 2797,
      "κρί": 2798,
      "##πή": 2799,
      "ἴσον": 2800,
      "ἑλ": 2801,
      "##ανα": 2802,
      "##ψεν": 2803,
      "##λιος": 2804,
      "ἡμε": 2805,
      "##ῖνος": 2806,
      "##βουλεύ": 2807,
      "προσαγ": 2808,
      "ὀλίγον": 2809,
      "χρῆσθαι": 2810,
      "σφι": 2811,
      "λοιπὸν": 2812,
      "ἀγνο": 2813,
      "##πεύ": 2814,
      "γεγεν": 2815,
      "ἐπα": 2816,
      "ναῦς": 2817,
      "##δυσ": 2818,
      "εἰσὶ": 2819,
      "##λιγ": 2820,
      "πρῶτος": 2821,
      "γενόμενος": 2822,
      "##ναντί": 2823,
      "##οιεν": 2824,
      "χαλκ": 2825,
      "##ῦρ": 2826,
      "καλὸν": 2827,
      "ἐπισ": 2828,
      "ἐξα": 2829,
      "μίαν": 2830,
      "ἰδι": 2831,
      "##ιθ": 2832,
      "ἀποθαν": 2833,
      "##ρὰν": 2834,
      "ἡγεμον": 2835,
      "τη": 2836,
      "##δοξ": 2837,
      "πλείους": 2838,
      "##σιοι": 2839,
      "πολλὴν": 2840,
      "τόδε": 2841,
      "##οῦσαι": 2842,
      "Μα": 2843,
      "##άσαι": 2844,
      "Κλε": 2845,
      "συνεχ": 2846,
      "ἰσ": 2847,
      "##ῶσαι": 2848,
      "##ρης": 2849,
      "εἵ": 2850,
      "πολλῷ": 2851,
      "##ΑΙ": 2852,
      "ἀλλήλοις": 2853,
      "δου": 2854,
      "παίδων": 2855,
      "ἔστω": 2856,
      "χορ": 2857,
      "μυρί": 2858,
      "παῖδας": 2859,
      "Ἀπόλλων": 2860,
      "φαίνεται": 2861,
      "ἁπλ": 2862,
      "##λην": 2863,
      "λόγοις": 2864,
      "ψευ": 2865,
      "ἔτη": 2866,
      "##ήσῃ": 2867,
      "θαλάτ": 2868,
      "γραμ": 2869,
      "αἰχ": 2870,
      "Ῥωμαῖοι": 2871,
      "φησὶν": 2872,
      "γυναῖκα": 2873,
      "τινὸς": 2874,
      "Ἀρχ": 2875,
      "##ές": 2876,
      "##άμενον": 2877,
      "##άναι": 2878,
      "##ξις": 2879,
      "μεταξ": 2880,
      "##ωπος": 2881,
      "Αἰγύπ": 2882,
      "βελ": 2883,
      "ξὺν": 2884,
      "ἑπ": 2885,
      "αἰσθ": 2886,
      "σὲ": 2887,
      "##ναί": 2888,
      "##σσον": 2889,
      "##δά": 2890,
      "ἔμε": 2891,
      "μέσον": 2892,
      "ἀγων": 2893,
      "##όδρα": 2894,
      "στο": 2895,
      "τείχ": 2896,
      "στά": 2897,
      "τυραν": 2898,
      "##πλή": 2899,
      "φυλακ": 2900,
      "βασιλεύ": 2901,
      "##ίνει": 2902,
      "δίκαιον": 2903,
      "ἀκρο": 2904,
      "φρά": 2905,
      "μεθ": 2906,
      "##τὰς": 2907,
      "##θέντος": 2908,
      "κόσμ": 2909,
      "ἔλα": 2910,
      "##κρι": 2911,
      "διδάσ": 2912,
      "##καί": 2913,
      "ἕκαστος": 2914,
      "φρου": 2915,
      "εἶπε": 2916,
      "πῦρ": 2917,
      "ὄντος": 2918,
      "Λιβ": 2919,
      "ἀθ": 2920,
      "λέγουσιν": 2921,
      "βίου": 2922,
      "συμμάχ": 2923,
      "ἀγαθῶν": 2924,
      "##οδον": 2925,
      "ἱερὸν": 2926,
      "νόμους": 2927,
      "##ήσεως": 2928,
      "θαλάσ": 2929,
      "##μοῖς": 2930,
      "ἧττον": 2931,
      "ἀποστ": 2932,
      "θεοῖς": 2933,
      "δαι": 2934,
      "##ικὸν": 2935,
      "##τρά": 2936,
      "φασιν": 2937,
      "##λους": 2938,
      "οὐχὶ": 2939,
      "ἔδω": 2940,
      "φεύγ": 2941,
      "##ησι": 2942,
      "##δευ": 2943,
      "##ότερα": 2944,
      "Γα": 2945,
      "συμφέρ": 2946,
      "αὐτός": 2947,
      "μεγαλ": 2948,
      "ὀφ": 2949,
      "σφόδρα": 2950,
      "μετε": 2951,
      "πάσχ": 2952,
      "##δή": 2953,
      "##νης": 2954,
      "##τοί": 2955,
      "τρα": 2956,
      "##δίως": 2957,
      "καλλ": 2958,
      "διαφθ": 2959,
      "##θου": 2960,
      "##τέρου": 2961,
      "Νικ": 2962,
      "Σώ": 2963,
      "ἄλλην": 2964,
      "##άμην": 2965,
      "γράμ": 2966,
      "Τί": 2967,
      "πεντα": 2968,
      "ἀναστ": 2969,
      "##χθη": 2970,
      "πρέσβ": 2971,
      "γίγνεται": 2972,
      "##λμ": 2973,
      "##δεν": 2974,
      "ὅλως": 2975,
      "ἀνά": 2976,
      "θεοὺς": 2977,
      "ἀλλήλων": 2978,
      "πονη": 2979,
      "ὠν": 2980,
      "τόπον": 2981,
      "ἀρετῆς": 2982,
      "Μεν": 2983,
      "πράττειν": 2984,
      "##σδε": 2985,
      "##ότητος": 2986,
      "ἐχθρ": 2987,
      "γυμν": 2988,
      "ἅτε": 2989,
      "Ῥωμαίοις": 2990,
      "πότερον": 2991,
      "μεταξὺ": 2992,
      "βάρ": 2993,
      "##ένα": 2994,
      "##ᾷς": 2995,
      "γνώμην": 2996,
      "ἡλικ": 2997,
      "##στοι": 2998,
      "εὐχ": 2999,
      "##ίδης": 3000,
      "καθε": 3001,
      "πρα": 3002,
      "χεῖρας": 3003,
      "βασιλεῖ": 3004,
      "πατὴρ": 3005,
      "δα": 3006,
      "##τιος": 3007,
      "μέγε": 3008,
      "αὑτῷ": 3009,
      "πως": 3010,
      "μέγιστον": 3011,
      "συγγεν": 3012,
      "ἡσυχ": 3013,
      "τάλ": 3014,
      "##ίδα": 3015,
      "##λῳ": 3016,
      "##σσαν": 3017,
      "##σαρ": 3018,
      "##τέρω": 3019,
      "ἐλπί": 3020,
      "μεγίστ": 3021,
      "ζῆν": 3022,
      "ὁμοῦ": 3023,
      "γενομένης": 3024,
      "τάχ": 3025,
      "##πτε": 3026,
      "εἴπερ": 3027,
      "κυρί": 3028,
      "οἶδα": 3029,
      "μʼ": 3030,
      "χωρὶς": 3031,
      "##δαιμόν": 3032,
      "##πος": 3033,
      "ἐνι": 3034,
      "τοὔ": 3035,
      "ἐπιστο": 3036,
      "##ώμεθα": 3037,
      "πρός": 3038,
      "νὴ": 3039,
      "ἄρʼ": 3040,
      "δῶ": 3041,
      "ἕλ": 3042,
      "ῥή": 3043,
      "βοηθ": 3044,
      "ἐδόκει": 3045,
      "##κους": 3046,
      "##δρο": 3047,
      "##γέν": 3048,
      "##κότα": 3049,
      "βλέ": 3050,
      "ὅς": 3051,
      "παῖς": 3052,
      "θαρ": 3053,
      "κολ": 3054,
      "ἀγαθὸν": 3055,
      "##ίνετο": 3056,
      "ἔφα": 3057,
      "##στου": 3058,
      "οἷα": 3059,
      "κινδύν": 3060,
      "##ηκ": 3061,
      "τούς": 3062,
      "παῖδα": 3063,
      "κρεί": 3064,
      "ἔλαβ": 3065,
      "##ήσω": 3066,
      "##θεσιν": 3067,
      "##ρως": 3068,
      "πολιορκ": 3069,
      "ξύ": 3070,
      "μεθʼ": 3071,
      "οὐδενὸς": 3072,
      "##μις": 3073,
      "σχεδὸν": 3074,
      "##λέα": 3075,
      "##χεί": 3076,
      "##ξάμενος": 3077,
      "μάχην": 3078,
      "βούλ": 3079,
      "##κνυ": 3080,
      "ἐντε": 3081,
      "##μεναι": 3082,
      "ἐλάτ": 3083,
      "ἐκείνῳ": 3084,
      "##άσει": 3085,
      "##δυνεύ": 3086,
      "##ελθὼν": 3087,
      "μέγεθος": 3088,
      "##λέγ": 3089,
      "πανταχ": 3090,
      "νυκτὸς": 3091,
      "ἀντί": 3092,
      "Καὶ": 3093,
      "λάβ": 3094,
      "##ῦτα": 3095,
      "##τέρῳ": 3096,
      "##ση": 3097,
      "δακ": 3098,
      "εὐπ": 3099,
      "μάρ": 3100,
      "ἀπορ": 3101,
      "##μονεύ": 3102,
      "##λέσθαι": 3103,
      "τριά": 3104,
      "θυ": 3105,
      "ἀστ": 3106,
      "φησίν": 3107,
      "##ριά": 3108,
      "ἐκεῖνο": 3109,
      "Δία": 3110,
      "##ωθ": 3111,
      "στρατεύ": 3112,
      "##τῇ": 3113,
      "##όθεν": 3114,
      "Σωκρά": 3115,
      "Ὀδυσ": 3116,
      "ὄρ": 3117,
      "##μπε": 3118,
      "ἄνθρωπον": 3119,
      "Πυθ": 3120,
      "##άζεσθαι": 3121,
      "Δημοσθέν": 3122,
      "##άσεις": 3123,
      "τέκν": 3124,
      "##ουμένων": 3125,
      "ἐπαγ": 3126,
      "##ξασθαι": 3127,
      "χεί": 3128,
      "##κοι": 3129,
      "ἑταί": 3130,
      "ὑποκ": 3131,
      "##δαν": 3132,
      "Βοι": 3133,
      "Κύ": 3134,
      "ὀλιγ": 3135,
      "##αιον": 3136,
      "ἰσχυρ": 3137,
      "πάσης": 3138,
      "##ῆλθεν": 3139,
      "ἵν": 3140,
      "##μας": 3141,
      "##λεκ": 3142,
      "προφ": 3143,
      "##ρουν": 3144,
      "καιρὸν": 3145,
      "##ρίᾳ": 3146,
      "##ωσ": 3147,
      "ἐξου": 3148,
      "ὅπλα": 3149,
      "Μακεδόν": 3150,
      "##τώ": 3151,
      "χρόνου": 3152,
      "ζῶν": 3153,
      "Μεγ": 3154,
      "##ρειν": 3155,
      "γυναικῶν": 3156,
      "μην": 3157,
      "εἰσὶν": 3158,
      "Ἀτ": 3159,
      "σεμν": 3160,
      "ὧδε": 3161,
      "πλεῖστον": 3162,
      "##τείας": 3163,
      "ἐπιστή": 3164,
      "##φῶν": 3165,
      "##ταὶ": 3166,
      "##βαλλ": 3167,
      "δαί": 3168,
      "μόνος": 3169,
      "##πά": 3170,
      "ἔργων": 3171,
      "πολὺν": 3172,
      "Μεσ": 3173,
      "ἀπαγ": 3174,
      "##εικ": 3175,
      "##στησαν": 3176,
      "πύ": 3177,
      "κρι": 3178,
      "##μονα": 3179,
      "φίλους": 3180,
      "φησὶ": 3181,
      "συμφορ": 3182,
      "##ήγαγ": 3183,
      "χι": 3184,
      "ἑνὸς": 3185,
      "##θετο": 3186,
      "ζω": 3187,
      "νήσ": 3188,
      "μηδεν": 3189,
      "Λακεδαιμονίων": 3190,
      "γάμ": 3191,
      "ἐκείνοις": 3192,
      "κύκλ": 3193,
      "μηδε": 3194,
      "κη": 3195,
      "ἀπαλλ": 3196,
      "ἔχω": 3197,
      "##δοὺς": 3198,
      "##ῦμα": 3199,
      "##κοσίους": 3200,
      "οἷόν": 3201,
      "πόλεων": 3202,
      "##κρατες": 3203,
      "καρπ": 3204,
      "##εξ": 3205,
      "##ολογ": 3206,
      "προστ": 3207,
      "διαπ": 3208,
      "ἐπιφαν": 3209,
      "ποτʼ": 3210,
      "λέγουσι": 3211,
      "τρο": 3212,
      "κακὸν": 3213,
      "##ώτατον": 3214,
      "κοι": 3215,
      "Ὀλυμ": 3216,
      "##στους": 3217,
      "γέ": 3218,
      "νοῦν": 3219,
      "βω": 3220,
      "##χώρη": 3221,
      "##αιρε": 3222,
      "εὕ": 3223,
      "χωρίον": 3224,
      "Ἱερ": 3225,
      "##αιρέ": 3226,
      "##ίδος": 3227,
      "ζῴ": 3228,
      "ὅλον": 3229,
      "πατέρα": 3230,
      "παρθέν": 3231,
      "πολλοῦ": 3232,
      "καλουμέν": 3233,
      "##κότων": 3234,
      "Λακεδαιμόν": 3235,
      "γῆ": 3236,
      "##πων": 3237,
      "Δημ": 3238,
      "ἀπι": 3239,
      "##ικῶν": 3240,
      "κλη": 3241,
      "##κιον": 3242,
      "##ῃσι": 3243,
      "##αίρε": 3244,
      "λει": 3245,
      "ἀληθῆ": 3246,
      "ἀνδρά": 3247,
      "δικαίως": 3248,
      "μερ": 3249,
      "ἀτ": 3250,
      "κυν": 3251,
      "εἰδέναι": 3252,
      "##ππον": 3253,
      "##ωγε": 3254,
      "προειρη": 3255,
      "τινὰς": 3256,
      "πρᾶγμα": 3257,
      "πώ": 3258,
      "##ριζ": 3259,
      "##σων": 3260,
      "αἰτίας": 3261,
      "##ίδας": 3262,
      "ἀλλο": 3263,
      "##ίζειν": 3264,
      "γελ": 3265,
      "ἰδεῖν": 3266,
      "κορ": 3267,
      "Ἀπο": 3268,
      "ὕβ": 3269,
      "##ίνης": 3270,
      "πολέμι": 3271,
      "ἤκου": 3272,
      "πλείω": 3273,
      "λυπ": 3274,
      "ἀδύνα": 3275,
      "##βεβ": 3276,
      "##τικο": 3277,
      "στεν": 3278,
      "##ωκ": 3279,
      "##τικῆς": 3280,
      "μεῖ": 3281,
      "παρεσ": 3282,
      "Παρ": 3283,
      "μηχαν": 3284,
      "ἑαυτῷ": 3285,
      "##λευσεν": 3286,
      "##άρων": 3287,
      "Ἀλέξανδρος": 3288,
      "##ρεπ": 3289,
      "συμμαχ": 3290,
      "γεω": 3291,
      "##ῖσι": 3292,
      "##βολὴν": 3293,
      "ἔτυχ": 3294,
      "##ής": 3295,
      "φιλό": 3296,
      "##γα": 3297,
      "##κότες": 3298,
      "εἰκὸς": 3299,
      "Ἀφρο": 3300,
      "##είσης": 3301,
      "λευκ": 3302,
      "ἔγωγε": 3303,
      "τριάκοντα": 3304,
      "##τάπα": 3305,
      "νεαν": 3306,
      "ἄνθρωπος": 3307,
      "φίλον": 3308,
      "##βας": 3309,
      "σφίσιν": 3310,
      "νοσ": 3311,
      "πέμψ": 3312,
      "Εὔ": 3313,
      "##ΟΣ": 3314,
      "ἑξῆς": 3315,
      "##ίσκ": 3316,
      "δῆμον": 3317,
      "παντάπα": 3318,
      "##σά": 3319,
      "Ἑλλην": 3320,
      "ἀφί": 3321,
      "##λεμα": 3322,
      "##ώνιος": 3323,
      "γένοιτο": 3324,
      "ἐκείνους": 3325,
      "Φιλί": 3326,
      "μισ": 3327,
      "μνή": 3328,
      "##ππου": 3329,
      "##κουν": 3330,
      "εὐτυχ": 3331,
      "ῥᾳδίως": 3332,
      "##ρίῳ": 3333,
      "γεγενη": 3334,
      "βλά": 3335,
      "##οῖν": 3336,
      "##πεμψ": 3337,
      "ἀσθεν": 3338,
      "##λὴν": 3339,
      "##τίας": 3340,
      "##πτειν": 3341,
      "πολιτῶν": 3342,
      "εἴκοσι": 3343,
      "Ὅμη": 3344,
      "γίγνεσθαι": 3345,
      "##ησάμενος": 3346,
      "##κω": 3347,
      "##άντες": 3348,
      "κατηγορ": 3349,
      "συναγ": 3350,
      "πελ": 3351,
      "στρατό": 3352,
      "βουλόμενος": 3353,
      "Ἀχι": 3354,
      "##οίας": 3355,
      "##πεδον": 3356,
      "μέρη": 3357,
      "Πτο": 3358,
      "εἰπὼν": 3359,
      "ταύτας": 3360,
      "ἐνιαυ": 3361,
      "##καρ": 3362,
      "ἀεί": 3363,
      "διδα": 3364,
      "##άτης": 3365,
      "Ἀφροδί": 3366,
      "σέ": 3367,
      "φασι": 3368,
      "φάσ": 3369,
      "ἀρί": 3370,
      "πλο": 3371,
      "σμικ": 3372,
      "πόρ": 3373,
      "##φροσύν": 3374,
      "ποιῆσαι": 3375,
      "Πτολεμα": 3376,
      "Δί": 3377,
      "##λού": 3378,
      "##κτο": 3379,
      "##πτὰ": 3380,
      "αὐτὴ": 3381,
      "συμβαίν": 3382,
      "πρόσω": 3383,
      "φερ": 3384,
      "ἐλέγ": 3385,
      "##όλου": 3386,
      "##αχ": 3387,
      "##ήφ": 3388,
      "οὔσης": 3389,
      "Σώκρατες": 3390,
      "ὑπομ": 3391,
      "εὐδαιμον": 3392,
      "##όν": 3393,
      "πολλὰς": 3394,
      "##δίας": 3395,
      "προθυμ": 3396,
      "σφίσι": 3397,
      "τινὲς": 3398,
      "ἐντὸς": 3399,
      "πλείον": 3400,
      "ἱπ": 3401,
      "##ήματος": 3402,
      "σφᾶς": 3403,
      "πᾶσα": 3404,
      "Περὶ": 3405,
      "##πνον": 3406,
      "βί": 3407,
      "##νῶν": 3408,
      "τινι": 3409,
      "##ττο": 3410,
      "πολύ": 3411,
      "γυναῖκας": 3412,
      "##στῶν": 3413,
      "##νες": 3414,
      "##ώμενοι": 3415,
      "ἐλε": 3416,
      "ἥκι": 3417,
      "##λαν": 3418,
      "##στην": 3419,
      "κἀν": 3420,
      "##κρί": 3421,
      "##ήσομαι": 3422,
      "μαθη": 3423,
      "κά": 3424,
      "##κοσίων": 3425,
      "κίνδυν": 3426,
      "εἴρηται": 3427,
      "Καίσαρος": 3428,
      "ὁπο": 3429,
      "##σίοις": 3430,
      "Αἴγ": 3431,
      "ἑκατὸν": 3432,
      "##σθα": 3433,
      "τίνα": 3434,
      "##ώνυμ": 3435,
      "##έτω": 3436,
      "##θυ": 3437,
      "##ίνου": 3438,
      "ἀγαπ": 3439,
      "ἐδ": 3440,
      "ψυχὴν": 3441,
      "##τικὴν": 3442,
      "κάτω": 3443,
      "ὁμ": 3444,
      "παῖδες": 3445,
      "Ποσει": 3446,
      "ἀρετὴν": 3447,
      "θάλατταν": 3448,
      "θάνατον": 3449,
      "##ροις": 3450,
      "##ῄει": 3451,
      "##τικῶν": 3452,
      "δεσπό": 3453,
      "##γόν": 3454,
      "##οσύν": 3455,
      "εἰκό": 3456,
      "ἀπέχ": 3457,
      "ἑκάστῳ": 3458,
      "μνημονεύ": 3459,
      "Συρα": 3460,
      "δίδ": 3461,
      "εἶδος": 3462,
      "εὐν": 3463,
      "ἐσχ": 3464,
      "εἰδό": 3465,
      "θερα": 3466,
      "ἐστί": 3467,
      "υἱὸς": 3468,
      "παντο": 3469,
      "##ότατον": 3470,
      "δρά": 3471,
      "νομο": 3472,
      "##βαλεῖν": 3473,
      "Ἀμφ": 3474,
      "ἐτε": 3475,
      "ἐνὶ": 3476,
      "συμπ": 3477,
      "ἐκεῖνοι": 3478,
      "ἅπαντες": 3479,
      "διηγ": 3480,
      "ἔοικεν": 3481,
      "Ἑρμ": 3482,
      "ἐπο": 3483,
      "προε": 3484,
      "Ἰησ": 3485,
      "κἀκεῖν": 3486,
      "ἔχον": 3487,
      "##ώνων": 3488,
      "ὄχ": 3489,
      "γένηται": 3490,
      "##θέντας": 3491,
      "ἐγένοντο": 3492,
      "κωλύ": 3493,
      "##τία": 3494,
      "Κῦ": 3495,
      "πω": 3496,
      "##βαρ": 3497,
      "##ᾶται": 3498,
      "##κοντες": 3499,
      "παιδί": 3500,
      "υἱὸν": 3501,
      "Καῖ": 3502,
      "αὐτὰς": 3503,
      "##δόναι": 3504,
      "κώ": 3505,
      "ἔγνω": 3506,
      "##ώνιον": 3507,
      "μάχης": 3508,
      "ἐάν": 3509,
      "##ρεῖ": 3510,
      "##αντι": 3511,
      "##αζ": 3512,
      "##ριστ": 3513,
      "##λίᾳ": 3514,
      "ἕν": 3515,
      "##δους": 3516,
      "##διδ": 3517,
      "ἐπειδὰν": 3518,
      "##ψηφ": 3519,
      "ἵνʼ": 3520,
      "Καῖσαρ": 3521,
      "ποιεῖσθαι": 3522,
      "Αἰγυπ": 3523,
      "συλλ": 3524,
      "τρυ": 3525,
      "##έραν": 3526,
      "νόμος": 3527,
      "ἐπιχειρ": 3528,
      "γίγν": 3529,
      "##νυ": 3530,
      "ἄλλας": 3531,
      "ψηφ": 3532,
      "οὐδαμ": 3533,
      "##κλῆς": 3534,
      "δυνάμει": 3535,
      "Με": 3536,
      "ἄνθρωποι": 3537,
      "##ριοι": 3538,
      "πλού": 3539,
      "##θὲν": 3540,
      "κἀγ": 3541,
      "τραγ": 3542,
      "##κάλ": 3543,
      "##σάμενος": 3544,
      "##μω": 3545,
      "αὐτὰρ": 3546,
      "ἠν": 3547,
      "ἀνὰ": 3548,
      "##σαντας": 3549,
      "δού": 3550,
      "κερ": 3551,
      "ἔσεσθαι": 3552,
      "νεω": 3553,
      "##δοῦναι": 3554,
      "Ἀχιλλ": 3555,
      "##μοί": 3556,
      "βαρβάρων": 3557,
      "πληγ": 3558,
      "##οῦμαι": 3559,
      "δοκεῖν": 3560,
      "ἠξίου": 3561,
      "##ελφ": 3562,
      "πολεμίοις": 3563,
      "##φρα": 3564,
      "φύσεως": 3565,
      "##γνώ": 3566,
      "Ἀντ": 3567,
      "τετρα": 3568,
      "##ημάτων": 3569,
      "##βε": 3570,
      "ἔρω": 3571,
      "Καρχηδον": 3572,
      "ἀφαν": 3573,
      "ἐχθ": 3574,
      "ἔσ": 3575,
      "Λακεδαιμόνιοι": 3576,
      "τοῦτό": 3577,
      "βουλεύ": 3578,
      "πρόσθεν": 3579,
      "##τίαν": 3580,
      "γεγονέναι": 3581,
      "στρατοπέ": 3582,
      "Δαρ": 3583,
      "##ῦθεν": 3584,
      "τρια": 3585,
      "##χεται": 3586,
      "πλεον": 3587,
      "θʼ": 3588,
      "##κῶν": 3589,
      "##όνος": 3590,
      "οὖσα": 3591,
      "δεύτερον": 3592,
      "##ύναι": 3593,
      "##γι": 3594,
      "##ιερ": 3595,
      "##πάρ": 3596,
      "##ίμων": 3597,
      "Μεσσ": 3598,
      "ἀναλ": 3599,
      "φησί": 3600,
      "ἄστ": 3601,
      "##νήσ": 3602,
      "μεῖζον": 3603,
      "##αγεῖν": 3604,
      "##ῆλθον": 3605,
      "πρέ": 3606,
      "##σαί": 3607,
      "γων": 3608,
      "##έστα": 3609,
      "##υζ": 3610,
      "ἀπολογ": 3611,
      "δῆμος": 3612,
      "##θῶν": 3613,
      "##άζων": 3614,
      "ἔχουσιν": 3615,
      "φυλάτ": 3616,
      "φά": 3617,
      "##νων": 3618,
      "λογισ": 3619,
      "ἐδί": 3620,
      "##λαύ": 3621,
      "##ομένας": 3622,
      "δικαιοσύν": 3623,
      "τινὶ": 3624,
      "τετρά": 3625,
      "##οπον": 3626,
      "##όρους": 3627,
      "αὐτήν": 3628,
      "##σχεῖν": 3629,
      "χειμῶν": 3630,
      "ἀνελ": 3631,
      "##ράτευ": 3632,
      "τοιαύ": 3633,
      "ἰδὼν": 3634,
      "##τήριον": 3635,
      "οὑ": 3636,
      "μὰ": 3637,
      "βουλευ": 3638,
      "κινδυνεύ": 3639,
      "ὁδὸν": 3640,
      "##άτους": 3641,
      "ἄλλου": 3642,
      "ἄλλῳ": 3643,
      "πολιτείας": 3644,
      "φο": 3645,
      "##ροί": 3646,
      "ἱδρ": 3647,
      "##ίω": 3648,
      "σκε": 3649,
      "κρίν": 3650,
      "πυθ": 3651,
      "ὤν": 3652,
      "πάντως": 3653,
      "##τρος": 3654,
      "πολέμῳ": 3655,
      "Ἀχαιῶν": 3656,
      "πρέσβεις": 3657,
      "Σε": 3658,
      "Ἕλληνας": 3659,
      "##ουσαι": 3660,
      "ἔχουσι": 3661,
      "Ῥωμαίους": 3662,
      "##στων": 3663,
      "βασιλείαν": 3664,
      "μήτʼ": 3665,
      "ἐχρ": 3666,
      "ποταμὸν": 3667,
      "ἐλέ": 3668,
      "##αντες": 3669,
      "##πτει": 3670,
      "στέ": 3671,
      "Μη": 3672,
      "πη": 3673,
      "καιν": 3674,
      "πράξεις": 3675,
      "Ἰω": 3676,
      "εἶπον": 3677,
      "ἐλθεῖν": 3678,
      "μί": 3679,
      "##τια": 3680,
      "##μνον": 3681,
      "ναί": 3682,
      "ὀχ": 3683,
      "##νους": 3684,
      "##εύς": 3685,
      "ἥκιστα": 3686,
      "ΘΕ": 3687,
      "##ενε": 3688,
      "ἀσφαλ": 3689,
      "μάρτυ": 3690,
      "εἰκότως": 3691,
      "ἑορ": 3692,
      "ἡδ": 3693,
      "##άγειν": 3694,
      "##φάλ": 3695,
      "δήπου": 3696,
      "##ῆται": 3697,
      "δήμου": 3698,
      "ἔπεμψ": 3699,
      "##υμάτων": 3700,
      "ὑμε": 3701,
      "##ίζεσθαι": 3702,
      "##σμον": 3703,
      "##θύμ": 3704,
      "##σταί": 3705,
      "##θέσθαι": 3706,
      "##λαβεῖν": 3707,
      "ἠγ": 3708,
      "παντὶ": 3709,
      "ὥρ": 3710,
      "##λία": 3711,
      "βελτί": 3712,
      "##θοι": 3713,
      "ΑΘ": 3714,
      "##ειον": 3715,
      "τελευτ": 3716,
      "##άσῃ": 3717,
      "ζῷ": 3718,
      "##όμα": 3719,
      "ἐμέ": 3720,
      "Περσῶν": 3721,
      "##ήσαντος": 3722,
      "ἡμερ": 3723,
      "οὔπω": 3724,
      "##εγκ": 3725,
      "ἀπέκτειν": 3726,
      "##καὶ": 3727,
      "##σχιλίους": 3728,
      "Λιβύ": 3729,
      "δημ": 3730,
      "ποταμοῦ": 3731,
      "μείζον": 3732,
      "πικ": 3733,
      "γεγονό": 3734,
      "ὑπη": 3735,
      "καταλιπ": 3736,
      "οὐδένα": 3737,
      "λῃ": 3738,
      "βασιλικ": 3739,
      "γλυκ": 3740,
      "ὠφελ": 3741,
      "##έντες": 3742,
      "πνεύ": 3743,
      "κατοικ": 3744,
      "μουσι": 3745,
      "##έρα": 3746,
      "##όμεναι": 3747,
      "δεῦ": 3748,
      "##μὴν": 3749,
      "μεγάλα": 3750,
      "σκέ": 3751,
      "Πελοπον": 3752,
      "σιωπ": 3753,
      "ἀλή": 3754,
      "Ἀνα": 3755,
      "ἐρα": 3756,
      "ὀψ": 3757,
      "πεντή": 3758,
      "λυ": 3759,
      "ἡδέ": 3760,
      "κόλ": 3761,
      "λεί": 3762,
      "##θεσθαι": 3763,
      "πύλ": 3764,
      "##πώ": 3765,
      "ἀρχὰς": 3766,
      "τελευτα": 3767,
      "θά": 3768,
      "σκό": 3769,
      "##μαθ": 3770,
      "πέρι": 3771,
      "τεῖ": 3772,
      "ὁπότε": 3773,
      "##σμα": 3774,
      "##κοδομ": 3775,
      "##κτον": 3776,
      "##ανθρ": 3777,
      "##λλυ": 3778,
      "##τριβ": 3779,
      "ἆρʼ": 3780,
      "##κομ": 3781,
      "##δημ": 3782,
      "πιστεύ": 3783,
      "Ἀθηναίους": 3784,
      "Ἀλεξάνδρου": 3785,
      "γίνεσθαι": 3786,
      "θαλάσσης": 3787,
      "κοινὸν": 3788,
      "ἱππεῖς": 3789,
      "##ίνονται": 3790,
      "ἑκάστου": 3791,
      "ἔχοντας": 3792,
      "δεινὸν": 3793,
      "##σίῳ": 3794,
      "##άτῳ": 3795,
      "τιμωρί": 3796,
      "τρέφ": 3797,
      "ἄλ": 3798,
      "ἄπ": 3799,
      "##ράν": 3800,
      "Σύ": 3801,
      "πυκ": 3802,
      "ὂν": 3803,
      "διότι": 3804,
      "ῥᾴ": 3805,
      "ἀπώ": 3806,
      "ὄντι": 3807,
      "μν": 3808,
      "##θύ": 3809,
      "δεσμ": 3810,
      "πρῶτα": 3811,
      "ἔχουσα": 3812,
      "θεωρ": 3813,
      "##άμβαν": 3814,
      "καίπερ": 3815,
      "δύν": 3816,
      "ἑβ": 3817,
      "##άφ": 3818,
      "##θέρ": 3819,
      "ἄρχειν": 3820,
      "ψευδ": 3821,
      "πηγ": 3822,
      "συνα": 3823,
      "μεγέ": 3824,
      "ἡμέρᾳ": 3825,
      "πάρ": 3826,
      "ὑβ": 3827,
      "##ξαντες": 3828,
      "αἴτιον": 3829,
      "##εντα": 3830,
      "##έχειν": 3831,
      "στρατόπεδον": 3832,
      "ἀνθρώπου": 3833,
      "ἄλλη": 3834,
      "νόμων": 3835,
      "##ῆλθε": 3836,
      "σελ": 3837,
      "Ῥώμην": 3838,
      "φέρειν": 3839,
      "γυναικὸς": 3840,
      "τεῖχος": 3841,
      "##πεται": 3842,
      "##έος": 3843,
      "στρατιωτῶν": 3844,
      "θάλασσαν": 3845,
      "Ξεν": 3846,
      "χιλί": 3847,
      "ἀθρ": 3848,
      "Ἡρα": 3849,
      "ἁλ": 3850,
      "##αινε": 3851,
      "ἄχρι": 3852,
      "ὀνομα": 3853,
      "##τὸ": 3854,
      "##όμων": 3855,
      "πρεσβύ": 3856,
      "ἰδίᾳ": 3857,
      "##κλή": 3858,
      "ἄνα": 3859,
      "##πτου": 3860,
      "##ῶνται": 3861,
      "##λαῖς": 3862,
      "τρίτον": 3863,
      "θαλάττης": 3864,
      "##άζεται": 3865,
      "ἐποίησεν": 3866,
      "ἑπτὰ": 3867,
      "##ληφ": 3868,
      "χάρι": 3869,
      "##βολῆς": 3870,
      "ποικ": 3871,
      "##ότεροι": 3872,
      "τοιαύτην": 3873,
      "προσι": 3874,
      "ἀναγκαῖον": 3875,
      "Πομπή": 3876,
      "##πέμψ": 3877,
      "ἔρ": 3878,
      "##ραῖς": 3879,
      "##τάς": 3880,
      "τυράν": 3881,
      "τυρανν": 3882,
      "πειρ": 3883,
      "γενέ": 3884,
      "##ειχ": 3885,
      "γένους": 3886,
      "##ίαι": 3887,
      "##ουμένους": 3888,
      "##στὰς": 3889,
      "##οιντο": 3890,
      "ἀκούσας": 3891,
      "ἐντεῦθεν": 3892,
      "Βοιω": 3893,
      "##ψιν": 3894,
      "καταφρον": 3895,
      "ἑτέρων": 3896,
      "##εῖσα": 3897,
      "Βαβ": 3898,
      "##εισ": 3899,
      "βρο": 3900,
      "ἀριστε": 3901,
      "διαφορ": 3902,
      "ὑγι": 3903,
      "ὁμι": 3904,
      "##σικ": 3905,
      "##άλω": 3906,
      "στρατιώτας": 3907,
      "δυσχ": 3908,
      "##δίαν": 3909,
      "##σόφ": 3910,
      "ἀδί": 3911,
      "##ῃσιν": 3912,
      "μαρτυρ": 3913,
      "δύναται": 3914,
      "ἴση": 3915,
      "σʼ": 3916,
      "##ιῶν": 3917,
      "##αῖον": 3918,
      "οἰκίαν": 3919,
      "φρόν": 3920,
      "ἐξελ": 3921,
      "##σονται": 3922,
      "ἄρτι": 3923,
      "##πίων": 3924,
      "ἀλλά": 3925,
      "Βαβυ": 3926,
      "##θειαν": 3927,
      "##βλέ": 3928,
      "Μάρ": 3929,
      "##μώ": 3930,
      "##ύβ": 3931,
      "φίλος": 3932,
      "##τάτους": 3933,
      "ἔχοι": 3934,
      "παραγεν": 3935,
      "##στό": 3936,
      "##εία": 3937,
      "εἶναί": 3938,
      "ἔφην": 3939,
      "νόσ": 3940,
      "στόμα": 3941,
      "ἴσα": 3942,
      "##όδου": 3943,
      "Διονύσ": 3944,
      "##λέων": 3945,
      "πατρίδος": 3946,
      "ἀλλοτρί": 3947,
      "ἐπιμελ": 3948,
      "ἐλπίδ": 3949,
      "##τού": 3950,
      "##λαος": 3951,
      "##ναντίον": 3952,
      "αὐταῖς": 3953,
      "πλου": 3954,
      "περιέ": 3955,
      "οἰκίας": 3956,
      "##βαλὼν": 3957,
      "γον": 3958,
      "##εσθε": 3959,
      "##οῦσθαι": 3960,
      "ἅρ": 3961,
      "περιε": 3962,
      "κοινῇ": 3963,
      "ἀργύ": 3964,
      "τοὐναντίον": 3965,
      "ἁπλῶς": 3966,
      "ἔοικε": 3967,
      "Ἀλέξανδρον": 3968,
      "δόξης": 3969,
      "##κιν": 3970,
      "##μύ": 3971,
      "κεί": 3972,
      "πεντήκοντα": 3973,
      "Θρ": 3974,
      "φαρ": 3975,
      "##κότας": 3976,
      "πέλ": 3977,
      "##κετο": 3978,
      "τύραν": 3979,
      "##νώ": 3980,
      "##οῦντι": 3981,
      "καλέ": 3982,
      "ἐνθά": 3983,
      "##ήσαι": 3984,
      "Κό": 3985,
      "##ροσθεν": 3986,
      "##ορφ": 3987,
      "##ωρος": 3988,
      "τρά": 3989,
      "συνέβη": 3990,
      "πλεῖστα": 3991,
      "βούλεται": 3992,
      "ὅν": 3993,
      "##ήσομεν": 3994,
      "μηδένα": 3995,
      "##ησον": 3996,
      "ἀνθρωπ": 3997,
      "##ήσονται": 3998,
      "##πευ": 3999,
      "ἀνδρὶ": 4000,
      "ταὐτὰ": 4001,
      "σαφῶς": 4002,
      "ἐγχ": 4003,
      "ἱππέων": 4004,
      "σκην": 4005,
      "πλήθει": 4006,
      "γεωργ": 4007,
      "##ύα": 4008,
      "##είῳ": 4009,
      "ἐλπ": 4010,
      "θυσ": 4011,
      "μουσικ": 4012,
      "Ζεὺς": 4013,
      "καταπ": 4014,
      "μεγάλην": 4015,
      "Αἴγυπ": 4016,
      "νεν": 4017,
      "##βος": 4018,
      "πεσ": 4019,
      "πλευρ": 4020,
      "θέρ": 4021,
      "τρόπῳ": 4022,
      "ποῦ": 4023,
      "##τησεν": 4024,
      "ἐδέ": 4025,
      "Νε": 4026,
      "ἄγειν": 4027,
      "πάσας": 4028,
      "τρέ": 4029,
      "##ῇς": 4030,
      "##άζει": 4031,
      "ἀλη": 4032,
      "##ῶδες": 4033,
      "γενόμενον": 4034,
      "τέκ": 4035,
      "ἐγγὺς": 4036,
      "##μέλ": 4037,
      "ἔπρα": 4038,
      "##γει": 4039,
      "##χυ": 4040,
      "γυναῖκες": 4041,
      "νεῶν": 4042,
      "πειθ": 4043,
      "γενε": 4044,
      "##μιον": 4045,
      "ἔμελλ": 4046,
      "ἔτε": 4047,
      "##ῶτα": 4048,
      "##ξον": 4049,
      "πᾶς": 4050,
      "##ελι": 4051,
      "##δὼν": 4052,
      "μάχῃ": 4053,
      "##ρῶς": 4054,
      "ξί": 4055,
      "##σθέντες": 4056,
      "##άδος": 4057,
      "πάθος": 4058,
      "κεφαλὴν": 4059,
      "ὕδατος": 4060,
      "##ῆος": 4061,
      "ἀπα": 4062,
      "διόπερ": 4063,
      "Ἑλλάδα": 4064,
      "##εῖτε": 4065,
      "λέγοντες": 4066,
      "##σθησαν": 4067,
      "Ἀριστοτέ": 4068,
      "##εργε": 4069,
      "δυνάμεις": 4070,
      "σταδίους": 4071,
      "##ταρ": 4072,
      "ἐνδε": 4073,
      "διελ": 4074,
      "ἔχεις": 4075,
      "ἑαυτοὺς": 4076,
      "παιδὸς": 4077,
      "ἀγῶνα": 4078,
      "παραν": 4079,
      "##τοιο": 4080,
      "ἤν": 4081,
      "Ἡρώ": 4082,
      "##εῖος": 4083,
      "##μονος": 4084,
      "προσηγ": 4085,
      "##ίζων": 4086,
      "μυριά": 4087,
      "##άδα": 4088,
      "##ροὶ": 4089,
      "##οποι": 4090,
      "##σίως": 4091,
      "γέγονεν": 4092,
      "κει": 4093,
      "Ἐπ": 4094,
      "πόρρω": 4095,
      "Κύπ": 4096,
      "κρύ": 4097,
      "ταπειν": 4098,
      "##σίαις": 4099,
      "Διονύ": 4100,
      "##κως": 4101,
      "##πόν": 4102,
      "ἐπιν": 4103,
      "##λευσ": 4104,
      "φροντί": 4105,
      "μῦ": 4106,
      "αὐχ": 4107,
      "παύ": 4108,
      "##αγὼν": 4109,
      "βό": 4110,
      "ἐπίστα": 4111,
      "κού": 4112,
      "##εκ": 4113,
      "##βων": 4114,
      "φασὶ": 4115,
      "ἔργῳ": 4116,
      "οὐδενὶ": 4117,
      "##τατον": 4118,
      "ἀμφοτέρων": 4119,
      "Ἀθηναίοις": 4120,
      "##σσι": 4121,
      "##μοις": 4122,
      "##πας": 4123,
      "##τεσθαι": 4124,
      "##στόν": 4125,
      "ἵππων": 4126,
      "χρήσι": 4127,
      "πυν": 4128,
      "##λαί": 4129,
      "σφῶν": 4130,
      "##είοις": 4131,
      "ἐπιτρέ": 4132,
      "σημα": 4133,
      "##μός": 4134,
      "##ψει": 4135,
      "τολμ": 4136,
      "διαβ": 4137,
      "φιλοτιμ": 4138,
      "ἐθελ": 4139,
      "ΞΕ": 4140,
      "Οἰ": 4141,
      "σχολ": 4142,
      "πλήθους": 4143,
      "ἀνι": 4144,
      "αἰδ": 4145,
      "Αὐ": 4146,
      "τἄ": 4147,
      "προϊ": 4148,
      "##ούσῃ": 4149,
      "σφε": 4150,
      "σώματα": 4151,
      "τύχης": 4152,
      "σαυ": 4153,
      "##υβ": 4154,
      "φίλοι": 4155,
      "σί": 4156,
      "##θης": 4157,
      "ἀπη": 4158,
      "δεδι": 4159,
      "ἀληθῶς": 4160,
      "##έστερον": 4161,
      "##ῆκεν": 4162,
      "##ζει": 4163,
      "πρεσβυ": 4164,
      "##ζεν": 4165,
      "##σασα": 4166,
      "##εσσι": 4167,
      "##έβη": 4168,
      "ἔνδον": 4169,
      "μία": 4170,
      "οὔθʼ": 4171,
      "##ύνε": 4172,
      "ἐκείνην": 4173,
      "οἶνον": 4174,
      "Χαλ": 4175,
      "##ότ": 4176,
      "##φρόν": 4177,
      "προν": 4178,
      "ἐκείνης": 4179,
      "ἄπει": 4180,
      "##φυκ": 4181,
      "Αἰτω": 4182,
      "κύριος": 4183,
      "##άγει": 4184,
      "αἱρ": 4185,
      "ἀδύνατον": 4186,
      "Συρί": 4187,
      "ἑω": 4188,
      "##εσιν": 4189,
      "ἐκεῖνα": 4190,
      "##ῶται": 4191,
      "ἐπιμε": 4192,
      "##χθαι": 4193,
      "δίκαια": 4194,
      "ἐχόντων": 4195,
      "Μακεδον": 4196,
      "ἐσθῆ": 4197,
      "Κελ": 4198,
      "ὄμ": 4199,
      "δωρε": 4200,
      "##δὲ": 4201,
      "Ὅμηρος": 4202,
      "τοῦδε": 4203,
      "##κασιν": 4204,
      "##όλων": 4205,
      "τάξιν": 4206,
      "τοξ": 4207,
      "##τελῶς": 4208,
      "ὄψιν": 4209,
      "κάρ": 4210,
      "##ύτην": 4211,
      "##ζω": 4212,
      "παρεσκευ": 4213,
      "ἄμφ": 4214,
      "καλῶν": 4215,
      "##ῖνον": 4216,
      "φύσις": 4217,
      "εἰρήνην": 4218,
      "ἰατρ": 4219,
      "αἰχμα": 4220,
      "θνη": 4221,
      "φάλα": 4222,
      "##ῖται": 4223,
      "##στὴν": 4224,
      "##οίᾳ": 4225,
      "γυνὴ": 4226,
      "θρασ": 4227,
      "σημεῖον": 4228,
      "αἶ": 4229,
      "##λας": 4230,
      "##ζη": 4231,
      "ὅπλων": 4232,
      "ἔρχ": 4233,
      "##ρίοις": 4234,
      "λοιπο": 4235,
      "εἱ": 4236,
      "φιλοσόφ": 4237,
      "Παν": 4238,
      "δέν": 4239,
      "ὀκτ": 4240,
      "##κῳ": 4241,
      "##αντος": 4242,
      "οἰκέ": 4243,
      "##ῖσιν": 4244,
      "##ᾶτο": 4245,
      "##ότητι": 4246,
      "ἔλεγεν": 4247,
      "Ἑλλάδος": 4248,
      "τελέ": 4249,
      "##σεων": 4250,
      "χρω": 4251,
      "φιλανθρ": 4252,
      "##ίστη": 4253,
      "##μένως": 4254,
      "μετρ": 4255,
      "##χθῆναι": 4256,
      "τἆ": 4257,
      "τάς": 4258,
      "Ἕλληνες": 4259,
      "εὐεργε": 4260,
      "αἰεὶ": 4261,
      "κρατ": 4262,
      "ὑπάρχειν": 4263,
      "δοῦναι": 4264,
      "##σκον": 4265,
      "##τίου": 4266,
      "##αρχος": 4267,
      "πάτ": 4268,
      "ἀναι": 4269,
      "βασιλέων": 4270,
      "##τύγ": 4271,
      "ΚΛ": 4272,
      "ἅπερ": 4273,
      "##βρα": 4274,
      "##ισμα": 4275,
      "κλέ": 4276,
      "λή": 4277,
      "Ἀμ": 4278,
      "##κὼς": 4279,
      "ἔνιοι": 4280,
      "##στρε": 4281,
      "παρακαλ": 4282,
      "ΘΕΑΙ": 4283,
      "##βιά": 4284,
      "δύνασθαι": 4285,
      "Αἴγυπτον": 4286,
      "Μι": 4287,
      "μέγαν": 4288,
      "πίστιν": 4289,
      "βαδί": 4290,
      "δήμῳ": 4291,
      "##τρικ": 4292,
      "φον": 4293,
      "ὄρος": 4294,
      "##άδε": 4295,
      "κύκλῳ": 4296,
      "##στερα": 4297,
      "##ρηται": 4298,
      "αἰτι": 4299,
      "κόσμον": 4300,
      "βιβ": 4301,
      "πεποιη": 4302,
      "γέρ": 4303,
      "ταῦτά": 4304,
      "ἵππους": 4305,
      "##ότερος": 4306,
      "οἶκον": 4307,
      "γνω": 4308,
      "##βάλλειν": 4309,
      "##ορος": 4310,
      "Ἀντων": 4311,
      "σωτηρίας": 4312,
      "ἰδέ": 4313,
      "##λεύθερ": 4314,
      "##πτω": 4315,
      "ἐβού": 4316,
      "##θῳ": 4317,
      "προσήκει": 4318,
      "ΒΓ": 4319,
      "##λλος": 4320,
      "##κειται": 4321,
      "##άσασθαι": 4322,
      "ἐμπο": 4323,
      "κή": 4324,
      "##τύγχαν": 4325,
      "ἐπιτή": 4326,
      "##ικῆς": 4327,
      "ὡμο": 4328,
      "##τοὶ": 4329,
      "ἐπιβου": 4330,
      "Δίʼ": 4331,
      "εἰσε": 4332,
      "Φρ": 4333,
      "##άντα": 4334,
      "χρυ": 4335,
      "Θεσ": 4336,
      "ἑστ": 4337,
      "##χεσθαι": 4338,
      "##δεικν": 4339,
      "λύπ": 4340,
      "τῆ": 4341,
      "ἐκπ": 4342,
      "##λοί": 4343,
      "##λοντο": 4344,
      "##κότος": 4345,
      "Λακεδαιμονίους": 4346,
      "##δῳ": 4347,
      "##τελέ": 4348,
      "βουλῆς": 4349,
      "ἔλεγε": 4350,
      "##γωνον": 4351,
      "τειχ": 4352,
      "##κιος": 4353,
      "##δῃ": 4354,
      "μέγας": 4355,
      "##λό": 4356,
      "##ίσαι": 4357,
      "##φυρ": 4358,
      "##τείαν": 4359,
      "κερα": 4360,
      "##ήσαντο": 4361,
      "βέλτι": 4362,
      "τοὔνομα": 4363,
      "λά": 4364,
      "σπον": 4365,
      "θεοὶ": 4366,
      "ἀναβ": 4367,
      "##ξαντο": 4368,
      "##βάλλον": 4369,
      "πλα": 4370,
      "οὐσίας": 4371,
      "βασιλείας": 4372,
      "πυρὸς": 4373,
      "τριῶν": 4374,
      "γράμματα": 4375,
      "ἀθαν": 4376,
      "##ίσας": 4377,
      "διαρ": 4378,
      "Μαρ": 4379,
      "ἐνεργ": 4380,
      "##πεσθαι": 4381,
      "σχῆμα": 4382,
      "##δεῖ": 4383,
      "##ῶντες": 4384,
      "##δείκνυ": 4385,
      "##τήν": 4386,
      "##φημ": 4387,
      "μητρὸς": 4388,
      "ΑΓ": 4389,
      "ταραχ": 4390,
      "ἐλθὼν": 4391,
      "Σκ": 4392,
      "αἰσχύν": 4393,
      "αἷς": 4394,
      "τἆλλα": 4395,
      "Προ": 4396,
      "κάμ": 4397,
      "κεῖται": 4398,
      "εἴποι": 4399,
      "κύκ": 4400,
      "κέρ": 4401,
      "ὀγ": 4402,
      "##φρά": 4403,
      "##ειπ": 4404,
      "παρόντων": 4405,
      "φω": 4406,
      "##καλέ": 4407,
      "συλλα": 4408,
      "ἔλεγον": 4409,
      "ἑκάσ": 4410,
      "##καμεν": 4411,
      "##θες": 4412,
      "##λεν": 4413,
      "##αῖος": 4414,
      "δικασταί": 4415,
      "Λύ": 4416,
      "Τυρ": 4417,
      "##άδας": 4418,
      "ἀπεί": 4419,
      "ἄμφω": 4420,
      "ξεν": 4421,
      "##άνων": 4422,
      "βαλ": 4423,
      "##κῃ": 4424,
      "##τησε": 4425,
      "##πεπ": 4426,
      "Δημή": 4427,
      "τόπους": 4428,
      "##ώρα": 4429,
      "εὔν": 4430,
      "τύχῃ": 4431,
      "σκι": 4432,
      "##ιγ": 4433,
      "##ορμ": 4434,
      "μεγάλων": 4435,
      "κυβ": 4436,
      "ταχὺ": 4437,
      "ἄμειν": 4438,
      "μηδενὸς": 4439,
      "ἵππον": 4440,
      "##ωρη": 4441,
      "##κτωρ": 4442,
      "Μέ": 4443,
      "##εθ": 4444,
      "πολλῆς": 4445,
      "ἀχ": 4446,
      "ἤρ": 4447,
      "ῥέ": 4448,
      "##ρός": 4449,
      "##άκρυ": 4450,
      "ἔμπροσθεν": 4451,
      "δορ": 4452,
      "Ἰουδα": 4453,
      "##ναγ": 4454,
      "ὁρῶ": 4455,
      "ἕκαστα": 4456,
      "θανάτου": 4457,
      "##συ": 4458,
      "θεραπ": 4459,
      "κίνδυνον": 4460,
      "##λεῖ": 4461,
      "στέρ": 4462,
      "στράτευ": 4463,
      "##ργος": 4464,
      "##κλει": 4465,
      "ἀκριβῶς": 4466,
      "ναυμαχ": 4467,
      "πεποίη": 4468,
      "Ἀλκι": 4469,
      "Βυζ": 4470,
      "τραχ": 4471,
      "##ζόμενος": 4472,
      "##ταῖ": 4473,
      "οὐσίαν": 4474,
      "στράτευμα": 4475,
      "Φίλι": 4476,
      "ἠπεί": 4477,
      "##σοι": 4478,
      "##ριῶν": 4479,
      "##ήσειεν": 4480,
      "Δελφ": 4481,
      "θεῖον": 4482,
      "ἕτερος": 4483,
      "τέττα": 4484,
      "τάχιστα": 4485,
      "ξυγ": 4486,
      "σῴ": 4487,
      "##ήσαντα": 4488,
      "##ώντων": 4489,
      "χθον": 4490,
      "##ικὴν": 4491,
      "δυνατὸν": 4492,
      "ἱκανῶς": 4493,
      "Καρχηδόν": 4494,
      "Σπάρ": 4495,
      "##έχει": 4496,
      "Διόν": 4497,
      "μόλις": 4498,
      "τοιοῦτος": 4499,
      "Ἀπολλ": 4500,
      "αἳ": 4501,
      "##ράκοντα": 4502,
      "##λίῳ": 4503,
      "##δειν": 4504,
      "##ίας": 4505,
      "κακόν": 4506,
      "βασιλεῦ": 4507,
      "σωφρον": 4508,
      "βοη": 4509,
      "##ύτη": 4510,
      "##ίῃ": 4511,
      "##ήματι": 4512,
      "##αλμα": 4513,
      "ἀπέθαν": 4514,
      "ἐποίησε": 4515,
      "φοβερ": 4516,
      "Κῦρος": 4517,
      "μεσ": 4518,
      "ἀρχήν": 4519,
      "##τικὸς": 4520,
      "σύγ": 4521,
      "ἦλθον": 4522,
      "Ἰταλίαν": 4523,
      "##ύμφ": 4524,
      "τιμῆς": 4525,
      "τίνος": 4526,
      "αἷμα": 4527,
      "Ἱππ": 4528,
      "ὑπέρ": 4529,
      "λέγοντος": 4530,
      "ἀληθείας": 4531,
      "κι": 4532,
      "ταῦθʼ": 4533,
      "σεαυ": 4534,
      "##κυν": 4535,
      "##κάζ": 4536,
      "##δαίων": 4537,
      "##ριδ": 4538,
      "μήτηρ": 4539,
      "ἀκολου": 4540,
      "##ματʼ": 4541,
      "##υχν": 4542,
      "δεῖπνον": 4543,
      "##θην": 4544,
      "εἶτʼ": 4545,
      "παντάπασιν": 4546,
      "Θή": 4547,
      "ὁδ": 4548,
      "##υσε": 4549,
      "##λυθ": 4550,
      "##αγό": 4551,
      "ἀσφα": 4552,
      "δημοκρα": 4553,
      "κου": 4554,
      "##ψυχ": 4555,
      "πρω": 4556,
      "παθεῖν": 4557,
      "αὑτοὺς": 4558,
      "ἀκούειν": 4559,
      "ἴσχ": 4560,
      "##ηκο": 4561,
      "τρυφ": 4562,
      "ἄμεινον": 4563,
      "Μή": 4564,
      "ἀσκ": 4565,
      "ὅτʼ": 4566,
      "ἀποθ": 4567,
      "μάν": 4568,
      "##μαί": 4569,
      "Εὐρ": 4570,
      "πολιτείαν": 4571,
      "ῥα": 4572,
      "##ητον": 4573,
      "##χετο": 4574,
      "εἰργ": 4575,
      "##πτο": 4576,
      "κεχ": 4577,
      "ἴδιον": 4578,
      "##ικα": 4579,
      "##λια": 4580,
      "ἀποστε": 4581,
      "γενομένων": 4582,
      "θυγατέρα": 4583,
      "βέλτιον": 4584,
      "ἔξε": 4585,
      "##ανακ": 4586,
      "##αίους": 4587,
      "καλεῖται": 4588,
      "Δημοσθένης": 4589,
      "##άλη": 4590,
      "μιμ": 4591,
      "##αμέ": 4592,
      "τέκνα": 4593,
      "##πλα": 4594,
      "Καρ": 4595,
      "κοσμ": 4596,
      "κράτος": 4597,
      "##καίδεκα": 4598,
      "Πε": 4599,
      "πατρίδα": 4600,
      "διεξ": 4601,
      "ἀποκτείν": 4602,
      "αὗ": 4603,
      "λέγε": 4604,
      "##βαλε": 4605,
      "διανο": 4606,
      "##όων": 4607,
      "ὑπῆ": 4608,
      "μητέρα": 4609,
      "ἀμφισ": 4610,
      "Φιλίππου": 4611,
      "ἄτο": 4612,
      "πορθ": 4613,
      "τινων": 4614,
      "γιγνώσκ": 4615,
      "φάρ": 4616,
      "##όνου": 4617,
      "ἐπικ": 4618,
      "##φέρειν": 4619,
      "Κυ": 4620,
      "συγγραφ": 4621,
      "ἑτέρου": 4622,
      "##στέον": 4623,
      "##ησις": 4624,
      "##βον": 4625,
      "##ρετο": 4626,
      "μηδέ": 4627,
      "πεῖ": 4628,
      "πείθ": 4629,
      "χαρ": 4630,
      "πόθεν": 4631,
      "φύλα": 4632,
      "ἐνθυμ": 4633,
      "##λικα": 4634,
      "καθή": 4635,
      "##φάνης": 4636,
      "##ρῶ": 4637,
      "##ρατο": 4638,
      "##δόξ": 4639,
      "σωφροσύν": 4640,
      "πονηρ": 4641,
      "ὅμοιον": 4642,
      "ἐπίκ": 4643,
      "ἄλλης": 4644,
      "##ναις": 4645,
      "εἰκός": 4646,
      "εὗ": 4647,
      "##λοὺς": 4648,
      "φιλίαν": 4649,
      "τέχνης": 4650,
      "##μαχος": 4651,
      "##τικόν": 4652,
      "##θέως": 4653,
      "γῇ": 4654,
      "λόφ": 4655,
      "##άμον": 4656,
      "Θεττα": 4657,
      "ὅλην": 4658,
      "ἀπή": 4659,
      "πεπραγ": 4660,
      "κτείν": 4661,
      "##αντο": 4662,
      "ἡτ": 4663,
      "φέρων": 4664,
      "ζῴων": 4665,
      "συμβαίνει": 4666,
      "##οια": 4667,
      "τρία": 4668,
      "Φιλο": 4669,
      "Ἰσ": 4670,
      "προσθ": 4671,
      "##θηκε": 4672,
      "##πέμπ": 4673,
      "##ψαντες": 4674,
      "ἐνν": 4675,
      "τεταγ": 4676,
      "μηκέ": 4677,
      "##διος": 4678,
      "ὁρᾷς": 4679,
      "στεφάν": 4680,
      "βάρβαρ": 4681,
      "Ἱεροσ": 4682,
      "ἀνή": 4683,
      "##στασιν": 4684,
      "διεφθ": 4685,
      "Νέ": 4686,
      "ὀρχ": 4687,
      "##ότες": 4688,
      "##ίο": 4689,
      "διάν": 4690,
      "##ρότη": 4691,
      "ὁρᾶν": 4692,
      "ἁρπ": 4693,
      "ἐξηγ": 4694,
      "ἀγγ": 4695,
      "μένειν": 4696,
      "πρεσβευ": 4697,
      "ἔθνος": 4698,
      "γραμμα": 4699,
      "ψήφ": 4700,
      "ἰέναι": 4701,
      "##ίαν": 4702,
      "##γαγ": 4703,
      "ἀνήρ": 4704,
      "##είους": 4705,
      "ταυ": 4706,
      "τάχα": 4707,
      "εἰπόντος": 4708,
      "μῆκος": 4709,
      "ποιήσασθαι": 4710,
      "##βολὰς": 4711,
      "κέν": 4712,
      "Ἰων": 4713,
      "ὕπν": 4714,
      "##τωρ": 4715,
      "##τιοι": 4716,
      "Πομπη": 4717,
      "ἰδιώ": 4718,
      "##λέν": 4719,
      "ἐκάλ": 4720,
      "καθόλου": 4721,
      "καλὰ": 4722,
      "##οῖσι": 4723,
      "ἔξωθεν": 4724,
      "λαμβάνειν": 4725,
      "τέχνην": 4726,
      "##μέναι": 4727,
      "ἀντε": 4728,
      "##πεζ": 4729,
      "##φέ": 4730,
      "εἶεν": 4731,
      "##πετο": 4732,
      "ἐμὸν": 4733,
      "##οῖο": 4734,
      "τάλαντα": 4735,
      "Τε": 4736,
      "##εσαν": 4737,
      "##ήρεις": 4738,
      "βούλομαι": 4739,
      "##φει": 4740,
      "##ῶνος": 4741,
      "ὅπλοις": 4742,
      "πέτρ": 4743,
      "##ώτατος": 4744,
      "ἑξα": 4745,
      "##ρᾶς": 4746,
      "##ανθ": 4747,
      "γνώμης": 4748,
      "σκο": 4749,
      "##ττε": 4750,
      "##μὼν": 4751,
      "##ζεσθαι": 4752,
      "##σχον": 4753,
      "Φίλιππος": 4754,
      "ἔρη": 4755,
      "ἔπος": 4756,
      "##ότατα": 4757,
      "κάλλος": 4758,
      "##ρεῖν": 4759,
      "ἐπιεικ": 4760,
      "τραγῳ": 4761,
      "ἐτύγχαν": 4762,
      "##οξ": 4763,
      "παθ": 4764,
      "φίλοις": 4765,
      "στρατηγὸν": 4766,
      "ἅπασι": 4767,
      "ἤτοι": 4768,
      "##ανὸς": 4769,
      "διακ": 4770,
      "##τέρᾳ": 4771,
      "οἰκοδομ": 4772,
      "αὗται": 4773,
      "##ητε": 4774,
      "##νει": 4775,
      "##αίου": 4776,
      "##ίδην": 4777,
      "##ώδε": 4778,
      "##εῖσαν": 4779,
      "χεῖρα": 4780,
      "Πέ": 4781,
      "##κασι": 4782,
      "##ίνῃ": 4783,
      "##θέναι": 4784,
      "ἑτέραν": 4785,
      "ἡδονῆς": 4786,
      "##μερον": 4787,
      "##πολιν": 4788,
      "λη": 4789,
      "σὸν": 4790,
      "##άγων": 4791,
      "τοσαῦτα": 4792,
      "ἐπιτήδει": 4793,
      "##γραμ": 4794,
      "τύχην": 4795,
      "Καλλι": 4796,
      "μοῖ": 4797,
      "##γος": 4798,
      "##θεντο": 4799,
      "στρατιὰν": 4800,
      "Λεύ": 4801,
      "ἔσω": 4802,
      "##ῃρη": 4803,
      "##μιουργ": 4804,
      "ἀρχιερ": 4805,
      "ἀρκ": 4806,
      "ταχέως": 4807,
      "ἐλλ": 4808,
      "ὕπα": 4809,
      "##νῳ": 4810,
      "##φεύ": 4811,
      "##γωγ": 4812,
      "##ήνεγ": 4813,
      "##οφῶν": 4814,
      "Κά": 4815,
      "κτ": 4816,
      "##ώσας": 4817,
      "##εσσιν": 4818,
      "εἰδὼς": 4819,
      "Φα": 4820,
      "##σάν": 4821,
      "γνωρί": 4822,
      "δεῦρο": 4823,
      "Διόνυσ": 4824,
      "Μιθ": 4825,
      "##τρίβ": 4826,
      "πράγματος": 4827,
      "δαιμόν": 4828,
      "Μακεδόνων": 4829,
      "Φωκ": 4830,
      "ὀστ": 4831,
      "προσώπ": 4832,
      "##κόσιοι": 4833,
      "##χειν": 4834,
      "ἐκτὸς": 4835,
      "##σατε": 4836,
      "συντε": 4837,
      "αἰτί": 4838,
      "ἦλθεν": 4839,
      "ὀνόματα": 4840,
      "##άρι": 4841,
      "εἶδον": 4842,
      "τάφ": 4843,
      "μιᾶς": 4844,
      "ἕτερα": 4845,
      "ὁμοι": 4846,
      "##ρῃ": 4847,
      "##λεῖν": 4848,
      "εἰμι": 4849,
      "τυχεῖν": 4850,
      "ἐνθάδε": 4851,
      "δηλ": 4852,
      "λίμν": 4853,
      "##παθ": 4854,
      "##ύτως": 4855,
      "ἀμφι": 4856,
      "ἑτέρους": 4857,
      "ἐκέλευσεν": 4858,
      "##θύμως": 4859,
      "γαῖ": 4860,
      "##ότης": 4861,
      "καλούμενον": 4862,
      "εὐδαί": 4863,
      "δυοῖν": 4864,
      "Ἀλκιβιά": 4865,
      "Εἰ": 4866,
      "εἰσα": 4867,
      "##έρξ": 4868,
      "ἀποφα": 4869,
      "στρατηγὸς": 4870,
      "##ῶνα": 4871,
      "πόδας": 4872,
      "##τέλε": 4873,
      "ἀφαιρ": 4874,
      "θαυμάζ": 4875,
      "νῆσον": 4876,
      "##ασιν": 4877,
      "##λὰς": 4878,
      "##μία": 4879,
      "##ῶναι": 4880,
      "συγχωρ": 4881,
      "σώματι": 4882,
      "ἑνὶ": 4883,
      "δά": 4884,
      "ὑπα": 4885,
      "παρρη": 4886,
      "##μβαν": 4887,
      "κτί": 4888,
      "φαιν": 4889,
      "Ἀσίαν": 4890,
      "##ώμενον": 4891,
      "##λοῖ": 4892,
      "Φί": 4893,
      "τόπων": 4894,
      "ὕψ": 4895,
      "##άτῃ": 4896,
      "##ποντο": 4897,
      "κακὰ": 4898,
      "##λουν": 4899,
      "συμμάχων": 4900,
      "ἡδέως": 4901,
      "ὁμό": 4902,
      "διαφερ": 4903,
      "προσδοκ": 4904,
      "ἠδὲ": 4905,
      "ἡλίου": 4906,
      "εὐσεβ": 4907,
      "πολὺς": 4908,
      "Αἰσχ": 4909,
      "φυλά": 4910,
      "τείχους": 4911,
      "τῇδε": 4912,
      "ὄρνι": 4913,
      "##κειτο": 4914,
      "ταὐτὸν": 4915,
      "Σικελίαν": 4916,
      "δὶς": 4917,
      "ἀρε": 4918,
      "ἁγ": 4919,
      "##δεις": 4920,
      "ῥᾴδιον": 4921,
      "θο": 4922,
      "κρη": 4923,
      "φρ": 4924,
      "παραλλ": 4925,
      "μανθάν": 4926,
      "Ἰωάν": 4927,
      "##τυγχάν": 4928,
      "Ἀννί": 4929,
      "Ἕλλησι": 4930,
      "ἐξουσίαν": 4931,
      "βρα": 4932,
      "μαλακ": 4933,
      "##ψεως": 4934,
      "ἀλήθειαν": 4935,
      "ἐστε": 4936,
      "εἰσίν": 4937,
      "δῶρα": 4938,
      "##δορ": 4939,
      "##θῇ": 4940,
      "##δοχ": 4941,
      "##τάτων": 4942,
      "προσέτα": 4943,
      "##ραπται": 4944,
      "σύμμε": 4945,
      "##ήνῃ": 4946,
      "##δίων": 4947,
      "ἱερῶν": 4948,
      "πιστ": 4949,
      "μαρτυρί": 4950,
      "ἀργύριον": 4951,
      "Σκι": 4952,
      "βίᾳ": 4953,
      "μυθ": 4954,
      "σταδίων": 4955,
      "Μέν": 4956,
      "ἐρη": 4957,
      "##ῆκε": 4958,
      "ἰδίαν": 4959,
      "Ἀγαμέ": 4960,
      "ἐμαυτοῦ": 4961,
      "νυνὶ": 4962,
      "##ξεται": 4963,
      "##ίδου": 4964,
      "λίαν": 4965,
      "##δραμ": 4966,
      "δύναι": 4967,
      "##ώτατα": 4968,
      "μέσῳ": 4969,
      "##θρον": 4970,
      "παραπλή": 4971,
      "ἀδελφὸν": 4972,
      "##τικοῦ": 4973,
      "παραχρ": 4974,
      "##όμους": 4975,
      "τότʼ": 4976,
      "σῖ": 4977,
      "ἀσεβ": 4978,
      "Ἀσκ": 4979,
      "##ασι": 4980,
      "παντελῶς": 4981,
      "προσαγορεύ": 4982,
      "Σωκράτης": 4983,
      "πίν": 4984,
      "ἑταῖ": 4985,
      "##στῆ": 4986,
      "ἀγαθόν": 4987,
      "##ξεων": 4988,
      "ὀνομάτων": 4989,
      "Ἐπι": 4990,
      "##είης": 4991,
      "##τοισι": 4992,
      "ἀφελ": 4993,
      "ἀποθανεῖν": 4994,
      "διαφθεί": 4995,
      "Σπαρ": 4996,
      "Ῥο": 4997,
      "##κʼ": 4998,
      "κεφαλῆς": 4999,
      "μαθεῖν": 5000,
      "##τρου": 5001,
      "δυναστε": 5002,
      "##ελθόντες": 5003,
      "πνεῦμα": 5004,
      "##αλέ": 5005,
      "##θέμενος": 5006,
      "λαγ": 5007,
      "##τικὰ": 5008,
      "##μησε": 5009,
      "φάλαγγ": 5010,
      "Κορ": 5011,
      "##στης": 5012,
      "γυναιξ": 5013,
      "πατρὶ": 5014,
      "θορ": 5015,
      "τελε": 5016,
      "##σμὸν": 5017,
      "ἔσχε": 5018,
      "ἦλθε": 5019,
      "πεδίον": 5020,
      "ἔλθ": 5021,
      "αὑτοῖς": 5022,
      "Μω": 5023,
      "##ματί": 5024,
      "δυστ": 5025,
      "ἐκεῖθεν": 5026,
      "Τρο": 5027,
      "χο": 5028,
      "##ενν": 5029,
      "τροφῆς": 5030,
      "ἐτῶν": 5031,
      "πολλά": 5032,
      "λαβόντες": 5033,
      "##μαρτ": 5034,
      "##γέλλ": 5035,
      "ἔλαττον": 5036,
      "δάκρυ": 5037,
      "εἰρήνης": 5038,
      "βε": 5039,
      "δόγ": 5040,
      "##είαις": 5041,
      "##δοκι": 5042,
      "Ἰουδαίων": 5043,
      "συχν": 5044,
      "##υλ": 5045,
      "##σομαι": 5046,
      "ἔτος": 5047,
      "##ογον": 5048,
      "##βρο": 5049,
      "##ήνη": 5050,
      "##στήριον": 5051,
      "Ποσειδῶν": 5052,
      "ἀμφισβη": 5053,
      "μορφ": 5054,
      "ὅσῳ": 5055,
      "ῥητο": 5056,
      "πύργ": 5057,
      "##λαβόντες": 5058,
      "οὐδεμίαν": 5059,
      "##τάτην": 5060,
      "θυμὸν": 5061,
      "αὐτόθι": 5062,
      "ἥδε": 5063,
      "##σσιν": 5064,
      "σωμάτων": 5065,
      "ἀπαι": 5066,
      "δημιουργ": 5067,
      "##φρων": 5068,
      "θεός": 5069,
      "ἄγαλμα": 5070,
      "εὑρί": 5071,
      "ἀριθμὸν": 5072,
      "##μει": 5073,
      "##ροῖ": 5074,
      "##όδωρος": 5075,
      "τόνδε": 5076,
      "ὅμοια": 5077,
      "φιλόσοφ": 5078,
      "κἀγὼ": 5079,
      "ἐτό": 5080,
      "ἐμοί": 5081,
      "ἡνί": 5082,
      "##λίων": 5083,
      "ἔγρα": 5084,
      "##άν": 5085,
      "##όνδε": 5086,
      "##τές": 5087,
      "τοιούτοις": 5088,
      "θή": 5089,
      "φῶς": 5090,
      "##γη": 5091,
      "συνή": 5092,
      "##ησάμενοι": 5093,
      "##υρίου": 5094,
      "χρόνος": 5095,
      "κράτι": 5096,
      "##λεως": 5097,
      "οἰκουμέν": 5098,
      "πάρε": 5099,
      "ἁρμον": 5100,
      "ΑΒΓ": 5101,
      "ΓΔ": 5102,
      "##τής": 5103,
      "##φασιν": 5104,
      "Ἕλλησιν": 5105,
      "ἄριστον": 5106,
      "##ραί": 5107,
      "τεσσα": 5108,
      "διασ": 5109,
      "##άζετο": 5110,
      "##ιστος": 5111,
      "ὀπί": 5112,
      "ὑπαρχ": 5113,
      "ἀνάγκης": 5114,
      "γυμνα": 5115,
      "##χέ": 5116,
      "##βι": 5117,
      "##θοις": 5118,
      "##κοῖς": 5119,
      "ἀφε": 5120,
      "##ψηφί": 5121,
      "νή": 5122,
      "ἑρ": 5123,
      "##ξάμενοι": 5124,
      "##βαιν": 5125,
      "##ζόμενοι": 5126,
      "##ικοῦ": 5127,
      "ποιῶν": 5128,
      "μέμνη": 5129,
      "φαῦ": 5130,
      "γεγραμ": 5131,
      "πώποτε": 5132,
      "χρε": 5133,
      "ἀσχ": 5134,
      "ἔς": 5135,
      "##ρεσιν": 5136,
      "ἀγανακ": 5137,
      "##στεως": 5138,
      "στρατὸν": 5139,
      "πρώτην": 5140,
      "ὦν": 5141,
      "##ήλου": 5142,
      "τέσσα": 5143,
      "ἱερὰ": 5144,
      "νόμῳ": 5145,
      "Ἀρκά": 5146,
      "πραγμα": 5147,
      "βοηθεῖν": 5148,
      "πολλὴ": 5149,
      "τόλ": 5150,
      "##τήρ": 5151,
      "δύναμις": 5152,
      "σύμπ": 5153,
      "στέφαν": 5154,
      "ἔνθεν": 5155,
      "Πελοπ": 5156,
      "##ώνυμον": 5157,
      "ἀθρό": 5158,
      "##έν": 5159,
      "##ίνους": 5160,
      "γενομένου": 5161,
      "ἀρχὴ": 5162,
      "πολεμεῖν": 5163,
      "ἐποιήσατο": 5164,
      "πλει": 5165,
      "ὑπολαμβάν": 5166,
      "##ύρῳ": 5167,
      "##ψασθαι": 5168,
      "ἅπασιν": 5169,
      "ἐπιτηδεί": 5170,
      "Μενέ": 5171,
      "##άνη": 5172,
      "##λαμ": 5173,
      "##ρεως": 5174,
      "##αίοις": 5175,
      "ἀμείν": 5176,
      "καλοῦσι": 5177,
      "σκυ": 5178,
      "πρόσωπον": 5179,
      "Τη": 5180,
      "κῆ": 5181,
      "μικρὰ": 5182,
      "Λακεδαιμονίοις": 5183,
      "κρέ": 5184,
      "πή": 5185,
      "νόμου": 5186,
      "φέρε": 5187,
      "Βελι": 5188,
      "κοί": 5189,
      "σαρκ": 5190,
      "##στέρ": 5191,
      "##κοντο": 5192,
      "ἑαυτοῖς": 5193,
      "##όντως": 5194,
      "##ομά": 5195,
      "γενόμενοι": 5196,
      "φέρει": 5197,
      "Αἰγύπτου": 5198,
      "ὁτι": 5199,
      "ἀναιρ": 5200,
      "ἐμπ": 5201,
      "μισθοφ": 5202,
      "##ισθ": 5203,
      "##ίνην": 5204,
      "##αγωγ": 5205,
      "ἀξίαν": 5206,
      "πολίτας": 5207,
      "τέρ": 5208,
      "φθον": 5209,
      "##δίου": 5210,
      "##λάβ": 5211,
      "##ίχα": 5212,
      "##τορα": 5213,
      "πλά": 5214,
      "τἀναντί": 5215,
      "ἔδωκεν": 5216,
      "κυβερ": 5217,
      "συστ": 5218,
      "στερε": 5219,
      "κρείτ": 5220,
      "ἐνθέν": 5221,
      "δεδ": 5222,
      "##ριστοῦ": 5223,
      "χαίρειν": 5224,
      "αἰχμαλώ": 5225,
      "φάρμα": 5226,
      "Μιθριδ": 5227,
      "ἐρωτ": 5228,
      "##στειλ": 5229,
      "##ούσαις": 5230,
      "ἀκου": 5231,
      "##μησαν": 5232,
      "##λιππον": 5233,
      "##εγκεῖν": 5234,
      "ἑωυ": 5235,
      "ἔθος": 5236,
      "##εῖαν": 5237,
      "αὐτοκρά": 5238,
      "##βαλον": 5239,
      "ἀποκρί": 5240,
      "ἔσχεν": 5241,
      "στοι": 5242,
      "##σάντων": 5243,
      "##ουμένου": 5244,
      "##βαίνειν": 5245,
      "ἔθνη": 5246,
      "δώδεκα": 5247,
      "Ὀδυσσ": 5248,
      "Φιλ": 5249,
      "βια": 5250,
      "πρῶτοι": 5251,
      "##ήλω": 5252,
      "##τεῖναι": 5253,
      "Ἀριστοτέλης": 5254,
      "Τυρρην": 5255,
      "παραχρῆμα": 5256,
      "ἑτέρας": 5257,
      "κατι": 5258,
      "πάντʼ": 5259,
      "ἀμελ": 5260,
      "ἔργοις": 5261,
      "Κορίν": 5262,
      "ἡμερῶν": 5263,
      "καταλύ": 5264,
      "##ηθῆναι": 5265,
      "ὀλίγων": 5266,
      "ἐτελεύ": 5267,
      "οὐδαμῶς": 5268,
      "ἱκε": 5269,
      "ὡσα": 5270,
      "##ντο": 5271,
      "ἐναρ": 5272,
      "πρόσ": 5273,
      "ἐγγυ": 5274,
      "ἡδονὴν": 5275,
      "ὁπλί": 5276,
      "##σσε": 5277,
      "ἀγχ": 5278,
      "φιλίας": 5279,
      "θυμῷ": 5280,
      "φαί": 5281,
      "διδόναι": 5282,
      "##δαπ": 5283,
      "##χων": 5284,
      "##δίδω": 5285,
      "πιθαν": 5286,
      "ἔδοξεν": 5287,
      "##ευγ": 5288,
      "##ξῃ": 5289,
      "ἐννο": 5290,
      "##κολου": 5291,
      "μνημονεύει": 5292,
      "ἐλεύθερ": 5293,
      "ἔξ": 5294,
      "χρείαν": 5295,
      "##λαβε": 5296,
      "ἰδίων": 5297,
      "##αίρεσιν": 5298,
      "δραχ": 5299,
      "ἥν": 5300,
      "##δεχ": 5301,
      "τοιούτους": 5302,
      "##δέχεται": 5303,
      "ὡσαύτως": 5304,
      "σπεύ": 5305,
      "##δόμ": 5306,
      "καλοῦσιν": 5307,
      "τουτέ": 5308,
      "τηλικ": 5309,
      "ἄκρα": 5310,
      "παραγ": 5311,
      "συμβουλεύ": 5312,
      "Βάκ": 5313,
      "ὁδοῦ": 5314,
      "##μένῃ": 5315,
      "##ριθ": 5316,
      "##ύνειν": 5317,
      "Ἡρακλέους": 5318,
      "ἀντέ": 5319,
      "πύλας": 5320,
      "ἑβδομ": 5321,
      "ἔχοντος": 5322,
      "##τρυ": 5323,
      "##θήκας": 5324,
      "νύκτα": 5325,
      "νίκην": 5326,
      "##θρα": 5327,
      "μέγιστα": 5328,
      "ἑκάστην": 5329,
      "ἀτὰρ": 5330,
      "δυσχερ": 5331,
      "κεῖν": 5332,
      "οἶδʼ": 5333,
      "δεινὰ": 5334,
      "##ότας": 5335,
      "μέρει": 5336,
      "κατορθ": 5337,
      "ἐκέλευσε": 5338,
      "Γά": 5339,
      "##ᾶτε": 5340,
      "##ικοῖς": 5341,
      "ἡμέραις": 5342,
      "φόβον": 5343,
      "Πρω": 5344,
      "##ούμενα": 5345,
      "κατακ": 5346,
      "##στευ": 5347,
      "δεῖξαι": 5348,
      "ἔφασαν": 5349,
      "ἄσ": 5350,
      "##ησί": 5351,
      "στρατηγῶν": 5352,
      "ἀμφοῖν": 5353,
      "ὁρῶντες": 5354,
      "μοί": 5355,
      "ἐφα": 5356,
      "Εὐρι": 5357,
      "ἑξήκοντα": 5358,
      "##τοῦντες": 5359,
      "εὑρεῖν": 5360,
      "##γαθ": 5361,
      "ἐπιγ": 5362,
      "ἀμυν": 5363,
      "Θεμι": 5364,
      "##σχιλίων": 5365,
      "τἄλλα": 5366,
      "τἀναντία": 5367,
      "σκευ": 5368,
      "##ατο": 5369,
      "##σφ": 5370,
      "##νατο": 5371,
      "##θηκεν": 5372,
      "δοκῶ": 5373,
      "βούλει": 5374,
      "πάσῃ": 5375,
      "διατριβ": 5376,
      "ἀρχῇ": 5377,
      "##ήσαντας": 5378,
      "##ραὶ": 5379,
      "νόμοις": 5380,
      "χρηστ": 5381,
      "Σκύ": 5382,
      "γερ": 5383,
      "ἀλα": 5384,
      "τῶνδε": 5385,
      "ποιήσας": 5386,
      "##γετο": 5387,
      "πόλεμος": 5388,
      "ἐνθένδε": 5389,
      "##ψατο": 5390,
      "φωνὴν": 5391,
      "Διονυ": 5392,
      "Κάτων": 5393,
      "##οῦτο": 5394,
      "##ινον": 5395,
      "μέλι": 5396,
      "##σκεν": 5397,
      "ἑτέροις": 5398,
      "ἀδικεῖν": 5399,
      "ὀργῆς": 5400,
      "Κοριν": 5401,
      "ἕω": 5402,
      "καρτερ": 5403,
      "δρόμ": 5404,
      "Λευκ": 5405,
      "ψεύ": 5406,
      "ὅτῳ": 5407,
      "##δάμ": 5408,
      "ἐπει": 5409,
      "διοικ": 5410,
      "ἡμέ": 5411,
      "##ῆναί": 5412,
      "Περικ": 5413,
      "βαρβάρους": 5414,
      "σωτηρίαν": 5415,
      "ἡλικίαν": 5416,
      "##κατε": 5417,
      "##ούμεθα": 5418,
      "τῷδε": 5419,
      "##ομή": 5420,
      "βασί": 5421,
      "ἄγων": 5422,
      "στρατιᾶς": 5423,
      "μείζων": 5424,
      "Φίλιππον": 5425,
      "ὑδ": 5426,
      "##κοις": 5427,
      "ὅλης": 5428,
      "ἀργυρ": 5429,
      "κἀκείν": 5430,
      "βεβαι": 5431,
      "Ξενοφῶν": 5432,
      "διάνοιαν": 5433,
      "Κι": 5434,
      "λελ": 5435,
      "μήν": 5436,
      "ἁλι": 5437,
      "ἔμοι": 5438,
      "##ίβ": 5439,
      "παλ": 5440,
      "περικ": 5441,
      "Λακεδαί": 5442,
      "ἐναντίον": 5443,
      "##νεύ": 5444,
      "γνώμῃ": 5445,
      "ἄριστα": 5446,
      "χειμῶνος": 5447,
      "ἥτις": 5448,
      "##βάλ": 5449,
      "διεσ": 5450,
      "##δωκε": 5451,
      "τετάρ": 5452,
      "ἡσυχίαν": 5453,
      "οἴνου": 5454,
      "##δωκεν": 5455,
      "ἅπαξ": 5456,
      "##χου": 5457,
      "##ώτερος": 5458,
      "##τομ": 5459,
      "φαίν": 5460,
      "τροπ": 5461,
      "##ανθάν": 5462,
      "μελλ": 5463,
      "##ορθ": 5464,
      "##δαμ": 5465,
      "καλόν": 5466,
      "ὑποστ": 5467,
      "βασιλεῖς": 5468,
      "τοιαύτης": 5469,
      "ἀποφ": 5470,
      "πεπον": 5471,
      "τραπέ": 5472,
      "Γότ": 5473,
      "τοῦθʼ": 5474,
      "συκο": 5475,
      "κολα": 5476,
      "κεκτη": 5477,
      "ὀπ": 5478,
      "Ὀλυμπ": 5479,
      "ἕξ": 5480,
      "##λοῖς": 5481,
      "ἀμφότερα": 5482,
      "μιᾷ": 5483,
      "ὑψηλ": 5484,
      "ἀπαλλαγ": 5485,
      "ποικίλ": 5486,
      "Ἐν": 5487,
      "##κται": 5488,
      "ἀνακ": 5489,
      "ἐλευθερίας": 5490,
      "μηκέτι": 5491,
      "ἀτε": 5492,
      "##ρεφ": 5493,
      "δέον": 5494,
      "Τρώ": 5495,
      "χω": 5496,
      "##κεαν": 5497,
      "θεόν": 5498,
      "τιμωρ": 5499,
      "ἱστορεῖ": 5500,
      "ἐξαπα": 5501,
      "νομοθέ": 5502,
      "##σχεν": 5503,
      "##ίωνος": 5504,
      "ἐχώ": 5505,
      "σιγ": 5506,
      "κωμῳ": 5507,
      "ἅπασαν": 5508,
      "##ηθεὶς": 5509,
      "λαλ": 5510,
      "ἀέ": 5511,
      "ἄφ": 5512,
      "ἐδε": 5513,
      "Ἰβη": 5514,
      "##κτος": 5515,
      "##λπι": 5516,
      "##σεὺς": 5517,
      "χρώμενος": 5518,
      "πυκν": 5519,
      "συλλαβ": 5520,
      "τερ": 5521,
      "Ὑρ": 5522,
      "##πῃ": 5523,
      "τιμὴν": 5524,
      "ἐθνῶν": 5525,
      "Ἀντίγον": 5526,
      "ὀφεί": 5527,
      "ἥλιον": 5528,
      "ὀδ": 5529,
      "ἐνόμ": 5530,
      "##λύμπ": 5531,
      "νεανίσκ": 5532,
      "ζῷον": 5533,
      "γέλ": 5534,
      "πολλαπ": 5535,
      "μάχεσθαι": 5536,
      "Πλα": 5537,
      "##ικόν": 5538,
      "κἄ": 5539,
      "##σαμένων": 5540,
      "φυλα": 5541,
      "διέφθ": 5542,
      "##σου": 5543,
      "ἡμι": 5544,
      "##μονι": 5545,
      "ἀκοῦσαι": 5546,
      "κυρι": 5547,
      "ἀγορὰν": 5548,
      "##βεβλη": 5549,
      "Λακ": 5550,
      "ΠΡ": 5551,
      "##νέ": 5552,
      "κακοῦ": 5553,
      "συγγνώ": 5554,
      "##τῆρα": 5555,
      "δυστυχ": 5556,
      "##γόνων": 5557,
      "κύριον": 5558,
      "διαλύ": 5559,
      "βάρβαροι": 5560,
      "Εὐριπίδ": 5561,
      "κτή": 5562,
      "λοχ": 5563,
      "##λλαγ": 5564,
      "εἰώ": 5565,
      "προθύμως": 5566,
      "πλειόνων": 5567,
      "τὼ": 5568,
      "##πους": 5569,
      "##λογον": 5570,
      "παραπλη": 5571,
      "##ύτης": 5572,
      "δίκας": 5573,
      "κόσμου": 5574,
      "πάμ": 5575,
      "σκλη": 5576,
      "##ητος": 5577,
      "##νην": 5578,
      "φασὶν": 5579,
      "Ῥώμῃ": 5580,
      "ἄπο": 5581,
      "##ώθη": 5582,
      "##τούς": 5583,
      "##ειλε": 5584,
      "ὑπομέν": 5585,
      "γεννα": 5586,
      "##λείᾳ": 5587,
      "Ἰουδαί": 5588,
      "κλύ": 5589,
      "##τικῶς": 5590,
      "##ασάμενος": 5591,
      "ἄξια": 5592,
      "δίχα": 5593,
      "ἐζ": 5594,
      "##λοὶ": 5595,
      "λόγοι": 5596,
      "γένει": 5597,
      "##τριος": 5598,
      "Καίσαρα": 5599,
      "Κρά": 5600,
      "Ἑλέν": 5601,
      "##ιε": 5602,
      "ἀνάλ": 5603,
      "##άσσον": 5604,
      "Ταῦ": 5605,
      "Ἱπ": 5606,
      "ἑκάτερον": 5607,
      "ἐποίει": 5608,
      "ἡγεμονίαν": 5609,
      "##ττι": 5610,
      "τινῶν": 5611,
      "##ογέν": 5612,
      "ὑπάρχει": 5613,
      "Μωυσ": 5614,
      "ὁτιοῦν": 5615,
      "ἀποδεί": 5616,
      "##ράτου": 5617,
      "##ρχε": 5618,
      "ἀγαθὰ": 5619,
      "τελευτή": 5620,
      "ἐργα": 5621,
      "Ἀρί": 5622,
      "##σαμεν": 5623,
      "ἐφεξ": 5624,
      "Εὐρώπ": 5625,
      "κείν": 5626,
      "ῥᾷ": 5627,
      "##οῦται": 5628,
      "ἐγκρα": 5629,
      "##ποντες": 5630,
      "γενν": 5631,
      "οἴει": 5632,
      "φαντα": 5633,
      "λοιπὰ": 5634,
      "Μεσσην": 5635,
      "ἐφεξῆς": 5636,
      "μεν": 5637,
      "##σταὶ": 5638,
      "χειρο": 5639,
      "ἀτυχ": 5640,
      "##όρων": 5641,
      "##ῆγε": 5642,
      "φανερὸν": 5643,
      "οὐρανὸν": 5644,
      "ὀνομάζ": 5645,
      "τείχη": 5646,
      "εὔνοιαν": 5647,
      "##ληται": 5648,
      "ἄλλῃ": 5649,
      "χορηγ": 5650,
      "γλα": 5651,
      "χθ": 5652,
      "##καθ": 5653,
      "πατρῴ": 5654,
      "χειρὸς": 5655,
      "Ἀπόλλωνος": 5656,
      "ἐχθρῶν": 5657,
      "ἄγε": 5658,
      "##ῦς": 5659,
      "ἐνίκ": 5660,
      "##έγρα": 5661,
      "##ελά": 5662,
      "##τορος": 5663,
      "ἀντα": 5664,
      "##ίνας": 5665,
      "ἔνι": 5666,
      "ἰδίας": 5667,
      "##στρατο": 5668,
      "γράφει": 5669,
      "Θεμιστο": 5670,
      "ἓξ": 5671,
      "##ήτου": 5672,
      "##έντα": 5673,
      "##μαχον": 5674,
      "##σταλ": 5675,
      "πατρός": 5676,
      "γαστ": 5677,
      "γλῶ": 5678,
      "ῥητορικ": 5679,
      "ψῆ": 5680,
      "##φθαι": 5681,
      "ναῦν": 5682,
      "διαφέρει": 5683,
      "Ταρ": 5684,
      "##τύχ": 5685,
      "##ψι": 5686,
      "##ῆσαν": 5687,
      "##ρίως": 5688,
      "στεφαν": 5689,
      "ὀλιγαρχ": 5690,
      "κόμ": 5691,
      "##άμι": 5692,
      "##τινα": 5693,
      "προστα": 5694,
      "##τουργ": 5695,
      "##δηλον": 5696,
      "##γελλ": 5697,
      "θρ": 5698,
      "##υμα": 5699,
      "##ῖο": 5700,
      "βαθ": 5701,
      "στοιχ": 5702,
      "Κορινθ": 5703,
      "ΕΖ": 5704,
      "γεί": 5705,
      "ὅλων": 5706,
      "##οιτʼ": 5707,
      "##ερε": 5708,
      "τετε": 5709,
      "##άνης": 5710,
      "παραιν": 5711,
      "αὐτοί": 5712,
      "##άγκα": 5713,
      "##κισχιλίους": 5714,
      "οἶδεν": 5715,
      "κρεῖ": 5716,
      "χαλεπὸν": 5717,
      "ΔΕ": 5718,
      "Ἀσίας": 5719,
      "ἥκειν": 5720,
      "πορευ": 5721,
      "##ρησεν": 5722,
      "δόξῃ": 5723,
      "Γορ": 5724,
      "##ατον": 5725,
      "##σκα": 5726,
      "##ώδη": 5727,
      "##ϊκ": 5728,
      "ποδῶν": 5729,
      "εὐνο": 5730,
      "ἐμπει": 5731,
      "συμπο": 5732,
      "γένη": 5733,
      "ὀλίγους": 5734,
      "χερσὶν": 5735,
      "ἐκκλησίαν": 5736,
      "##οκλῆς": 5737,
      "##ρέων": 5738,
      "ἀλκ": 5739,
      "ἔδοξε": 5740,
      "ἱππο": 5741,
      "Σικ": 5742,
      "Σόλων": 5743,
      "##έγνω": 5744,
      "ἔχῃ": 5745,
      "##ημερ": 5746,
      "ἐλπίδα": 5747,
      "πανταχόθεν": 5748,
      "μοχ": 5749,
      "ἕτεροι": 5750,
      "##αρος": 5751,
      "ἐξι": 5752,
      "ἐξη": 5753,
      "πολλαὶ": 5754,
      "##θεται": 5755,
      "##στησε": 5756,
      "ἄλλοτε": 5757,
      "δακρύ": 5758,
      "ἀκον": 5759,
      "αὐλ": 5760,
      "##ρησε": 5761,
      "ψυχῇ": 5762,
      "χαρί": 5763,
      "ἀξιώ": 5764,
      "δειπν": 5765,
      "Ἰταλίας": 5766,
      "ἀη": 5767,
      "τεκμή": 5768,
      "πυνθαν": 5769,
      "##όρευ": 5770,
      "##γειν": 5771,
      "ἐμὴν": 5772,
      "μακα": 5773,
      "##στέλλ": 5774,
      "τοσούτῳ": 5775,
      "κορυφ": 5776,
      "ἐκπε": 5777,
      "αἵματος": 5778,
      "Φοιν": 5779,
      "##ενό": 5780,
      "##σιῶν": 5781,
      "παρι": 5782,
      "ἀνό": 5783,
      "πορεύ": 5784,
      "##τοντες": 5785,
      "##ράς": 5786,
      "ἔχουσαν": 5787,
      "πάθη": 5788,
      "Διονύσου": 5789,
      "Ἄν": 5790,
      "##μάρ": 5791,
      "##θῃ": 5792,
      "##θελ": 5793,
      "##ρατα": 5794,
      "τὰν": 5795,
      "οἴκα": 5796,
      "ὀλίγῳ": 5797,
      "τήνδε": 5798,
      "λανθάν": 5799,
      "##ήμη": 5800,
      "##ανον": 5801,
      "ἀπον": 5802,
      "τεχν": 5803,
      "ὑπολ": 5804,
      "στρατῷ": 5805,
      "βίῳ": 5806,
      "ἀμπ": 5807,
      "ὡμολόγ": 5808,
      "##πρά": 5809,
      "εὐλαβ": 5810,
      "##τάτω": 5811,
      "Ὀλυμπι": 5812,
      "Σαρ": 5813,
      "φρού": 5814,
      "ἧκεν": 5815,
      "ἀπολω": 5816,
      "ἐμπεσ": 5817,
      "πλαν": 5818,
      "Ἀθήνας": 5819,
      "γάμον": 5820,
      "##έειν": 5821,
      "##σβ": 5822,
      "##κοντας": 5823,
      "γέγονε": 5824,
      "Ἀφροδίτης": 5825,
      "Πύ": 5826,
      "##άσατο": 5827,
      "##ειλη": 5828,
      "ἀπολεί": 5829,
      "##ποτʼ": 5830,
      "##όμε": 5831,
      "##νεκα": 5832,
      "ἀμφοτέροις": 5833,
      "##βάλλει": 5834,
      "συμβε": 5835,
      "##θεῖσα": 5836,
      "κυκ": 5837,
      "μοῦν": 5838,
      "ἕτοι": 5839,
      "##άδων": 5840,
      "ἀκρό": 5841,
      "μακρὰν": 5842,
      "ἄστυ": 5843,
      "##όνας": 5844,
      "βοῶν": 5845,
      "διδά": 5846,
      "ἀνδράσιν": 5847,
      "νομοθε": 5848,
      "##αρί": 5849,
      "##ίσασθαι": 5850,
      "##ζόμενον": 5851,
      "##ρατος": 5852,
      "ἐπιτε": 5853,
      "σφισιν": 5854,
      "οἰκει": 5855,
      "##σθέντα": 5856,
      "σύμβ": 5857,
      "ὀργὴν": 5858,
      "ἔμοιγε": 5859,
      "##έλλ": 5860,
      "ἐκά": 5861,
      "Ἀργείων": 5862,
      "##κείμενον": 5863,
      "ΑΛ": 5864,
      "##άων": 5865,
      "χαλεπῶς": 5866,
      "ὁπόσα": 5867,
      "ἑπτα": 5868,
      "Γαλα": 5869,
      "ἀληθέ": 5870,
      "Τρω": 5871,
      "ἔπα": 5872,
      "##γνυ": 5873,
      "ἑτέρῳ": 5874,
      "λεγόμενον": 5875,
      "ζημ": 5876,
      "##ορευ": 5877,
      "##ήκο": 5878,
      "διο": 5879,
      "##στατον": 5880,
      "τοιάδε": 5881,
      "ὄντως": 5882,
      "Φρυγ": 5883,
      "Περσ": 5884,
      "συμμάχους": 5885,
      "νυμ": 5886,
      "##ήσων": 5887,
      "##σκειν": 5888,
      "δοκι": 5889,
      "Ἰνδῶν": 5890,
      "Δα": 5891,
      "##τριον": 5892,
      "##ληπι": 5893,
      "περιέχ": 5894,
      "χειρὶ": 5895,
      "κλή": 5896,
      "μο": 5897,
      "ἄθ": 5898,
      "διπλ": 5899,
      "##σθην": 5900,
      "αἰσχρὸν": 5901,
      "κάλλιστα": 5902,
      "γαμ": 5903,
      "θᾶ": 5904,
      "Ἄρ": 5905,
      "ἔμ": 5906,
      "##έρχεται": 5907,
      "##κοντος": 5908,
      "δύσ": 5909,
      "φαίνεσθαι": 5910,
      "ἐπεχεί": 5911,
      "##ουμένοις": 5912,
      "ὀλίγοι": 5913,
      "Ῥώμης": 5914,
      "Μελ": 5915,
      "φάναι": 5916,
      "ἑτοί": 5917,
      "##ονος": 5918,
      "ἐπιβ": 5919,
      "συνεργ": 5920,
      "σφαγ": 5921,
      "##ίζει": 5922,
      "ἐλευθέρ": 5923,
      "γεγόνα": 5924,
      "χειρῶν": 5925,
      "Χριστοῦ": 5926,
      "παρεῖ": 5927,
      "##κράτης": 5928,
      "ἁμαρτάν": 5929,
      "ἔνε": 5930,
      "##ίει": 5931,
      "ποδ": 5932,
      "παρῆν": 5933,
      "##τρῳ": 5934,
      "πλεῖστοι": 5935,
      "Ἀσκληπι": 5936,
      "Ἀκ": 5937,
      "ἥδι": 5938,
      "##οδος": 5939,
      "##όνοιαν": 5940,
      "στρατοῦ": 5941,
      "##σειεν": 5942,
      "ἔμελλον": 5943,
      "Διονύσιος": 5944,
      "νύμφ": 5945,
      "ἄμ": 5946,
      "##ᾶσιν": 5947,
      "##τεῖς": 5948,
      "##σαμένους": 5949,
      "οἰκον": 5950,
      "καιρῷ": 5951,
      "πανταχοῦ": 5952,
      "πολέμιοι": 5953,
      "Αἰγυπτίων": 5954,
      "Θρᾴ": 5955,
      "##εντι": 5956,
      "ἀγαθοῦ": 5957,
      "στασι": 5958,
      "ἐμαυτὸν": 5959,
      "δειλ": 5960,
      "θέα": 5961,
      "##άδες": 5962,
      "##γεί": 5963,
      "##έρος": 5964,
      "##τερόν": 5965,
      "χωρία": 5966,
      "##ίλιοι": 5967,
      "##πυ": 5968,
      "##μαρχ": 5969,
      "##οῖσιν": 5970,
      "παιδὶ": 5971,
      "Καρχηδονίων": 5972,
      "ἀπρο": 5973,
      "ἡγοῦμαι": 5974,
      "πίστεως": 5975,
      "φανερῶς": 5976,
      "##ισχ": 5977,
      "ἀνο": 5978,
      "##άνει": 5979,
      "##ίνῳ": 5980,
      "φαύλ": 5981,
      "Ἑρμῆς": 5982,
      "χολ": 5983,
      "##έες": 5984,
      "##πλά": 5985,
      "##ύλα": 5986,
      "διαι": 5987,
      "παρασχ": 5988,
      "ἐλέφαν": 5989,
      "συμβεβη": 5990,
      "##έλει": 5991,
      "ἐκείνῃ": 5992,
      "##θεῖναι": 5993,
      "Ἀρτέ": 5994,
      "ἁρμό": 5995,
      "νίκης": 5996,
      "ὑπηρε": 5997,
      "Ἱππο": 5998,
      "##χθεὶς": 5999,
      "##ῇσι": 6000,
      "##εῖοι": 6001,
      "ἐντο": 6002,
      "##λεον": 6003,
      "οἷος": 6004,
      "##όδους": 6005,
      "φεύγον": 6006,
      "θυγατρ": 6007,
      "Ξέρξ": 6008,
      "##στησεν": 6009,
      "##ύντων": 6010,
      "##άμου": 6011,
      "Ἰησοῦς": 6012,
      "τραπέζ": 6013,
      "γίνονται": 6014,
      "κρε": 6015,
      "ἐτί": 6016,
      "ὄγ": 6017,
      "ἀπω": 6018,
      "σκοπεῖν": 6019,
      "ἐλπίδας": 6020,
      "##ψάμενος": 6021,
      "ὑπάρ": 6022,
      "##παύ": 6023,
      "##ύνας": 6024,
      "##σσων": 6025,
      "ἔργου": 6026,
      "ἀσπί": 6027,
      "σπουδῆς": 6028,
      "κρίσιν": 6029,
      "##μένειν": 6030,
      "ἀνθρώπῳ": 6031,
      "ἀγαθὸς": 6032,
      "σοφιστ": 6033,
      "ζητεῖν": 6034,
      "##ύμα": 6035,
      "οἷός": 6036,
      "φεύγειν": 6037,
      "##δὴ": 6038,
      "ἐμφαν": 6039,
      "κατηγο": 6040,
      "##ίστασθαι": 6041,
      "ἄνωθεν": 6042,
      "##ρᾷ": 6043,
      "##κτη": 6044,
      "##ουσίας": 6045,
      "εὐθέως": 6046,
      "ἐμῆς": 6047,
      "τἀληθ": 6048,
      "##ρίζειν": 6049,
      "ταύταις": 6050,
      "Ἀντίο": 6051,
      "##δοις": 6052,
      "διεν": 6053,
      "ἔχομεν": 6054,
      "##μάτιον": 6055,
      "λοιδορ": 6056,
      "ἀνάγκην": 6057,
      "##ήθειαν": 6058,
      "τηλικα": 6059,
      "ὀπίσω": 6060,
      "μολ": 6061,
      "##τρας": 6062,
      "##χη": 6063,
      "##τουσιν": 6064,
      "##τικὴ": 6065,
      "βουλὴν": 6066,
      "ἄρχοντος": 6067,
      "Τιμο": 6068,
      "θυσίας": 6069,
      "Ζεῦ": 6070,
      "ὑστερα": 6071,
      "##ταξ": 6072,
      "##όνει": 6073,
      "ἀνθ": 6074,
      "δόξει": 6075,
      "μεγάλης": 6076,
      "##άνδρου": 6077,
      "τέκνων": 6078,
      "Σκιπίων": 6079,
      "ὄφρα": 6080,
      "##άσαντες": 6081,
      "##έργ": 6082,
      "μετά": 6083,
      "χρόνους": 6084,
      "καιρὸς": 6085,
      "μειρά": 6086,
      "φοβη": 6087,
      "ὄπι": 6088,
      "##δίᾳ": 6089,
      "ἡνίκα": 6090,
      "##δεῖν": 6091,
      "##θαι": 6092,
      "ἀπολιπ": 6093,
      "##τάτοις": 6094,
      "προσελθ": 6095,
      "ἀνδρι": 6096,
      "Ὑρκαν": 6097,
      "βορ": 6098,
      "ἔτʼ": 6099,
      "τολ": 6100,
      "ἐκπο": 6101,
      "συνοικ": 6102,
      "##τάτη": 6103,
      "πέπ": 6104,
      "ἡγούμενος": 6105,
      "φρονεῖν": 6106,
      "εἴρηκεν": 6107,
      "ἀνδράσι": 6108,
      "##ραις": 6109,
      "ἐναντι": 6110,
      "##θεσαν": 6111,
      "##διδόναι": 6112,
      "καλεῖν": 6113,
      "ἄγαν": 6114,
      "ἡγεμονίας": 6115,
      "πάσχειν": 6116,
      "Πύρ": 6117,
      "##οιμι": 6118,
      "##έντων": 6119,
      "##υνε": 6120,
      "κατέχ": 6121,
      "##μονας": 6122,
      "καταβ": 6123,
      "στρατείας": 6124,
      "ἀδελφὸς": 6125,
      "εἰκόνα": 6126,
      "ἱππέας": 6127,
      "μείζω": 6128,
      "Καίσαρι": 6129,
      "δουλεύ": 6130,
      "ὀκτὼ": 6131,
      "ὀγδο": 6132,
      "##έσθω": 6133,
      "##όνν": 6134,
      "##δεκ": 6135,
      "##άλου": 6136,
      "αἰν": 6137,
      "ἐποίησαν": 6138,
      "σημεῖα": 6139,
      "Καλ": 6140,
      "##λειαν": 6141,
      "##ήσουσιν": 6142,
      "ἀμφότεροι": 6143,
      "παιδι": 6144,
      "Πόν": 6145,
      "Φαρ": 6146,
      "τηρ": 6147,
      "##ξεσθαι": 6148,
      "##ώρων": 6149,
      "ἐπιμέλ": 6150,
      "ἐξή": 6151,
      "##μοσύν": 6152,
      "ἀναπ": 6153,
      "κατεσκε": 6154,
      "αἴσθη": 6155,
      "Ἡρακλε": 6156,
      "ὠφε": 6157,
      "##μήν": 6158,
      "πατήρ": 6159,
      "προέ": 6160,
      "θεα": 6161,
      "θῆ": 6162,
      "##τροφ": 6163,
      "αὐξ": 6164,
      "##τησιν": 6165,
      "##ράφ": 6166,
      "ἀληθὲς": 6167,
      "τροφὴν": 6168,
      "Ἑβρα": 6169,
      "Ἕκτο": 6170,
      "τεύ": 6171,
      "ἄλλαι": 6172,
      "ἐγεγ": 6173,
      "ἐγίνετο": 6174,
      "##άμεθα": 6175,
      "##στάσεως": 6176,
      "Θηβαίων": 6177,
      "ἐρέ": 6178,
      "ὥραν": 6179,
      "##μίας": 6180,
      "##χοντο": 6181,
      "συγκατα": 6182,
      "##βαλεν": 6183,
      "τοσαύτην": 6184,
      "χερσὶ": 6185,
      "φαρμά": 6186,
      "μῦθον": 6187,
      "ὀλο": 6188,
      "##θείς": 6189,
      "##βην": 6190,
      "ἐπερ": 6191,
      "##στὴς": 6192,
      "##τουσι": 6193,
      "ἀμεί": 6194,
      "τριήρεις": 6195,
      "ἄρχοντα": 6196,
      "κοῦ": 6197,
      "μάλ": 6198,
      "##τιδος": 6199,
      "##είην": 6200,
      "##θεσι": 6201,
      "ὀλίγου": 6202,
      "ἰσχύ": 6203,
      "βασιλεύς": 6204,
      "μεγέθει": 6205,
      "##οπο": 6206,
      "ποῖ": 6207,
      "##ήλυ": 6208,
      "νομί": 6209,
      "λεγομένων": 6210,
      "νομίζειν": 6211,
      "φωνῇ": 6212,
      "##φευγ": 6213,
      "τέκνον": 6214,
      "φοι": 6215,
      "ἤγαγ": 6216,
      "Ὀλύμπ": 6217,
      "##σάμενοι": 6218,
      "##ωσε": 6219,
      "##θας": 6220,
      "μεση": 6221,
      "ἐπιβουλεύ": 6222,
      "πλεῖον": 6223,
      "λεπτ": 6224,
      "στρατοπε": 6225,
      "ὕψος": 6226,
      "μεσημβ": 6227,
      "ἱκέ": 6228,
      "##άκων": 6229,
      "ἀφρο": 6230,
      "##εύειν": 6231,
      "##βουλος": 6232,
      "ἔδωκε": 6233,
      "ὅτου": 6234,
      "##τὴ": 6235,
      "##χαρ": 6236,
      "ἐνίο": 6237,
      "##πλάγ": 6238,
      "μόνῳ": 6239,
      "σπέρ": 6240,
      "ναύ": 6241,
      "##ῆγεν": 6242,
      "##τιά": 6243,
      "##λιτῶν": 6244,
      "πλοῦτον": 6245,
      "παρανομ": 6246,
      "Σοφ": 6247,
      "##ήμερον": 6248,
      "##ῆα": 6249,
      "ἐκρά": 6250,
      "συνά": 6251,
      "##δοσαν": 6252,
      "φιλον": 6253,
      "Διός": 6254,
      "ἁπάσης": 6255,
      "ἐναντίων": 6256,
      "τυγχάνει": 6257,
      "ἀφίκετο": 6258,
      "Σύλλ": 6259,
      "δρα": 6260,
      "ἀνεῖ": 6261,
      "πολλῇ": 6262,
      "λέγομεν": 6263,
      "παραλαβὼν": 6264,
      "ἵππου": 6265,
      "Κε": 6266,
      "κρο": 6267,
      "νιν": 6268,
      "ἔφυγ": 6269,
      "Εὐρυ": 6270,
      "Ἀλκ": 6271,
      "τῳ": 6272,
      "Ἀδ": 6273,
      "##ΡΜ": 6274,
      "##εῖαι": 6275,
      "χώρᾳ": 6276,
      "ἐποιεῖτο": 6277,
      "ὠνόμα": 6278,
      "ῥώ": 6279,
      "##κού": 6280,
      "##μεί": 6281,
      "##ῖαν": 6282,
      "##θημα": 6283,
      "##δειαν": 6284,
      "κοινὰ": 6285,
      "οὐρανοῦ": 6286,
      "##δοξον": 6287,
      "##ιπ": 6288,
      "##ίνοντο": 6289,
      "ἀπολέ": 6290,
      "αἱρε": 6291,
      "πράγμασιν": 6292,
      "θαυμαστ": 6293,
      "Ἀρτέμι": 6294,
      "Σέ": 6295,
      "δέμας": 6296,
      "ἀκρα": 6297,
      "κατεῖ": 6298,
      "Ἀλεξαν": 6299,
      "νύκτωρ": 6300,
      "δημό": 6301,
      "Μαν": 6302,
      "ὅδε": 6303,
      "##τᾶν": 6304,
      "##τίοις": 6305,
      "##οίη": 6306,
      "##τικῷ": 6307,
      "ψυχὴ": 6308,
      "##ύμων": 6309,
      "Πέρσαι": 6310,
      "ἀθάν": 6311,
      "##ουσίαν": 6312,
      "εἴς": 6313,
      "##τρων": 6314,
      "ἡγεῖσθαι": 6315,
      "Ἀριστό": 6316,
      "κάλλιστον": 6317,
      "φωνῆς": 6318,
      "ΠΡΩ": 6319,
      "##στοις": 6320,
      "##ῆγον": 6321,
      "##έντος": 6322,
      "##ικὰ": 6323,
      "##μνων": 6324,
      "ἔρωτα": 6325,
      "Βαβυλῶν": 6326,
      "σοί": 6327,
      "##ωσαν": 6328,
      "##ζεται": 6329,
      "##καῖς": 6330,
      "##ππῳ": 6331,
      "γένεσιν": 6332,
      "πρώτη": 6333,
      "##στρατος": 6334,
      "ἐλευθερίαν": 6335,
      "βασίλει": 6336,
      "κρυ": 6337,
      "ἀοι": 6338,
      "##ησα": 6339,
      "##άριον": 6340,
      "##ήθησαν": 6341,
      "προὔ": 6342,
      "μέτρον": 6343,
      "τριγ": 6344,
      "##ήρῳ": 6345,
      "##ιζόμενος": 6346,
      "ποιητὴς": 6347,
      "κομιδ": 6348,
      "δεικν": 6349,
      "ἄδικ": 6350,
      "ἐρε": 6351,
      "##λθεῖν": 6352,
      "##θισ": 6353,
      "##ώματα": 6354,
      "πλείστους": 6355,
      "πλησι": 6356,
      "ὀλίγα": 6357,
      "δημοσίᾳ": 6358,
      "Κρον": 6359,
      "##πῳ": 6360,
      "##σμη": 6361,
      "##φαι": 6362,
      "ἐπων": 6363,
      "ὑπακ": 6364,
      "##σαντι": 6365,
      "πολυπ": 6366,
      "##ίζοντες": 6367,
      "##στηκεν": 6368,
      "ἡγεῖτο": 6369,
      "καθεύ": 6370,
      "κυρίου": 6371,
      "##ήγαγεν": 6372,
      "ἐμῶν": 6373,
      "μετρίως": 6374,
      "περιβό": 6375,
      "ἑαυτόν": 6376,
      "μαρτύ": 6377,
      "κτη": 6378,
      "##ρυχ": 6379,
      "##ιμον": 6380,
      "ταλ": 6381,
      "##λαυ": 6382,
      "##αλον": 6383,
      "##ρησαν": 6384,
      "χρόνοις": 6385,
      "νέον": 6386,
      "ἐγγύ": 6387,
      "κελεύει": 6388,
      "ἐκέλευε": 6389,
      "Δω": 6390,
      "νου": 6391,
      "Ἀλλ": 6392,
      "##άσι": 6393,
      "##κεσαν": 6394,
      "χρώμενοι": 6395,
      "νεκρῶν": 6396,
      "ἄτοπον": 6397,
      "ἐρή": 6398,
      "##κώ": 6399,
      "##ότι": 6400,
      "ἀνω": 6401,
      "αὐτά": 6402,
      "εἴδη": 6403,
      "##τελῆ": 6404,
      "##μήρου": 6405,
      "ταὐτὸ": 6406,
      "##φόρ": 6407,
      "##ραβ": 6408,
      "λέγοντα": 6409,
      "ἐνίοτε": 6410,
      "ἐκε": 6411,
      "##αίως": 6412,
      "ἀγάλ": 6413,
      "##ποντα": 6414,
      "οἴκοι": 6415,
      "Ἀρμεν": 6416,
      "Πη": 6417,
      "λου": 6418,
      "##ωμένων": 6419,
      "##τροπ": 6420,
      "πεποί": 6421,
      "μηδεὶς": 6422,
      "##νῃ": 6423,
      "##φην": 6424,
      "##τίῳ": 6425,
      "##θεος": 6426,
      "πάτερ": 6427,
      "ἀσύμ": 6428,
      "##ρίζεσθαι": 6429,
      "Ὁμήρου": 6430,
      "##μησεν": 6431,
      "##άντας": 6432,
      "##μονες": 6433,
      "τινʼ": 6434,
      "περιτ": 6435,
      "ἀφι": 6436,
      "##ίζεται": 6437,
      "ἀληθιν": 6438,
      "ἐναντία": 6439,
      "Κυρ": 6440,
      "δέρ": 6441,
      "ηὐ": 6442,
      "##ύγ": 6443,
      "##ῦσιν": 6444,
      "##ίωνα": 6445,
      "γράφειν": 6446,
      "χρήσιμον": 6447,
      "μάτην": 6448,
      "πτε": 6449,
      "Ἀμα": 6450,
      "μοιχ": 6451,
      "τέως": 6452,
      "θηρίων": 6453,
      "##τατα": 6454,
      "μελέ": 6455,
      "ἐπιδεί": 6456,
      "##βαλόντες": 6457,
      "πρώτῳ": 6458,
      "πνεύματος": 6459,
      "κυρ": 6460,
      "##τόμ": 6461,
      "##φί": 6462,
      "ἐπεσ": 6463,
      "λυσι": 6464,
      "κεραυν": 6465,
      "##ουσῶν": 6466,
      "##ικῶς": 6467,
      "ἐμπί": 6468,
      "πέρας": 6469,
      "ὀνεί": 6470,
      "μεγάλας": 6471,
      "παράπαν": 6472,
      "ἐνιαυτὸν": 6473,
      "ἐβούλετο": 6474,
      "Θου": 6475,
      "γέρων": 6476,
      "ἀβ": 6477,
      "πασῶν": 6478,
      "ἀποδε": 6479,
      "εὐαγ": 6480,
      "καταν": 6481,
      "αἰσθη": 6482,
      "παρεκάλ": 6483,
      "Πει": 6484,
      "ἄγον": 6485,
      "θεούς": 6486,
      "##ύνων": 6487,
      "ἄρχοντας": 6488,
      "οὐδεμι": 6489,
      "νέων": 6490,
      "ἐντυχ": 6491,
      "##ληλυθ": 6492,
      "πότ": 6493,
      "##υρίων": 6494,
      "βουλόμενοι": 6495,
      "##ππα": 6496,
      "##δείας": 6497,
      "ἀπιστ": 6498,
      "ἀπαντ": 6499,
      "προφη": 6500,
      "##πεμπ": 6501,
      "λέγεσθαι": 6502,
      "δοκεῖς": 6503,
      "ἠξίουν": 6504,
      "Ζεύς": 6505,
      "Σαβ": 6506,
      "γάλα": 6507,
      "##άνου": 6508,
      "πολλαχ": 6509,
      "τοῖσιν": 6510,
      "διαλέγ": 6511,
      "συνεχῶς": 6512,
      "φυλακὴν": 6513,
      "ἐχρῆν": 6514,
      "σκά": 6515,
      "##ξέ": 6516,
      "##ίνε": 6517,
      "εἴσω": 6518,
      "τάχος": 6519,
      "##ίσταται": 6520,
      "ἀφικν": 6521,
      "βάλλ": 6522,
      "ῥυθ": 6523,
      "##ῦσι": 6524,
      "##ειργ": 6525,
      "τεί": 6526,
      "παρή": 6527,
      "ἐπιστα": 6528,
      "εἴα": 6529,
      "##φέρει": 6530,
      "κατέλι": 6531,
      "ἀξί": 6532,
      "δίαι": 6533,
      "αἰχμ": 6534,
      "Θεσσα": 6535,
      "ῥο": 6536,
      "εὐγεν": 6537,
      "##ησάντων": 6538,
      "κατεσκευ": 6539,
      "λεπ": 6540,
      "##μαχοι": 6541,
      "τίνες": 6542,
      "πέρ": 6543,
      "##ότων": 6544,
      "##ῖνα": 6545,
      "##τινες": 6546,
      "ἐκπεσ": 6547,
      "##λαον": 6548,
      "Σικελίας": 6549,
      "οὑτο": 6550,
      "ΑΔ": 6551,
      "ἅλ": 6552,
      "ἔσονται": 6553,
      "##ῶσα": 6554,
      "οὔκουν": 6555,
      "##αινον": 6556,
      "δόξα": 6557,
      "δηλοῖ": 6558,
      "##δόντας": 6559,
      "βουλῇ": 6560,
      "μόνοι": 6561,
      "ἐπειδή": 6562,
      "μεγίστην": 6563,
      "Ἱεροσολ": 6564,
      "Τιβ": 6565,
      "ὁλ": 6566,
      "##ΩΝ": 6567,
      "πᾶσαι": 6568,
      "οἶσθα": 6569,
      "ἄγγελ": 6570,
      "δοξ": 6571,
      "Κικ": 6572,
      "ἠναγ": 6573,
      "ὀκτα": 6574,
      "ποτέ": 6575,
      "οὗτός": 6576,
      "##όχου": 6577,
      "μισθὸν": 6578,
      "τυραννί": 6579,
      "τοιαύτη": 6580,
      "Πελοποννη": 6581,
      "Κρόν": 6582,
      "πάγ": 6583,
      "##υρον": 6584,
      "##πται": 6585,
      "##μὶ": 6586,
      "##ονα": 6587,
      "##στῇ": 6588,
      "ποθ": 6589,
      "##ριμ": 6590,
      "ἐξαί": 6591,
      "πολλοί": 6592,
      "εὐδοκι": 6593,
      "##άττειν": 6594,
      "##θρω": 6595,
      "##άζοντες": 6596,
      "Θεοῦ": 6597,
      "##φορον": 6598,
      "ἔκτειν": 6599,
      "καθη": 6600,
      "προβ": 6601,
      "ποιοῦσιν": 6602,
      "στρατε": 6603,
      "καλεῖ": 6604,
      "οἰκεῖον": 6605,
      "μέρους": 6606,
      "##σθέντων": 6607,
      "ποταμὸς": 6608,
      "στρατιώταις": 6609,
      "τοσούτων": 6610,
      "γαῖαν": 6611,
      "θάρ": 6612,
      "παρόντος": 6613,
      "##τησαν": 6614,
      "##τέρες": 6615,
      "ὑπερβολὴν": 6616,
      "νομίζοντες": 6617,
      "ΕΡΜ": 6618,
      "Κρα": 6619,
      "μῆν": 6620,
      "παραγγ": 6621,
      "τοιαύτας": 6622,
      "κον": 6623,
      "τυφ": 6624,
      "Ἀβ": 6625,
      "ὄρε": 6626,
      "##ωχ": 6627,
      "##λέκ": 6628,
      "διαλε": 6629,
      "ἕνεκεν": 6630,
      "Πολύ": 6631,
      "μνήμην": 6632,
      "χῶ": 6633,
      "ἤθελ": 6634,
      "##υς": 6635,
      "παρει": 6636,
      "παραι": 6637,
      "ἐγκατα": 6638,
      "οἰκι": 6639,
      "μήκει": 6640,
      "##μηγ": 6641,
      "Διογέν": 6642,
      "##σῃς": 6643,
      "##ύλῳ": 6644,
      "Ἀγησί": 6645,
      "ἑκὼν": 6646,
      "βαρβάροις": 6647,
      "Ἀλεξάνδρῳ": 6648,
      "κληρον": 6649,
      "ἱππε": 6650,
      "κέρας": 6651,
      "ἔπι": 6652,
      "ὄφ": 6653,
      "παγ": 6654,
      "πομπ": 6655,
      "##λαβον": 6656,
      "ἡττη": 6657,
      "Λακων": 6658,
      "Κρή": 6659,
      "Λοκ": 6660,
      "ὁκό": 6661,
      "##λλά": 6662,
      "αὐλη": 6663,
      "##στως": 6664,
      "παρόντα": 6665,
      "φυσικ": 6666,
      "ἀρετῇ": 6667,
      "τίνι": 6668,
      "ὕβριν": 6669,
      "Τρι": 6670,
      "##κὸς": 6671,
      "##σπα": 6672,
      "##φέλ": 6673,
      "##ζομένων": 6674,
      "##κατέ": 6675,
      "##υρος": 6676,
      "τέταρ": 6677,
      "##σθένης": 6678,
      "ἀπεκρί": 6679,
      "σοφίας": 6680,
      "##ότατος": 6681,
      "θύρ": 6682,
      "##ωμαι": 6683,
      "παχ": 6684,
      "ἀμε": 6685,
      "χεῖρον": 6686,
      "ἔμελλεν": 6687,
      "##βης": 6688,
      "ἀναχωρ": 6689,
      "##εργέ": 6690,
      "εἰδότες": 6691,
      "##τοτε": 6692,
      "ποιησάμενος": 6693,
      "##θροι": 6694,
      "##θέσεως": 6695,
      "ὀνει": 6696,
      "εἰρημένων": 6697,
      "θαλάττῃ": 6698,
      "Πελοπόνν": 6699,
      "τύπ": 6700,
      "ἀδυν": 6701,
      "ἐψηφί": 6702,
      "ἑστι": 6703,
      "τοιόνδε": 6704,
      "συμφέρον": 6705,
      "μυριάδας": 6706,
      "Πειρ": 6707,
      "ἄκου": 6708,
      "##νά": 6709,
      "##ίς": 6710,
      "ἐποιήσαντο": 6711,
      "δόμ": 6712,
      "ἄπι": 6713,
      "Ἀσσ": 6714,
      "##τατος": 6715,
      "##εῖσθε": 6716,
      "χρείας": 6717,
      "##σκει": 6718,
      "φιλοσοφίας": 6719,
      "γραμμάτων": 6720,
      "μηδεμίαν": 6721,
      "βίος": 6722,
      "κτῆ": 6723,
      "##ρὰς": 6724,
      "##σην": 6725,
      "##χόμενον": 6726,
      "χρῶνται": 6727,
      "συγκ": 6728,
      "σπουδα": 6729,
      "##στέρα": 6730,
      "σπουδῇ": 6731,
      "ἐθα": 6732,
      "ὅσαι": 6733,
      "##νῄ": 6734,
      "##μέ": 6735,
      "##ῄεσαν": 6736,
      "##ανται": 6737,
      "##στῳ": 6738,
      "πέλαγ": 6739,
      "##θεια": 6740,
      "διδασκ": 6741,
      "Ἀντώνιος": 6742,
      "ἀδίκως": 6743,
      "σῖτον": 6744,
      "Πυ": 6745,
      "δαν": 6746,
      "Ὀρ": 6747,
      "##πάτ": 6748,
      "ἄλλαις": 6749,
      "##ομένῃ": 6750,
      "##διοι": 6751,
      "ἄρχων": 6752,
      "##στήρια": 6753,
      "ἄξιος": 6754,
      "##βούλευ": 6755,
      "ἐκκλησίας": 6756,
      "μάρτυρας": 6757,
      "σάρ": 6758,
      "ὅρα": 6759,
      "##χθησαν": 6760,
      "##ζυγ": 6761,
      "##τέων": 6762,
      "##ήσασα": 6763,
      "τιμὰς": 6764,
      "δῆτα": 6765,
      "πολίταις": 6766,
      "ἰχθύων": 6767,
      "την": 6768,
      "##σπέ": 6769,
      "##ώδης": 6770,
      "ἀπολ": 6771,
      "προσκυν": 6772,
      "Βελισά": 6773,
      "οἰκονομ": 6774,
      "γρα": 6775,
      "δικ": 6776,
      "##ούργ": 6777,
      "##έλων": 6778,
      "##ύνει": 6779,
      "πόλεσιν": 6780,
      "Ἀθηνᾶς": 6781,
      "##χο": 6782,
      "##άσσειν": 6783,
      "τόδʼ": 6784,
      "πρᾶξιν": 6785,
      "Πλάτωνος": 6786,
      "##γράφ": 6787,
      "ἔλαβε": 6788,
      "τελευταῖον": 6789,
      "Ἡρά": 6790,
      "##άτηρ": 6791,
      "##βαινε": 6792,
      "##ίνω": 6793,
      "δικαστη": 6794,
      "ἔλαβεν": 6795,
      "##τικοῖς": 6796,
      "σπονδ": 6797,
      "πέλαγος": 6798,
      "γλώ": 6799,
      "ἆρα": 6800,
      "##ξων": 6801,
      "οὐθὲν": 6802,
      "##λεῦσαι": 6803,
      "##λαὶ": 6804,
      "γενομένην": 6805,
      "μεγάλου": 6806,
      "ὕλην": 6807,
      "##τέ": 6808,
      "##οὐ": 6809,
      "##ίδι": 6810,
      "##ξομαι": 6811,
      "##τορ": 6812,
      "παρόντι": 6813,
      "ἐλάχ": 6814,
      "οἰκείων": 6815,
      "##άρχου": 6816,
      "θυγάτηρ": 6817,
      "οὐδέποτε": 6818,
      "τράπεζ": 6819,
      "ξίφος": 6820,
      "Δανα": 6821,
      "Χρι": 6822,
      "ὕλης": 6823,
      "Ῥό": 6824,
      "##μὰς": 6825,
      "##ορᾶν": 6826,
      "παραμ": 6827,
      "##βασιν": 6828,
      "##ήσειε": 6829,
      "ξυνε": 6830,
      "κἀκεῖ": 6831,
      "ἔσχον": 6832,
      "μέλλοντα": 6833,
      "τῆσδε": 6834,
      "γαί": 6835,
      "##παι": 6836,
      "##χό": 6837,
      "##ουσί": 6838,
      "##θησ": 6839,
      "##θέμενοι": 6840,
      "ἐπαινέ": 6841,
      "Ἡρακλῆς": 6842,
      "μοχθη": 6843,
      "##κόμ": 6844,
      "ὑπον": 6845,
      "ἀποδοῦναι": 6846,
      "τοιγ": 6847,
      "ἱερόν": 6848,
      "Πέρσας": 6849,
      "ἔτυχε": 6850,
      "γίγνονται": 6851,
      "σῆς": 6852,
      "σέβ": 6853,
      "##ζοντες": 6854,
      "ταφ": 6855,
      "ἐξαν": 6856,
      "##θέντι": 6857,
      "στρατιῶται": 6858,
      "ἱστορίας": 6859,
      "##πτεσθαι": 6860,
      "κρείττον": 6861,
      "ἔτυχεν": 6862,
      "Πρι": 6863,
      "σὴν": 6864,
      "ποιούμενος": 6865,
      "σφο": 6866,
      "##ωρίων": 6867,
      "γυναικὶ": 6868,
      "πυρὶ": 6869,
      "χιλίους": 6870,
      "##μπον": 6871,
      "##στὶ": 6872,
      "##ίνοις": 6873,
      "##νεται": 6874,
      "Ἡρακλ": 6875,
      "χρυσίον": 6876,
      "Θέ": 6877,
      "ῥό": 6878,
      "##ζόντων": 6879,
      "##στεύ": 6880,
      "καλεῖσθαι": 6881,
      "στόματος": 6882,
      "Ἀντωνίου": 6883,
      "Ἀγαμέμνον": 6884,
      "ΜΕ": 6885,
      "ξυ": 6886,
      "ᾤετο": 6887,
      "##σῳ": 6888,
      "##ΐου": 6889,
      "ποῖον": 6890,
      "παρακε": 6891,
      "##θεον": 6892,
      "ἐμπό": 6893,
      "ἀσφάλ": 6894,
      "χαρι": 6895,
      "αἴτιος": 6896,
      "ἄναξ": 6897,
      "Κικέρων": 6898,
      "φῦ": 6899,
      "ἠρ": 6900,
      "ἦθος": 6901,
      "##υον": 6902,
      "##πλέ": 6903,
      "##νασθαι": 6904,
      "νεὼς": 6905,
      "ἀριθμὸς": 6906,
      "ἐνα": 6907,
      "ἐμβ": 6908,
      "καθέ": 6909,
      "κρατεῖν": 6910,
      "χρυσοῦ": 6911,
      "γιγνόμενον": 6912,
      "προφή": 6913,
      "φιλανθρωπ": 6914,
      "Δημήτριος": 6915,
      "Κρι": 6916,
      "Πι": 6917,
      "γύναι": 6918,
      "##εῖσαι": 6919,
      "##ποί": 6920,
      "προσέχ": 6921,
      "προσποι": 6922,
      "αἰγ": 6923,
      "νομίζων": 6924,
      "Συρακ": 6925,
      "Ἡρακλέα": 6926,
      "Σικυ": 6927,
      "Ἔρω": 6928,
      "ἧκον": 6929,
      "ῥʼ": 6930,
      "##όνῳ": 6931,
      "ὑπισχ": 6932,
      "##στατα": 6933,
      "βουλὴ": 6934,
      "μεγαλοπ": 6935,
      "προγόνων": 6936,
      "οὐδείς": 6937,
      "μηδέν": 6938,
      "##ώνου": 6939,
      "##ίγνετο": 6940,
      "##τῆρος": 6941,
      "Δημη": 6942,
      "φυγὴν": 6943,
      "ἔλαβον": 6944,
      "##ήγαγε": 6945,
      "πυθόμενος": 6946,
      "ἡν": 6947,
      "ὥρας": 6948,
      "##ΙΑ": 6949,
      "ἐκαλ": 6950,
      "ὅπῃ": 6951,
      "ἀμφοτέρους": 6952,
      "θάνατος": 6953,
      "ἀσφαλῶς": 6954,
      "λαι": 6955,
      "φημ": 6956,
      "##φοι": 6957,
      "##χι": 6958,
      "πόνων": 6959,
      "φρεν": 6960,
      "ἱστ": 6961,
      "Ἴων": 6962,
      "##μεῖν": 6963,
      "##οῦτος": 6964,
      "ἐφε": 6965,
      "ἀνδρός": 6966,
      "λεγόμενα": 6967,
      "γέγραπται": 6968,
      "##δεῖξαι": 6969,
      "Φοινίκ": 6970,
      "Ζην": 6971,
      "φρε": 6972,
      "##σους": 6973,
      "εἶθʼ": 6974,
      "σταθ": 6975,
      "παλαιὸν": 6976,
      "θεραπε": 6977,
      "θεραπεύ": 6978,
      "στέφανον": 6979,
      "φάρμακον": 6980,
      "Ἀγαθ": 6981,
      "γεγονὼς": 6982,
      "κόσμῳ": 6983,
      "ἀρέ": 6984,
      "##τραπ": 6985,
      "ἀπειλ": 6986,
      "##ορῶν": 6987,
      "##σχη": 6988,
      "δέος": 6989,
      "##οκρά": 6990,
      "##κειμένων": 6991,
      "##στήκει": 6992,
      "τεττα": 6993,
      "συμμαχίαν": 6994,
      "παντάπασι": 6995,
      "ἠνάγκα": 6996,
      "γέλω": 6997,
      "βέβ": 6998,
      "μαλ": 6999,
      "Ὑπερ": 7000,
      "##ττόν": 7001,
      "##ομαχ": 7002,
      "ἀποτε": 7003,
      "Ἰησοῦ": 7004,
      "##δεικνύ": 7005,
      "κατεσκεύα": 7006,
      "##θο": 7007,
      "ἐπρά": 7008,
      "##ικος": 7009,
      "πρώτους": 7010,
      "τοιούτῳ": 7011,
      "##τάτου": 7012,
      "παντοδαπ": 7013,
      "ἐννέα": 7014,
      "μοῖραν": 7015,
      "Θρασ": 7016,
      "Ἄλ": 7017,
      "ὀλέ": 7018,
      "##ώτων": 7019,
      "##σιππος": 7020,
      "παρί": 7021,
      "##ρίον": 7022,
      "##σχετο": 7023,
      "##ισσ": 7024,
      "##ισεν": 7025,
      "μαθὼν": 7026,
      "θύρας": 7027,
      "ἡδὺ": 7028,
      "προσηγο": 7029,
      "ἐσθῆτα": 7030,
      "Πελοπόννησον": 7031,
      "Πειραι": 7032,
      "ἀμαθ": 7033,
      "##μαῖς": 7034,
      "##υνον": 7035,
      "##ργον": 7036,
      "##κοὺς": 7037,
      "ἀνατο": 7038,
      "κόλα": 7039,
      "τἀν": 7040,
      "ἀναγκαίων": 7041,
      "Λιβύην": 7042,
      "ὄρη": 7043,
      "##τυπ": 7044,
      "μεγάλη": 7045,
      "ἀκούσαντες": 7046,
      "ἐσθί": 7047,
      "##ναν": 7048,
      "##νοι": 7049,
      "##φθη": 7050,
      "διή": 7051,
      "εἰπέ": 7052,
      "##λισ": 7053,
      "ποιήσ": 7054,
      "τινά": 7055,
      "προσπεσ": 7056,
      "##ρέθη": 7057,
      "##ίστην": 7058,
      "Σερ": 7059,
      "δοὺς": 7060,
      "συσ": 7061,
      "ὄφελ": 7062,
      "ὅλου": 7063,
      "##ησας": 7064,
      "μάλιστʼ": 7065,
      "ἀδελφῶν": 7066,
      "ἐξετ": 7067,
      "νομίζω": 7068,
      "Ἀρχέ": 7069,
      "μεγίστων": 7070,
      "ὦσιν": 7071,
      "##γες": 7072,
      "κεκο": 7073,
      "##ίζετο": 7074,
      "##μοιο": 7075,
      "##ήσετε": 7076,
      "δυνατόν": 7077,
      "ἐρῶ": 7078,
      "κινδύνων": 7079,
      "οἴκαδε": 7080,
      "##εναντί": 7081,
      "ἐπή": 7082,
      "εἰσί": 7083,
      "##αίῳ": 7084,
      "καταλεί": 7085,
      "λιπ": 7086,
      "οἵτινες": 7087,
      "τόποις": 7088,
      "ἀγορᾶς": 7089,
      "κρεῖττον": 7090,
      "##ψις": 7091,
      "##ζετο": 7092,
      "εἰρή": 7093,
      "ἀπερ": 7094,
      "##άζοντο": 7095,
      "##σκων": 7096,
      "δυνάμενος": 7097,
      "##εγέν": 7098,
      "Αἰθι": 7099,
      "οἴονται": 7100,
      "τελευτὴν": 7101,
      "##φυλ": 7102,
      "ἵπποι": 7103,
      "σπεί": 7104,
      "##υσαν": 7105,
      "##χονται": 7106,
      "##ῆτε": 7107,
      "χρῆ": 7108,
      "εὐμεν": 7109,
      "##τήρια": 7110,
      "φθέγ": 7111,
      "πράξεων": 7112,
      "μέλαν": 7113,
      "παρέχειν": 7114,
      "κακοῖς": 7115,
      "ἑταίρων": 7116,
      "ἐφαίνετο": 7117,
      "ξύμ": 7118,
      "ἕρ": 7119,
      "ἧσσον": 7120,
      "##σπο": 7121,
      "ἀπόρ": 7122,
      "ἀφεί": 7123,
      "πεποίηται": 7124,
      "χρήσασθαι": 7125,
      "δεκ": 7126,
      "ἱεροῦ": 7127,
      "κοινῶν": 7128,
      "Πελοποννήσ": 7129,
      "εἴτʼ": 7130,
      "##ιζε": 7131,
      "ἐποιοῦντο": 7132,
      "ἡγεμόνας": 7133,
      "Λυκῖνος": 7134,
      "Τρῶ": 7135,
      "ναὶ": 7136,
      "##ποις": 7137,
      "##χους": 7138,
      "##λησεν": 7139,
      "χρό": 7140,
      "ἀποδει": 7141,
      "οἰκε": 7142,
      "παιδεί": 7143,
      "τέχνη": 7144,
      "τιμωρίαν": 7145,
      "ἀκολουθ": 7146,
      "πλάτος": 7147,
      "Λυσ": 7148,
      "##ΗΣ": 7149,
      "ἐπικου": 7150,
      "##κεύ": 7151,
      "πάνθʼ": 7152,
      "##θέων": 7153,
      "πολιτεύ": 7154,
      "σύνε": 7155,
      "θησα": 7156,
      "##πηδ": 7157,
      "τέχνῃ": 7158,
      "τεσσαράκοντα": 7159,
      "μειράκιον": 7160,
      "ἑώρα": 7161,
      "##πτων": 7162,
      "ἐναντ": 7163,
      "τεχ": 7164,
      "προστά": 7165,
      "##νεσθαι": 7166,
      "Διὶ": 7167,
      "κοὐ": 7168,
      "ἠξίω": 7169,
      "ἑβδομήκοντα": 7170,
      "Χριστ": 7171,
      "βέ": 7172,
      "ἕξει": 7173,
      "##ίδες": 7174,
      "##ψύχ": 7175,
      "συμφο": 7176,
      "ἐκείνη": 7177,
      "##χώρησαν": 7178,
      "μάλʼ": 7179,
      "φόνον": 7180,
      "##άδι": 7181,
      "##ορά": 7182,
      "##ώτερα": 7183,
      "ἐνοχ": 7184,
      "ὀνόματι": 7185,
      "Θηβαῖοι": 7186,
      "στρατοπέδου": 7187,
      "Σίμων": 7188,
      "ζωγ": 7189,
      "ἐρύ": 7190,
      "ἐρῶν": 7191,
      "παρεῖναι": 7192,
      "τοιούτου": 7193,
      "##ώσκειν": 7194,
      "μῖ": 7195,
      "ἧκε": 7196,
      "##υῖα": 7197,
      "##κουσιν": 7198,
      "##οδώ": 7199,
      "##ΙΣ": 7200,
      "##άνην": 7201,
      "ἐγίγνετο": 7202,
      "παραδεί": 7203,
      "δοκῇ": 7204,
      "δείπν": 7205,
      "σπουδὴν": 7206,
      "τουτὶ": 7207,
      "διαφέρειν": 7208,
      "##τέρωθεν": 7209,
      "τείχε": 7210,
      "ζυγ": 7211,
      "##ζεύ": 7212,
      "##λλʼ": 7213,
      "##ματά": 7214,
      "προστι": 7215,
      "συνι": 7216,
      "διατρίβ": 7217,
      "πάθους": 7218,
      "##ίησιν": 7219,
      "ὑγια": 7220,
      "σφισι": 7221,
      "γῆρας": 7222,
      "πεποίηκεν": 7223,
      "συκοφαν": 7224,
      "βλασ": 7225,
      "##πτέον": 7226,
      "##οσι": 7227,
      "##ειρε": 7228,
      "ἀποβλέ": 7229,
      "ἔχοντι": 7230,
      "##θησιν": 7231,
      "ἀκούων": 7232,
      "δύνανται": 7233,
      "κύκλον": 7234,
      "ἀτιμ": 7235,
      "ἐρώ": 7236,
      "##λόν": 7237,
      "##ολον": 7238,
      "##αινα": 7239,
      "προαιρέ": 7240,
      "##λησιν": 7241,
      "πολλαῖς": 7242,
      "##δία": 7243,
      "ἀγαθοῖς": 7244,
      "ἐπιτηδεύ": 7245,
      "ἰχθύ": 7246,
      "διαί": 7247,
      "παραστ": 7248,
      "καθιστ": 7249,
      "##μιγ": 7250,
      "##όδῳ": 7251,
      "χιτῶν": 7252,
      "ζῷα": 7253,
      "ψευδῆ": 7254,
      "εὐνοίας": 7255,
      "κλα": 7256,
      "ἔμα": 7257,
      "##μῆς": 7258,
      "ἐκβ": 7259,
      "ἀρχόντων": 7260,
      "σώφρον": 7261,
      "ἐπέτρε": 7262,
      "ΑΕ": 7263,
      "πτερ": 7264,
      "##άσεως": 7265,
      "##ικὸς": 7266,
      "τῇσι": 7267,
      "καταλαμβάν": 7268,
      "λέγονται": 7269,
      "νεο": 7270,
      "##σμοῦ": 7271,
      "ἀσπα": 7272,
      "ἕκαστοι": 7273,
      "τέλει": 7274,
      "τύραννος": 7275,
      "ὥσθʼ": 7276,
      "##ήτων": 7277,
      "ἐπῄ": 7278,
      "##είσας": 7279,
      "##λαμβαν": 7280,
      "συνθήκας": 7281,
      "εὐεργέ": 7282,
      "διαφυγ": 7283,
      "##σκέ": 7284,
      "##ιστο": 7285,
      "ἐκάλουν": 7286,
      "κάλ": 7287,
      "##ρίους": 7288,
      "ἐπιγραφ": 7289,
      "στή": 7290,
      "ἐγκαλ": 7291,
      "##σειε": 7292,
      "δηλώ": 7293,
      "θανάτῳ": 7294,
      "Ἀντιγόν": 7295,
      "Λατ": 7296,
      "μείζονα": 7297,
      "θάτερον": 7298,
      "ψῆφον": 7299,
      "ἐπιμέλειαν": 7300,
      "δρό": 7301,
      "ἀλόγ": 7302,
      "##πλευ": 7303,
      "##δρε": 7304,
      "##ρίαις": 7305,
      "##σαμένου": 7306,
      "ἄρρεν": 7307,
      "τρόπου": 7308,
      "δικαίου": 7309,
      "ποταμῶν": 7310,
      "καιροῦ": 7311,
      "νέος": 7312,
      "##ώτατοι": 7313,
      "δείκνυ": 7314,
      "Κάσ": 7315,
      "Ἀστ": 7316,
      "ἔστʼ": 7317,
      "##πύ": 7318,
      "ἀνυ": 7319,
      "παροξ": 7320,
      "ἄνε": 7321,
      "ἀναλαβὼν": 7322,
      "ἀσπ": 7323,
      "Ἀριστοφάνης": 7324,
      "θαυμάζειν": 7325,
      "τιμωρίας": 7326,
      "##άμβανον": 7327,
      "##ίρ": 7328,
      "##ανδρος": 7329,
      "ἐπαύ": 7330,
      "ἀπελ": 7331,
      "##σαμένη": 7332,
      "##ρχον": 7333,
      "ἀγαθοὺς": 7334,
      "συνεστ": 7335,
      "δικαίων": 7336,
      "βούλον": 7337,
      "λεχ": 7338,
      "θαλάσσῃ": 7339,
      "ὀγδοήκοντα": 7340,
      "ἥμι": 7341,
      "ὀκν": 7342,
      "##σθι": 7343,
      "νόμοι": 7344,
      "παρεμβ": 7345,
      "ἰσχυ": 7346,
      "παράδει": 7347,
      "εἴκοσιν": 7348,
      "δαιμον": 7349,
      "ἐπιστήμην": 7350,
      "Ἀμφι": 7351,
      "Σκυθ": 7352,
      "Γερ": 7353,
      "Κερ": 7354,
      "δαπ": 7355,
      "λάθ": 7356,
      "σωμα": 7357,
      "ἔτει": 7358,
      "βουλομένοις": 7359,
      "ἔπειτʼ": 7360,
      "ἱστορ": 7361,
      "προσαγορευ": 7362,
      "ἀθλη": 7363,
      "ἔρχεται": 7364,
      "τελέως": 7365,
      "ἐτόλ": 7366,
      "Παλλ": 7367,
      "ἀμφʼ": 7368,
      "πράγμασι": 7369,
      "Ταῦτα": 7370,
      "##όλα": 7371,
      "##σομεν": 7372,
      "##μματα": 7373,
      "ποτὶ": 7374,
      "ἑρμην": 7375,
      "ἀνέχ": 7376,
      "ὑπάτων": 7377,
      "προδο": 7378,
      "προσφέρ": 7379,
      "##κόσια": 7380,
      "λαχ": 7381,
      "δοκοῦσιν": 7382,
      "δόρυ": 7383,
      "εὑρε": 7384,
      "##ώνυμος": 7385,
      "τύραννον": 7386,
      "διαφερόντως": 7387,
      "Πλαται": 7388,
      "Σολ": 7389,
      "λόχ": 7390,
      "##κοσίοις": 7391,
      "αἰγι": 7392,
      "βούλεσθαι": 7393,
      "δευτέρῳ": 7394,
      "πολιορκίαν": 7395,
      "ἔμελλε": 7396,
      "Βυζαντί": 7397,
      "Δήμη": 7398,
      "Θησ": 7399,
      "ΝΕ": 7400,
      "##ητο": 7401,
      "##ᾶσαι": 7402,
      "##σεσι": 7403,
      "##ωρίας": 7404,
      "κοινὴν": 7405,
      "χώρα": 7406,
      "Θεόφ": 7407,
      "ἰσχὺν": 7408,
      "ἀγῶνας": 7409,
      "μηδενὶ": 7410,
      "πλεονεξ": 7411,
      "ἔπεμψεν": 7412,
      "ἐλπίδος": 7413,
      "##ύνεσθαι": 7414,
      "Ἰσρα": 7415,
      "ἔρημον": 7416,
      "Μασ": 7417,
      "##τῆσαι": 7418,
      "##ῆσαί": 7419,
      "##αια": 7420,
      "ἐξαγ": 7421,
      "##τικός": 7422,
      "##τοῦσιν": 7423,
      "##σσυ": 7424,
      "κατέστησαν": 7425,
      "ἐχθροὺς": 7426,
      "ΒΑ": 7427,
      "ἠδʼ": 7428,
      "##κτή": 7429,
      "ἀπήν": 7430,
      "##σεσθε": 7431,
      "##ξαντος": 7432,
      "ἑκάστης": 7433,
      "τόπος": 7434,
      "ὑπηρέ": 7435,
      "Βακ": 7436,
      "φόνου": 7437,
      "##σμένον": 7438,
      "##θόν": 7439,
      "διακον": 7440,
      "##πεσε": 7441,
      "γυναικός": 7442,
      "θερμ": 7443,
      "ὀνόματος": 7444,
      "ἐπολι": 7445,
      "Λέ": 7446,
      "φεῦ": 7447,
      "τοτὲ": 7448,
      "##τεται": 7449,
      "##άντος": 7450,
      "χρῆναι": 7451,
      "##ρῶντο": 7452,
      "##λυμα": 7453,
      "Ἀγρί": 7454,
      "ἁρπαγ": 7455,
      "Ἀλεξανδρ": 7456,
      "ἀσύμμε": 7457,
      "Μυ": 7458,
      "Σαμ": 7459,
      "ὄργ": 7460,
      "##ωσεν": 7461,
      "##ανῶν": 7462,
      "ἀποικ": 7463,
      "παρελθὼν": 7464,
      "πάντῃ": 7465,
      "##πες": 7466,
      "θεοί": 7467,
      "ποιήσειν": 7468,
      "ἀμύ": 7469,
      "ὑποψ": 7470,
      "θαυμαστὸν": 7471,
      "καλουμένην": 7472,
      "Ἀντώνιον": 7473,
      "ὑπισχν": 7474,
      "βούλονται": 7475,
      "ἥρω": 7476,
      "##λειν": 7477,
      "ψυχὰς": 7478,
      "ἄρχοντες": 7479,
      "δρᾶν": 7480,
      "ἀδι": 7481,
      "Ἄργος": 7482,
      "##είτω": 7483,
      "προα": 7484,
      "μεμν": 7485,
      "περιστ": 7486,
      "δεῖσθαι": 7487,
      "ναυσὶν": 7488,
      "δυσμεν": 7489,
      "τεθνη": 7490,
      "ὑποκει": 7491,
      "ἐβ": 7492,
      "##ανοῦ": 7493,
      "διαλεγ": 7494,
      "προσηκ": 7495,
      "πέφυκ": 7496,
      "ὑποσχ": 7497,
      "##τόρων": 7498,
      "χαριζ": 7499,
      "φθορ": 7500,
      "ἡγεμόνα": 7501,
      "Διονύσῳ": 7502,
      "γή": 7503,
      "ὠφέ": 7504,
      "##λὸν": 7505,
      "διψ": 7506,
      "οἰων": 7507,
      "##ρυς": 7508,
      "φημι": 7509,
      "διεξι": 7510,
      "τρίγωνον": 7511,
      "χάρα": 7512,
      "τύχη": 7513,
      "φόβῳ": 7514,
      "κυβερνή": 7515,
      "Τα": 7516,
      "βοῦς": 7517,
      "ἄφθ": 7518,
      "##τῶς": 7519,
      "##μμα": 7520,
      "##θείη": 7521,
      "##γας": 7522,
      "##γιν": 7523,
      "##βλε": 7524,
      "ἐπηγ": 7525,
      "##ίνη": 7526,
      "ἀπολε": 7527,
      "##δημος": 7528,
      "##οίμην": 7529,
      "##ίκου": 7530,
      "ἀμφί": 7531,
      "ἀξιό": 7532,
      "Ἀθήνησι": 7533,
      "ὄπισθεν": 7534,
      "Πά": 7535,
      "ξη": 7536,
      "ἆθ": 7537,
      "##ζόν": 7538,
      "ἀνάπ": 7539,
      "προηγ": 7540,
      "διατε": 7541,
      "##βολῇ": 7542,
      "ἐξέπεμψ": 7543,
      "##δέχεσθαι": 7544,
      "Ἀντίπα": 7545,
      "νενικ": 7546,
      "ἐλεγ": 7547,
      "##ίσθη": 7548,
      "##ψω": 7549,
      "##ηνέχ": 7550,
      "ἐκώ": 7551,
      "στήλ": 7552,
      "ἐγεν": 7553,
      "ποιήσει": 7554,
      "##δοὺ": 7555,
      "μεγάλῳ": 7556,
      "χάρις": 7557,
      "πατρίδι": 7558,
      "δικαιοσύνης": 7559,
      "Κρ": 7560,
      "ηὔ": 7561,
      "ἀστε": 7562,
      "ἠρώ": 7563,
      "ὄλε": 7564,
      "##έστε": 7565,
      "##κλε": 7566,
      "##ώρη": 7567,
      "##άμων": 7568,
      "αἱρέ": 7569,
      "##σσω": 7570,
      "ποταμῷ": 7571,
      "##βολαῖς": 7572,
      "λεγόντων": 7573,
      "διανοίας": 7574,
      "μειρακ": 7575,
      "διαφθαρ": 7576,
      "δαίμων": 7577,
      "Πομπήιος": 7578,
      "Τύ": 7579,
      "##ῆκον": 7580,
      "##λλου": 7581,
      "ἐντυγχάν": 7582,
      "ἐγκε": 7583,
      "ἔφευγ": 7584,
      "Ἰνδο": 7585,
      "πίνειν": 7586,
      "ἥτ": 7587,
      "##οειδ": 7588,
      "ἐπάν": 7589,
      "##αρχον": 7590,
      "##σταῖς": 7591,
      "##άμε": 7592,
      "##τεύειν": 7593,
      "δεινόν": 7594,
      "##άρχων": 7595,
      "τἀγαθ": 7596,
      "λοιποὶ": 7597,
      "ἀξίωμα": 7598,
      "Και": 7599,
      "ἴστε": 7600,
      "##ψεις": 7601,
      "ἐπειρ": 7602,
      "διαιρ": 7603,
      "ἐξεν": 7604,
      "##παρα": 7605,
      "συμπό": 7606,
      "ἔφερ": 7607,
      "στρατηγοῦ": 7608,
      "##τάτῳ": 7609,
      "ἡγεμόνων": 7610,
      "ὕδατι": 7611,
      "εὐπορ": 7612,
      "Ἐπικ": 7613,
      "##λήν": 7614,
      "ἀντικ": 7615,
      "ἐκλιπ": 7616,
      "ἐπιπέ": 7617,
      "##λεύσας": 7618,
      "ἁπάσας": 7619,
      "κλῆ": 7620,
      "##λῃ": 7621,
      "πολλὸν": 7622,
      "διαστ": 7623,
      "##λοκ": 7624,
      "ὑμέ": 7625,
      "οἴεται": 7626,
      "ἁπαλ": 7627,
      "λίθου": 7628,
      "Τιμό": 7629,
      "Διόνυσον": 7630,
      "ἐβα": 7631,
      "Ἐπα": 7632,
      "##λβ": 7633,
      "##οη": 7634,
      "ἀπί": 7635,
      "##σαφ": 7636,
      "τιμι": 7637,
      "##τίους": 7638,
      "μόνοις": 7639,
      "σίτου": 7640,
      "μαγ": 7641,
      "##θείσης": 7642,
      "##χῶν": 7643,
      "ἐπη": 7644,
      "##δικα": 7645,
      "αἰτία": 7646,
      "αὑτῆς": 7647,
      "##δόντα": 7648,
      "ὅσων": 7649,
      "##τελεῖν": 7650,
      "πλείονος": 7651,
      "παρεσκευασ": 7652,
      "υἷ": 7653,
      "##πιν": 7654,
      "##ήμασιν": 7655,
      "ἀρχαῖον": 7656,
      "##φαῖς": 7657,
      "ἀναγκ": 7658,
      "σοφίαν": 7659,
      "ἀριθμόν": 7660,
      "δίδωσιν": 7661,
      "ὀχυρ": 7662,
      "ὑστεραίᾳ": 7663,
      "ῥί": 7664,
      "##έει": 7665,
      "##κεις": 7666,
      "##κουσι": 7667,
      "##δρας": 7668,
      "πολλούς": 7669,
      "ποιοῦσι": 7670,
      "ἄγει": 7671,
      "θέρους": 7672,
      "Φω": 7673,
      "κλι": 7674,
      "πίστ": 7675,
      "##κτου": 7676,
      "##ορα": 7677,
      "##φους": 7678,
      "μεταν": 7679,
      "οὐδα": 7680,
      "ἀποβ": 7681,
      "ἀπορίαν": 7682,
      "γενομένους": 7683,
      "πόλεσι": 7684,
      "τριή": 7685,
      "ἀπεκ": 7686,
      "λοιπῶν": 7687,
      "δεξιᾷ": 7688,
      "δίαιταν": 7689,
      "Μυρ": 7690,
      "λευ": 7691,
      "ἁγν": 7692,
      "δίκης": 7693,
      "##ήσατε": 7694,
      "θηρία": 7695,
      "##τρεπ": 7696,
      "παιδίον": 7697,
      "τετράγωνον": 7698,
      "νοῦ": 7699,
      "σάλ": 7700,
      "φοιν": 7701,
      "##ῶτες": 7702,
      "##ῶσαν": 7703,
      "##χόμενος": 7704,
      "##αλιν": 7705,
      "εὐφυ": 7706,
      "νεμ": 7707,
      "##λαβεν": 7708,
      "πεντε": 7709,
      "Ἐρυ": 7710,
      "##μέναις": 7711,
      "ἐκτε": 7712,
      "##μάζ": 7713,
      "πέπον": 7714,
      "ἀργυρίου": 7715,
      "##τοῦντας": 7716,
      "ψηφίσ": 7717,
      "πάρος": 7718,
      "ποικί": 7719,
      "ἑκάστοις": 7720,
      "Δημητρί": 7721,
      "χαῖ": 7722,
      "ἐόντα": 7723,
      "ἕξειν": 7724,
      "ἐνδέχεται": 7725,
      "##αυσαν": 7726,
      "##πολεμ": 7727,
      "##δρων": 7728,
      "οἰνο": 7729,
      "τάφον": 7730,
      "πολέμους": 7731,
      "δυεῖν": 7732,
      "ἐπιστολὴν": 7733,
      "πελάγ": 7734,
      "φάσκων": 7735,
      "ἤλα": 7736,
      "##κτι": 7737,
      "εἶδεν": 7738,
      "##θεα": 7739,
      "πλεῖν": 7740,
      "καλὸς": 7741,
      "ἑαυτῆς": 7742,
      "γνῶναι": 7743,
      "δίκαιος": 7744,
      "πεζῶν": 7745,
      "Ἰνδικ": 7746,
      "τρόπος": 7747,
      "πεῖραν": 7748,
      "ὄμβ": 7749,
      "##οίν": 7750,
      "##ψῃ": 7751,
      "##βή": 7752,
      "παρασχεῖν": 7753,
      "##τέα": 7754,
      "μεταστ": 7755,
      "##κλιν": 7756,
      "τελευτῶν": 7757,
      "πειρά": 7758,
      "ὄψει": 7759,
      "ἀπιέναι": 7760,
      "γενέσεως": 7761,
      "διεφθάρ": 7762,
      "προσώπου": 7763,
      "πολλαπλα": 7764,
      "##φή": 7765,
      "##ψεται": 7766,
      "##γιον": 7767,
      "##τορας": 7768,
      "εἰκο": 7769,
      "ἀνη": 7770,
      "##μάς": 7771,
      "ὀλίγοις": 7772,
      "##ττεν": 7773,
      "μέσου": 7774,
      "Σαλαμ": 7775,
      "ἡλικίας": 7776,
      "τειχῶν": 7777,
      "ἐναργ": 7778,
      "ἥμισυ": 7779,
      "θρόν": 7780,
      "##ξομεν": 7781,
      "##αντας": 7782,
      "εἰμὶ": 7783,
      "##τίᾳ": 7784,
      "##άζουσιν": 7785,
      "ἔνδο": 7786,
      "##σκεται": 7787,
      "πρώτου": 7788,
      "στι": 7789,
      "##ϊον": 7790,
      "ἀπεργ": 7791,
      "περαι": 7792,
      "συνει": 7793,
      "##δραν": 7794,
      "χωρίων": 7795,
      "ἄκρον": 7796,
      "μέλει": 7797,
      "ἀτρε": 7798,
      "ἑται": 7799,
      "Ῥω": 7800,
      "συμβου": 7801,
      "##τοῦσι": 7802,
      "βουλόμενον": 7803,
      "##λαιον": 7804,
      "##τρια": 7805,
      "γνώρι": 7806,
      "μυρίους": 7807,
      "ψήφισμα": 7808,
      "ἀκα": 7809,
      "##ήμασι": 7810,
      "##ῶντα": 7811,
      "##ριδος": 7812,
      "μελε": 7813,
      "##τοισιν": 7814,
      "βασιλεί": 7815,
      "##ολόγ": 7816,
      "##ληθῆναι": 7817,
      "τυγχάνειν": 7818,
      "Πολυ": 7819,
      "Πυθαγό": 7820,
      "δικαιοσύνην": 7821,
      "τεκμήριον": 7822,
      "ἁλί": 7823,
      "##ώσ": 7824,
      "##ειδέ": 7825,
      "##λλε": 7826,
      "χρύ": 7827,
      "##πολις": 7828,
      "καλοῦ": 7829,
      "κακά": 7830,
      "κρατί": 7831,
      "κήρυ": 7832,
      "ὡρ": 7833,
      "##ιζον": 7834,
      "ἀπαν": 7835,
      "καταφυγ": 7836,
      "δεήσει": 7837,
      "##άμῳ": 7838,
      "Ἀρκα": 7839,
      "θερά": 7840,
      "ἐλάττους": 7841,
      "Κρη": 7842,
      "ψι": 7843,
      "##ῖαι": 7844,
      "καν": 7845,
      "ἀπολύ": 7846,
      "##κοὶ": 7847,
      "δέοι": 7848,
      "##θραν": 7849,
      "ἀφορ": 7850,
      "ὅσους": 7851,
      "ἐπιθυμίας": 7852,
      "Πτολεμαῖος": 7853,
      "ἵστα": 7854,
      "##ψεσθαι": 7855,
      "##ΑΡ": 7856,
      "ταλαι": 7857,
      "##κόσι": 7858,
      "τάξει": 7859,
      "ἱκανὸν": 7860,
      "κελεύσας": 7861,
      "τοιοῦτοι": 7862,
      "πιστεύειν": 7863,
      "##δύνατο": 7864,
      "κινδύνους": 7865,
      "Λιβύης": 7866,
      "σφοδρ": 7867,
      "τετταράκοντα": 7868,
      "θελ": 7869,
      "φή": 7870,
      "ὀρῶν": 7871,
      "##ψειν": 7872,
      "τού": 7873,
      "ἀνομ": 7874,
      "##λημα": 7875,
      "καταρ": 7876,
      "##πομεν": 7877,
      "ἀρετήν": 7878,
      "ἐποίουν": 7879,
      "πειρα": 7880,
      "ἐλθόντες": 7881,
      "ἔπεμψε": 7882,
      "γείτον": 7883,
      "Γοργ": 7884,
      "πραχ": 7885,
      "ὡρα": 7886,
      "##ῇσιν": 7887,
      "τοῦτ": 7888,
      "##σασθε": 7889,
      "##άρου": 7890,
      "##δομεν": 7891,
      "ἀπέστειλ": 7892,
      "πρόφασιν": 7893,
      "λαμβάνει": 7894,
      "Κλεοπ": 7895,
      "θᾶττον": 7896,
      "κλί": 7897,
      "ψεῦ": 7898,
      "Ἐκ": 7899,
      "##τήσας": 7900,
      "##μούς": 7901,
      "##φνης": 7902,
      "##ίων": 7903,
      "##ριγ": 7904,
      "##ωρίαν": 7905,
      "μάχη": 7906,
      "χρόνων": 7907,
      "συστρα": 7908,
      "βραχὺ": 7909,
      "γελοῖ": 7910,
      "παραλλη": 7911,
      "##ῶτας": 7912,
      "##πτα": 7913,
      "##ᾶσι": 7914,
      "##τίθεσθαι": 7915,
      "παραδόξ": 7916,
      "οὔτι": 7917,
      "αἰδο": 7918,
      "ζημι": 7919,
      "ποιητῶν": 7920,
      "βάθος": 7921,
      "διδάσκα": 7922,
      "καρπὸν": 7923,
      "ἐβου": 7924,
      "##υσιν": 7925,
      "##ξί": 7926,
      "##ῦναι": 7927,
      "ἀναρ": 7928,
      "##κομεν": 7929,
      "ποιοῦντες": 7930,
      "##τικῇ": 7931,
      "ἱερῷ": 7932,
      "οἵδε": 7933,
      "ξένους": 7934,
      "ξυμμάχ": 7935,
      "Κύρου": 7936,
      "πέλας": 7937,
      "ἀνάλογον": 7938,
      "βλασφημ": 7939,
      "Θερ": 7940,
      "Σελ": 7941,
      "Χαιρέ": 7942,
      "πιν": 7943,
      "##ίνοντες": 7944,
      "##οροι": 7945,
      "Εὐφρά": 7946,
      "Νη": 7947,
      "ἄγν": 7948,
      "ἐρυ": 7949,
      "ἑσπέ": 7950,
      "##ούδα": 7951,
      "##ικὴ": 7952,
      "##πεσεν": 7953,
      "μεγίσ": 7954,
      "οἴκου": 7955,
      "πιεῖν": 7956,
      "φιλοσοφίαν": 7957,
      "φόβος": 7958,
      "μυρίων": 7959,
      "μερῶν": 7960,
      "ἤρξατο": 7961,
      "Ἄρτε": 7962,
      "Νίκ": 7963,
      "ὦτα": 7964,
      "##γματα": 7965,
      "##ρατον": 7966,
      "##λιχ": 7967,
      "##άσσων": 7968,
      "συγκα": 7969,
      "δημηγ": 7970,
      "υἱός": 7971,
      "##γγειλ": 7972,
      "κομι": 7973,
      "πράττον": 7974,
      "θυμὸς": 7975,
      "προσέτι": 7976,
      "ξένων": 7977,
      "χρησάμενος": 7978,
      "ἐγεγόνει": 7979,
      "ὁδόν": 7980,
      "ἀνοί": 7981,
      "προκα": 7982,
      "προαίρεσιν": 7983,
      "παρεί": 7984,
      "εἴργ": 7985,
      "##περι": 7986,
      "οὔνομα": 7987,
      "ἐστρα": 7988,
      "ἐφάνη": 7989,
      "ἄκραν": 7990,
      "χιλι": 7991,
      "Συρίας": 7992,
      "Κιλικ": 7993,
      "##κτέον": 7994,
      "##τούντων": 7995,
      "ἡμί": 7996,
      "ἀγέλ": 7997,
      "μηδαμ": 7998,
      "##ώνην": 7999,
      "πανηγ": 8000,
      "συγγρά": 8001,
      "στρατηγοὺς": 8002,
      "ἑκατόν": 8003,
      "Θηβαίους": 8004,
      "Να": 8005,
      "Ἁρ": 8006,
      "ἴδω": 8007,
      "Ἰλλυ": 8008,
      "##κερ": 8009,
      "##δεσθαι": 8010,
      "##ρχεν": 8011,
      "περιπ": 8012,
      "##τικήν": 8013,
      "οἶνος": 8014,
      "##σθέντος": 8015,
      "μεγάλῃ": 8016,
      "σχεδόν": 8017,
      "πολέμιον": 8018,
      "Τρώων": 8019,
      "Ἄργ": 8020,
      "Ἅι": 8021,
      "ἔτα": 8022,
      "##υται": 8023,
      "στυγ": 8024,
      "ἀγλα": 8025,
      "οἰκείαν": 8026,
      "μικροῦ": 8027,
      "χρυσὸν": 8028,
      "ἐπιτήδεια": 8029,
      "τετελευ": 8030,
      "ἀέρα": 8031,
      "##ρυσ": 8032,
      "##μμάτων": 8033,
      "##μαγωγ": 8034,
      "ποιοῦνται": 8035,
      "##μπελ": 8036,
      "ἀντιπ": 8037,
      "πείθεσθαι": 8038,
      "νῆες": 8039,
      "μέλος": 8040,
      "καταλιπεῖν": 8041,
      "ἑκάστοτε": 8042,
      "Δαυ": 8043,
      "ἑσπ": 8044,
      "ῥυ": 8045,
      "##σέ": 8046,
      "πρόνοιαν": 8047,
      "πατέρων": 8048,
      "##υνεν": 8049,
      "##ικὰς": 8050,
      "περιφερ": 8051,
      "ἐχρῶντο": 8052,
      "λιπαρ": 8053,
      "##μάχου": 8054,
      "συγγενεῖς": 8055,
      "κηρύ": 8056,
      "##τικοὺς": 8057,
      "Ἔρως": 8058,
      "ἠὲ": 8059,
      "##διν": 8060,
      "##ῶντας": 8061,
      "##ρεσθαι": 8062,
      "##ρολογ": 8063,
      "δέῃ": 8064,
      "περιπα": 8065,
      "ἐφι": 8066,
      "αὑτόν": 8067,
      "δεῖται": 8068,
      "τιμᾶν": 8069,
      "οὐδεμία": 8070,
      "θηρίον": 8071,
      "ἀμφοτέρ": 8072,
      "##εῦσι": 8073,
      "Βυζάν": 8074,
      "μυθολογ": 8075,
      "φαυ": 8076,
      "##μένει": 8077,
      "μετο": 8078,
      "εἶδε": 8079,
      "##ρέμα": 8080,
      "##τήσαντες": 8081,
      "εἰπών": 8082,
      "##στής": 8083,
      "λιμένα": 8084,
      "Πατρ": 8085,
      "πλείονα": 8086,
      "δύναιτο": 8087,
      "μέμνηται": 8088,
      "ἐπιτηδείων": 8089,
      "θρέ": 8090,
      "##ρὶ": 8091,
      "##ζομένους": 8092,
      "##ῦσθαι": 8093,
      "##ώσατο": 8094,
      "##ώθησαν": 8095,
      "##ός": 8096,
      "πατρικ": 8097,
      "ὑποφ": 8098,
      "προεῖ": 8099,
      "ταρ": 8100,
      "μένει": 8101,
      "στρατιω": 8102,
      "##ουμένη": 8103,
      "##όπων": 8104,
      "εὐδαιμονίαν": 8105,
      "κἀκεῖνος": 8106,
      "αἴσθησιν": 8107,
      "δἰ": 8108,
      "ἀμα": 8109,
      "##λγ": 8110,
      "##ουσ": 8111,
      "ἐπιπ": 8112,
      "ἐπιπο": 8113,
      "θεάτ": 8114,
      "στρατευ": 8115,
      "ἀφέ": 8116,
      "ἀφορμ": 8117,
      "πεφυ": 8118,
      "μέλλοντος": 8119,
      "ἐλάττω": 8120,
      "κάθ": 8121,
      "ἐοικ": 8122,
      "Ἰσθ": 8123,
      "##ρούς": 8124,
      "##ελλ": 8125,
      "##ειῶν": 8126,
      "κατασχ": 8127,
      "στρατείαν": 8128,
      "##μημα": 8129,
      "πέτρας": 8130,
      "μόνη": 8131,
      "μόνους": 8132,
      "##ήρης": 8133,
      "συμβέβη": 8134,
      "Ἀργεῖοι": 8135,
      "ἀνελεῖν": 8136,
      "γεγονότων": 8137,
      "Κυν": 8138,
      "Κτη": 8139,
      "κῶ": 8140,
      "σῶ": 8141,
      "##καις": 8142,
      "πρυ": 8143,
      "προσχ": 8144,
      "##ράγ": 8145,
      "κατεστ": 8146,
      "##ουμένην": 8147,
      "νικᾶν": 8148,
      "ἐκέλευον": 8149,
      "##γένειαν": 8150,
      "Πάρ": 8151,
      "ἡλί": 8152,
      "##λός": 8153,
      "ἐπαρ": 8154,
      "ἀπολαύ": 8155,
      "##σίαι": 8156,
      "Καππα": 8157,
      "συνεδ": 8158,
      "καρπο": 8159,
      "πυρε": 8160,
      "ῥήτωρ": 8161,
      "##βεβη": 8162,
      "ἐδίδα": 8163,
      "φιλοσόφων": 8164,
      "φρέν": 8165,
      "ἴσαι": 8166,
      "##ττειν": 8167,
      "##λως": 8168,
      "##ριόν": 8169,
      "##υσάμενος": 8170,
      "##κισχιλίων": 8171,
      "ἡδονὰς": 8172,
      "τρὶς": 8173,
      "οὐκέτʼ": 8174,
      "θέλεις": 8175,
      "Πέρσαις": 8176,
      "Μεγαρ": 8177,
      "ἐθαύμα": 8178,
      "παράδειγμα": 8179,
      "Γαλ": 8180,
      "πό": 8181,
      "ὅκως": 8182,
      "##ιμ": 8183,
      "##ῖόν": 8184,
      "καθὼς": 8185,
      "##δοτος": 8186,
      "κελευ": 8187,
      "ἐξουσίας": 8188,
      "##ήγαγον": 8189,
      "νήσου": 8190,
      "σαυτοῦ": 8191,
      "Θήβας": 8192,
      "Ταρκ": 8193,
      "ὕπνον": 8194,
      "##τυμ": 8195,
      "##θήσεται": 8196,
      "τοὶ": 8197,
      "στέγ": 8198,
      "##τροις": 8199,
      "##τικὰς": 8200,
      "##σμὸς": 8201,
      "μόνην": 8202,
      "##λειπ": 8203,
      "ἵππος": 8204,
      "ἐλάττον": 8205,
      "σημαίνει": 8206,
      "τηνικα": 8207,
      "ἠδικ": 8208,
      "##κώς": 8209,
      "##νησ": 8210,
      "##όθι": 8211,
      "εἰωθ": 8212,
      "κατόπ": 8213,
      "ἀγάπ": 8214,
      "##δίδου": 8215,
      "ἀναθ": 8216,
      "δυνάμενον": 8217,
      "στρατηγοὶ": 8218,
      "ἔγωγ": 8219,
      "αἰσχυν": 8220,
      "ὀφθαλμῶν": 8221,
      "πλούτου": 8222,
      "ἀθυμ": 8223,
      "Ἀρά": 8224,
      "ἐὼν": 8225,
      "##άτοις": 8226,
      "##ὺξ": 8227,
      "ἐγεί": 8228,
      "λέγοι": 8229,
      "Ἀριστε": 8230,
      "ἀποκτεῖναι": 8231,
      "##θεῖσαν": 8232,
      "##έστατον": 8233,
      "μετρεῖ": 8234,
      "ἐξαίφνης": 8235,
      "πέφυκεν": 8236,
      "οὐδαμοῦ": 8237,
      "κάκι": 8238,
      "##νται": 8239,
      "##όεντα": 8240,
      "##χρη": 8241,
      "προεί": 8242,
      "μελ": 8243,
      "μεμνη": 8244,
      "ἐγχει": 8245,
      "##άλην": 8246,
      "ποιούμενοι": 8247,
      "##εσσαν": 8248,
      "##ρινθον": 8249,
      "πολέμων": 8250,
      "##βολήν": 8251,
      "κομίζ": 8252,
      "##λαμβάνειν": 8253,
      "ξένε": 8254,
      "ἰατρικ": 8255,
      "Δημοσθένους": 8256,
      "##βαινεν": 8257,
      "ΖΗ": 8258,
      "ταν": 8259,
      "##ώτεροι": 8260,
      "ἀποδιδ": 8261,
      "ἡμέρα": 8262,
      "##άλων": 8263,
      "δεδε": 8264,
      "παιδο": 8265,
      "καρτε": 8266,
      "ναὸν": 8267,
      "πυραμ": 8268,
      "ὅρκους": 8269,
      "ἐπισκοπ": 8270,
      "ἀποθνήσ": 8271,
      "Κλεοπάτ": 8272,
      "ῥύ": 8273,
      "##τάρων": 8274,
      "##ΟΝ": 8275,
      "##μενός": 8276,
      "##σχίλιοι": 8277,
      "##νεγ": 8278,
      "χρησί": 8279,
      "ἔπη": 8280,
      "##τεῖσθαι": 8281,
      "νυκτὶ": 8282,
      "##άμβανε": 8283,
      "Σπαρτι": 8284,
      "##μαρτυρ": 8285,
      "ἀσφάλειαν": 8286,
      "ἵδρ": 8287,
      "##γυ": 8288,
      "ἀναί": 8289,
      "μεμα": 8290,
      "##σεσιν": 8291,
      "##ήσῃς": 8292,
      "##θενται": 8293,
      "μήθʼ": 8294,
      "τάδʼ": 8295,
      "ψυχήν": 8296,
      "ἐπεξ": 8297,
      "σοφὸς": 8298,
      "ἴσμεν": 8299,
      "τέλους": 8300,
      "ἐπιθυμίαν": 8301,
      "πεζοὺς": 8302,
      "ζωῆς": 8303,
      "ἔτυχον": 8304,
      "οἰκουμένης": 8305,
      "τηλικού": 8306,
      "καμ": 8307,
      "##ραξ": 8308,
      "##κια": 8309,
      "δημαγωγ": 8310,
      "υἱόν": 8311,
      "τετραγ": 8312,
      "θέμις": 8313,
      "μέλλει": 8314,
      "νήσῳ": 8315,
      "συλλογ": 8316,
      "σύγκλη": 8317,
      "τελευτήσαντος": 8318,
      "Ἀρτέμιδος": 8319,
      "##χωρη": 8320,
      "ἀντʼ": 8321,
      "ἀποδημ": 8322,
      "οἰκεῖα": 8323,
      "τόπῳ": 8324,
      "μετέχειν": 8325,
      "##φιλος": 8326,
      "ἐπιτηδε": 8327,
      "στρατοπέδῳ": 8328,
      "ἐπινο": 8329,
      "μηδέποτε": 8330,
      "Κλέ": 8331,
      "ξεῖν": 8332,
      "Ἄλε": 8333,
      "ἑτέρα": 8334,
      "ἠέ": 8335,
      "##ασθαι": 8336,
      "##σματα": 8337,
      "ἐπιρ": 8338,
      "εἴπω": 8339,
      "##θρῳ": 8340,
      "##κράτους": 8341,
      "γιγνόμενα": 8342,
      "αἰσθάν": 8343,
      "ὠμ": 8344,
      "##καλῶν": 8345,
      "δείσας": 8346,
      "ὀφθαλμοὺς": 8347,
      "ὑψη": 8348,
      "Νεί": 8349,
      "Τύχ": 8350,
      "κέχ": 8351,
      "κριν": 8352,
      "μαιν": 8353,
      "πτω": 8354,
      "ἔδρα": 8355,
      "ἕπεσθαι": 8356,
      "##εσι": 8357,
      "##παγ": 8358,
      "##λατο": 8359,
      "ἐπιτιμ": 8360,
      "λαὸν": 8361,
      "παισὶ": 8362,
      "ἀσπίδ": 8363,
      "γράφων": 8364,
      "##ύλους": 8365,
      "ἀπορρή": 8366,
      "οὑτω": 8367,
      "ἀπέκτειναν": 8368,
      "φιλανθρώπ": 8369,
      "ἔξεστιν": 8370,
      "##κολουθ": 8371,
      "τετελευτη": 8372,
      "Ναυ": 8373,
      "ἰη": 8374,
      "ἴχν": 8375,
      "ᾠδ": 8376,
      "##τητος": 8377,
      "ἀμοι": 8378,
      "κεφα": 8379,
      "λαβών": 8380,
      "##βολὴ": 8381,
      "ἀδελφοῦ": 8382,
      "πρώτων": 8383,
      "φίλε": 8384,
      "ἄριστος": 8385,
      "ἱδρύ": 8386,
      "Παυσαν": 8387,
      "ὁμον": 8388,
      "##ηθέντες": 8389,
      "##γὼ": 8390,
      "##ταρά": 8391,
      "παρθεν": 8392,
      "##ικῷ": 8393,
      "παρατά": 8394,
      "οἷά": 8395,
      "κακίας": 8396,
      "συγκε": 8397,
      "τοῖσδε": 8398,
      "μείζ": 8399,
      "πέμπειν": 8400,
      "ἔγνωσαν": 8401,
      "θυσίαν": 8402,
      "Μακεδονίαν": 8403,
      "ὑπαρχόντων": 8404,
      "πεπονθ": 8405,
      "Λευ": 8406,
      "ἔσθʼ": 8407,
      "ἥρ": 8408,
      "##λὴ": 8409,
      "##δαλ": 8410,
      "##θνη": 8411,
      "##χύ": 8412,
      "##ώσεως": 8413,
      "##ῶντο": 8414,
      "τελει": 8415,
      "##ροντες": 8416,
      "##αλαι": 8417,
      "δέχεσθαι": 8418,
      "οἶδε": 8419,
      "##ίλων": 8420,
      "σατρά": 8421,
      "τέχνας": 8422,
      "πρέπον": 8423,
      "Ἡρώδης": 8424,
      "δέ": 8425,
      "σει": 8426,
      "##στας": 8427,
      "##ωθῆναι": 8428,
      "##λεα": 8429,
      "##είως": 8430,
      "##ληλύ": 8431,
      "##σχυν": 8432,
      "##σίην": 8433,
      "προσεῖ": 8434,
      "##κουσαν": 8435,
      "φέρεσθαι": 8436,
      "φέροντες": 8437,
      "χαρα": 8438,
      "ἀντιλέγ": 8439,
      "ἔξεστι": 8440,
      "Διονυσίου": 8441,
      "ἐᾶν": 8442,
      "ἦγεν": 8443,
      "##ωμένους": 8444,
      "εὐρ": 8445,
      "εὐπο": 8446,
      "##φθῆναι": 8447,
      "κοινῷ": 8448,
      "ἐρρω": 8449,
      "##φύλα": 8450,
      "ἐκέλευεν": 8451,
      "πορείαν": 8452,
      "Λυκοῦ": 8453,
      "φλε": 8454,
      "##κτας": 8455,
      "γενναί": 8456,
      "##ίκʼ": 8457,
      "ἔνν": 8458,
      "ἀνδρα": 8459,
      "ἄκρας": 8460,
      "αὔξ": 8461,
      "ξύμπ": 8462,
      "πυνθάν": 8463,
      "Μιλή": 8464,
      "ἐσε": 8465,
      "##ιτῶν": 8466,
      "##ώδεις": 8467,
      "##ΙΝ": 8468,
      "ἀλλό": 8469,
      "##υμν": 8470,
      "##λησε": 8471,
      "πόδα": 8472,
      "οὖσιν": 8473,
      "προσέχειν": 8474,
      "οἷοί": 8475,
      "γνῶ": 8476,
      "ἐδόκουν": 8477,
      "τύμβ": 8478,
      "πεπραγμένων": 8479,
      "Κηφ": 8480,
      "Φοίν": 8481,
      "ἠθέ": 8482,
      "ὄρους": 8483,
      "##ατα": 8484,
      "##χας": 8485,
      "##τοπ": 8486,
      "##δεα": 8487,
      "τισιν": 8488,
      "##ρηγ": 8489,
      "πεμφ": 8490,
      "εἰσέ": 8491,
      "θαλα": 8492,
      "τουτον": 8493,
      "Αἰγύπτιοι": 8494,
      "κόσμος": 8495,
      "ἐπολέ": 8496,
      "ἄλληλα": 8497,
      "κύκλου": 8498,
      "Θεμιστοκ": 8499,
      "Ζήνων": 8500,
      "ἐτρά": 8501,
      "##τεν": 8502,
      "##υι": 8503,
      "ἐπικρα": 8504,
      "##ουμένῳ": 8505,
      "##εῦσαι": 8506,
      "ἀγορᾷ": 8507,
      "δεύτερος": 8508,
      "δῶρον": 8509,
      "πλοῖα": 8510,
      "σκόπει": 8511,
      "ἀσπίδα": 8512,
      "ἔρως": 8513,
      "ὠδ": 8514,
      "##ῆτο": 8515,
      "##ώσασθαι": 8516,
      "ἀγενν": 8517,
      "##βησαν": 8518,
      "##τειχ": 8519,
      "##όπομ": 8520,
      "εἴρηκε": 8521,
      "πυλῶν": 8522,
      "κηδε": 8523,
      "πέμψας": 8524,
      "δίδωσι": 8525,
      "νεωτε": 8526,
      "τετράγων": 8527,
      "χάριτος": 8528,
      "ἐξελέγ": 8529,
      "ἀσφαλέ": 8530,
      "αἰχμαλώτους": 8531,
      "μελλόντων": 8532,
      "χειροτον": 8533,
      "ὄφελος": 8534,
      "παρεμβολ": 8535,
      "ἀχθ": 8536,
      "##ρότερον": 8537,
      "##ίου": 8538,
      "##υνται": 8539,
      "##όμενός": 8540,
      "##πεδα": 8541,
      "καταπε": 8542,
      "παραβ": 8543,
      "μένος": 8544,
      "γυνή": 8545,
      "Αἰν": 8546,
      "##πίπτον": 8547,
      "ἀπέδει": 8548,
      "συνεκ": 8549,
      "##μαρτάν": 8550,
      "πρώτοις": 8551,
      "παλαιῶν": 8552,
      "ἀπέκτεινεν": 8553,
      "δορυφ": 8554,
      "κρημν": 8555,
      "ὑπακού": 8556,
      "Χρύ": 8557,
      "ᾔσθ": 8558,
      "##χοι": 8559,
      "##ΑΛ": 8560,
      "##όμος": 8561,
      "αὖτις": 8562,
      "##σωσιν": 8563,
      "φιλάν": 8564,
      "##λειφ": 8565,
      "ἐλευθ": 8566,
      "Φιλίππῳ": 8567,
      "ὄχλον": 8568,
      "Δαρείου": 8569,
      "εἰσελθ": 8570,
      "Κρο": 8571,
      "βρέφ": 8572,
      "κιθ": 8573,
      "σῶν": 8574,
      "ῥά": 8575,
      "##όρου": 8576,
      "##σο": 8577,
      "##εῖσιν": 8578,
      "μελί": 8579,
      "τισι": 8580,
      "##θρου": 8581,
      "##άζονται": 8582,
      "τόπου": 8583,
      "##βαλλον": 8584,
      "##στημα": 8585,
      "διετέ": 8586,
      "ἀκούω": 8587,
      "##ύρους": 8588,
      "τίνας": 8589,
      "παιδείας": 8590,
      "Λυσι": 8591,
      "Καρχηδονίους": 8592,
      "παραμυθ": 8593,
      "κηρ": 8594,
      "ἐτέ": 8595,
      "##ηρα": 8596,
      "διη": 8597,
      "ἀναν": 8598,
      "##ελί": 8599,
      "ἐμποι": 8600,
      "αἰθ": 8601,
      "πεπει": 8602,
      "ὄνει": 8603,
      "κεφάλ": 8604,
      "##λήθη": 8605,
      "νομιζ": 8606,
      "δικαστήριον": 8607,
      "λίθον": 8608,
      "Πολέ": 8609,
      "Παφ": 8610,
      "βούλοιτο": 8611,
      "Ἀπολλων": 8612,
      "κἀγαθ": 8613,
      "παλάμ": 8614,
      "θό": 8615,
      "Ἄρης": 8616,
      "Ἴστ": 8617,
      "##λῇ": 8618,
      "##εῖο": 8619,
      "##λεσεν": 8620,
      "ἀπελθεῖν": 8621,
      "##σανδρος": 8622,
      "πότε": 8623,
      "##δρου": 8624,
      "##όδων": 8625,
      "αἰχμάλω": 8626,
      "γήρ": 8627,
      "κʼ": 8628,
      "##τορες": 8629,
      "αὐγ": 8630,
      "διπλα": 8631,
      "##δελφ": 8632,
      "##ρχος": 8633,
      "στρατὸς": 8634,
      "##ήσαμεν": 8635,
      "φρουρὰν": 8636,
      "ἰσχυρῶς": 8637,
      "οὑτοσὶ": 8638,
      "γέρας": 8639,
      "Ἀραβ": 8640,
      "Ἐπί": 8641,
      "ἴσθι": 8642,
      "##στειλε": 8643,
      "παρὸν": 8644,
      "##ρεα": 8645,
      "οὖσι": 8646,
      "##ῖνοι": 8647,
      "##ησόμεθα": 8648,
      "δεχ": 8649,
      "##στηκε": 8650,
      "##δόντος": 8651,
      "στρατιᾷ": 8652,
      "δώσειν": 8653,
      "ἐπαινεῖν": 8654,
      "Χαλκι": 8655,
      "κέρδος": 8656,
      "ὁπλίτας": 8657,
      "Θουκυ": 8658,
      "ΓΒ": 8659,
      "μυχ": 8660,
      "ἀέρος": 8661,
      "##ετʼ": 8662,
      "##πην": 8663,
      "##φαί": 8664,
      "οὐσία": 8665,
      "ἀπαθ": 8666,
      "προαγ": 8667,
      "ἀγωγ": 8668,
      "παισὶν": 8669,
      "##όρει": 8670,
      "ποταμόν": 8671,
      "Θεόπομ": 8672,
      "φρούριον": 8673,
      "Ἡρό": 8674,
      "ἱκ": 8675,
      "##δών": 8676,
      "##εντος": 8677,
      "##τεταγ": 8678,
      "διελθεῖν": 8679,
      "ἀπαρ": 8680,
      "ἀπέλ": 8681,
      "ἀνθʼ": 8682,
      "προὐ": 8683,
      "##καλύ": 8684,
      "##ξαντα": 8685,
      "πολιτευ": 8686,
      "##ειρεν": 8687,
      "ἀναγκάζ": 8688,
      "βοήθειαν": 8689,
      "##ήθης": 8690,
      "κόλπον": 8691,
      "τέταρτον": 8692,
      "ἔα": 8693,
      "παμπ": 8694,
      "προσί": 8695,
      "μετρι": 8696,
      "ἔνθʼ": 8697,
      "δόξας": 8698,
      "ζηλω": 8699,
      "κίνδυνος": 8700,
      "φυλάττειν": 8701,
      "κείμενον": 8702,
      "κλέος": 8703,
      "ἔτρε": 8704,
      "ἦρ": 8705,
      "Ὀρέ": 8706,
      "##φόν": 8707,
      "##ίν": 8708,
      "ἐπορεύ": 8709,
      "##μαὶ": 8710,
      "προΐ": 8711,
      "##σεύς": 8712,
      "παραδοῦναι": 8713,
      "βουλή": 8714,
      "##πέμπε": 8715,
      "Ἀνδρο": 8716,
      "οἴμοι": 8717,
      "πλείστων": 8718,
      "πολιτείᾳ": 8719,
      "παρασκευῆς": 8720,
      "ἀλγ": 8721,
      "στάσιν": 8722,
      "μνήμης": 8723,
      "παραπλησίως": 8724,
      "κομιδῇ": 8725,
      "Θρᾳ": 8726,
      "ἤθη": 8727,
      "ἤλπι": 8728,
      "ὕπο": 8729,
      "##όδω": 8730,
      "##ΥΡ": 8731,
      "##ποδα": 8732,
      "πλοῦν": 8733,
      "πεπι": 8734,
      "##ομαί": 8735,
      "πράξεως": 8736,
      "τέτταρας": 8737,
      "λοχαγ": 8738,
      "ἐρχ": 8739,
      "ἤνεγ": 8740,
      "##πεῖν": 8741,
      "ἐξῆν": 8742,
      "##κοί": 8743,
      "##μια": 8744,
      "ἀμη": 8745,
      "δοκῶν": 8746,
      "Κασ": 8747,
      "φέρεται": 8748,
      "ἴσου": 8749,
      "πλημ": 8750,
      "πραττο": 8751,
      "κωλύει": 8752,
      "##στρατοπε": 8753,
      "γό": 8754,
      "δελφ": 8755,
      "ἅμʼ": 8756,
      "ἰδοὺ": 8757,
      "##δός": 8758,
      "καταγ": 8759,
      "καταγελ": 8760,
      "##ρητον": 8761,
      "δεκα": 8762,
      "φασίν": 8763,
      "τιμῶν": 8764,
      "βαρύ": 8765,
      "θαρρ": 8766,
      "Κάδ": 8767,
      "Ποσειδῶνος": 8768,
      "ὑδάτων": 8769,
      "συγγνώμην": 8770,
      "ἐπωνυμ": 8771,
      "θύειν": 8772,
      "ἐϋ": 8773,
      "##ραστος": 8774,
      "##ηνται": 8775,
      "ὑπεναντί": 8776,
      "εἴδω": 8777,
      "##λίον": 8778,
      "##τέλειαν": 8779,
      "##δίῳ": 8780,
      "εὐθείας": 8781,
      "δεινῶς": 8782,
      "ἐπανα": 8783,
      "γεγέν": 8784,
      "ἐθέλειν": 8785,
      "ὁπόταν": 8786,
      "Συρίαν": 8787,
      "Καρχηδόνιοι": 8788,
      "Διόνυσος": 8789,
      "ἐκαλεῖτο": 8790,
      "νώ": 8791,
      "ἑκου": 8792,
      "ἠθ": 8793,
      "##ιμα": 8794,
      "##στῷ": 8795,
      "ποί": 8796,
      "##λιλα": 8797,
      "ἀποδέ": 8798,
      "##ώνῳ": 8799,
      "##ξασα": 8800,
      "πάσαις": 8801,
      "ναυσὶ": 8802,
      "θαρρεῖν": 8803,
      "γωνία": 8804,
      "Πομπηίου": 8805,
      "ταλάντων": 8806,
      "μῆνας": 8807,
      "αἰγιαλ": 8808,
      "ὠφέλι": 8809,
      "Δάφ": 8810,
      "πόνον": 8811,
      "ἥλιος": 8812,
      "##σύ": 8813,
      "##ῖναι": 8814,
      "ἐξεῖναι": 8815,
      "ἑαυτὴν": 8816,
      "ἀγαθοὶ": 8817,
      "ψυχαῖς": 8818,
      "##πλει": 8819,
      "τρίτῳ": 8820,
      "κάλλιον": 8821,
      "Γαλιλα": 8822,
      "ἐπιστήμη": 8823,
      "βωμὸν": 8824,
      "λειτουργ": 8825,
      "ἐδεί": 8826,
      "ἦγε": 8827,
      "ῥίζ": 8828,
      "##ψεύ": 8829,
      "##ερὸν": 8830,
      "χρῆμα": 8831,
      "##όγον": 8832,
      "μεγάρ": 8833,
      "##σσῃ": 8834,
      "##μαρτη": 8835,
      "##ρακος": 8836,
      "φυγῆς": 8837,
      "τεθνε": 8838,
      "ἀπέθανεν": 8839,
      "Ἄλεξις": 8840,
      "Μά": 8841,
      "Σμ": 8842,
      "Τυ": 8843,
      "πρακ": 8844,
      "τυ": 8845,
      "ἥδιον": 8846,
      "ὀρε": 8847,
      "##ρρό": 8848,
      "##εος": 8849,
      "##κρου": 8850,
      "μεστ": 8851,
      "##ικῇ": 8852,
      "ἀποδ": 8853,
      "##ήσουσι": 8854,
      "ποιησάμενοι": 8855,
      "##πουν": 8856,
      "μόνου": 8857,
      "καιροὺς": 8858,
      "ἑκατέρου": 8859,
      "πόντον": 8860,
      "##τοῦντος": 8861,
      "μοναρχ": 8862,
      "μητρὶ": 8863,
      "ἀρίστους": 8864,
      "ἐδίω": 8865,
      "ἐχρῆτο": 8866,
      "σελήνης": 8867,
      "ἄπειρον": 8868,
      "φιλονεικ": 8869,
      "Μαι": 8870,
      "##σκοπ": 8871,
      "ὑπηκό": 8872,
      "ἐφί": 8873,
      "ἀρετὴ": 8874,
      "Συρακοσίων": 8875,
      "ἀπέκτεινε": 8876,
      "μοῦνον": 8877,
      "ἀκρόπολιν": 8878,
      "Φερ": 8879,
      "Ἀσ": 8880,
      "ὀδύν": 8881,
      "##ίνουσι": 8882,
      "τινές": 8883,
      "##θησι": 8884,
      "##πειρον": 8885,
      "πρᾶξαι": 8886,
      "Οἰν": 8887,
      "ταυτὶ": 8888,
      "ἀγάλματα": 8889,
      "ξανθ": 8890,
      "σπα": 8891,
      "ἑλέσθαι": 8892,
      "ἡττ": 8893,
      "##κός": 8894,
      "##φικ": 8895,
      "##θί": 8896,
      "προκατα": 8897,
      "##κολού": 8898,
      "ἐμὸς": 8899,
      "##πονται": 8900,
      "καλούμενος": 8901,
      "Αἰακ": 8902,
      "οἴνῳ": 8903,
      "ὅσην": 8904,
      "εἵνεκα": 8905,
      "Βαβυλων": 8906,
      "οὐδεμιᾶς": 8907,
      "Νεῖ": 8908,
      "ὄχθ": 8909,
      "##ήχαν": 8910,
      "##τρω": 8911,
      "φασί": 8912,
      "##λάς": 8913,
      "##μαρτύ": 8914,
      "ἰδόντες": 8915,
      "ἀριστο": 8916,
      "ἔθνε": 8917,
      "##μεινεν": 8918,
      "κουφ": 8919,
      "ψεῦδος": 8920,
      "σπαν": 8921,
      "ἔην": 8922,
      "##έεσθαι": 8923,
      "##ύμν": 8924,
      "##ώρ": 8925,
      "καται": 8926,
      "##λείων": 8927,
      "πού": 8928,
      "##άσω": 8929,
      "##μιος": 8930,
      "νόσον": 8931,
      "τοιοῦτόν": 8932,
      "ὁδῷ": 8933,
      "Ἀντίγονος": 8934,
      "δρόμον": 8935,
      "τηνικαῦτα": 8936,
      "κεῖσθαι": 8937,
      "##λὸς": 8938,
      "##ζόνων": 8939,
      "τοῖν": 8940,
      "##τιμος": 8941,
      "##κοσίας": 8942,
      "##αιναν": 8943,
      "##υθῆναι": 8944,
      "βουλομένους": 8945,
      "κολακ": 8946,
      "γινόμενον": 8947,
      "ἕλκε": 8948,
      "σθέν": 8949,
      "Ἰώ": 8950,
      "##ού": 8951,
      "##σὸν": 8952,
      "##ίσχ": 8953,
      "παρελθ": 8954,
      "εὐωχ": 8955,
      "ἀνδρείαν": 8956,
      "ἱεροῖς": 8957,
      "##κτυ": 8958,
      "##φυκε": 8959,
      "φυγεῖν": 8960,
      "πέμπει": 8961,
      "τραύ": 8962,
      "Πτολεμαῖον": 8963,
      "δάκρυα": 8964,
      "Πίν": 8965,
      "φεί": 8966,
      "ἐβουλεύ": 8967,
      "##εῖεν": 8968,
      "ἀπηγ": 8969,
      "ταρά": 8970,
      "χρῆται": 8971,
      "θεσ": 8972,
      "##όμοι": 8973,
      "##υρὸν": 8974,
      "##μιλλ": 8975,
      "τεθν": 8976,
      "Ἀναξ": 8977,
      "βροτῶν": 8978,
      "κρείττων": 8979,
      "ἀπεκρίνατο": 8980,
      "φαι": 8981,
      "ἴδοι": 8982,
      "ὄψεως": 8983,
      "##ανὸν": 8984,
      "##ρεται": 8985,
      "##άζουσι": 8986,
      "##τική": 8987,
      "##θέσεις": 8988,
      "##σμυρί": 8989,
      "ξυνέ": 8990,
      "Ἀθήνη": 8991,
      "κοιλί": 8992,
      "τυράννου": 8993,
      "ἔτεσιν": 8994,
      "##φρόνως": 8995,
      "ζή": 8996,
      "ἀτι": 8997,
      "##έντας": 8998,
      "τεσσ": 8999,
      "##ρεος": 9000,
      "##αροῦν": 9001,
      "##ομάχ": 9002,
      "##ίζοντο": 9003,
      "##βατα": 9004,
      "ἐρεῖ": 9005,
      "ἵπποις": 9006,
      "βέλος": 9007,
      "Αἰγύπτῳ": 9008,
      "φυλακῆς": 9009,
      "Σωκράτους": 9010,
      "νήσους": 9011,
      "λειπ": 9012,
      "##τικοὶ": 9013,
      "ἀφίκοντο": 9014,
      "σπο": 9015,
      "σεσ": 9016,
      "ἐρί": 9017,
      "ἔστε": 9018,
      "ἠδί": 9019,
      "Ὠκεαν": 9020,
      "##τυγ": 9021,
      "##ιππος": 9022,
      "##δού": 9023,
      "ἀνῃ": 9024,
      "μήποτε": 9025,
      "##σκεσθαι": 9026,
      "συνέβαινε": 9027,
      "μακρὸν": 9028,
      "##τελεῖς": 9029,
      "##έβειαν": 9030,
      "##σχερα": 9031,
      "ἀκροα": 9032,
      "Ὅμηρον": 9033,
      "Μήδων": 9034,
      "ἀποθνῄ": 9035,
      "εἰργασ": 9036,
      "σπλάγ": 9037,
      "Ἰσα": 9038,
      "##ΟΥ": 9039,
      "προσαν": 9040,
      "ἄντικ": 9041,
      "δεξιὸν": 9042,
      "##ίλια": 9043,
      "Βελισάριος": 9044,
      "ζώ": 9045,
      "νοῦς": 9046,
      "ψιλ": 9047,
      "ἑώρων": 9048,
      "ᾤχετο": 9049,
      "##ηρά": 9050,
      "##θω": 9051,
      "##χομαι": 9052,
      "πρού": 9053,
      "παροι": 9054,
      "##κεύα": 9055,
      "ἀπολα": 9056,
      "συνηγ": 9057,
      "##δίοις": 9058,
      "μεγάλοις": 9059,
      "μικρόν": 9060,
      "νέους": 9061,
      "φεύγων": 9062,
      "δοῦλος": 9063,
      "εὐδοκιμ": 9064,
      "Πην": 9065,
      "ξηρ": 9066,
      "ὁμα": 9067,
      "##ωμο": 9068,
      "καπν": 9069,
      "##οιμεν": 9070,
      "χρῄ": 9071,
      "##δημον": 9072,
      "##πειτα": 9073,
      "οἰκεῖν": 9074,
      "κακουργ": 9075,
      "##πλεῖν": 9076,
      "σχήματι": 9077,
      "λίθων": 9078,
      "ἔλεγ": 9079,
      "ἔθνους": 9080,
      "δεσπότην": 9081,
      "δρόμῳ": 9082,
      "Δωρι": 9083,
      "γαλ": 9084,
      "ἔτους": 9085,
      "ὁππ": 9086,
      "##ιόν": 9087,
      "##δημα": 9088,
      "οἰκο": 9089,
      "οἰόμενος": 9090,
      "##γεγραμ": 9091,
      "##πις": 9092,
      "Περσικ": 9093,
      "σοφὸν": 9094,
      "##ταῦθα": 9095,
      "ἀληθε": 9096,
      "βαδίζειν": 9097,
      "κάμν": 9098,
      "Τηλέ": 9099,
      "Κορίνθι": 9100,
      "ΑΗ": 9101,
      "Λου": 9102,
      "ἄργ": 9103,
      "ὕπερ": 9104,
      "##σουσιν": 9105,
      "ἐπισπ": 9106,
      "ἐπιχώ": 9107,
      "##θεσις": 9108,
      "##εσσα": 9109,
      "Ἀθηναῖος": 9110,
      "ἱερεῖς": 9111,
      "κύων": 9112,
      "νομίζουσιν": 9113,
      "##ρικὸν": 9114,
      "αὐτόθεν": 9115,
      "##ίλιος": 9116,
      "αἵματι": 9117,
      "διαλέγεσθαι": 9118,
      "Μάγ": 9119,
      "βλαβ": 9120,
      "δασ": 9121,
      "Ἀκαρ": 9122,
      "##τῖνος": 9123,
      "##θιον": 9124,
      "##ήκει": 9125,
      "##ουσʼ": 9126,
      "ὄναρ": 9127,
      "παιδικ": 9128,
      "ἡγούμενοι": 9129,
      "χρηστὸν": 9130,
      "πρώτης": 9131,
      "δυσχερα": 9132,
      "##μειναν": 9133,
      "λίμνην": 9134,
      "σπονδὰς": 9135,
      "ἄττα": 9136,
      "##κτους": 9137,
      "##πρα": 9138,
      "##ότος": 9139,
      "##ύλων": 9140,
      "##τορι": 9141,
      "##τιμον": 9142,
      "ἐνό": 9143,
      "οἴκη": 9144,
      "##κτῆ": 9145,
      "κραυγ": 9146,
      "δυναμένους": 9147,
      "##τῆρας": 9148,
      "ἱστορίαν": 9149,
      "προσήκειν": 9150,
      "ἡμετέρας": 9151,
      "εὐπρεπ": 9152,
      "πόρρωθεν": 9153,
      "λοιποὺς": 9154,
      "τοιγαροῦν": 9155,
      "ἄντικρυς": 9156,
      "ΒΔ": 9157,
      "##ὰμ": 9158,
      "ἐναγ": 9159,
      "##ούσιον": 9160,
      "##κοσμ": 9161,
      "##ρητο": 9162,
      "κεχα": 9163,
      "μεταβολῆς": 9164,
      "ξένον": 9165,
      "Ἀντιπάτ": 9166,
      "ἀγωνιζ": 9167,
      "δαπαν": 9168,
      "ζῶντα": 9169,
      "μηνύ": 9170,
      "χθόνα": 9171,
      "Χερ": 9172,
      "ἐτά": 9173,
      "##έμεν": 9174,
      "##ωμάτων": 9175,
      "περισσ": 9176,
      "λαθ": 9177,
      "##ουμένης": 9178,
      "μακρὰ": 9179,
      "χωρίου": 9180,
      "μέσην": 9181,
      "##ρότητα": 9182,
      "τἀληθῆ": 9183,
      "νεύ": 9184,
      "##τεις": 9185,
      "##όλυμα": 9186,
      "##δοντες": 9187,
      "ποιεῖται": 9188,
      "##ίδῃ": 9189,
      "δυνάμενοι": 9190,
      "γνῶσιν": 9191,
      "μιαρ": 9192,
      "ἀρτί": 9193,
      "ἑκατέρωθεν": 9194,
      "τελευτῆς": 9195,
      "##ίονα": 9196,
      "ἀποκριν": 9197,
      "πολυτε": 9198,
      "μετέχ": 9199,
      "##ιδεῖν": 9200,
      "πεδίῳ": 9201,
      "μαρτυρίαν": 9202,
      "ῥᾷον": 9203,
      "πληθ": 9204,
      "ἠπί": 9205,
      "ἦγον": 9206,
      "##ῆλον": 9207,
      "πολε": 9208,
      "##δεται": 9209,
      "στῆ": 9210,
      "γενομένη": 9211,
      "##οκλέους": 9212,
      "##ισται": 9213,
      "πρώτῃ": 9214,
      "βίβ": 9215,
      "παρεκάλει": 9216,
      "βάλ": 9217,
      "##τεί": 9218,
      "##σθῇ": 9219,
      "##υντο": 9220,
      "τιμη": 9221,
      "##λητον": 9222,
      "ἀποδώ": 9223,
      "ἀρχαι": 9224,
      "##άζοντα": 9225,
      "οἰκείους": 9226,
      "ἔνια": 9227,
      "μυρία": 9228,
      "μεγαλο": 9229,
      "εὕροι": 9230,
      "κεκοσμη": 9231,
      "οἰκετῶν": 9232,
      "κήρ": 9233,
      "##ιφ": 9234,
      "##όρθ": 9235,
      "##δριον": 9236,
      "πρου": 9237,
      "##ομένοιο": 9238,
      "##μοῖο": 9239,
      "##κότι": 9240,
      "##χθὲν": 9241,
      "ὁρμη": 9242,
      "##δέξατο": 9243,
      "κύνες": 9244,
      "σιδη": 9245,
      "θερμὸν": 9246,
      "ἐργαζ": 9247,
      "νεκρὸν": 9248,
      "Πολύβ": 9249,
      "ἀφικόμενος": 9250,
      "Δημό": 9251,
      "κρίνειν": 9252,
      "θυγατρὸς": 9253,
      "ἑάλω": 9254,
      "##ρασί": 9255,
      "##ένει": 9256,
      "##κατο": 9257,
      "ἐπιτι": 9258,
      "συνη": 9259,
      "##ῖνε": 9260,
      "οὔσας": 9261,
      "βασαν": 9262,
      "##μεθʼ": 9263,
      "δοκοῦσι": 9264,
      "εὐθεῖα": 9265,
      "παράδοξον": 9266,
      "εἷλε": 9267,
      "##ήθην": 9268,
      "Μακεδόνας": 9269,
      "καταλιπὼν": 9270,
      "Ἀντίοχος": 9271,
      "Λίβ": 9272,
      "##εσθαί": 9273,
      "##ανά": 9274,
      "προσῆκον": 9275,
      "τεττάρων": 9276,
      "κεφαλῇ": 9277,
      "ἐχθροῖς": 9278,
      "##έστατα": 9279,
      "φρόνημα": 9280,
      "πάτριον": 9281,
      "κλυ": 9282,
      "λύχ": 9283,
      "στη": 9284,
      "ψέγ": 9285,
      "ἐθε": 9286,
      "##ητα": 9287,
      "##σμάτων": 9288,
      "##ψον": 9289,
      "προπε": 9290,
      "μέλλων": 9291,
      "σφαλ": 9292,
      "πολυχ": 9293,
      "##ήλῳ": 9294,
      "ὑποπ": 9295,
      "##άλλη": 9296,
      "τρίτην": 9297,
      "πληρώ": 9298,
      "βαρβα": 9299,
      "##φρονος": 9300,
      "##χώρησεν": 9301,
      "φάτο": 9302,
      "τυραννίδος": 9303,
      "λύπης": 9304,
      "μῖσος": 9305,
      "Θεόπομπος": 9306,
      "φθε": 9307,
      "##εισιν": 9308,
      "##ειρο": 9309,
      "παί": 9310,
      "ἀγώνων": 9311,
      "##άττον": 9312,
      "καθίστα": 9313,
      "ἔφοδον": 9314,
      "##ίλας": 9315,
      "δόξαι": 9316,
      "κοινοῦ": 9317,
      "##ασάμενοι": 9318,
      "##εστέρ": 9319,
      "αἵρεσιν": 9320,
      "ὁρμὴν": 9321,
      "διώκειν": 9322,
      "τρέφειν": 9323,
      "Πολέμων": 9324,
      "θόρυ": 9325,
      "Του": 9326,
      "δωρ": 9327,
      "ῥεῖ": 9328,
      "##νας": 9329,
      "##ῆι": 9330,
      "##τημα": 9331,
      "ἀκιν": 9332,
      "ὅποι": 9333,
      "μέγʼ": 9334,
      "##δειγ": 9335,
      "παιδεύ": 9336,
      "##ύμοις": 9337,
      "ἑλκ": 9338,
      "προειρημένων": 9339,
      "ἤκουσα": 9340,
      "λευκὸν": 9341,
      "χιλίων": 9342,
      "κάρτα": 9343,
      "Ἀννίβας": 9344,
      "πλευ": 9345,
      "##ῶσθαι": 9346,
      "ἐνεν": 9347,
      "##δακ": 9348,
      "πεφ": 9349,
      "πεφυκ": 9350,
      "##σωσι": 9351,
      "συνεπι": 9352,
      "ἡγεμὼν": 9353,
      "##ίσκον": 9354,
      "βάσις": 9355,
      "ἐμαυτῷ": 9356,
      "ἀγωνι": 9357,
      "Ἀφροδίτην": 9358,
      "πολυπραγ": 9359,
      "ἐβασί": 9360,
      "ΔΒ": 9361,
      "Στρα": 9362,
      "ὥρα": 9363,
      "##έσι": 9364,
      "##ισαν": 9365,
      "##ώσαντες": 9366,
      "ἐξὸν": 9367,
      "λέγοντας": 9368,
      "##κτει": 9369,
      "τρίτῃ": 9370,
      "##τῆρες": 9371,
      "##χώρει": 9372,
      "##ριστοι": 9373,
      "στόλον": 9374,
      "εἰρημένα": 9375,
      "διδάσκειν": 9376,
      "Πυθαγ": 9377,
      "γάμων": 9378,
      "βελτίους": 9379,
      "ἀτεχν": 9380,
      "χό": 9381,
      "ἀδ": 9382,
      "ἴδια": 9383,
      "ὥρᾳ": 9384,
      "ᾤοντο": 9385,
      "##τεῖον": 9386,
      "##ερά": 9387,
      "περα": 9388,
      "ὁρᾶτε": 9389,
      "##σμῷ": 9390,
      "φιλεῖ": 9391,
      "μακά": 9392,
      "χρυσοῦν": 9393,
      "##χωρεῖν": 9394,
      "κοινωνίαν": 9395,
      "ὀψὲ": 9396,
      "φιλόσοφος": 9397,
      "Κου": 9398,
      "Νομ": 9399,
      "φλογ": 9400,
      "ἡδί": 9401,
      "τετα": 9402,
      "##είρων": 9403,
      "τισὶ": 9404,
      "ἐξαρ": 9405,
      "δέομαι": 9406,
      "οὔτ": 9407,
      "##έλου": 9408,
      "##υρῶν": 9409,
      "τρίτος": 9410,
      "ἑκάστῃ": 9411,
      "φόβου": 9412,
      "ἡμετέραν": 9413,
      "Ὀδυσσεὺς": 9414,
      "καρπῶν": 9415,
      "μνᾶς": 9416,
      "κρύφα": 9417,
      "σύμμετρ": 9418,
      "##δίδωσιν": 9419,
      "Ἡράκλ": 9420,
      "φημὶ": 9421,
      "Αὔ": 9422,
      "Βρ": 9423,
      "ζεύ": 9424,
      "λω": 9425,
      "ἀτά": 9426,
      "##ορε": 9427,
      "##δὸς": 9428,
      "##σκαλ": 9429,
      "συντά": 9430,
      "##δοσιν": 9431,
      "##εύων": 9432,
      "μήπω": 9433,
      "ὁρᾷ": 9434,
      "ἐκεῖσε": 9435,
      "μνηστῆ": 9436,
      "λαμπρῶς": 9437,
      "ὀρνί": 9438,
      "ἐχθρὸν": 9439,
      "τάλαν": 9440,
      "##ηκὼς": 9441,
      "παρθένος": 9442,
      "σελήνην": 9443,
      "προνο": 9444,
      "Εὐριπίδης": 9445,
      "σάλπι": 9446,
      "Ἡσί": 9447,
      "##ηκεν": 9448,
      "##ημένος": 9449,
      "##πορ": 9450,
      "##σμένος": 9451,
      "##ίππ": 9452,
      "##ειβ": 9453,
      "##λλακ": 9454,
      "ἐπάγ": 9455,
      "##σταν": 9456,
      "ἀρχα": 9457,
      "κεκρα": 9458,
      "πρόσε": 9459,
      "ἀρν": 9460,
      "δεινὸς": 9461,
      "νῆσος": 9462,
      "ἑορτὴν": 9463,
      "ἐλλεί": 9464,
      "παραπλήσιον": 9465,
      "ἐπειγ": 9466,
      "εἰώθα": 9467,
      "ΜΕΝ": 9468,
      "Θεόφραστος": 9469,
      "Ἀγρίππ": 9470,
      "ἀσε": 9471,
      "ἀλεκ": 9472,
      "ἁλῶν": 9473,
      "ὁλο": 9474,
      "##ῶτος": 9475,
      "##άτας": 9476,
      "##ύτας": 9477,
      "##λλην": 9478,
      "εἰλη": 9479,
      "εἰλή": 9480,
      "##είῃ": 9481,
      "ὑπή": 9482,
      "ἐγνω": 9483,
      "##ίασιν": 9484,
      "##θέα": 9485,
      "αὖτε": 9486,
      "ἀγῶνος": 9487,
      "ἀκροπό": 9488,
      "##κρισιν": 9489,
[...]
