[PAD]
[UNK]
[CLS]
[SEP]
[MASK]
!
"
#
%
'
(
)
*
,
-
.
/
0
1
2
3
4
5
6
7
8
9
:
;
<
>
?
@
[
]
`
{
|
}
~
§
¨
«
¯
´
·
»
½
×
é
ë
ó
ö
ā
ī
ō
ū
ʹ
ʼ
ʽ
˘
˙
̀
́
̆
̇
̈
̓
̔
̣
͂
ͅ
ʹ
͵
΄
Ά
·
Έ
Ή
Ί
Ό
Ύ
ΐ
Α
Β
Γ
Δ
Ε
Ζ
Η
Θ
Ι
Κ
Λ
Μ
Ν
Ξ
Ο
Π
Ρ
Σ
Τ
Υ
Φ
Χ
Ψ
Ω
Ϊ
ά
έ
ή
ί
ΰ
α
β
γ
δ
ε
ζ
η
θ
ι
κ
λ
μ
ν
ξ
ο
π
ρ
ς
σ
τ
υ
φ
χ
ψ
ω
ϊ
ϋ
ό
ύ
ώ
Ϛ
ϛ
ϝ
ϲ
ἀ
ἁ
ἂ
ἃ
ἄ
ἅ
ἆ
ἇ
Ἀ
Ἁ
Ἂ
Ἃ
Ἄ
Ἅ
Ἆ
ἐ
ἑ
ἒ
ἓ
ἔ
ἕ
Ἐ
Ἑ
Ἓ
Ἔ
Ἕ
ἠ
ἡ
ἢ
ἣ
ἤ
ἥ
ἦ
ἧ
Ἠ
Ἡ
Ἢ
Ἣ
Ἤ
Ἥ
Ἦ
Ἧ
ἰ
ἱ
ἲ
ἳ
ἴ
ἵ
ἶ
ἷ
Ἰ
Ἱ
Ἲ
Ἳ
Ἴ
Ἵ
Ἶ
ὀ
ὁ
ὂ
ὃ
ὄ
ὅ
Ὀ
Ὁ
Ὃ
Ὄ
Ὅ
ὐ
ὑ
ὒ
ὓ
ὔ
ὕ
ὖ
ὗ
Ὑ
Ὕ
Ὗ
ὠ
ὡ
ὢ
ὣ
ὤ
ὥ
ὦ
ὧ
Ὠ
Ὡ
Ὢ
Ὣ
Ὤ
Ὥ
Ὦ
Ὧ
ὰ
ά
ὲ
έ
ὴ
ή
ὶ
ί
ὸ
ό
ὺ
ύ
ὼ
ώ
ᾀ
ᾁ
ᾂ
ᾄ
ᾅ
ᾆ
ᾇ
ᾌ
ᾍ
ᾐ
ᾑ
ᾒ
ᾔ
ᾕ
ᾖ
ᾗ
ᾘ
ᾜ
ᾞ
ᾠ
ᾡ
ᾤ
ᾥ
ᾦ
ᾧ
ᾨ
ᾬ
ᾱ
ᾲ
ᾳ
ᾴ
ᾶ
ᾷ
᾽
ι
᾿
῀
ῂ
ῃ
ῄ
ῆ
ῇ
῎
ῐ
ῑ
ῒ
ΐ
ῖ
ῗ
῝
῞
ῠ
ῡ
ῢ
ῤ
ῥ
ῦ
ῧ
Ῥ
`
ῲ
ῳ
ῴ
ῶ
ῷ
῾
–
—
‘
’
“
”
„
†
…
′
‹
›
⁑
⟦
⟧
〈
〉
﻿
（
）
##έ
##τ
##ρ
##ε
##ι
##α
##υ
##κ
##λ
##η
##ῶ
##ά
##ῳ
##ν
##π
##ό
##ο
##δ
##σ
##μ
##ς
##ύ
##ῖ
##ί
##ἱ
##φ
##ω
##ἰ
##ί
##ἧ
##ψ
##ὴ
##θ
##ʼ
##γ
##χ
##ῄ
##ῷ
##ὰ
##ξ
##β
##ή
##ῆ
##ἔ
##ὺ
##ζ
##ὐ
##ῦ
##ά
##ὲ
##Ἕ
##ώ
##ᾶ
##ή
##ῇ
##ᾳ
##4
##ΰ
##Θ
##ῃ
##ᾤ
##ᾷ
##ὸ
##ὑ
##ὀ
##Τ
##ὕ
##7
##8
##2
##ἴ
##Υ
##Ρ
##Α
##Ι
##ΐ
##Π
##Β
##Η
##Σ
##ϊ
##ὔ
##ἶ
##Φ
##ὶ
##ἄ
##Χ
##Ν
##Γ
##Ο
##έ
##1
##6
##ὁ
##ἀ
##ὧ
##0
##ἤ
##ὼ
##ὅ
##Λ
##Ω
##Ἐ
##Ἴ
##Δ
##ύ
##ἐ
##ὖ
##ό
##ϋ
##ἷ
##9
##ᾐ
##Κ
##ώ
##Ε
##Ξ
##ἓ
##ἁ
##ἵ
##ἡ
##5
##ἦ
##ῴ
##3
##ὗ
##ἕ
##Μ
##Ἔ
##Ἡ
##ῤ
##ῒ
##Ὅ
##Ζ
##ὒ
##Ὁ
##ἠ
##Ῥ
##ἢ
##ἑ
##ἅ
##ᾴ
##ὃ
##Ἥ
##Ἑ
##ʹ
##ὄ
##ὠ
##ὣ
##Ἀ
##Ἰ
##ἥ
##ὤ
##ἣ
##ὓ
##˘
##¯
##ῗ
##Ψ
##ἂ
##ϝ
##ὡ
##ὥ
##Ἄ
##́
##ῥ
##ὦ
##ἆ
##ἲ
##ᾆ
##Ὦ
##ῲ
##ᾗ
##ἳ
##ϲ
##ῢ
##̣
##̓
##ᾠ
##ᾦ
##ῂ
##ᾄ
##ᾀ
##Ὠ
##Ὑ
##Ὄ
##Ἤ
##ῧ
##Ὀ
##Ἱ
##Ἁ
##ᾲ
##ἇ
##ῡ
##ᾖ
##ὂ
##ʹ
##ᾱ
##ι
##ῐ
##ἃ
##̔
##ὢ
##Ἆ
##ᾧ
##ᾕ
##Ὢ
##Ἦ
##Ἢ
##͂
##ͅ
##Ἓ
##ᾔ
##ἒ
##ī
##ʽ
##Ὡ
##Ὃ
##Ἅ
##Ϛ
##ΐ
##ᾅ
##×
##ë
##Ά
##ῑ
##Ϊ
##Ὤ
##ó
##Ὥ
##é
##ᾂ
##̀
##ö
##Ὕ
##Ἠ
##ā
##Ὧ
##ϛ
##Ό
##Ἧ
##ῠ
κα
##ον
καὶ
##τα
##ου
##ων
το
##το
##ει
##αι
##αν
##ῶν
##εν
##οι
##τε
##ος
##σι
δὲ
##λλ
τὸ
##ρα
##έν
πρ
##εῖ
##ὴν
##τι
ἐπ
##ερ
αὐ
##ας
οὐ
##όν
τῶν
##ῆς
##μα
ἐν
δι
τοῦ
πα
τὴν
##ὲν
##στ
##σθ
##ὸς
##λε
εἰ
##ῖς
##οῦ
##μεν
##μέν
##ὺς
##ους
##ην
ἀπ
τὰ
μὲν
ἀν
αὐτ
πο
τε
##ρι
##ται
##εί
τῆς
##ὸν
##ως
##σιν
τὸν
##ειν
##ης
ἐκ
##υν
##άν
##των
ὑπ
##ιν
##τος
##ὰρ
##εῖν
##σθαι
##ρί
γὰρ
προ
με
##τες
##έρ
δʼ
##σα
τα
##σαν
##λα
περ
##κα
τοὺς
##ού
παρ
ἀλλ
##οις
##λι
τοῖς
##ίν
τῷ
κατ
πρὸς
##δε
##ρον
ὡς
##τον
οἱ
##σε
ἐπι
εἶ
τι
##ρε
αὐτο
##έγ
##ίας
##υμ
##ίαν
##ναι
εἰς
##τας
##κε
##λέ
οὐδ
ἐπὶ
##αρ
##όμεν
##λη
##ικ
##στι
χρ
##τη
ἀπο
περὶ
ἄλλ
πό
##ρά
##ρο
ἐξ
οὐκ
τῇ
τού
##ομέν
μὴ
ἔχ
συν
##ελ
##ομ
##άρ
ἡμ
##αί
##αλ
στ
τὰς
##τοι
πολλ
##οῦν
##ῶς
ἂν
εὐ
##ήσ
##ορ
##στα
δια
πάν
##πε
ἐγ
κατὰ
οὖ
##μον
##σχ
##ργ
##σί
##ήν
ἀγ
##σαι
##μο
##να
κατα
θε
##στε
εἴ
##άλ
##ρχ
##περ
ὅτι
##τʼ
##τί
λέγ
##υγ
##εις
##άτ
##λο
##όγ
ἐς
##ός
##κο
ποι
##λί
παρα
ἄν
##θε
οὖν
##αγ
εἶναι
γε
ταῦ
τιν
ἀλλὰ
διὰ
##ρη
δέ
##αυ
##ῖν
οὔ
##ὰς
##πο
##θρ
προσ
##τέ
βα
##άσ
μη
##δα
##θη
##δί
##ρας
##τέρ
##δι
##ὼν
##τρ
ἐμ
##πον
αἰ
##όμ
##έλ
πλ
##μά
##ότε
λόγ
##υχ
##υσ
ἀλλʼ
##ησ
ὑπὸ
##νε
##του
καθ
##ᾶς
οὕ
τί
##δρ
ταῦτα
τοι
δὴ
ἦν
στρα
μετ
ἐστι
##ίων
περι
οὕτ
##άγ
δε
ὑμ
γεν
τοῦτο
##εῖς
##υρ
##έχ
##κι
##θεν
##πα
ἀφ
βασι
##μι
συμ
ἀμ
##κον
##εται
πε
αὐτῷ
τις
καλ
μά
##εὶ
##μενος
##ύν
##δο
ἀνα
ἀκ
##εσθαι
##δη
αὐτοῦ
ἀπὸ
ὄν
##θα
##τῶν
αὐτῶν
οἰ
##άμ
αὐτὸν
##λον
##ματα
##κό
##ύτ
##είν
##ῦν
ἔφ
παρὰ
##οί
οἷ
##ωρ
##λευ
##όμενος
μετὰ
οὗ
##σον
λα
φι
##λλον
ἐστ
##ολ
ἀρχ
##άζ
μηδ
##ών
##ουσι
##εύ
##θέν
##ξι
##γε
δύ
μέ
##οκ
##οντες
##ππ
πόλ
κε
ἐφ
##ὶν
##υκ
##σας
##ίκ
##τικ
##ουσιν
##ὰν
ταῖς
##αις
##όνον
μή
##ρέ
##ες
τούτων
##ὶς
##αθ
##εσ
σφ
##ρος
αὐτοῖς
##ώπ
##τά
##δον
##οφ
##ίδ
##γν
οὐδὲ
##όντων
##σκ
τά
##αῖ
ἐλ
##τοῦ
ἐκείν
##ραν
##μπ
##ετο
πολ
##μη
νῦν
αἱ
##ρω
ἔτι
τό
μεγ
##ρό
##σπερ
οὔτε
##ίζ
μοι
##γον
μέν
##λεί
ὧν
##με
##ηγ
##τὸν
##ισ
##λεύ
##μένων
δυν
ἑαυ
##μβ
##μάτων
##ία
##οὺς
##τοις
##ακ
##ρου
Ἀθ
##πει
##νη
##τή
ἐστιν
ἀνθρ
ὥσπερ
##πι
ὅπ
φα
οἰκ
##ῆναι
##οιν
##βα
πᾶ
πόλε
##θέ
##ίου
##τῳ
βου
ταύτ
πέ
αὑ
##ταν
οὕτως
##στο
πρῶ
οἶ
κακ
##ματος
##οὶ
##δος
##στον
##ιον
##ήλ
##όμενον
καί
##ξαν
αὐτὸς
παν
μᾶ
ἀμφ
νε
##ίλ
##κει
##μενοι
οὐδὲν
##πό
##ωμα
σὺ
##της
##οντα
ἀνθρώπ
ἔν
##κά
ἔφη
δοκ
##σης
##τερον
πάντα
##θʼ
##όμενοι
μᾶλλον
##όντες
ὑπο
##κεν
##ῆν
δεῖ
ὑπὲ
γυν
ὑπὲρ
##ποι
οὐχ
##θος
ἤδη
##εγ
##πτ
##λή
ἔστι
μέγ
##λεμ
##σει
τέ
##σεν
##χθ
γέν
##δει
##λά
##ρυ
##στη
##οῖς
##ρων
##είας
##σεως
##ευ
Ἀθην
μετα
##ημ
##λαβ
ἄνδ
αὐτοὺς
##φθ
##πέ
ἐγὼ
##μν
##έναι
οὕτω
##γεν
ὁρ
ὥστε
##τους
μάλι
##σκε
##ριον
Ἀν
ἐπεὶ
φύ
##θι
##ίᾳ
##λογ
##μαι
##εῖσθαι
##λου
ἐκεῖν
τρι
συγ
ἡμῖν
πολεμ
##ραγ
##ομένων
##μενον
##άλλ
##σμ
γάρ
##ονται
Αἰ
ὁμο
##αιν
πολι
γν
##παν
ἀγαθ
##δέ
##μην
πάλ
##ῆσαι
##ξα
Ῥωμα
##σσ
##οντο
μάλιστα
πόλιν
οἴ
##ξε
##υρί
ἔργ
ἄρα
ἀνδρ
εἰπ
##άμενος
##ότερον
δό
##δό
μόνον
εἰσ
##χε
ἱερ
##ριν
##σαντες
οὐδʼ
##κλ
##μένους
##ωρί
παρʼ
##υθ
##κου
##κτ
κοιν
ἐχ
##ακε
##νο
##πί
##φέρ
##που
σε
##έσθαι
##ειδ
##σις
τότε
φυ
##τὸς
##έων
##ληθ
κατε
φίλ
##ίους
##ᾶν
##ρὸν
##οντας
αὖ
##ειαν
νομ
##ύχ
κύ
ἐπʼ
παι
##βη
πά
##αῦ
ψυχ
##ρθ
δη
δίκ
Κα
δή
##τρί
##φα
##φαν
πρῶτον
ἀπέ
##ήσας
ἄγ
πρό
##δόν
##ειρ
##ύμ
##θον
##σω
##τό
νόμ
##τω
##δικ
συνε
##ματι
##ήσα
##ομαι
##θεῖν
χώ
##τερ
##ομεν
τούτου
ὑπερ
Δι
##ὲς
Ἑλλ
##ὴς
λαβ
##οντος
τούτοις
##μόν
πολλὰ
##την
##βου
τιμ
##δαι
φη
βασιλέ
κό
βουλ
δύνα
διʼ
ἄλλων
σοι
##δας
##ίοις
ἅμα
πλεί
##χον
πάντων
ἄρ
##ρες
μα
##χος
φέρ
##υπ
πάλιν
##μένον
φιλ
κἀ
##θυμ
ἀσ
##λος
ὀλί
##μων
##ογ
ἔχει
χα
ἀναγ
##σθε
οὗτος
##κοντα
πολὺ
##λύ
ἐπε
εὐθ
δῆ
##μος
##πλ
##μοι
##ρύ
##δω
##κν
ἀλλήλ
##ήσε
διε
##ρόν
μι
φιλο
##άντων
ὑμῖν
λοι
##κη
##οῖ
##τόν
##μαρ
τρό
μὴν
σω
πολέ
##ραφ
στρατι
ἅπαν
##ωπ
##τὶ
βασιλε
##θεὶς
τʼ
Εὐ
αὐτὴν
##μψ
πῶς
καθʼ
##μου
τοῦτον
##λφ
##οῦσιν
##τηγ
μέρ
##σίας
##δεί
##κέ
δικα
ἔχειν
βο
##εῖται
οἷς
ἑκά
πι
##άλα
##λικ
μάχ
##ραχ
##θαν
##ὼς
σώ
ἵνα
##σίαν
##ρώ
##δες
δύο
κατέ
##καν
ἀκού
ὅταν
##ομένους
ἐπί
ὀν
ἡμᾶς
ἡμῶν
##σθέν
##ιος
##ραμ
μόν
ὃς
ὅπως
ἡγ
Περ
##λων
##σκευ
##οῦντες
μεγάλ
τρί
ἕκα
τινα
##οῦσι
##βολ
στρατηγ
πρότερον
##πν
##κρα
ἐπειδ
##μβάν
##πεν
ἀδε
##κων
αὐτῆς
##οῦτον
γενέσθαι
##ρακ
ἑτέρ
##ήματα
##μοῦ
ἀπε
##ρῶν
##λει
##βαλ
##ήσει
##ηται
##όρ
##ίως
χρόν
κιν
##ζον
ἐθ
παῖ
##ασ
βού
κατʼ
##τυχ
##στερον
μικ
ἣν
λόγον
##αντί
##μφ
##ρετ
λε
ἐστὶ
σοφ
κρα
σύ
ἀληθ
ἴσ
λέγειν
πόλεως
##όδ
##ουσα
εὖ
ἄρχ
ἄλλο
υἱ
##αίων
μήτε
##στή
τοσ
τετ
##ίγ
νό
φαν
ἀρ
##ότη
##αρχ
συ
##ουμέν
πλη
##δʼ
##ηθ
##τῷ
ἐὰν
##ῖον
##τεύ
ἔπει
ταύτην
##ροφ
##ὴρ
##τως
ποτα
Λακε
##κλη
##ησεν
ἀδελφ
δειν
##μένος
##ούς
ὅσ
χρη
##οῦς
βαρ
##οσ
ὑμᾶς
τούτῳ
τίς
##θει
##ήρ
##γγ
χά
ὃν
εἰπεῖν
##άρχ
αὐτὸ
##σθη
ἀντι
δυνα
Θε
##οπ
##σῃ
ἐστὶν
##όντα
ἐσ
##φορ
ἔχων
ἰδ
##ξαι
ὀλίγ
και
Ἀχ
##ρή
ἐγέν
οἷον
##ύπ
##ταί
ἀρι
##δυν
##άς
ἀνε
##λαι
##κας
##δαιμον
ἀνέ
##σται
##εῖον
##άκι
##δων
εἴη
πεν
##μοὶ
##ια
γυναι
εὔ
##λυ
##φαλ
##τρι
γρά
##ττον
##άτων
λι
##ίνεται
##ξω
##ίῳ
##οιο
οὐδε
οἵ
ὀρθ
σὺν
μηδὲ
οἳ
μηδὲν
ἀεὶ
##ύς
##έα
##τέρα
##όντος
##ρίαν
φησ
##αμ
ἐπέ
##ούμενος
ἡμέρ
##έχρι
γνώ
δυνάμ
πρώ
##μαχ
##φρον
##ούσης
μέχρι
αἴ
ἔστιν
##μῶν
πατρ
##ρίας
χρόνον
##ιλί
##μὸν
ἁπ
##σασθαι
σχ
Ἀρι
ἀξι
##ῆσθαι
##σθεν
ἐφʼ
Ἀρ
ὑπʼ
πάντες
ἀνθρώπων
##εβ
##ίνυν
##λις
ὅσα
##ύρ
μέντοι
ὑμῶν
##ρεύ
##οιτο
εἰκ
τοίνυν
##οισι
δοκεῖ
δυ
ἀρετ
##άμενοι
##λῶν
ἄνθρ
##μένοις
##τει
νέ
ἑκα
##εσβ
ἔπ
##ξεν
##ίχ
##ταῦ
θη
##μό
##μιν
##ουν
##ομένης
ἀνάγ
##ωσιν
συνέ
##ταις
##τιον
τελευ
##μένα
##μένου
##σὶ
##ελθ
ΣΩ
ἄλλα
ἄνδρες
ἦσαν
##λλα
στα
ἡγε
##κρά
##άκ
##ομένου
##ίη
ποτε
##ιβ
καρ
πρεσβ
σι
ἐρ
##μένη
##τῃ
φρον
παρε
##ίον
##φυ
πρὸ
ἑκάστ
Αἰγ
τοιού
##τάτ
πράγ
##ούν
τίν
γυναῖ
##ήσαν
##ότα
##ωγ
##και
τύχ
πάνυ
θεῶν
ἵππ
τοιαῦ
ζη
##όμενα
##πω
##δου
##ιγν
##τειν
λοιπ
##έρας
ἀδικ
##ίσ
θεοῦ
ἱππ
##ῆλ
##άσας
εὐθὺς
πλῆ
προσε
μακ
##άκις
##οχ
αὐτόν
##τελ
##σιον
ἔγ
##τευ
##μένην
##ξει
##ίστ
ἐποί
##λακ
##ξιν
##μῳ
ἐνταῦ
παρέ
ἰσχ
##σατο
##απ
πολλῶν
##ύλ
##ιστ
ὅτε
γυναικ
φθ
κρ
##ὓς
##οῦσα
οὓς
##στος
##μασι
που
##μασιν
##ίγνε
##κοπ
λί
ναυ
σκ
χρὴ
ἀποκ
##λω
ὢν
##ώτα
ἐπειδὴ
Ἕλλ
οὗτοι
Ἀγ
##βο
Ῥωμαίων
θαλ
##ηρ
γεγον
##τέρων
ὅλ
εἶπεν
εὑ
ὕστερον
##δύ
ξυν
##εῖτο
##λώ
κο
ἔλε
##ξας
##ιζ
καθά
##ηφ
##νή
##εθα
##διον
πόλει
ὄντα
αὐτοὶ
χρυσ
πλῆθος
τέλ
ἀπό
##θερ
αὐτῇ
πλέ
##δης
διέ
ἐξε
##μή
##ομένοις
ἔκ
##δὸν
##αῖοι
##δῶν
##είαν
##έως
##οικ
ποιεῖν
θα
ἢν
##λιπ
##σίων
##μένοι
ἀργ
λεγ
##μεθα
τοῖ
Σι
ἐμοὶ
##οβ
##σεις
δίκαι
##όφ
ποιη
ἐνταῦθα
κομ
##χαν
##φερ
νομίζ
αἰτ
πάντας
δυσ
τούτους
##όνων
διά
##ομα
ἄξι
αἰσχ
##ὺν
δύναμιν
##τός
##ούντων
##ιστα
καλῶς
μέγα
##τύ
##γων
ἀμφο
ὅσον
τήν
σα
##εῦ
ὑφ
τρόπον
ἐξέ
##κος
##ρει
##ροι
δο
χωρί
χεῖ
##καλ
##οῦντας
##θησαν
γʼ
##μάχ
##τυ
##εργ
ἐγγ
##ιοι
τοιαῦτα
κυ
##πη
ἀρχῆς
##νί
##ήγ
##αύ
##ριος
πρά
ἀνδρῶν
γῆς
##βάλλ
πράτ
πλεῖ
κω
τἀ
##ρια
##τέον
καθάπερ
##θους
πατρί
##τεῖ
ἔπειτα
χει
ἡμεῖς
##μως
##τὴν
##οῦντα
λόγος
κάλλ
##ῶμα
ἀνδ
##βαίν
εἶτα
σπου
##ψε
διδ
##υσεν
γῆν
πολλοὺς
ἐκείνου
##αβ
οὐδέν
ὀργ
##αῖς
##χάν
##τῆ
μέρος
πεί
##εὶς
##μης
βασιλέως
##στρα
Δη
ἑαυτοῦ
λέγω
ἕνε
γοῦν
οἶμαι
χαλε
##ψαν
θυμ
##τερα
##ομένην
γιγν
##ψα
πολλάκις
##σῶν
ἐγένετο
πον
ἡδον
ἀναγκα
ἐλευ
ταύτῃ
##τείν
##αιρ
##στά
##ημα
##θέντες
##τέρας
ταύτης
ὑγ
##νι
##τερος
πόλεμον
##ήνων
προσέ
ἄλλους
##όντας
##ρικ
ἄλλοις
##οιαν
Οὐ
##άβ
λέ
##φάν
##σπ
πί
##λιον
##θις
χώραν
##ῃς
λέγει
##ουσαν
ἐπαν
πέν
τέχ
##εῖα
##πεσ
πεπ
φων
##σοφ
ἀριθ
##ρίν
ἐκέ
ἔσται
Λακεδαιμον
ὁμοίως
##όμεθα
##τεῖν
##ρίζ
##θάν
##σὶν
πολλοὶ
ἅπα
ταῦτʼ
##φε
##ρευ
εἰδ
παρά
φυγ
τινὰ
##ῶσιν
##στʼ
πει
μεί
##ἂν
μετʼ
στε
##ομένη
πυρ
πλε
ταὐ
ἧς
γίγνε
μαν
τρ
##κειν
##ῆμα
αὖθις
##ῖοι
ἱκαν
##ειλ
##φρο
οὔτʼ
ἔξω
ἔργον
δεί
##αλλ
πρὶν
##ραπ
ἄνδρα
τυρ
ἀρχὴν
πᾶν
##μένης
ἐκεῖ
##ήσεται
πόλεις
θάλα
μαρ
κεφαλ
##είᾳ
##ούμενοι
φησιν
ἁρ
ὁμολογ
##δαί
ἑκ
ἰδί
##ῦσαι
##ούμενον
##ττα
ἐποι
ἄλλοι
πλή
δημο
τινες
πραγ
αὐτὰ
κἂν
λογ
##σιος
##άνδρ
ἄνθρω
##άζειν
ἔθ
λόγῳ
##οντι
ταχ
Ἀθηναῖοι
καίτοι
μνη
ῥη
##χωρ
##θῆναι
τόπ
αὑτοῦ
λέγων
##ιλ
##λαμβάν
##δην
##αὶ
βασιλεὺς
ἱστο
χάριν
##λλων
κελεύ
τόν
##ζε
##χει
εἷ
ἐκείνων
θαν
##χώ
##γμα
##υγχάν
ἀπʼ
εἰρ
διὸ
ἐγώ
##τοὺς
##τρε
##σύν
ὄνομα
πρᾶ
ἀντὶ
##έσ
βασιλ
Διον
ξέν
πλὴν
κἀκ
Ἰου
οὐδεν
θερ
##σθω
##ρισ
θυγ
συμβ
χαλ
##είων
##δύν
##άπ
στό
##ττ
##λίαν
##ύειν
##ήσεις
ὅπερ
##τρέ
##τὲ
Μακε
πόλις
##ξεις
παλαι
λόγους
##χα
Ἀλε
πολιτε
οὐδεὶς
##έας
τινος
##ίνων
##σαντο
δεῖν
ἡμέρας
##δωρ
##κυ
##θέντα
ὁπ
εἴτε
##χεν
σημ
##σια
##δρος
ὥς
##στιν
##ίδων
πλέον
##ρίων
Ἀντι
##χν
##τοῖς
ἔσχ
##βάρ
##όπ
φανερ
##ώς
##εῖναι
τοῦτʼ
ἀνὴρ
ἑν
##ιστον
##στέ
##ροῦ
##ησιν
εἴρη
ἐπιθυμ
ἁπάντων
ὑμεῖς
Πο
ἐμοῦ
σφί
##οῦνται
πολεμίων
γεγ
##ωσι
##λεγ
πᾶσαν
λόγου
##λόγ
##πλη
τέλος
μου
Καί
λαμβάν
βαρβάρ
φεύ
χωρ
Ἀχαι
##σσα
ἐναντί
ἀξ
ἓν
##ρέφ
ἦλ
γένος
##ήσατο
σπ
ἔοι
ἐλα
ἕτερον
χαλεπ
##λέξαν
ἔπε
ἄκ
ἕκαστον
##ήσειν
##νον
##κατα
μυ
##τὰ
##μέ
##οισιν
##ῖα
ἕνεκα
νυκ
##γνω
σῶμα
##ήσασθαι
γέγ
ὑπάρχ
Ἑλλήνων
αὕ
τροφ
Θη
σπουδ
βίον
##όχ
##κες
##ρους
παιδ
##τιμ
##θων
πολυ
Ἀθηναίων
φύσιν
νικ
##ίαις
##νομα
Καίσα
##ύσ
κατηγ
##εστ
##ύων
ἐστίν
δί
##βά
φί
##σίον
σου
Ἑρ
ὅμως
Ἀριστο
##ῖος
##ποτε
ἀκο
Ἀλέξαν
##ησαν
φό
αὐτό
λόγων
τάδε
##σεσθαι
οὐραν
ἄλλως
παρασκευ
##θή
χρήματα
ἔχοντες
ἐκεῖνος
ἐθέλ
##τις
Ἀθηναί
βραχ
λέγεται
##ῶσι
ἐσθ
τέχν
νη
##ρῳ
##πειν
##φύ
ἴσως
μηδʼ
τοσα
δώ
##ίκα
μέσ
διαν
πνε
##μειν
ἀμφὶ
##ρην
##δοκ
γυμ
προσα
αὕτη
##άχ
##άσης
περί
ξυμ
##ψαι
##ρὰ
##λίας
ἁμαρ
##βαν
##νος
##είς
ἑξ
ὕδωρ
Ἀλ
ἐλθ
##όντι
προσή
να
βά
του
##ουργ
ὄψ
Ῥώ
πεζ
τοσοῦτον
##φο
ἐπαιν
κεν
δει
##δοῦ
φησι
##τρο
Αἴ
##μῷ
##λῆς
##έρων
οὐδέ
ἔνθα
##λοι
χρή
δεξι
θαυμ
ἔδει
##νω
ἀλλήλους
##ησε
##ρασ
ὄντων
##στις
ἐνέ
οὐκέ
##ψας
δυνάμε
Ἕλλην
γιν
ὅθεν
##γελ
##ταγ
δόξαν
##ίνεσθαι
##σίους
λαμπ
δικαι
##μῃ
βι
ὣς
ἑαυτὸν
μετέ
##πίδ
##όμην
ΑΒ
Ἀργ
τοιοῦτον
Τι
##φι
##τρον
Διὸς
##ᾶσθαι
Σικε
νῆ
##σαντος
ὑπό
##ετε
##όνα
βασιλέα
ὀνομ
##υφ
##θεῖ
##ζειν
##ομένῳ
Ἰν
##σαις
μό
ὁρῶν
θεὸς
χερ
##ίλι
θυγα
κατο
##φων
διαφέρ
Πα
##μερ
ἄνδρας
ἐκεῖνον
##οῦντος
κεκ
##γέ
##ππος
ἐργ
μάλα
πόν
ἐδό
ὅμοι
Ἑλλά
##εὺς
##κέναι
διό
οὐκοῦν
##τέραν
ὀρθῶς
##κευ
##ροὺς
##λθ
πυ
ἐρω
##τοῦν
αἵ
μαθ
ὄντες
##σειν
κακῶς
δρ
θύ
σχε
ἔστ
##ριβ
##μένῳ
ὀξ
##σθαί
##παρ
ἡμέραν
βέλ
μισθ
Λε
ἕως
##ωμεν
πολέμου
##δρα
τρόπ
Ἰτα
##ίστα
ἄνω
δίκην
πραγμάτων
##άτου
##ορεύ
νεκ
##ξειν
##ότητα
Σα
χειρ
τοιοῦ
##μὸς
##άτην
##ρʼ
##λαγ
ὀφθ
χαί
##σίᾳ
λαβεῖν
ἅπαντα
##θά
τοῖσι
##είη
##ώτερον
ταύ
σώματος
Συ
##δρον
ἄλλος
##ρᾳ
Σω
θαυ
μέλ
χώρας
ὁπό
χρημάτων
##φη
φοβ
πᾶσιν
##έβ
θέλ
##ταῖς
##μενα
##πτον
πολί
##ήνην
ἐπιστ
κέ
εἰσιν
λέγεις
##ίην
πιστε
##αρχη
Ἡρακ
##ῶμεν
Πλά
##σθʼ
##τιν
##ωτῶν
Ἀλεξ
πᾶσι
Καρχη
διαλ
ἐκέλευ
ἀλ
##ήσαντες
##σος
##άνα
Πελ
καταστ
Λυ
γίνεται
πατρὸς
σταδί
ἐμα
##ιά
##ρίου
ἀνάγκη
##τικὸν
##ελθεῖν
##θέντων
Κο
ὀνό
ἐμὲ
νο
##ρὸς
##νου
αὐτούς
##αύτ
##μʼ
##ούσας
##σία
γα
##ρία
##στικ
ῥᾳ
τυγχάν
##φος
τυχ
μιν
##τῆς
##δομ
##ίνειν
Πλάτων
ὀρ
##κτα
ἀγορ
##δώ
##βού
παντὸς
σκοπ
Φι
##μί
##γραφ
σύν
##ξατο
θέ
θεὸν
##οῦμεν
##μελ
νύ
##μαν
κατά
##λιν
##βό
Θηβ
τινας
##δεκα
ἀνθρώποις
φυλ
ἀγῶν
##τέρους
##λασ
##κύ
##μικ
##μίαν
ἄρι
παρέχ
##ηλ
ἐλευθερ
μει
##φον
##φυγ
πέμπ
ὅσοι
τεκ
##άθ
##εια
τοιαύτ
ἐπιχ
Πολ
##λετο
##ορκ
ἀνθρώπους
ψυχῆς
##ρῷ
##σίου
##λυμ
θαυμα
σαφ
##κης
γραφ
##ωνται
##στὸν
πορ
##οῦσαν
##μνη
πολλοῖς
ὑφʼ
βεβ
##σχιλί
##άτω
##φελ
ποτὲ
εἰρη
μον
ἐνε
τύ
##δέχ
##ήκοντα
ἐκκλη
σωτη
κρά
λύ
ποιεῖ
εἰσι
κατασκευ
Ἀθήν
Πομ
δοῦ
ἔδο
δέκα
χρησ
ἔμπ
ὑπέ
ὁρμ
Ἀντί
Λα
κακο
##κεί
διώ
πράγματα
ἔχοντα
ὑπε
##αντα
##ραι
δῆλον
δεύ
λαβὼν
ναῦ
ἀκριβ
Ἀλεξάνδρ
δόξ
ἀφικ
Πέρ
σοὶ
##κτειν
μαχ
ἰα
φίλων
μικρὸν
##δια
##τεροι
πεποι
##ζων
##είου
ὄντας
##ρεν
##μένας
φύσει
ἄχ
ὅστις
μέλλ
πολεμίους
κοινων
##οῦντο
ἃς
προει
ἄνευ
ἡγεμόν
ἄξιον
φιλοσοφ
##αντ
##λείας
φορ
##ιδ
κίν
##σεται
Δημο
##ις
##ρις
##σεβ
##ρού
##δεύ
ἐπιτη
τρεῖς
##τὴρ
αὐτίκα
εὑρ
##σχε
##έσβ
##ταχ
ἕνα
βούλε
εἶχον
εἷς
##ώσκ
##αρκ
δυνάμεως
Ἀπό
##τίων
##χρ
Καλλ
##ήθ
αἷ
σύμ
γράφ
##σθῆναι
δεσ
##ώμενος
##λέους
γλ
##σαντα
οὖσαν
Λυκ
νίκ
##σθεὶς
ἀνδρὸς
τεθ
ὀφθαλ
ἐμαυ
##λίου
##δοι
##σʼ
##λοις
##ροῖς
μύ
θάνα
##γρά
δω
##δύνα
##ήνης
##λης
##ηκό
πεδί
##μους
##ήθη
ἅπαντας
κακῶν
##τάν
οὐκέτι
πλησίον
##ίης
ἡσ
καθαρ
ὥστʼ
στρατο
##τὴς
##κην
πέντε
εἴκο
νόμον
ἰχθ
ἀφʼ
σοῦ
ἐπεί
εἶχε
μαρτ
τοὐ
θεῷ
κλ
##λαβὼν
ἑαυτῶν
φόβ
μέλλον
στρατιώ
τοσού
ἀπει
##τταν
##ήσεσθαι
##ξεως
αὔ
γέγον
##σίν
ἄλλον
πάλαι
##τέροις
αὑτὸν
##δυ
##μοὺς
εἶχεν
##τηρ
ὕδα
νυν
##ίγν
τοιούτων
##πεί
ἔργα
μῆ
δευ
αὑτῶν
χρόνῳ
##φό
πεπο
αἰτίαν
ὅπου
ἠξ
ὅρ
μητρ
ὑψ
##τρα
κρί
##πή
ἴσον
ἑλ
##ανα
##ψεν
##λιος
ἡμε
##ῖνος
##βουλεύ
προσαγ
ὀλίγον
χρῆσθαι
σφι
λοιπὸν
ἀγνο
##πεύ
γεγεν
ἐπα
ναῦς
##δυσ
εἰσὶ
##λιγ
πρῶτος
γενόμενος
##ναντί
##οιεν
χαλκ
##ῦρ
καλὸν
ἐπισ
ἐξα
μίαν
ἰδι
##ιθ
ἀποθαν
##ρὰν
ἡγεμον
τη
##δοξ
πλείους
##σιοι
πολλὴν
τόδε
##οῦσαι
Μα
##άσαι
Κλε
συνεχ
ἰσ
##ῶσαι
##ρης
εἵ
πολλῷ
##ΑΙ
ἀλλήλοις
δου
παίδων
ἔστω
χορ
μυρί
παῖδας
Ἀπόλλων
φαίνεται
ἁπλ
##λην
λόγοις
ψευ
ἔτη
##ήσῃ
θαλάτ
γραμ
αἰχ
Ῥωμαῖοι
φησὶν
γυναῖκα
τινὸς
Ἀρχ
##ές
##άμενον
##άναι
##ξις
μεταξ
##ωπος
Αἰγύπ
βελ
ξὺν
ἑπ
αἰσθ
σὲ
##ναί
##σσον
##δά
ἔμε
μέσον
ἀγων
##όδρα
στο
τείχ
στά
τυραν
##πλή
φυλακ
βασιλεύ
##ίνει
δίκαιον
ἀκρο
φρά
μεθ
##τὰς
##θέντος
κόσμ
ἔλα
##κρι
διδάσ
##καί
ἕκαστος
φρου
εἶπε
πῦρ
ὄντος
Λιβ
ἀθ
λέγουσιν
βίου
συμμάχ
ἀγαθῶν
##οδον
ἱερὸν
νόμους
##ήσεως
θαλάσ
##μοῖς
ἧττον
ἀποστ
θεοῖς
δαι
##ικὸν
##τρά
φασιν
##λους
οὐχὶ
ἔδω
φεύγ
##ησι
##δευ
##ότερα
Γα
συμφέρ
αὐτός
μεγαλ
ὀφ
σφόδρα
μετε
πάσχ
##δή
##νης
##τοί
τρα
##δίως
καλλ
διαφθ
##θου
##τέρου
Νικ
Σώ
ἄλλην
##άμην
γράμ
Τί
πεντα
ἀναστ
##χθη
πρέσβ
γίγνεται
##λμ
##δεν
ὅλως
ἀνά
θεοὺς
ἀλλήλων
πονη
ὠν
τόπον
ἀρετῆς
Μεν
πράττειν
##σδε
##ότητος
ἐχθρ
γυμν
ἅτε
Ῥωμαίοις
πότερον
μεταξὺ
βάρ
##ένα
##ᾷς
γνώμην
ἡλικ
##στοι
εὐχ
##ίδης
καθε
πρα
χεῖρας
βασιλεῖ
πατὴρ
δα
##τιος
μέγε
αὑτῷ
πως
μέγιστον
συγγεν
ἡσυχ
τάλ
##ίδα
##λῳ
##σσαν
##σαρ
##τέρω
ἐλπί
μεγίστ
ζῆν
ὁμοῦ
γενομένης
τάχ
##πτε
εἴπερ
κυρί
οἶδα
μʼ
χωρὶς
##δαιμόν
##πος
ἐνι
τοὔ
ἐπιστο
##ώμεθα
πρός
νὴ
ἄρʼ
δῶ
ἕλ
ῥή
βοηθ
ἐδόκει
##κους
##δρο
##γέν
##κότα
βλέ
ὅς
παῖς
θαρ
κολ
ἀγαθὸν
##ίνετο
ἔφα
##στου
οἷα
κινδύν
##ηκ
τούς
παῖδα
κρεί
ἔλαβ
##ήσω
##θεσιν
##ρως
πολιορκ
ξύ
μεθʼ
οὐδενὸς
##μις
σχεδὸν
##λέα
##χεί
##ξάμενος
μάχην
βούλ
##κνυ
ἐντε
##μεναι
ἐλάτ
ἐκείνῳ
##άσει
##δυνεύ
##ελθὼν
μέγεθος
##λέγ
πανταχ
νυκτὸς
ἀντί
Καὶ
λάβ
##ῦτα
##τέρῳ
##ση
δακ
εὐπ
μάρ
ἀπορ
##μονεύ
##λέσθαι
τριά
θυ
ἀστ
φησίν
##ριά
ἐκεῖνο
Δία
##ωθ
στρατεύ
##τῇ
##όθεν
Σωκρά
Ὀδυσ
ὄρ
##μπε
ἄνθρωπον
Πυθ
##άζεσθαι
Δημοσθέν
##άσεις
τέκν
##ουμένων
ἐπαγ
##ξασθαι
χεί
##κοι
ἑταί
ὑποκ
##δαν
Βοι
Κύ
ὀλιγ
##αιον
ἰσχυρ
πάσης
##ῆλθεν
ἵν
##μας
##λεκ
προφ
##ρουν
καιρὸν
##ρίᾳ
##ωσ
ἐξου
ὅπλα
Μακεδόν
##τώ
χρόνου
ζῶν
Μεγ
##ρειν
γυναικῶν
μην
εἰσὶν
Ἀτ
σεμν
ὧδε
πλεῖστον
##τείας
ἐπιστή
##φῶν
##ταὶ
##βαλλ
δαί
μόνος
##πά
ἔργων
πολὺν
Μεσ
ἀπαγ
##εικ
##στησαν
πύ
κρι
##μονα
φίλους
φησὶ
συμφορ
##ήγαγ
χι
ἑνὸς
##θετο
ζω
νήσ
μηδεν
Λακεδαιμονίων
γάμ
ἐκείνοις
κύκλ
μηδε
κη
ἀπαλλ
ἔχω
##δοὺς
##ῦμα
##κοσίους
οἷόν
πόλεων
##κρατες
καρπ
##εξ
##ολογ
προστ
διαπ
ἐπιφαν
ποτʼ
λέγουσι
τρο
κακὸν
##ώτατον
κοι
Ὀλυμ
##στους
γέ
νοῦν
βω
##χώρη
##αιρε
εὕ
χωρίον
Ἱερ
##αιρέ
##ίδος
ζῴ
ὅλον
πατέρα
παρθέν
πολλοῦ
καλουμέν
##κότων
Λακεδαιμόν
γῆ
##πων
Δημ
ἀπι
##ικῶν
κλη
##κιον
##ῃσι
##αίρε
λει
ἀληθῆ
ἀνδρά
δικαίως
μερ
ἀτ
κυν
εἰδέναι
##ππον
##ωγε
προειρη
τινὰς
πρᾶγμα
πώ
##ριζ
##σων
αἰτίας
##ίδας
ἀλλο
##ίζειν
γελ
ἰδεῖν
κορ
Ἀπο
ὕβ
##ίνης
πολέμι
ἤκου
πλείω
λυπ
ἀδύνα
##βεβ
##τικο
στεν
##ωκ
##τικῆς
μεῖ
παρεσ
Παρ
μηχαν
ἑαυτῷ
##λευσεν
##άρων
Ἀλέξανδρος
##ρεπ
συμμαχ
γεω
##ῖσι
##βολὴν
ἔτυχ
##ής
φιλό
##γα
##κότες
εἰκὸς
Ἀφρο
##είσης
λευκ
ἔγωγε
τριάκοντα
##τάπα
νεαν
ἄνθρωπος
φίλον
##βας
σφίσιν
νοσ
πέμψ
Εὔ
##ΟΣ
ἑξῆς
##ίσκ
δῆμον
παντάπα
##σά
Ἑλλην
ἀφί
##λεμα
##ώνιος
γένοιτο
ἐκείνους
Φιλί
μισ
μνή
##ππου
##κουν
εὐτυχ
ῥᾳδίως
##ρίῳ
γεγενη
βλά
##οῖν
##πεμψ
ἀσθεν
##λὴν
##τίας
##πτειν
πολιτῶν
εἴκοσι
Ὅμη
γίγνεσθαι
##ησάμενος
##κω
##άντες
κατηγορ
συναγ
πελ
στρατό
βουλόμενος
Ἀχι
##οίας
##πεδον
μέρη
Πτο
εἰπὼν
ταύτας
ἐνιαυ
##καρ
ἀεί
διδα
##άτης
Ἀφροδί
σέ
φασι
φάσ
ἀρί
πλο
σμικ
πόρ
##φροσύν
ποιῆσαι
Πτολεμα
Δί
##λού
##κτο
##πτὰ
αὐτὴ
συμβαίν
πρόσω
φερ
ἐλέγ
##όλου
##αχ
##ήφ
οὔσης
Σώκρατες
ὑπομ
εὐδαιμον
##όν
πολλὰς
##δίας
προθυμ
σφίσι
τινὲς
ἐντὸς
πλείον
ἱπ
##ήματος
σφᾶς
πᾶσα
Περὶ
##πνον
βί
##νῶν
τινι
##ττο
πολύ
γυναῖκας
##στῶν
##νες
##ώμενοι
ἐλε
ἥκι
##λαν
##στην
κἀν
##κρί
##ήσομαι
μαθη
κά
##κοσίων
κίνδυν
εἴρηται
Καίσαρος
ὁπο
##σίοις
Αἴγ
ἑκατὸν
##σθα
τίνα
##ώνυμ
##έτω
##θυ
##ίνου
ἀγαπ
ἐδ
ψυχὴν
##τικὴν
κάτω
ὁμ
παῖδες
Ποσει
ἀρετὴν
θάλατταν
θάνατον
##ροις
##ῄει
##τικῶν
δεσπό
##γόν
##οσύν
εἰκό
ἀπέχ
ἑκάστῳ
μνημονεύ
Συρα
δίδ
εἶδος
εὐν
ἐσχ
εἰδό
θερα
ἐστί
υἱὸς
παντο
##ότατον
δρά
νομο
##βαλεῖν
Ἀμφ
ἐτε
ἐνὶ
συμπ
ἐκεῖνοι
ἅπαντες
διηγ
ἔοικεν
Ἑρμ
ἐπο
προε
Ἰησ
κἀκεῖν
ἔχον
##ώνων
ὄχ
γένηται
##θέντας
ἐγένοντο
κωλύ
##τία
Κῦ
πω
##βαρ
##ᾶται
##κοντες
παιδί
υἱὸν
Καῖ
αὐτὰς
##δόναι
κώ
ἔγνω
##ώνιον
μάχης
ἐάν
##ρεῖ
##αντι
##αζ
##ριστ
##λίᾳ
ἕν
##δους
##διδ
ἐπειδὰν
##ψηφ
ἵνʼ
Καῖσαρ
ποιεῖσθαι
Αἰγυπ
συλλ
τρυ
##έραν
νόμος
ἐπιχειρ
γίγν
##νυ
ἄλλας
ψηφ
οὐδαμ
##κλῆς
δυνάμει
Με
ἄνθρωποι
##ριοι
πλού
##θὲν
κἀγ
τραγ
##κάλ
##σάμενος
##μω
αὐτὰρ
ἠν
ἀνὰ
##σαντας
δού
κερ
ἔσεσθαι
νεω
##δοῦναι
Ἀχιλλ
##μοί
βαρβάρων
πληγ
##οῦμαι
δοκεῖν
ἠξίου
##ελφ
πολεμίοις
##φρα
φύσεως
##γνώ
Ἀντ
τετρα
##ημάτων
##βε
ἔρω
Καρχηδον
ἀφαν
ἐχθ
ἔσ
Λακεδαιμόνιοι
τοῦτό
βουλεύ
πρόσθεν
##τίαν
γεγονέναι
στρατοπέ
Δαρ
##ῦθεν
τρια
##χεται
πλεον
θʼ
##κῶν
##όνος
οὖσα
δεύτερον
##ύναι
##γι
##ιερ
##πάρ
##ίμων
Μεσσ
ἀναλ
φησί
ἄστ
##νήσ
μεῖζον
##αγεῖν
##ῆλθον
πρέ
##σαί
γων
##έστα
##υζ
ἀπολογ
δῆμος
##θῶν
##άζων
ἔχουσιν
φυλάτ
φά
##νων
λογισ
ἐδί
##λαύ
##ομένας
δικαιοσύν
τινὶ
τετρά
##οπον
##όρους
αὐτήν
##σχεῖν
χειμῶν
ἀνελ
##ράτευ
τοιαύ
ἰδὼν
##τήριον
οὑ
μὰ
βουλευ
κινδυνεύ
ὁδὸν
##άτους
ἄλλου
ἄλλῳ
πολιτείας
φο
##ροί
ἱδρ
##ίω
σκε
κρίν
πυθ
ὤν
πάντως
##τρος
πολέμῳ
Ἀχαιῶν
πρέσβεις
Σε
Ἕλληνας
##ουσαι
ἔχουσι
Ῥωμαίους
##στων
βασιλείαν
μήτʼ
ἐχρ
ποταμὸν
ἐλέ
##αντες
##πτει
στέ
Μη
πη
καιν
πράξεις
Ἰω
εἶπον
ἐλθεῖν
μί
##τια
##μνον
ναί
ὀχ
##νους
##εύς
ἥκιστα
ΘΕ
##ενε
ἀσφαλ
μάρτυ
εἰκότως
ἑορ
ἡδ
##άγειν
##φάλ
δήπου
##ῆται
δήμου
ἔπεμψ
##υμάτων
ὑμε
##ίζεσθαι
##σμον
##θύμ
##σταί
##θέσθαι
##λαβεῖν
ἠγ
παντὶ
ὥρ
##λία
βελτί
##θοι
ΑΘ
##ειον
τελευτ
##άσῃ
ζῷ
##όμα
ἐμέ
Περσῶν
##ήσαντος
ἡμερ
οὔπω
##εγκ
ἀπέκτειν
##καὶ
##σχιλίους
Λιβύ
δημ
ποταμοῦ
μείζον
πικ
γεγονό
ὑπη
καταλιπ
οὐδένα
λῃ
βασιλικ
γλυκ
ὠφελ
##έντες
πνεύ
κατοικ
μουσι
##έρα
##όμεναι
δεῦ
##μὴν
μεγάλα
σκέ
Πελοπον
σιωπ
ἀλή
Ἀνα
ἐρα
ὀψ
πεντή
λυ
ἡδέ
κόλ
λεί
##θεσθαι
πύλ
##πώ
ἀρχὰς
τελευτα
θά
σκό
##μαθ
πέρι
τεῖ
ὁπότε
##σμα
##κοδομ
##κτον
##ανθρ
##λλυ
##τριβ
ἆρʼ
##κομ
##δημ
πιστεύ
Ἀθηναίους
Ἀλεξάνδρου
γίνεσθαι
θαλάσσης
κοινὸν
ἱππεῖς
##ίνονται
ἑκάστου
ἔχοντας
δεινὸν
##σίῳ
##άτῳ
τιμωρί
τρέφ
ἄλ
ἄπ
##ράν
Σύ
πυκ
ὂν
διότι
ῥᾴ
ἀπώ
ὄντι
μν
##θύ
δεσμ
πρῶτα
ἔχουσα
θεωρ
##άμβαν
καίπερ
δύν
ἑβ
##άφ
##θέρ
ἄρχειν
ψευδ
πηγ
συνα
μεγέ
ἡμέρᾳ
πάρ
ὑβ
##ξαντες
αἴτιον
##εντα
##έχειν
στρατόπεδον
ἀνθρώπου
ἄλλη
νόμων
##ῆλθε
σελ
Ῥώμην
φέρειν
γυναικὸς
τεῖχος
##πεται
##έος
στρατιωτῶν
θάλασσαν
Ξεν
χιλί
ἀθρ
Ἡρα
ἁλ
##αινε
ἄχρι
ὀνομα
##τὸ
##όμων
πρεσβύ
ἰδίᾳ
##κλή
ἄνα
##πτου
##ῶνται
##λαῖς
τρίτον
θαλάττης
##άζεται
ἐποίησεν
ἑπτὰ
##ληφ
χάρι
##βολῆς
ποικ
##ότεροι
τοιαύτην
προσι
ἀναγκαῖον
Πομπή
##πέμψ
ἔρ
##ραῖς
##τάς
τυράν
τυρανν
πειρ
γενέ
##ειχ
γένους
##ίαι
##ουμένους
##στὰς
##οιντο
ἀκούσας
ἐντεῦθεν
Βοιω
##ψιν
καταφρον
ἑτέρων
##εῖσα
Βαβ
##εισ
βρο
ἀριστε
διαφορ
ὑγι
ὁμι
##σικ
##άλω
στρατιώτας
δυσχ
##δίαν
##σόφ
ἀδί
##ῃσιν
μαρτυρ
δύναται
ἴση
σʼ
##ιῶν
##αῖον
οἰκίαν
φρόν
ἐξελ
##σονται
ἄρτι
##πίων
ἀλλά
Βαβυ
##θειαν
##βλέ
Μάρ
##μώ
##ύβ
φίλος
##τάτους
ἔχοι
παραγεν
##στό
##εία
εἶναί
ἔφην
νόσ
στόμα
ἴσα
##όδου
Διονύσ
##λέων
πατρίδος
ἀλλοτρί
ἐπιμελ
ἐλπίδ
##τού
##λαος
##ναντίον
αὐταῖς
πλου
περιέ
οἰκίας
##βαλὼν
γον
##εσθε
##οῦσθαι
ἅρ
περιε
κοινῇ
ἀργύ
τοὐναντίον
ἁπλῶς
ἔοικε
Ἀλέξανδρον
δόξης
##κιν
##μύ
κεί
πεντήκοντα
Θρ
φαρ
##κότας
πέλ
##κετο
τύραν
##νώ
##οῦντι
καλέ
ἐνθά
##ήσαι
Κό
##ροσθεν
##ορφ
##ωρος
τρά
συνέβη
πλεῖστα
βούλεται
ὅν
##ήσομεν
μηδένα
##ησον
ἀνθρωπ
##ήσονται
##πευ
ἀνδρὶ
ταὐτὰ
σαφῶς
ἐγχ
ἱππέων
σκην
πλήθει
γεωργ
##ύα
##είῳ
ἐλπ
θυσ
μουσικ
Ζεὺς
καταπ
μεγάλην
Αἴγυπ
νεν
##βος
πεσ
πλευρ
θέρ
τρόπῳ
ποῦ
##τησεν
ἐδέ
Νε
ἄγειν
πάσας
τρέ
##ῇς
##άζει
ἀλη
##ῶδες
γενόμενον
τέκ
ἐγγὺς
##μέλ
ἔπρα
##γει
##χυ
γυναῖκες
νεῶν
πειθ
γενε
##μιον
ἔμελλ
ἔτε
##ῶτα
##ξον
πᾶς
##ελι
##δὼν
μάχῃ
##ρῶς
ξί
##σθέντες
##άδος
πάθος
κεφαλὴν
ὕδατος
##ῆος
ἀπα
διόπερ
Ἑλλάδα
##εῖτε
λέγοντες
##σθησαν
Ἀριστοτέ
##εργε
δυνάμεις
σταδίους
##ταρ
ἐνδε
διελ
ἔχεις
ἑαυτοὺς
παιδὸς
ἀγῶνα
παραν
##τοιο
ἤν
Ἡρώ
##εῖος
##μονος
προσηγ
##ίζων
μυριά
##άδα
##ροὶ
##οποι
##σίως
γέγονεν
κει
Ἐπ
πόρρω
Κύπ
κρύ
ταπειν
##σίαις
Διονύ
##κως
##πόν
ἐπιν
##λευσ
φροντί
μῦ
αὐχ
παύ
##αγὼν
βό
ἐπίστα
κού
##εκ
##βων
φασὶ
ἔργῳ
οὐδενὶ
##τατον
ἀμφοτέρων
Ἀθηναίοις
##σσι
##μοις
##πας
##τεσθαι
##στόν
ἵππων
χρήσι
πυν
##λαί
σφῶν
##είοις
ἐπιτρέ
σημα
##μός
##ψει
τολμ
διαβ
φιλοτιμ
ἐθελ
ΞΕ
Οἰ
σχολ
πλήθους
ἀνι
αἰδ
Αὐ
τἄ
προϊ
##ούσῃ
σφε
σώματα
τύχης
σαυ
##υβ
φίλοι
σί
##θης
ἀπη
δεδι
ἀληθῶς
##έστερον
##ῆκεν
##ζει
πρεσβυ
##ζεν
##σασα
##εσσι
##έβη
ἔνδον
μία
οὔθʼ
##ύνε
ἐκείνην
οἶνον
Χαλ
##ότ
##φρόν
προν
ἐκείνης
ἄπει
##φυκ
Αἰτω
κύριος
##άγει
αἱρ
ἀδύνατον
Συρί
ἑω
##εσιν
ἐκεῖνα
##ῶται
ἐπιμε
##χθαι
δίκαια
ἐχόντων
Μακεδον
ἐσθῆ
Κελ
ὄμ
δωρε
##δὲ
Ὅμηρος
τοῦδε
##κασιν
##όλων
τάξιν
τοξ
##τελῶς
ὄψιν
κάρ
##ύτην
##ζω
παρεσκευ
ἄμφ
καλῶν
##ῖνον
φύσις
εἰρήνην
ἰατρ
αἰχμα
θνη
φάλα
##ῖται
##στὴν
##οίᾳ
γυνὴ
θρασ
σημεῖον
αἶ
##λας
##ζη
ὅπλων
ἔρχ
##ρίοις
λοιπο
εἱ
φιλοσόφ
Παν
δέν
ὀκτ
##κῳ
##αντος
οἰκέ
##ῖσιν
##ᾶτο
##ότητι
ἔλεγεν
Ἑλλάδος
τελέ
##σεων
χρω
φιλανθρ
##ίστη
##μένως
μετρ
##χθῆναι
τἆ
τάς
Ἕλληνες
εὐεργε
αἰεὶ
κρατ
ὑπάρχειν
δοῦναι
##σκον
##τίου
##αρχος
πάτ
ἀναι
βασιλέων
##τύγ
ΚΛ
ἅπερ
##βρα
##ισμα
κλέ
λή
Ἀμ
##κὼς
ἔνιοι
##στρε
παρακαλ
ΘΕΑΙ
##βιά
δύνασθαι
Αἴγυπτον
Μι
μέγαν
πίστιν
βαδί
δήμῳ
##τρικ
φον
ὄρος
##άδε
κύκλῳ
##στερα
##ρηται
αἰτι
κόσμον
βιβ
πεποιη
γέρ
ταῦτά
ἵππους
##ότερος
οἶκον
γνω
##βάλλειν
##ορος
Ἀντων
σωτηρίας
ἰδέ
##λεύθερ
##πτω
ἐβού
##θῳ
προσήκει
ΒΓ
##λλος
##κειται
##άσασθαι
ἐμπο
κή
##τύγχαν
ἐπιτή
##ικῆς
ὡμο
##τοὶ
ἐπιβου
Δίʼ
εἰσε
Φρ
##άντα
χρυ
Θεσ
ἑστ
##χεσθαι
##δεικν
λύπ
τῆ
ἐκπ
##λοί
##λοντο
##κότος
Λακεδαιμονίους
##δῳ
##τελέ
βουλῆς
ἔλεγε
##γωνον
τειχ
##κιος
##δῃ
μέγας
##λό
##ίσαι
##φυρ
##τείαν
κερα
##ήσαντο
βέλτι
τοὔνομα
λά
σπον
θεοὶ
ἀναβ
##ξαντο
##βάλλον
πλα
οὐσίας
βασιλείας
πυρὸς
τριῶν
γράμματα
ἀθαν
##ίσας
διαρ
Μαρ
ἐνεργ
##πεσθαι
σχῆμα
##δεῖ
##ῶντες
##δείκνυ
##τήν
##φημ
μητρὸς
ΑΓ
ταραχ
ἐλθὼν
Σκ
αἰσχύν
αἷς
τἆλλα
Προ
κάμ
κεῖται
εἴποι
κύκ
κέρ
ὀγ
##φρά
##ειπ
παρόντων
φω
##καλέ
συλλα
ἔλεγον
ἑκάσ
##καμεν
##θες
##λεν
##αῖος
δικασταί
Λύ
Τυρ
##άδας
ἀπεί
ἄμφω
ξεν
##άνων
βαλ
##κῃ
##τησε
##πεπ
Δημή
τόπους
##ώρα
εὔν
τύχῃ
σκι
##ιγ
##ορμ
μεγάλων
κυβ
ταχὺ
ἄμειν
μηδενὸς
ἵππον
##ωρη
##κτωρ
Μέ
##εθ
πολλῆς
ἀχ
ἤρ
ῥέ
##ρός
##άκρυ
ἔμπροσθεν
δορ
Ἰουδα
##ναγ
ὁρῶ
ἕκαστα
θανάτου
##συ
θεραπ
κίνδυνον
##λεῖ
στέρ
στράτευ
##ργος
##κλει
ἀκριβῶς
ναυμαχ
πεποίη
Ἀλκι
Βυζ
τραχ
##ζόμενος
##ταῖ
οὐσίαν
στράτευμα
Φίλι
ἠπεί
##σοι
##ριῶν
##ήσειεν
Δελφ
θεῖον
ἕτερος
τέττα
τάχιστα
ξυγ
σῴ
##ήσαντα
##ώντων
χθον
##ικὴν
δυνατὸν
ἱκανῶς
Καρχηδόν
Σπάρ
##έχει
Διόν
μόλις
τοιοῦτος
Ἀπολλ
αἳ
##ράκοντα
##λίῳ
##δειν
##ίας
κακόν
βασιλεῦ
σωφρον
βοη
##ύτη
##ίῃ
##ήματι
##αλμα
ἀπέθαν
ἐποίησε
φοβερ
Κῦρος
μεσ
ἀρχήν
##τικὸς
σύγ
ἦλθον
Ἰταλίαν
##ύμφ
τιμῆς
τίνος
αἷμα
Ἱππ
ὑπέρ
λέγοντος
ἀληθείας
κι
ταῦθʼ
σεαυ
##κυν
##κάζ
##δαίων
##ριδ
μήτηρ
ἀκολου
##ματʼ
##υχν
δεῖπνον
##θην
εἶτʼ
παντάπασιν
Θή
ὁδ
##υσε
##λυθ
##αγό
ἀσφα
δημοκρα
κου
##ψυχ
πρω
παθεῖν
αὑτοὺς
ἀκούειν
ἴσχ
##ηκο
τρυφ
ἄμεινον
Μή
ἀσκ
ὅτʼ
ἀποθ
μάν
##μαί
Εὐρ
πολιτείαν
ῥα
##ητον
##χετο
εἰργ
##πτο
κεχ
ἴδιον
##ικα
##λια
ἀποστε
γενομένων
θυγατέρα
βέλτιον
ἔξε
##ανακ
##αίους
καλεῖται
Δημοσθένης
##άλη
μιμ
##αμέ
τέκνα
##πλα
Καρ
κοσμ
κράτος
##καίδεκα
Πε
πατρίδα
διεξ
ἀποκτείν
αὗ
λέγε
##βαλε
διανο
##όων
ὑπῆ
μητέρα
ἀμφισ
Φιλίππου
ἄτο
πορθ
τινων
γιγνώσκ
φάρ
##όνου
ἐπικ
##φέρειν
Κυ
συγγραφ
ἑτέρου
##στέον
##ησις
##βον
##ρετο
μηδέ
πεῖ
πείθ
χαρ
πόθεν
φύλα
ἐνθυμ
##λικα
καθή
##φάνης
##ρῶ
##ρατο
##δόξ
σωφροσύν
πονηρ
ὅμοιον
ἐπίκ
ἄλλης
##ναις
εἰκός
εὗ
##λοὺς
φιλίαν
τέχνης
##μαχος
##τικόν
##θέως
γῇ
λόφ
##άμον
Θεττα
ὅλην
ἀπή
πεπραγ
κτείν
##αντο
ἡτ
φέρων
ζῴων
συμβαίνει
##οια
τρία
Φιλο
Ἰσ
προσθ
##θηκε
##πέμπ
##ψαντες
ἐνν
τεταγ
μηκέ
##διος
ὁρᾷς
στεφάν
βάρβαρ
Ἱεροσ
ἀνή
##στασιν
διεφθ
Νέ
ὀρχ
##ότες
##ίο
διάν
##ρότη
ὁρᾶν
ἁρπ
ἐξηγ
ἀγγ
μένειν
πρεσβευ
ἔθνος
γραμμα
ψήφ
ἰέναι
##ίαν
##γαγ
ἀνήρ
##είους
ταυ
τάχα
εἰπόντος
μῆκος
ποιήσασθαι
##βολὰς
κέν
Ἰων
ὕπν
##τωρ
##τιοι
Πομπη
ἰδιώ
##λέν
ἐκάλ
καθόλου
καλὰ
##οῖσι
ἔξωθεν
λαμβάνειν
τέχνην
##μέναι
ἀντε
##πεζ
##φέ
εἶεν
##πετο
ἐμὸν
##οῖο
τάλαντα
Τε
##εσαν
##ήρεις
βούλομαι
##φει
##ῶνος
ὅπλοις
πέτρ
##ώτατος
ἑξα
##ρᾶς
##ανθ
γνώμης
σκο
##ττε
##μὼν
##ζεσθαι
##σχον
Φίλιππος
ἔρη
ἔπος
##ότατα
κάλλος
##ρεῖν
ἐπιεικ
τραγῳ
ἐτύγχαν
##οξ
παθ
φίλοις
στρατηγὸν
ἅπασι
ἤτοι
##ανὸς
διακ
##τέρᾳ
οἰκοδομ
αὗται
##ητε
##νει
##αίου
##ίδην
##ώδε
##εῖσαν
χεῖρα
Πέ
##κασι
##ίνῃ
##θέναι
ἑτέραν
ἡδονῆς
##μερον
##πολιν
λη
σὸν
##άγων
τοσαῦτα
ἐπιτήδει
##γραμ
τύχην
Καλλι
μοῖ
##γος
##θεντο
στρατιὰν
Λεύ
ἔσω
##ῃρη
##μιουργ
ἀρχιερ
ἀρκ
ταχέως
ἐλλ
ὕπα
##νῳ
##φεύ
##γωγ
##ήνεγ
##οφῶν
Κά
κτ
##ώσας
##εσσιν
εἰδὼς
Φα
##σάν
γνωρί
δεῦρο
Διόνυσ
Μιθ
##τρίβ
πράγματος
δαιμόν
Μακεδόνων
Φωκ
ὀστ
προσώπ
##κόσιοι
##χειν
ἐκτὸς
##σατε
συντε
αἰτί
ἦλθεν
ὀνόματα
##άρι
εἶδον
τάφ
μιᾶς
ἕτερα
ὁμοι
##ρῃ
##λεῖν
εἰμι
τυχεῖν
ἐνθάδε
δηλ
λίμν
##παθ
##ύτως
ἀμφι
ἑτέρους
ἐκέλευσεν
##θύμως
γαῖ
##ότης
καλούμενον
εὐδαί
δυοῖν
Ἀλκιβιά
Εἰ
εἰσα
##έρξ
ἀποφα
στρατηγὸς
##ῶνα
πόδας
##τέλε
ἀφαιρ
θαυμάζ
νῆσον
##ασιν
##λὰς
##μία
##ῶναι
συγχωρ
σώματι
ἑνὶ
δά
ὑπα
παρρη
##μβαν
κτί
φαιν
Ἀσίαν
##ώμενον
##λοῖ
Φί
τόπων
ὕψ
##άτῃ
##ποντο
κακὰ
##λουν
συμμάχων
ἡδέως
ὁμό
διαφερ
προσδοκ
ἠδὲ
ἡλίου
εὐσεβ
πολὺς
Αἰσχ
φυλά
τείχους
τῇδε
ὄρνι
##κειτο
ταὐτὸν
Σικελίαν
δὶς
ἀρε
ἁγ
##δεις
ῥᾴδιον
θο
κρη
φρ
παραλλ
μανθάν
Ἰωάν
##τυγχάν
Ἀννί
Ἕλλησι
ἐξουσίαν
βρα
μαλακ
##ψεως
ἀλήθειαν
ἐστε
εἰσίν
δῶρα
##δορ
##θῇ
##δοχ
##τάτων
προσέτα
##ραπται
σύμμε
##ήνῃ
##δίων
ἱερῶν
πιστ
μαρτυρί
ἀργύριον
Σκι
βίᾳ
μυθ
σταδίων
Μέν
ἐρη
##ῆκε
ἰδίαν
Ἀγαμέ
ἐμαυτοῦ
νυνὶ
##ξεται
##ίδου
λίαν
##δραμ
δύναι
##ώτατα
μέσῳ
##θρον
παραπλή
ἀδελφὸν
##τικοῦ
παραχρ
##όμους
τότʼ
σῖ
ἀσεβ
Ἀσκ
##ασι
παντελῶς
προσαγορεύ
Σωκράτης
πίν
ἑταῖ
##στῆ
ἀγαθόν
##ξεων
ὀνομάτων
Ἐπι
##είης
##τοισι
ἀφελ
ἀποθανεῖν
διαφθεί
Σπαρ
Ῥο
##κʼ
κεφαλῆς
μαθεῖν
##τρου
δυναστε
##ελθόντες
πνεῦμα
##αλέ
##θέμενος
λαγ
##τικὰ
##μησε
φάλαγγ
Κορ
##στης
γυναιξ
πατρὶ
θορ
τελε
##σμὸν
ἔσχε
ἦλθε
πεδίον
ἔλθ
αὑτοῖς
Μω
##ματί
δυστ
ἐκεῖθεν
Τρο
χο
##ενν
τροφῆς
ἐτῶν
πολλά
λαβόντες
##μαρτ
##γέλλ
ἔλαττον
δάκρυ
εἰρήνης
βε
δόγ
##είαις
##δοκι
Ἰουδαίων
συχν
##υλ
##σομαι
ἔτος
##ογον
##βρο
##ήνη
##στήριον
Ποσειδῶν
ἀμφισβη
μορφ
ὅσῳ
ῥητο
πύργ
##λαβόντες
οὐδεμίαν
##τάτην
θυμὸν
αὐτόθι
ἥδε
##σσιν
σωμάτων
ἀπαι
δημιουργ
##φρων
θεός
ἄγαλμα
εὑρί
ἀριθμὸν
##μει
##ροῖ
##όδωρος
τόνδε
ὅμοια
φιλόσοφ
κἀγὼ
ἐτό
ἐμοί
ἡνί
##λίων
ἔγρα
##άν
##όνδε
##τές
τοιούτοις
θή
φῶς
##γη
συνή
##ησάμενοι
##υρίου
χρόνος
κράτι
##λεως
οἰκουμέν
πάρε
ἁρμον
ΑΒΓ
ΓΔ
##τής
##φασιν
Ἕλλησιν
ἄριστον
##ραί
τεσσα
διασ
##άζετο
##ιστος
ὀπί
ὑπαρχ
ἀνάγκης
γυμνα
##χέ
##βι
##θοις
##κοῖς
ἀφε
##ψηφί
νή
ἑρ
##ξάμενοι
##βαιν
##ζόμενοι
##ικοῦ
ποιῶν
μέμνη
φαῦ
γεγραμ
πώποτε
χρε
ἀσχ
ἔς
##ρεσιν
ἀγανακ
##στεως
στρατὸν
πρώτην
ὦν
##ήλου
τέσσα
ἱερὰ
νόμῳ
Ἀρκά
πραγμα
βοηθεῖν
πολλὴ
τόλ
##τήρ
δύναμις
σύμπ
στέφαν
ἔνθεν
Πελοπ
##ώνυμον
ἀθρό
##έν
##ίνους
γενομένου
ἀρχὴ
πολεμεῖν
ἐποιήσατο
πλει
ὑπολαμβάν
##ύρῳ
##ψασθαι
ἅπασιν
ἐπιτηδεί
Μενέ
##άνη
##λαμ
##ρεως
##αίοις
ἀμείν
καλοῦσι
σκυ
πρόσωπον
Τη
κῆ
μικρὰ
Λακεδαιμονίοις
κρέ
πή
νόμου
φέρε
Βελι
κοί
σαρκ
##στέρ
##κοντο
ἑαυτοῖς
##όντως
##ομά
γενόμενοι
φέρει
Αἰγύπτου
ὁτι
ἀναιρ
ἐμπ
μισθοφ
##ισθ
##ίνην
##αγωγ
ἀξίαν
πολίτας
τέρ
φθον
##δίου
##λάβ
##ίχα
##τορα
πλά
τἀναντί
ἔδωκεν
κυβερ
συστ
στερε
κρείτ
ἐνθέν
δεδ
##ριστοῦ
χαίρειν
αἰχμαλώ
φάρμα
Μιθριδ
ἐρωτ
##στειλ
##ούσαις
ἀκου
##μησαν
##λιππον
##εγκεῖν
ἑωυ
ἔθος
##εῖαν
αὐτοκρά
##βαλον
ἀποκρί
ἔσχεν
στοι
##σάντων
##ουμένου
##βαίνειν
ἔθνη
δώδεκα
Ὀδυσσ
Φιλ
βια
πρῶτοι
##ήλω
##τεῖναι
Ἀριστοτέλης
Τυρρην
παραχρῆμα
ἑτέρας
κατι
πάντʼ
ἀμελ
ἔργοις
Κορίν
ἡμερῶν
καταλύ
##ηθῆναι
ὀλίγων
ἐτελεύ
οὐδαμῶς
ἱκε
ὡσα
##ντο
ἐναρ
πρόσ
ἐγγυ
ἡδονὴν
ὁπλί
##σσε
ἀγχ
φιλίας
θυμῷ
φαί
διδόναι
##δαπ
##χων
##δίδω
πιθαν
ἔδοξεν
##ευγ
##ξῃ
ἐννο
##κολου
μνημονεύει
ἐλεύθερ
ἔξ
χρείαν
##λαβε
ἰδίων
##αίρεσιν
δραχ
ἥν
##δεχ
τοιούτους
##δέχεται
ὡσαύτως
σπεύ
##δόμ
καλοῦσιν
τουτέ
τηλικ
ἄκρα
παραγ
συμβουλεύ
Βάκ
ὁδοῦ
##μένῃ
##ριθ
##ύνειν
Ἡρακλέους
ἀντέ
πύλας
ἑβδομ
ἔχοντος
##τρυ
##θήκας
νύκτα
νίκην
##θρα
μέγιστα
ἑκάστην
ἀτὰρ
δυσχερ
κεῖν
οἶδʼ
δεινὰ
##ότας
μέρει
κατορθ
ἐκέλευσε
Γά
##ᾶτε
##ικοῖς
ἡμέραις
φόβον
Πρω
##ούμενα
κατακ
##στευ
δεῖξαι
ἔφασαν
ἄσ
##ησί
στρατηγῶν
ἀμφοῖν
ὁρῶντες
μοί
ἐφα
Εὐρι
ἑξήκοντα
##τοῦντες
εὑρεῖν
##γαθ
ἐπιγ
ἀμυν
Θεμι
##σχιλίων
τἄλλα
τἀναντία
σκευ
##ατο
##σφ
##νατο
##θηκεν
δοκῶ
βούλει
πάσῃ
διατριβ
ἀρχῇ
##ήσαντας
##ραὶ
νόμοις
χρηστ
Σκύ
γερ
ἀλα
τῶνδε
ποιήσας
##γετο
πόλεμος
ἐνθένδε
##ψατο
φωνὴν
Διονυ
Κάτων
##οῦτο
##ινον
μέλι
##σκεν
ἑτέροις
ἀδικεῖν
ὀργῆς
Κοριν
ἕω
καρτερ
δρόμ
Λευκ
ψεύ
ὅτῳ
##δάμ
ἐπει
διοικ
ἡμέ
##ῆναί
Περικ
βαρβάρους
σωτηρίαν
ἡλικίαν
##κατε
##ούμεθα
τῷδε
##ομή
βασί
ἄγων
στρατιᾶς
μείζων
Φίλιππον
ὑδ
##κοις
ὅλης
ἀργυρ
κἀκείν
βεβαι
Ξενοφῶν
διάνοιαν
Κι
λελ
μήν
ἁλι
ἔμοι
##ίβ
παλ
περικ
Λακεδαί
ἐναντίον
##νεύ
γνώμῃ
ἄριστα
χειμῶνος
ἥτις
##βάλ
διεσ
##δωκε
τετάρ
ἡσυχίαν
οἴνου
##δωκεν
ἅπαξ
##χου
##ώτερος
##τομ
φαίν
τροπ
##ανθάν
μελλ
##ορθ
##δαμ
καλόν
ὑποστ
βασιλεῖς
τοιαύτης
ἀποφ
πεπον
τραπέ
Γότ
τοῦθʼ
συκο
κολα
κεκτη
ὀπ
Ὀλυμπ
ἕξ
##λοῖς
ἀμφότερα
μιᾷ
ὑψηλ
ἀπαλλαγ
ποικίλ
Ἐν
##κται
ἀνακ
ἐλευθερίας
μηκέτι
ἀτε
##ρεφ
δέον
Τρώ
χω
##κεαν
θεόν
τιμωρ
ἱστορεῖ
ἐξαπα
νομοθέ
##σχεν
##ίωνος
ἐχώ
σιγ
κωμῳ
ἅπασαν
##ηθεὶς
λαλ
ἀέ
ἄφ
ἐδε
Ἰβη
##κτος
##λπι
##σεὺς
χρώμενος
πυκν
συλλαβ
τερ
Ὑρ
##πῃ
τιμὴν
ἐθνῶν
Ἀντίγον
ὀφεί
ἥλιον
ὀδ
ἐνόμ
##λύμπ
νεανίσκ
ζῷον
γέλ
πολλαπ
μάχεσθαι
Πλα
##ικόν
κἄ
##σαμένων
φυλα
διέφθ
##σου
ἡμι
##μονι
ἀκοῦσαι
κυρι
ἀγορὰν
##βεβλη
Λακ
ΠΡ
##νέ
κακοῦ
συγγνώ
##τῆρα
δυστυχ
##γόνων
κύριον
διαλύ
βάρβαροι
Εὐριπίδ
κτή
λοχ
##λλαγ
εἰώ
προθύμως
πλειόνων
τὼ
##πους
##λογον
παραπλη
##ύτης
δίκας
κόσμου
πάμ
σκλη
##ητος
##νην
φασὶν
Ῥώμῃ
ἄπο
##ώθη
##τούς
##ειλε
ὑπομέν
γεννα
##λείᾳ
Ἰουδαί
κλύ
##τικῶς
##ασάμενος
ἄξια
δίχα
ἐζ
##λοὶ
λόγοι
γένει
##τριος
Καίσαρα
Κρά
Ἑλέν
##ιε
ἀνάλ
##άσσον
Ταῦ
Ἱπ
ἑκάτερον
ἐποίει
ἡγεμονίαν
##ττι
τινῶν
##ογέν
ὑπάρχει
Μωυσ
ὁτιοῦν
ἀποδεί
##ράτου
##ρχε
ἀγαθὰ
τελευτή
ἐργα
Ἀρί
##σαμεν
ἐφεξ
Εὐρώπ
κείν
ῥᾷ
##οῦται
ἐγκρα
##ποντες
γενν
οἴει
φαντα
λοιπὰ
Μεσσην
ἐφεξῆς
μεν
##σταὶ
χειρο
ἀτυχ
##όρων
##ῆγε
φανερὸν
οὐρανὸν
ὀνομάζ
τείχη
εὔνοιαν
##ληται
ἄλλῃ
χορηγ
γλα
χθ
##καθ
πατρῴ
χειρὸς
Ἀπόλλωνος
ἐχθρῶν
ἄγε
##ῦς
ἐνίκ
##έγρα
##ελά
##τορος
ἀντα
##ίνας
ἔνι
ἰδίας
##στρατο
γράφει
Θεμιστο
ἓξ
##ήτου
##έντα
##μαχον
##σταλ
πατρός
γαστ
γλῶ
ῥητορικ
ψῆ
##φθαι
ναῦν
διαφέρει
Ταρ
##τύχ
##ψι
##ῆσαν
##ρίως
στεφαν
ὀλιγαρχ
κόμ
##άμι
##τινα
προστα
##τουργ
##δηλον
##γελλ
θρ
##υμα
##ῖο
βαθ
στοιχ
Κορινθ
ΕΖ
γεί
ὅλων
##οιτʼ
##ερε
τετε
##άνης
παραιν
αὐτοί
##άγκα
##κισχιλίους
οἶδεν
κρεῖ
χαλεπὸν
ΔΕ
Ἀσίας
ἥκειν
πορευ
##ρησεν
δόξῃ
Γορ
##ατον
##σκα
##ώδη
##ϊκ
ποδῶν
εὐνο
ἐμπει
συμπο
γένη
ὀλίγους
χερσὶν
ἐκκλησίαν
##οκλῆς
##ρέων
ἀλκ
ἔδοξε
ἱππο
Σικ
Σόλων
##έγνω
ἔχῃ
##ημερ
ἐλπίδα
πανταχόθεν
μοχ
ἕτεροι
##αρος
ἐξι
ἐξη
πολλαὶ
##θεται
##στησε
ἄλλοτε
δακρύ
ἀκον
αὐλ
##ρησε
ψυχῇ
χαρί
ἀξιώ
δειπν
Ἰταλίας
ἀη
τεκμή
πυνθαν
##όρευ
##γειν
ἐμὴν
μακα
##στέλλ
τοσούτῳ
κορυφ
ἐκπε
αἵματος
Φοιν
##ενό
##σιῶν
παρι
ἀνό
πορεύ
##τοντες
##ράς
ἔχουσαν
πάθη
Διονύσου
Ἄν
##μάρ
##θῃ
##θελ
##ρατα
τὰν
οἴκα
ὀλίγῳ
τήνδε
λανθάν
##ήμη
##ανον
ἀπον
τεχν
ὑπολ
στρατῷ
βίῳ
ἀμπ
ὡμολόγ
##πρά
εὐλαβ
##τάτω
Ὀλυμπι
Σαρ
φρού
ἧκεν
ἀπολω
ἐμπεσ
πλαν
Ἀθήνας
γάμον
##έειν
##σβ
##κοντας
γέγονε
Ἀφροδίτης
Πύ
##άσατο
##ειλη
ἀπολεί
##ποτʼ
##όμε
##νεκα
ἀμφοτέροις
##βάλλει
συμβε
##θεῖσα
κυκ
μοῦν
ἕτοι
##άδων
ἀκρό
μακρὰν
ἄστυ
##όνας
βοῶν
διδά
ἀνδράσιν
νομοθε
##αρί
##ίσασθαι
##ζόμενον
##ρατος
ἐπιτε
σφισιν
οἰκει
##σθέντα
σύμβ
ὀργὴν
ἔμοιγε
##έλλ
ἐκά
Ἀργείων
##κείμενον
ΑΛ
##άων
χαλεπῶς
ὁπόσα
ἑπτα
Γαλα
ἀληθέ
Τρω
ἔπα
##γνυ
ἑτέρῳ
λεγόμενον
ζημ
##ορευ
##ήκο
διο
##στατον
τοιάδε
ὄντως
Φρυγ
Περσ
συμμάχους
νυμ
##ήσων
##σκειν
δοκι
Ἰνδῶν
Δα
##τριον
##ληπι
περιέχ
χειρὶ
κλή
μο
ἄθ
διπλ
##σθην
αἰσχρὸν
κάλλιστα
γαμ
θᾶ
Ἄρ
ἔμ
##έρχεται
##κοντος
δύσ
φαίνεσθαι
ἐπεχεί
##ουμένοις
ὀλίγοι
Ῥώμης
Μελ
φάναι
ἑτοί
##ονος
ἐπιβ
συνεργ
σφαγ
##ίζει
ἐλευθέρ
γεγόνα
χειρῶν
Χριστοῦ
παρεῖ
##κράτης
ἁμαρτάν
ἔνε
##ίει
ποδ
παρῆν
##τρῳ
πλεῖστοι
Ἀσκληπι
Ἀκ
ἥδι
##οδος
##όνοιαν
στρατοῦ
##σειεν
ἔμελλον
Διονύσιος
νύμφ
ἄμ
##ᾶσιν
##τεῖς
##σαμένους
οἰκον
καιρῷ
πανταχοῦ
πολέμιοι
Αἰγυπτίων
Θρᾴ
##εντι
ἀγαθοῦ
στασι
ἐμαυτὸν
δειλ
θέα
##άδες
##γεί
##έρος
##τερόν
χωρία
##ίλιοι
##πυ
##μαρχ
##οῖσιν
παιδὶ
Καρχηδονίων
ἀπρο
ἡγοῦμαι
πίστεως
φανερῶς
##ισχ
ἀνο
##άνει
##ίνῳ
φαύλ
Ἑρμῆς
χολ
##έες
##πλά
##ύλα
διαι
παρασχ
ἐλέφαν
συμβεβη
##έλει
ἐκείνῃ
##θεῖναι
Ἀρτέ
ἁρμό
νίκης
ὑπηρε
Ἱππο
##χθεὶς
##ῇσι
##εῖοι
ἐντο
##λεον
οἷος
##όδους
φεύγον
θυγατρ
Ξέρξ
##στησεν
##ύντων
##άμου
Ἰησοῦς
τραπέζ
γίνονται
κρε
ἐτί
ὄγ
ἀπω
σκοπεῖν
ἐλπίδας
##ψάμενος
ὑπάρ
##παύ
##ύνας
##σσων
ἔργου
ἀσπί
σπουδῆς
κρίσιν
##μένειν
ἀνθρώπῳ
ἀγαθὸς
σοφιστ
ζητεῖν
##ύμα
οἷός
φεύγειν
##δὴ
ἐμφαν
κατηγο
##ίστασθαι
ἄνωθεν
##ρᾷ
##κτη
##ουσίας
εὐθέως
ἐμῆς
τἀληθ
##ρίζειν
ταύταις
Ἀντίο
##δοις
διεν
ἔχομεν
##μάτιον
λοιδορ
ἀνάγκην
##ήθειαν
τηλικα
ὀπίσω
μολ
##τρας
##χη
##τουσιν
##τικὴ
βουλὴν
ἄρχοντος
Τιμο
θυσίας
Ζεῦ
ὑστερα
##ταξ
##όνει
ἀνθ
δόξει
μεγάλης
##άνδρου
τέκνων
Σκιπίων
ὄφρα
##άσαντες
##έργ
μετά
χρόνους
καιρὸς
μειρά
φοβη
ὄπι
##δίᾳ
ἡνίκα
##δεῖν
##θαι
ἀπολιπ
##τάτοις
προσελθ
ἀνδρι
Ὑρκαν
βορ
ἔτʼ
τολ
ἐκπο
συνοικ
##τάτη
πέπ
ἡγούμενος
φρονεῖν
εἴρηκεν
ἀνδράσι
##ραις
ἐναντι
##θεσαν
##διδόναι
καλεῖν
ἄγαν
ἡγεμονίας
πάσχειν
Πύρ
##οιμι
##έντων
##υνε
κατέχ
##μονας
καταβ
στρατείας
ἀδελφὸς
εἰκόνα
ἱππέας
μείζω
Καίσαρι
δουλεύ
ὀκτὼ
ὀγδο
##έσθω
##όνν
##δεκ
##άλου
αἰν
ἐποίησαν
σημεῖα
Καλ
##λειαν
##ήσουσιν
ἀμφότεροι
παιδι
Πόν
Φαρ
τηρ
##ξεσθαι
##ώρων
ἐπιμέλ
ἐξή
##μοσύν
ἀναπ
κατεσκε
αἴσθη
Ἡρακλε
ὠφε
##μήν
πατήρ
προέ
θεα
θῆ
##τροφ
αὐξ
##τησιν
##ράφ
ἀληθὲς
τροφὴν
Ἑβρα
Ἕκτο
τεύ
ἄλλαι
ἐγεγ
ἐγίνετο
##άμεθα
##στάσεως
Θηβαίων
ἐρέ
ὥραν
##μίας
##χοντο
συγκατα
##βαλεν
τοσαύτην
χερσὶ
φαρμά
μῦθον
ὀλο
##θείς
##βην
ἐπερ
##στὴς
##τουσι
ἀμεί
τριήρεις
ἄρχοντα
κοῦ
μάλ
##τιδος
##είην
##θεσι
ὀλίγου
ἰσχύ
βασιλεύς
μεγέθει
##οπο
ποῖ
##ήλυ
νομί
λεγομένων
νομίζειν
φωνῇ
##φευγ
τέκνον
φοι
ἤγαγ
Ὀλύμπ
##σάμενοι
##ωσε
##θας
μεση
ἐπιβουλεύ
πλεῖον
λεπτ
στρατοπε
ὕψος
μεσημβ
ἱκέ
##άκων
ἀφρο
##εύειν
##βουλος
ἔδωκε
ὅτου
##τὴ
##χαρ
ἐνίο
##πλάγ
μόνῳ
σπέρ
ναύ
##ῆγεν
##τιά
##λιτῶν
πλοῦτον
παρανομ
Σοφ
##ήμερον
##ῆα
ἐκρά
συνά
##δοσαν
φιλον
Διός
ἁπάσης
ἐναντίων
τυγχάνει
ἀφίκετο
Σύλλ
δρα
ἀνεῖ
πολλῇ
λέγομεν
παραλαβὼν
ἵππου
Κε
κρο
νιν
ἔφυγ
Εὐρυ
Ἀλκ
τῳ
Ἀδ
##ΡΜ
##εῖαι
χώρᾳ
ἐποιεῖτο
ὠνόμα
ῥώ
##κού
##μεί
##ῖαν
##θημα
##δειαν
κοινὰ
οὐρανοῦ
##δοξον
##ιπ
##ίνοντο
ἀπολέ
αἱρε
πράγμασιν
θαυμαστ
Ἀρτέμι
Σέ
δέμας
ἀκρα
κατεῖ
Ἀλεξαν
νύκτωρ
δημό
Μαν
ὅδε
##τᾶν
##τίοις
##οίη
##τικῷ
ψυχὴ
##ύμων
Πέρσαι
ἀθάν
##ουσίαν
εἴς
##τρων
ἡγεῖσθαι
Ἀριστό
κάλλιστον
φωνῆς
ΠΡΩ
##στοις
##ῆγον
##έντος
##ικὰ
##μνων
ἔρωτα
Βαβυλῶν
σοί
##ωσαν
##ζεται
##καῖς
##ππῳ
γένεσιν
πρώτη
##στρατος
ἐλευθερίαν
βασίλει
κρυ
ἀοι
##ησα
##άριον
##ήθησαν
προὔ
μέτρον
τριγ
##ήρῳ
##ιζόμενος
ποιητὴς
κομιδ
δεικν
ἄδικ
ἐρε
##λθεῖν
##θισ
##ώματα
πλείστους
πλησι
ὀλίγα
δημοσίᾳ
Κρον
##πῳ
##σμη
##φαι
ἐπων
ὑπακ
##σαντι
πολυπ
##ίζοντες
##στηκεν
ἡγεῖτο
καθεύ
κυρίου
##ήγαγεν
ἐμῶν
μετρίως
περιβό
ἑαυτόν
μαρτύ
κτη
##ρυχ
##ιμον
ταλ
##λαυ
##αλον
##ρησαν
χρόνοις
νέον
ἐγγύ
κελεύει
ἐκέλευε
Δω
νου
Ἀλλ
##άσι
##κεσαν
χρώμενοι
νεκρῶν
ἄτοπον
ἐρή
##κώ
##ότι
ἀνω
αὐτά
εἴδη
##τελῆ
##μήρου
ταὐτὸ
##φόρ
##ραβ
λέγοντα
ἐνίοτε
ἐκε
##αίως
ἀγάλ
##ποντα
οἴκοι
Ἀρμεν
Πη
λου
##ωμένων
##τροπ
πεποί
μηδεὶς
##νῃ
##φην
##τίῳ
##θεος
πάτερ
ἀσύμ
##ρίζεσθαι
Ὁμήρου
##μησεν
##άντας
##μονες
τινʼ
περιτ
ἀφι
##ίζεται
ἀληθιν
ἐναντία
Κυρ
δέρ
ηὐ
##ύγ
##ῦσιν
##ίωνα
γράφειν
χρήσιμον
μάτην
πτε
Ἀμα
μοιχ
τέως
θηρίων
##τατα
μελέ
ἐπιδεί
##βαλόντες
πρώτῳ
πνεύματος
κυρ
##τόμ
##φί
ἐπεσ
λυσι
κεραυν
##ουσῶν
##ικῶς
ἐμπί
πέρας
ὀνεί
μεγάλας
παράπαν
ἐνιαυτὸν
ἐβούλετο
Θου
γέρων
ἀβ
πασῶν
ἀποδε
εὐαγ
καταν
αἰσθη
παρεκάλ
Πει
ἄγον
θεούς
##ύνων
ἄρχοντας
οὐδεμι
νέων
ἐντυχ
##ληλυθ
πότ
##υρίων
βουλόμενοι
##ππα
##δείας
ἀπιστ
ἀπαντ
προφη
##πεμπ
λέγεσθαι
δοκεῖς
ἠξίουν
Ζεύς
Σαβ
γάλα
##άνου
πολλαχ
τοῖσιν
διαλέγ
συνεχῶς
φυλακὴν
ἐχρῆν
σκά
##ξέ
##ίνε
εἴσω
τάχος
##ίσταται
ἀφικν
βάλλ
ῥυθ
##ῦσι
##ειργ
τεί
παρή
ἐπιστα
εἴα
##φέρει
κατέλι
ἀξί
δίαι
αἰχμ
Θεσσα
ῥο
εὐγεν
##ησάντων
κατεσκευ
λεπ
##μαχοι
τίνες
πέρ
##ότων
##ῖνα
##τινες
ἐκπεσ
##λαον
Σικελίας
οὑτο
ΑΔ
ἅλ
ἔσονται
##ῶσα
οὔκουν
##αινον
δόξα
δηλοῖ
##δόντας
βουλῇ
μόνοι
ἐπειδή
μεγίστην
Ἱεροσολ
Τιβ
ὁλ
##ΩΝ
πᾶσαι
οἶσθα
ἄγγελ
δοξ
Κικ
ἠναγ
ὀκτα
ποτέ
οὗτός
##όχου
μισθὸν
τυραννί
τοιαύτη
Πελοποννη
Κρόν
πάγ
##υρον
##πται
##μὶ
##ονα
##στῇ
ποθ
##ριμ
ἐξαί
πολλοί
εὐδοκι
##άττειν
##θρω
##άζοντες
Θεοῦ
##φορον
ἔκτειν
καθη
προβ
ποιοῦσιν
στρατε
καλεῖ
οἰκεῖον
μέρους
##σθέντων
ποταμὸς
στρατιώταις
τοσούτων
γαῖαν
θάρ
παρόντος
##τησαν
##τέρες
ὑπερβολὴν
νομίζοντες
ΕΡΜ
Κρα
μῆν
παραγγ
τοιαύτας
κον
τυφ
Ἀβ
ὄρε
##ωχ
##λέκ
διαλε
ἕνεκεν
Πολύ
μνήμην
χῶ
ἤθελ
##υς
παρει
παραι
ἐγκατα
οἰκι
μήκει
##μηγ
Διογέν
##σῃς
##ύλῳ
Ἀγησί
ἑκὼν
βαρβάροις
Ἀλεξάνδρῳ
κληρον
ἱππε
κέρας
ἔπι
ὄφ
παγ
πομπ
##λαβον
ἡττη
Λακων
Κρή
Λοκ
ὁκό
##λλά
αὐλη
##στως
παρόντα
φυσικ
ἀρετῇ
τίνι
ὕβριν
Τρι
##κὸς
##σπα
##φέλ
##ζομένων
##κατέ
##υρος
τέταρ
##σθένης
ἀπεκρί
σοφίας
##ότατος
θύρ
##ωμαι
παχ
ἀμε
χεῖρον
ἔμελλεν
##βης
ἀναχωρ
##εργέ
εἰδότες
##τοτε
ποιησάμενος
##θροι
##θέσεως
ὀνει
εἰρημένων
θαλάττῃ
Πελοπόνν
τύπ
ἀδυν
ἐψηφί
ἑστι
τοιόνδε
συμφέρον
μυριάδας
Πειρ
ἄκου
##νά
##ίς
ἐποιήσαντο
δόμ
ἄπι
Ἀσσ
##τατος
##εῖσθε
χρείας
##σκει
φιλοσοφίας
γραμμάτων
μηδεμίαν
βίος
κτῆ
##ρὰς
##σην
##χόμενον
χρῶνται
συγκ
σπουδα
##στέρα
σπουδῇ
ἐθα
ὅσαι
##νῄ
##μέ
##ῄεσαν
##ανται
##στῳ
πέλαγ
##θεια
διδασκ
Ἀντώνιος
ἀδίκως
σῖτον
Πυ
δαν
Ὀρ
##πάτ
ἄλλαις
##ομένῃ
##διοι
ἄρχων
##στήρια
ἄξιος
##βούλευ
ἐκκλησίας
μάρτυρας
σάρ
ὅρα
##χθησαν
##ζυγ
##τέων
##ήσασα
τιμὰς
δῆτα
πολίταις
ἰχθύων
την
##σπέ
##ώδης
ἀπολ
προσκυν
Βελισά
οἰκονομ
γρα
δικ
##ούργ
##έλων
##ύνει
πόλεσιν
Ἀθηνᾶς
##χο
##άσσειν
τόδʼ
πρᾶξιν
Πλάτωνος
##γράφ
ἔλαβε
τελευταῖον
Ἡρά
##άτηρ
##βαινε
##ίνω
δικαστη
ἔλαβεν
##τικοῖς
σπονδ
πέλαγος
γλώ
ἆρα
##ξων
οὐθὲν
##λεῦσαι
##λαὶ
γενομένην
μεγάλου
ὕλην
##τέ
##οὐ
##ίδι
##ξομαι
##τορ
παρόντι
ἐλάχ
οἰκείων
##άρχου
θυγάτηρ
οὐδέποτε
τράπεζ
ξίφος
Δανα
Χρι
ὕλης
Ῥό
##μὰς
##ορᾶν
παραμ
##βασιν
##ήσειε
ξυνε
κἀκεῖ
ἔσχον
μέλλοντα
τῆσδε
γαί
##παι
##χό
##ουσί
##θησ
##θέμενοι
ἐπαινέ
Ἡρακλῆς
μοχθη
##κόμ
ὑπον
ἀποδοῦναι
τοιγ
ἱερόν
Πέρσας
ἔτυχε
γίγνονται
σῆς
σέβ
##ζοντες
ταφ
ἐξαν
##θέντι
στρατιῶται
ἱστορίας
##πτεσθαι
κρείττον
ἔτυχεν
Πρι
σὴν
ποιούμενος
σφο
##ωρίων
γυναικὶ
πυρὶ
χιλίους
##μπον
##στὶ
##ίνοις
##νεται
Ἡρακλ
χρυσίον
Θέ
ῥό
##ζόντων
##στεύ
καλεῖσθαι
στόματος
Ἀντωνίου
Ἀγαμέμνον
ΜΕ
ξυ
ᾤετο
##σῳ
##ΐου
ποῖον
παρακε
##θεον
ἐμπό
ἀσφάλ
χαρι
αἴτιος
ἄναξ
Κικέρων
φῦ
ἠρ
ἦθος
##υον
##πλέ
##νασθαι
νεὼς
ἀριθμὸς
ἐνα
ἐμβ
καθέ
κρατεῖν
χρυσοῦ
γιγνόμενον
προφή
φιλανθρωπ
Δημήτριος
Κρι
Πι
γύναι
##εῖσαι
##ποί
προσέχ
προσποι
αἰγ
νομίζων
Συρακ
Ἡρακλέα
Σικυ
Ἔρω
ἧκον
ῥʼ
##όνῳ
ὑπισχ
##στατα
βουλὴ
μεγαλοπ
προγόνων
οὐδείς
μηδέν
##ώνου
##ίγνετο
##τῆρος
Δημη
φυγὴν
ἔλαβον
##ήγαγε
πυθόμενος
ἡν
ὥρας
##ΙΑ
ἐκαλ
ὅπῃ
ἀμφοτέρους
θάνατος
ἀσφαλῶς
λαι
φημ
##φοι
##χι
πόνων
φρεν
ἱστ
Ἴων
##μεῖν
##οῦτος
ἐφε
ἀνδρός
λεγόμενα
γέγραπται
##δεῖξαι
Φοινίκ
Ζην
φρε
##σους
εἶθʼ
σταθ
παλαιὸν
θεραπε
θεραπεύ
στέφανον
φάρμακον
Ἀγαθ
γεγονὼς
κόσμῳ
ἀρέ
##τραπ
ἀπειλ
##ορῶν
##σχη
δέος
##οκρά
##κειμένων
##στήκει
τεττα
συμμαχίαν
παντάπασι
ἠνάγκα
γέλω
βέβ
μαλ
Ὑπερ
##ττόν
##ομαχ
ἀποτε
Ἰησοῦ
##δεικνύ
κατεσκεύα
##θο
ἐπρά
##ικος
πρώτους
τοιούτῳ
##τάτου
παντοδαπ
ἐννέα
μοῖραν
Θρασ
Ἄλ
ὀλέ
##ώτων
##σιππος
παρί
##ρίον
##σχετο
##ισσ
##ισεν
μαθὼν
θύρας
ἡδὺ
προσηγο
ἐσθῆτα
Πελοπόννησον
Πειραι
ἀμαθ
##μαῖς
##υνον
##ργον
##κοὺς
ἀνατο
κόλα
τἀν
ἀναγκαίων
Λιβύην
ὄρη
##τυπ
μεγάλη
ἀκούσαντες
ἐσθί
##ναν
##νοι
##φθη
διή
εἰπέ
##λισ
ποιήσ
τινά
προσπεσ
##ρέθη
##ίστην
Σερ
δοὺς
συσ
ὄφελ
ὅλου
##ησας
μάλιστʼ
ἀδελφῶν
ἐξετ
νομίζω
Ἀρχέ
μεγίστων
ὦσιν
##γες
κεκο
##ίζετο
##μοιο
##ήσετε
δυνατόν
ἐρῶ
κινδύνων
οἴκαδε
##εναντί
ἐπή
εἰσί
##αίῳ
καταλεί
λιπ
οἵτινες
τόποις
ἀγορᾶς
κρεῖττον
##ψις
##ζετο
εἰρή
ἀπερ
##άζοντο
##σκων
δυνάμενος
##εγέν
Αἰθι
οἴονται
τελευτὴν
##φυλ
ἵπποι
σπεί
##υσαν
##χονται
##ῆτε
χρῆ
εὐμεν
##τήρια
φθέγ
πράξεων
μέλαν
παρέχειν
κακοῖς
ἑταίρων
ἐφαίνετο
ξύμ
ἕρ
ἧσσον
##σπο
ἀπόρ
ἀφεί
πεποίηται
χρήσασθαι
δεκ
ἱεροῦ
κοινῶν
Πελοποννήσ
εἴτʼ
##ιζε
ἐποιοῦντο
ἡγεμόνας
Λυκῖνος
Τρῶ
ναὶ
##ποις
##χους
##λησεν
χρό
ἀποδει
οἰκε
παιδεί
τέχνη
τιμωρίαν
ἀκολουθ
πλάτος
Λυσ
##ΗΣ
ἐπικου
##κεύ
πάνθʼ
##θέων
πολιτεύ
σύνε
θησα
##πηδ
τέχνῃ
τεσσαράκοντα
μειράκιον
ἑώρα
##πτων
ἐναντ
τεχ
προστά
##νεσθαι
Διὶ
κοὐ
ἠξίω
ἑβδομήκοντα
Χριστ
βέ
ἕξει
##ίδες
##ψύχ
συμφο
ἐκείνη
##χώρησαν
μάλʼ
φόνον
##άδι
##ορά
##ώτερα
ἐνοχ
ὀνόματι
Θηβαῖοι
στρατοπέδου
Σίμων
ζωγ
ἐρύ
ἐρῶν
παρεῖναι
τοιούτου
##ώσκειν
μῖ
ἧκε
##υῖα
##κουσιν
##οδώ
##ΙΣ
##άνην
ἐγίγνετο
παραδεί
δοκῇ
δείπν
σπουδὴν
τουτὶ
διαφέρειν
##τέρωθεν
τείχε
ζυγ
##ζεύ
##λλʼ
##ματά
προστι
συνι
διατρίβ
πάθους
##ίησιν
ὑγια
σφισι
γῆρας
πεποίηκεν
συκοφαν
βλασ
##πτέον
##οσι
##ειρε
ἀποβλέ
ἔχοντι
##θησιν
ἀκούων
δύνανται
κύκλον
ἀτιμ
ἐρώ
##λόν
##ολον
##αινα
προαιρέ
##λησιν
πολλαῖς
##δία
ἀγαθοῖς
ἐπιτηδεύ
ἰχθύ
διαί
παραστ
καθιστ
##μιγ
##όδῳ
χιτῶν
ζῷα
ψευδῆ
εὐνοίας
κλα
ἔμα
##μῆς
ἐκβ
ἀρχόντων
σώφρον
ἐπέτρε
ΑΕ
πτερ
##άσεως
##ικὸς
τῇσι
καταλαμβάν
λέγονται
νεο
##σμοῦ
ἀσπα
ἕκαστοι
τέλει
τύραννος
ὥσθʼ
##ήτων
ἐπῄ
##είσας
##λαμβαν
συνθήκας
εὐεργέ
διαφυγ
##σκέ
##ιστο
ἐκάλουν
κάλ
##ρίους
ἐπιγραφ
στή
ἐγκαλ
##σειε
δηλώ
θανάτῳ
Ἀντιγόν
Λατ
μείζονα
θάτερον
ψῆφον
ἐπιμέλειαν
δρό
ἀλόγ
##πλευ
##δρε
##ρίαις
##σαμένου
ἄρρεν
τρόπου
δικαίου
ποταμῶν
καιροῦ
νέος
##ώτατοι
δείκνυ
Κάσ
Ἀστ
ἔστʼ
##πύ
ἀνυ
παροξ
ἄνε
ἀναλαβὼν
ἀσπ
Ἀριστοφάνης
θαυμάζειν
τιμωρίας
##άμβανον
##ίρ
##ανδρος
ἐπαύ
ἀπελ
##σαμένη
##ρχον
ἀγαθοὺς
συνεστ
δικαίων
βούλον
λεχ
θαλάσσῃ
ὀγδοήκοντα
ἥμι
ὀκν
##σθι
νόμοι
παρεμβ
ἰσχυ
παράδει
εἴκοσιν
δαιμον
ἐπιστήμην
Ἀμφι
Σκυθ
Γερ
Κερ
δαπ
λάθ
σωμα
ἔτει
βουλομένοις
ἔπειτʼ
ἱστορ
προσαγορευ
ἀθλη
ἔρχεται
τελέως
ἐτόλ
Παλλ
ἀμφʼ
πράγμασι
Ταῦτα
##όλα
##σομεν
##μματα
ποτὶ
ἑρμην
ἀνέχ
ὑπάτων
προδο
προσφέρ
##κόσια
λαχ
δοκοῦσιν
δόρυ
εὑρε
##ώνυμος
τύραννον
διαφερόντως
Πλαται
Σολ
λόχ
##κοσίοις
αἰγι
βούλεσθαι
δευτέρῳ
πολιορκίαν
ἔμελλε
Βυζαντί
Δήμη
Θησ
ΝΕ
##ητο
##ᾶσαι
##σεσι
##ωρίας
κοινὴν
χώρα
Θεόφ
ἰσχὺν
ἀγῶνας
μηδενὶ
πλεονεξ
ἔπεμψεν
ἐλπίδος
##ύνεσθαι
Ἰσρα
ἔρημον
Μασ
##τῆσαι
##ῆσαί
##αια
ἐξαγ
##τικός
##τοῦσιν
##σσυ
κατέστησαν
ἐχθροὺς
ΒΑ
ἠδʼ
##κτή
ἀπήν
##σεσθε
##ξαντος
ἑκάστης
τόπος
ὑπηρέ
Βακ
φόνου
##σμένον
##θόν
διακον
##πεσε
γυναικός
θερμ
ὀνόματος
ἐπολι
Λέ
φεῦ
τοτὲ
##τεται
##άντος
χρῆναι
##ρῶντο
##λυμα
Ἀγρί
ἁρπαγ
Ἀλεξανδρ
ἀσύμμε
Μυ
Σαμ
ὄργ
##ωσεν
##ανῶν
ἀποικ
παρελθὼν
πάντῃ
##πες
θεοί
ποιήσειν
ἀμύ
ὑποψ
θαυμαστὸν
καλουμένην
Ἀντώνιον
ὑπισχν
βούλονται
ἥρω
##λειν
ψυχὰς
ἄρχοντες
δρᾶν
ἀδι
Ἄργος
##είτω
προα
μεμν
περιστ
δεῖσθαι
ναυσὶν
δυσμεν
τεθνη
ὑποκει
ἐβ
##ανοῦ
διαλεγ
προσηκ
πέφυκ
ὑποσχ
##τόρων
χαριζ
φθορ
ἡγεμόνα
Διονύσῳ
γή
ὠφέ
##λὸν
διψ
οἰων
##ρυς
φημι
διεξι
τρίγωνον
χάρα
τύχη
φόβῳ
κυβερνή
Τα
βοῦς
ἄφθ
##τῶς
##μμα
##θείη
##γας
##γιν
##βλε
ἐπηγ
##ίνη
ἀπολε
##δημος
##οίμην
##ίκου
ἀμφί
ἀξιό
Ἀθήνησι
ὄπισθεν
Πά
ξη
ἆθ
##ζόν
ἀνάπ
προηγ
διατε
##βολῇ
ἐξέπεμψ
##δέχεσθαι
Ἀντίπα
νενικ
ἐλεγ
##ίσθη
##ψω
##ηνέχ
ἐκώ
στήλ
ἐγεν
ποιήσει
##δοὺ
μεγάλῳ
χάρις
πατρίδι
δικαιοσύνης
Κρ
ηὔ
ἀστε
ἠρώ
ὄλε
##έστε
##κλε
##ώρη
##άμων
αἱρέ
##σσω
ποταμῷ
##βολαῖς
λεγόντων
διανοίας
μειρακ
διαφθαρ
δαίμων
Πομπήιος
Τύ
##ῆκον
##λλου
ἐντυγχάν
ἐγκε
ἔφευγ
Ἰνδο
πίνειν
ἥτ
##οειδ
ἐπάν
##αρχον
##σταῖς
##άμε
##τεύειν
δεινόν
##άρχων
τἀγαθ
λοιποὶ
ἀξίωμα
Και
ἴστε
##ψεις
ἐπειρ
διαιρ
ἐξεν
##παρα
συμπό
ἔφερ
στρατηγοῦ
##τάτῳ
ἡγεμόνων
ὕδατι
εὐπορ
Ἐπικ
##λήν
ἀντικ
ἐκλιπ
ἐπιπέ
##λεύσας
ἁπάσας
κλῆ
##λῃ
πολλὸν
διαστ
##λοκ
ὑμέ
οἴεται
ἁπαλ
λίθου
Τιμό
Διόνυσον
ἐβα
Ἐπα
##λβ
##οη
ἀπί
##σαφ
τιμι
##τίους
μόνοις
σίτου
μαγ
##θείσης
##χῶν
ἐπη
##δικα
αἰτία
αὑτῆς
##δόντα
ὅσων
##τελεῖν
πλείονος
παρεσκευασ
υἷ
##πιν
##ήμασιν
ἀρχαῖον
##φαῖς
ἀναγκ
σοφίαν
ἀριθμόν
δίδωσιν
ὀχυρ
ὑστεραίᾳ
ῥί
##έει
##κεις
##κουσι
##δρας
πολλούς
ποιοῦσι
ἄγει
θέρους
Φω
κλι
πίστ
##κτου
##ορα
##φους
μεταν
οὐδα
ἀποβ
ἀπορίαν
γενομένους
πόλεσι
τριή
ἀπεκ
λοιπῶν
δεξιᾷ
δίαιταν
Μυρ
λευ
ἁγν
δίκης
##ήσατε
θηρία
##τρεπ
παιδίον
τετράγωνον
νοῦ
σάλ
φοιν
##ῶτες
##ῶσαν
##χόμενος
##αλιν
εὐφυ
νεμ
##λαβεν
πεντε
Ἐρυ
##μέναις
ἐκτε
##μάζ
πέπον
ἀργυρίου
##τοῦντας
ψηφίσ
πάρος
ποικί
ἑκάστοις
Δημητρί
χαῖ
ἐόντα
ἕξειν
ἐνδέχεται
##αυσαν
##πολεμ
##δρων
οἰνο
τάφον
πολέμους
δυεῖν
ἐπιστολὴν
πελάγ
φάσκων
ἤλα
##κτι
εἶδεν
##θεα
πλεῖν
καλὸς
ἑαυτῆς
γνῶναι
δίκαιος
πεζῶν
Ἰνδικ
τρόπος
πεῖραν
ὄμβ
##οίν
##ψῃ
##βή
παρασχεῖν
##τέα
μεταστ
##κλιν
τελευτῶν
πειρά
ὄψει
ἀπιέναι
γενέσεως
διεφθάρ
προσώπου
πολλαπλα
##φή
##ψεται
##γιον
##τορας
εἰκο
ἀνη
##μάς
ὀλίγοις
##ττεν
μέσου
Σαλαμ
ἡλικίας
τειχῶν
ἐναργ
ἥμισυ
θρόν
##ξομεν
##αντας
εἰμὶ
##τίᾳ
##άζουσιν
ἔνδο
##σκεται
πρώτου
στι
##ϊον
ἀπεργ
περαι
συνει
##δραν
χωρίων
ἄκρον
μέλει
ἀτρε
ἑται
Ῥω
συμβου
##τοῦσι
βουλόμενον
##λαιον
##τρια
γνώρι
μυρίους
ψήφισμα
ἀκα
##ήμασι
##ῶντα
##ριδος
μελε
##τοισιν
βασιλεί
##ολόγ
##ληθῆναι
τυγχάνειν
Πολυ
Πυθαγό
δικαιοσύνην
τεκμήριον
ἁλί
##ώσ
##ειδέ
##λλε
χρύ
##πολις
καλοῦ
κακά
κρατί
κήρυ
ὡρ
##ιζον
ἀπαν
καταφυγ
δεήσει
##άμῳ
Ἀρκα
θερά
ἐλάττους
Κρη
ψι
##ῖαι
καν
ἀπολύ
##κοὶ
δέοι
##θραν
ἀφορ
ὅσους
ἐπιθυμίας
Πτολεμαῖος
ἵστα
##ψεσθαι
##ΑΡ
ταλαι
##κόσι
τάξει
ἱκανὸν
κελεύσας
τοιοῦτοι
πιστεύειν
##δύνατο
κινδύνους
Λιβύης
σφοδρ
τετταράκοντα
θελ
φή
ὀρῶν
##ψειν
τού
ἀνομ
##λημα
καταρ
##πομεν
ἀρετήν
ἐποίουν
πειρα
ἐλθόντες
ἔπεμψε
γείτον
Γοργ
πραχ
ὡρα
##ῇσιν
τοῦτ
##σασθε
##άρου
##δομεν
ἀπέστειλ
πρόφασιν
λαμβάνει
Κλεοπ
θᾶττον
κλί
ψεῦ
Ἐκ
##τήσας
##μούς
##φνης
##ίων
##ριγ
##ωρίαν
μάχη
χρόνων
συστρα
βραχὺ
γελοῖ
παραλλη
##ῶτας
##πτα
##ᾶσι
##τίθεσθαι
παραδόξ
οὔτι
αἰδο
ζημι
ποιητῶν
βάθος
διδάσκα
καρπὸν
ἐβου
##υσιν
##ξί
##ῦναι
ἀναρ
##κομεν
ποιοῦντες
##τικῇ
ἱερῷ
οἵδε
ξένους
ξυμμάχ
Κύρου
πέλας
ἀνάλογον
βλασφημ
Θερ
Σελ
Χαιρέ
πιν
##ίνοντες
##οροι
Εὐφρά
Νη
ἄγν
ἐρυ
ἑσπέ
##ούδα
##ικὴ
##πεσεν
μεγίσ
οἴκου
πιεῖν
φιλοσοφίαν
φόβος
μυρίων
μερῶν
ἤρξατο
Ἄρτε
Νίκ
ὦτα
##γματα
##ρατον
##λιχ
##άσσων
συγκα
δημηγ
υἱός
##γγειλ
κομι
πράττον
θυμὸς
προσέτι
ξένων
χρησάμενος
ἐγεγόνει
ὁδόν
ἀνοί
προκα
προαίρεσιν
παρεί
εἴργ
##περι
οὔνομα
ἐστρα
ἐφάνη
ἄκραν
χιλι
Συρίας
Κιλικ
##κτέον
##τούντων
ἡμί
ἀγέλ
μηδαμ
##ώνην
πανηγ
συγγρά
στρατηγοὺς
ἑκατόν
Θηβαίους
Να
Ἁρ
ἴδω
Ἰλλυ
##κερ
##δεσθαι
##ρχεν
περιπ
##τικήν
οἶνος
##σθέντος
μεγάλῃ
σχεδόν
πολέμιον
Τρώων
Ἄργ
Ἅι
ἔτα
##υται
στυγ
ἀγλα
οἰκείαν
μικροῦ
χρυσὸν
ἐπιτήδεια
τετελευ
ἀέρα
##ρυσ
##μμάτων
##μαγωγ
ποιοῦνται
##μπελ
ἀντιπ
πείθεσθαι
νῆες
μέλος
καταλιπεῖν
ἑκάστοτε
Δαυ
ἑσπ
ῥυ
##σέ
πρόνοιαν
πατέρων
##υνεν
##ικὰς
περιφερ
ἐχρῶντο
λιπαρ
##μάχου
συγγενεῖς
κηρύ
##τικοὺς
Ἔρως
ἠὲ
##διν
##ῶντας
##ρεσθαι
##ρολογ
δέῃ
περιπα
ἐφι
αὑτόν
δεῖται
τιμᾶν
οὐδεμία
θηρίον
ἀμφοτέρ
##εῦσι
Βυζάν
μυθολογ
φαυ
##μένει
μετο
εἶδε
##ρέμα
##τήσαντες
εἰπών
##στής
λιμένα
Πατρ
πλείονα
δύναιτο
μέμνηται
ἐπιτηδείων
θρέ
##ρὶ
##ζομένους
##ῦσθαι
##ώσατο
##ώθησαν
##ός
πατρικ
ὑποφ
προεῖ
ταρ
μένει
στρατιω
##ουμένη
##όπων
εὐδαιμονίαν
κἀκεῖνος
αἴσθησιν
δἰ
ἀμα
##λγ
##ουσ
ἐπιπ
ἐπιπο
θεάτ
στρατευ
ἀφέ
ἀφορμ
πεφυ
μέλλοντος
ἐλάττω
κάθ
ἐοικ
Ἰσθ
##ρούς
##ελλ
##ειῶν
κατασχ
στρατείαν
##μημα
πέτρας
μόνη
μόνους
##ήρης
συμβέβη
Ἀργεῖοι
ἀνελεῖν
γεγονότων
Κυν
Κτη
κῶ
σῶ
##καις
πρυ
προσχ
##ράγ
κατεστ
##ουμένην
νικᾶν
ἐκέλευον
##γένειαν
Πάρ
ἡλί
##λός
ἐπαρ
ἀπολαύ
##σίαι
Καππα
συνεδ
καρπο
πυρε
ῥήτωρ
##βεβη
ἐδίδα
φιλοσόφων
φρέν
ἴσαι
##ττειν
##λως
##ριόν
##υσάμενος
##κισχιλίων
ἡδονὰς
τρὶς
οὐκέτʼ
θέλεις
Πέρσαις
Μεγαρ
ἐθαύμα
παράδειγμα
Γαλ
πό
ὅκως
##ιμ
##ῖόν
καθὼς
##δοτος
κελευ
ἐξουσίας
##ήγαγον
νήσου
σαυτοῦ
Θήβας
Ταρκ
ὕπνον
##τυμ
##θήσεται
τοὶ
στέγ
##τροις
##τικὰς
##σμὸς
μόνην
##λειπ
ἵππος
ἐλάττον
σημαίνει
τηνικα
ἠδικ
##κώς
##νησ
##όθι
εἰωθ
κατόπ
ἀγάπ
##δίδου
ἀναθ
δυνάμενον
στρατηγοὶ
ἔγωγ
αἰσχυν
ὀφθαλμῶν
πλούτου
ἀθυμ
Ἀρά
ἐὼν
##άτοις
##ὺξ
ἐγεί
λέγοι
Ἀριστε
ἀποκτεῖναι
##θεῖσαν
##έστατον
μετρεῖ
ἐξαίφνης
πέφυκεν
οὐδαμοῦ
κάκι
##νται
##όεντα
##χρη
προεί
μελ
μεμνη
ἐγχει
##άλην
ποιούμενοι
##εσσαν
##ρινθον
πολέμων
##βολήν
κομίζ
##λαμβάνειν
ξένε
ἰατρικ
Δημοσθένους
##βαινεν
ΖΗ
ταν
##ώτεροι
ἀποδιδ
ἡμέρα
##άλων
δεδε
παιδο
καρτε
ναὸν
πυραμ
ὅρκους
ἐπισκοπ
ἀποθνήσ
Κλεοπάτ
ῥύ
##τάρων
##ΟΝ
##μενός
##σχίλιοι
##νεγ
χρησί
ἔπη
##τεῖσθαι
νυκτὶ
##άμβανε
Σπαρτι
##μαρτυρ
ἀσφάλειαν
ἵδρ
##γυ
ἀναί
μεμα
##σεσιν
##ήσῃς
##θενται
μήθʼ
τάδʼ
ψυχήν
ἐπεξ
σοφὸς
ἴσμεν
τέλους
ἐπιθυμίαν
πεζοὺς
ζωῆς
ἔτυχον
οἰκουμένης
τηλικού
καμ
##ραξ
##κια
δημαγωγ
υἱόν
τετραγ
θέμις
μέλλει
νήσῳ
συλλογ
σύγκλη
τελευτήσαντος
Ἀρτέμιδος
##χωρη
ἀντʼ
ἀποδημ
οἰκεῖα
τόπῳ
μετέχειν
##φιλος
ἐπιτηδε
στρατοπέδῳ
ἐπινο
μηδέποτε
Κλέ
ξεῖν
Ἄλε
ἑτέρα
ἠέ
##ασθαι
##σματα
ἐπιρ
εἴπω
##θρῳ
##κράτους
γιγνόμενα
αἰσθάν
ὠμ
##καλῶν
δείσας
ὀφθαλμοὺς
ὑψη
Νεί
Τύχ
κέχ
κριν
μαιν
πτω
ἔδρα
ἕπεσθαι
##εσι
##παγ
##λατο
ἐπιτιμ
λαὸν
παισὶ
ἀσπίδ
γράφων
##ύλους
ἀπορρή
οὑτω
ἀπέκτειναν
φιλανθρώπ
ἔξεστιν
##κολουθ
τετελευτη
Ναυ
ἰη
ἴχν
ᾠδ
##τητος
ἀμοι
κεφα
λαβών
##βολὴ
ἀδελφοῦ
πρώτων
φίλε
ἄριστος
ἱδρύ
Παυσαν
ὁμον
##ηθέντες
##γὼ
##ταρά
παρθεν
##ικῷ
παρατά
οἷά
κακίας
συγκε
τοῖσδε
μείζ
πέμπειν
ἔγνωσαν
θυσίαν
Μακεδονίαν
ὑπαρχόντων
πεπονθ
Λευ
ἔσθʼ
ἥρ
##λὴ
##δαλ
##θνη
##χύ
##ώσεως
##ῶντο
τελει
##ροντες
##αλαι
δέχεσθαι
οἶδε
##ίλων
σατρά
τέχνας
πρέπον
Ἡρώδης
δέ
σει
##στας
##ωθῆναι
##λεα
##είως
##ληλύ
##σχυν
##σίην
προσεῖ
##κουσαν
φέρεσθαι
φέροντες
χαρα
ἀντιλέγ
ἔξεστι
Διονυσίου
ἐᾶν
ἦγεν
##ωμένους
εὐρ
εὐπο
##φθῆναι
κοινῷ
ἐρρω
##φύλα
ἐκέλευεν
πορείαν
Λυκοῦ
φλε
##κτας
γενναί
##ίκʼ
ἔνν
ἀνδρα
ἄκρας
αὔξ
ξύμπ
πυνθάν
Μιλή
ἐσε
##ιτῶν
##ώδεις
##ΙΝ
ἀλλό
##υμν
##λησε
πόδα
οὖσιν
προσέχειν
οἷοί
γνῶ
ἐδόκουν
τύμβ
πεπραγμένων
Κηφ
Φοίν
ἠθέ
ὄρους
##ατα
##χας
##τοπ
##δεα
τισιν
##ρηγ
πεμφ
εἰσέ
θαλα
τουτον
Αἰγύπτιοι
κόσμος
ἐπολέ
ἄλληλα
κύκλου
Θεμιστοκ
Ζήνων
ἐτρά
##τεν
##υι
ἐπικρα
##ουμένῳ
##εῦσαι
ἀγορᾷ
δεύτερος
δῶρον
πλοῖα
σκόπει
ἀσπίδα
ἔρως
ὠδ
##ῆτο
##ώσασθαι
ἀγενν
##βησαν
##τειχ
##όπομ
εἴρηκε
πυλῶν
κηδε
πέμψας
δίδωσι
νεωτε
τετράγων
χάριτος
ἐξελέγ
ἀσφαλέ
αἰχμαλώτους
μελλόντων
χειροτον
ὄφελος
παρεμβολ
ἀχθ
##ρότερον
##ίου
##υνται
##όμενός
##πεδα
καταπε
παραβ
μένος
γυνή
Αἰν
##πίπτον
ἀπέδει
συνεκ
##μαρτάν
πρώτοις
παλαιῶν
ἀπέκτεινεν
δορυφ
κρημν
ὑπακού
Χρύ
ᾔσθ
##χοι
##ΑΛ
##όμος
αὖτις
##σωσιν
φιλάν
##λειφ
ἐλευθ
Φιλίππῳ
ὄχλον
Δαρείου
εἰσελθ
Κρο
βρέφ
κιθ
σῶν
ῥά
##όρου
##σο
##εῖσιν
μελί
τισι
##θρου
##άζονται
τόπου
##βαλλον
##στημα
διετέ
ἀκούω
##ύρους
τίνας
παιδείας
Λυσι
Καρχηδονίους
παραμυθ
κηρ
ἐτέ
##ηρα
διη
ἀναν
##ελί
ἐμποι
αἰθ
πεπει
ὄνει
κεφάλ
##λήθη
νομιζ
δικαστήριον
λίθον
Πολέ
Παφ
βούλοιτο
Ἀπολλων
κἀγαθ
παλάμ
θό
Ἄρης
Ἴστ
##λῇ
##εῖο
##λεσεν
ἀπελθεῖν
##σανδρος
πότε
##δρου
##όδων
αἰχμάλω
γήρ
κʼ
##τορες
αὐγ
διπλα
##δελφ
##ρχος
στρατὸς
##ήσαμεν
φρουρὰν
ἰσχυρῶς
οὑτοσὶ
γέρας
Ἀραβ
Ἐπί
ἴσθι
##στειλε
παρὸν
##ρεα
οὖσι
##ῖνοι
##ησόμεθα
δεχ
##στηκε
##δόντος
στρατιᾷ
δώσειν
ἐπαινεῖν
Χαλκι
κέρδος
ὁπλίτας
Θουκυ
ΓΒ
μυχ
ἀέρος
##ετʼ
##πην
##φαί
οὐσία
ἀπαθ
προαγ
ἀγωγ
παισὶν
##όρει
ποταμόν
Θεόπομ
φρούριον
Ἡρό
ἱκ
##δών
##εντος
##τεταγ
διελθεῖν
ἀπαρ
ἀπέλ
ἀνθʼ
προὐ
##καλύ
##ξαντα
πολιτευ
##ειρεν
ἀναγκάζ
βοήθειαν
##ήθης
κόλπον
τέταρτον
ἔα
παμπ
προσί
μετρι
ἔνθʼ
δόξας
ζηλω
κίνδυνος
φυλάττειν
κείμενον
κλέος
ἔτρε
ἦρ
Ὀρέ
##φόν
##ίν
ἐπορεύ
##μαὶ
προΐ
##σεύς
παραδοῦναι
βουλή
##πέμπε
Ἀνδρο
οἴμοι
πλείστων
πολιτείᾳ
παρασκευῆς
ἀλγ
στάσιν
μνήμης
παραπλησίως
κομιδῇ
Θρᾳ
ἤθη
ἤλπι
ὕπο
##όδω
##ΥΡ
##ποδα
πλοῦν
πεπι
##ομαί
πράξεως
τέτταρας
λοχαγ
ἐρχ
ἤνεγ
##πεῖν
ἐξῆν
##κοί
##μια
ἀμη
δοκῶν
Κασ
φέρεται
ἴσου
πλημ
πραττο
κωλύει
##στρατοπε
γό
δελφ
ἅμʼ
ἰδοὺ
##δός
καταγ
καταγελ
##ρητον
δεκα
φασίν
τιμῶν
βαρύ
θαρρ
Κάδ
Ποσειδῶνος
ὑδάτων
συγγνώμην
ἐπωνυμ
θύειν
ἐϋ
##ραστος
##ηνται
ὑπεναντί
εἴδω
##λίον
##τέλειαν
##δίῳ
εὐθείας
δεινῶς
ἐπανα
γεγέν
ἐθέλειν
ὁπόταν
Συρίαν
Καρχηδόνιοι
Διόνυσος
ἐκαλεῖτο
νώ
ἑκου
ἠθ
##ιμα
##στῷ
ποί
##λιλα
ἀποδέ
##ώνῳ
##ξασα
πάσαις
ναυσὶ
θαρρεῖν
γωνία
Πομπηίου
ταλάντων
μῆνας
αἰγιαλ
ὠφέλι
Δάφ
πόνον
ἥλιος
##σύ
##ῖναι
ἐξεῖναι
ἑαυτὴν
ἀγαθοὶ
ψυχαῖς
##πλει
τρίτῳ
κάλλιον
Γαλιλα
ἐπιστήμη
βωμὸν
λειτουργ
ἐδεί
ἦγε
ῥίζ
##ψεύ
##ερὸν
χρῆμα
##όγον
μεγάρ
##σσῃ
##μαρτη
##ρακος
φυγῆς
τεθνε
ἀπέθανεν
Ἄλεξις
Μά
Σμ
Τυ
πρακ
τυ
ἥδιον
ὀρε
##ρρό
##εος
##κρου
μεστ
##ικῇ
ἀποδ
##ήσουσι
ποιησάμενοι
##πουν
μόνου
καιροὺς
ἑκατέρου
πόντον
##τοῦντος
μοναρχ
μητρὶ
ἀρίστους
ἐδίω
ἐχρῆτο
σελήνης
ἄπειρον
φιλονεικ
Μαι
##σκοπ
ὑπηκό
ἐφί
ἀρετὴ
Συρακοσίων
ἀπέκτεινε
μοῦνον
ἀκρόπολιν
Φερ
Ἀσ
ὀδύν
##ίνουσι
τινές
##θησι
##πειρον
πρᾶξαι
Οἰν
ταυτὶ
ἀγάλματα
ξανθ
σπα
ἑλέσθαι
ἡττ
##κός
##φικ
##θί
προκατα
##κολού
ἐμὸς
##πονται
καλούμενος
Αἰακ
οἴνῳ
ὅσην
εἵνεκα
Βαβυλων
οὐδεμιᾶς
Νεῖ
ὄχθ
##ήχαν
##τρω
φασί
##λάς
##μαρτύ
ἰδόντες
ἀριστο
ἔθνε
##μεινεν
κουφ
ψεῦδος
σπαν
ἔην
##έεσθαι
##ύμν
##ώρ
καται
##λείων
πού
##άσω
##μιος
νόσον
τοιοῦτόν
ὁδῷ
Ἀντίγονος
δρόμον
τηνικαῦτα
κεῖσθαι
##λὸς
##ζόνων
τοῖν
##τιμος
##κοσίας
##αιναν
##υθῆναι
βουλομένους
κολακ
γινόμενον
ἕλκε
σθέν
Ἰώ
##ού
##σὸν
##ίσχ
παρελθ
εὐωχ
ἀνδρείαν
ἱεροῖς
##κτυ
##φυκε
φυγεῖν
πέμπει
τραύ
Πτολεμαῖον
δάκρυα
Πίν
φεί
ἐβουλεύ
##εῖεν
ἀπηγ
ταρά
χρῆται
θεσ
##όμοι
##υρὸν
##μιλλ
τεθν
Ἀναξ
βροτῶν
κρείττων
ἀπεκρίνατο
φαι
ἴδοι
ὄψεως
##ανὸν
##ρεται
##άζουσι
##τική
##θέσεις
##σμυρί
ξυνέ
Ἀθήνη
κοιλί
τυράννου
ἔτεσιν
##φρόνως
ζή
ἀτι
##έντας
τεσσ
##ρεος
##αροῦν
##ομάχ
##ίζοντο
##βατα
ἐρεῖ
ἵπποις
βέλος
Αἰγύπτῳ
φυλακῆς
Σωκράτους
νήσους
λειπ
##τικοὶ
ἀφίκοντο
σπο
σεσ
ἐρί
ἔστε
ἠδί
Ὠκεαν
##τυγ
##ιππος
##δού
ἀνῃ
μήποτε
##σκεσθαι
συνέβαινε
μακρὸν
##τελεῖς
##έβειαν
##σχερα
ἀκροα
Ὅμηρον
Μήδων
ἀποθνῄ
εἰργασ
σπλάγ
Ἰσα
##ΟΥ
προσαν
ἄντικ
δεξιὸν
##ίλια
Βελισάριος
ζώ
νοῦς
ψιλ
ἑώρων
ᾤχετο
##ηρά
##θω
##χομαι
πρού
παροι
##κεύα
ἀπολα
συνηγ
##δίοις
μεγάλοις
μικρόν
νέους
φεύγων
δοῦλος
εὐδοκιμ
Πην
ξηρ
ὁμα
##ωμο
καπν
##οιμεν
χρῄ
##δημον
##πειτα
οἰκεῖν
κακουργ
##πλεῖν
σχήματι
λίθων
ἔλεγ
ἔθνους
δεσπότην
δρόμῳ
Δωρι
γαλ
ἔτους
ὁππ
##ιόν
##δημα
οἰκο
οἰόμενος
##γεγραμ
##πις
Περσικ
σοφὸν
##ταῦθα
ἀληθε
βαδίζειν
κάμν
Τηλέ
Κορίνθι
ΑΗ
Λου
ἄργ
ὕπερ
##σουσιν
ἐπισπ
ἐπιχώ
##θεσις
##εσσα
Ἀθηναῖος
ἱερεῖς
κύων
νομίζουσιν
##ρικὸν
αὐτόθεν
##ίλιος
αἵματι
διαλέγεσθαι
Μάγ
βλαβ
δασ
Ἀκαρ
##τῖνος
##θιον
##ήκει
##ουσʼ
ὄναρ
παιδικ
ἡγούμενοι
χρηστὸν
πρώτης
δυσχερα
##μειναν
λίμνην
σπονδὰς
ἄττα
##κτους
##πρα
##ότος
##ύλων
##τορι
##τιμον
ἐνό
οἴκη
##κτῆ
κραυγ
δυναμένους
##τῆρας
ἱστορίαν
προσήκειν
ἡμετέρας
εὐπρεπ
πόρρωθεν
λοιποὺς
τοιγαροῦν
ἄντικρυς
ΒΔ
##ὰμ
ἐναγ
##ούσιον
##κοσμ
##ρητο
κεχα
μεταβολῆς
ξένον
Ἀντιπάτ
ἀγωνιζ
δαπαν
ζῶντα
μηνύ
χθόνα
Χερ
ἐτά
##έμεν
##ωμάτων
περισσ
λαθ
##ουμένης
μακρὰ
χωρίου
μέσην
##ρότητα
τἀληθῆ
νεύ
##τεις
##όλυμα
##δοντες
ποιεῖται
##ίδῃ
δυνάμενοι
γνῶσιν
μιαρ
ἀρτί
ἑκατέρωθεν
τελευτῆς
##ίονα
ἀποκριν
πολυτε
μετέχ
##ιδεῖν
πεδίῳ
μαρτυρίαν
ῥᾷον
πληθ
ἠπί
ἦγον
##ῆλον
πολε
##δεται
στῆ
γενομένη
##οκλέους
##ισται
πρώτῃ
βίβ
παρεκάλει
βάλ
##τεί
##σθῇ
##υντο
τιμη
##λητον
ἀποδώ
ἀρχαι
##άζοντα
οἰκείους
ἔνια
μυρία
μεγαλο
εὕροι
κεκοσμη
οἰκετῶν
κήρ
##ιφ
##όρθ
##δριον
πρου
##ομένοιο
##μοῖο
##κότι
##χθὲν
ὁρμη
##δέξατο
κύνες
σιδη
θερμὸν
ἐργαζ
νεκρὸν
Πολύβ
ἀφικόμενος
Δημό
κρίνειν
θυγατρὸς
ἑάλω
##ρασί
##ένει
##κατο
ἐπιτι
συνη
##ῖνε
οὔσας
βασαν
##μεθʼ
δοκοῦσι
εὐθεῖα
παράδοξον
εἷλε
##ήθην
Μακεδόνας
καταλιπὼν
Ἀντίοχος
Λίβ
##εσθαί
##ανά
προσῆκον
τεττάρων
κεφαλῇ
ἐχθροῖς
##έστατα
φρόνημα
πάτριον
κλυ
λύχ
στη
ψέγ
ἐθε
##ητα
##σμάτων
##ψον
προπε
μέλλων
σφαλ
πολυχ
##ήλῳ
ὑποπ
##άλλη
τρίτην
πληρώ
βαρβα
##φρονος
##χώρησεν
φάτο
τυραννίδος
λύπης
μῖσος
Θεόπομπος
φθε
##εισιν
##ειρο
παί
ἀγώνων
##άττον
καθίστα
ἔφοδον
##ίλας
δόξαι
κοινοῦ
##ασάμενοι
##εστέρ
αἵρεσιν
ὁρμὴν
διώκειν
τρέφειν
Πολέμων
θόρυ
Του
δωρ
ῥεῖ
##νας
##ῆι
##τημα
ἀκιν
ὅποι
μέγʼ
##δειγ
παιδεύ
##ύμοις
ἑλκ
προειρημένων
ἤκουσα
λευκὸν
χιλίων
κάρτα
Ἀννίβας
πλευ
##ῶσθαι
ἐνεν
##δακ
πεφ
πεφυκ
##σωσι
συνεπι
ἡγεμὼν
##ίσκον
βάσις
ἐμαυτῷ
ἀγωνι
Ἀφροδίτην
πολυπραγ
ἐβασί
ΔΒ
Στρα
ὥρα
##έσι
##ισαν
##ώσαντες
ἐξὸν
λέγοντας
##κτει
τρίτῃ
##τῆρες
##χώρει
##ριστοι
στόλον
εἰρημένα
διδάσκειν
Πυθαγ
γάμων
βελτίους
ἀτεχν
χό
ἀδ
ἴδια
ὥρᾳ
ᾤοντο
##τεῖον
##ερά
περα
ὁρᾶτε
##σμῷ
φιλεῖ
μακά
χρυσοῦν
##χωρεῖν
κοινωνίαν
ὀψὲ
φιλόσοφος
Κου
Νομ
φλογ
ἡδί
τετα
##είρων
τισὶ
ἐξαρ
δέομαι
οὔτ
##έλου
##υρῶν
τρίτος
ἑκάστῃ
φόβου
ἡμετέραν
Ὀδυσσεὺς
καρπῶν
μνᾶς
κρύφα
σύμμετρ
##δίδωσιν
Ἡράκλ
φημὶ
Αὔ
Βρ
ζεύ
λω
ἀτά
##ορε
##δὸς
##σκαλ
συντά
##δοσιν
##εύων
μήπω
ὁρᾷ
ἐκεῖσε
μνηστῆ
λαμπρῶς
ὀρνί
ἐχθρὸν
τάλαν
##ηκὼς
παρθένος
σελήνην
προνο
Εὐριπίδης
σάλπι
Ἡσί
##ηκεν
##ημένος
##πορ
##σμένος
##ίππ
##ειβ
##λλακ
ἐπάγ
##σταν
ἀρχα
κεκρα
πρόσε
ἀρν
δεινὸς
νῆσος
ἑορτὴν
ἐλλεί
παραπλήσιον
ἐπειγ
εἰώθα
ΜΕΝ
Θεόφραστος
Ἀγρίππ
ἀσε
ἀλεκ
ἁλῶν
ὁλο
##ῶτος
##άτας
##ύτας
##λλην
εἰλη
εἰλή
##είῃ
ὑπή
ἐγνω
##ίασιν
##θέα
αὖτε
ἀγῶνος
ἀκροπό
##κρισιν
Πτολεμαίου
γυναιξὶ
Ἀγησίλαος
θαῦ
κῦμα
πάν
##μαις
##ματον
##ήσπον
##θρων
καλὴν
##δοντα
Ἑλλήσπον
βουλομένων
λιμῷ
##ψαντα
Ἑρμοῦ
δευτέραν
παιδία
Δαρεῖος
ὄμμα
Κρόνου
χῶρον
Λάκων
##λῦσαι
##πως
##σδʼ
ἐπύ
παρὼν
παρόντας
ἐξαπ
ἔχουσαι
συνέχ
ποικι
φιλα
φυλῆς
ἑκατέρων
ἰδίοις
Ἀντιφάνης
Σικελίᾳ
ὕβρεως
γαίης
Χοσ
πῆ
Ἄρη
##όνι
##ληψιν
ἔχθραν
##σίς
ἐφό
μικρῷ
##πτουσιν
Καλλιρρό
μανθάνειν
Χριστι
Σιν
Φοῖ
τραπ
ἥκει
##τάσ
##χʼ
##σετε
##ομοι
γενόμενα
ἀμήχαν
ἀκόλου
##ώνης
##πίπτει
##πλους
τοσοῦ
τίνων
χωρίῳ
λέξιν
##φορα
κινδύνου
παρθένον
Συρακου
φάλαγγα
βασίλεια
λυγ
ἀρά
##ήτους
κατή
##άλῳ
##ίκων
##γενέσθαι
γνή
ἐχούσης
βουλομένῳ
φιλεῖν
Σιμων
κωμικ
πόνους
ἐρωτη
γαστέρα
ὅρκον
βοηθείας
##γόνους
γει
κεῖ
ἔμφ
##άσαντο
##ονομ
##λλόν
##σμῶν
φυσι
##τεραι
##σύνην
ἡμετέρων
βάρος
ἀγαπη
Πελασ
ἀπροσ
νουθε
τράπεζαν
πτωχ
Χοσρό
Μαυ
##ηκέναι
##τοποι
##ηνῶν
ἀντ
##ινα
παρῆσαν
##άρης
##στασις
##δαλέ
##πασαν
ἀφαιρε
ὁμοίων
##σθέντας
##ήρους
καιροῖς
νῆας
Μαρα
##κινδυνεύ
Θρᾷ
ἀσφαλείας
κράτιστον
κρέα
Ἀντίγονον
πάμπο
Πελοποννήσου
μεμνῆσθαι
φρένας
Βα
βλε
νῷ
πισ
ἠξι
Ἰό
##ρεις
##ολα
##δεξ
##ροντο
##πτόμενος
σιδ
##εῦσιν
##βαίνει
γιγνομένων
Θηβαίοις
ἑλεῖν
ἑλὼν
σκεύ
Διονύσιον
σίδη
χρωμένους
φαῦλον
Ἰουδαίους
Διογένης
Σάρ
Σαλ
ἐδύνατο
##ορί
##γου
διπλά
παλα
ἀπεσ
τελ
##ροπ
περιπεσ
γεννη
πολιορ
##ήσεσθε
σχέ
##βάλλων
ὁπλιτῶν
σέθεν
ἔρωτος
ἅρμα
ἀπηλλ
##ηνέχθη
ἔγωγʼ
Λη
βυθ
ὁδοι
##λεσι
##ίνουσιν
##ικοὺς
##σίης
καταλαβ
##ότερόν
δεδω
ἀφεῖναι
πέφυκε
ὑπεροχ
βοσκ
καιρόν
χωρεῖν
Λεον
##στικὸν
##φυγον
Παρμεν
σωφροσύνης
##δίδωσι
ἐλεύθερον
Ἡρακλεῖ
ἄγνοιαν
Ἐφ
Ἕρ
##ρουσι
##κρού
##μυ
##μῇ
##ίοισι
##ζουσιν
διδοὺς
παθῶν
ἔχε
εὐφημ
##νετο
μέμψ
##βολον
ἐλαχ
καλλίστ
πλεονεκ
ὅντινα
νυμφ
Δημητρίου
Πό
μελι
##κακ
ἐγίνοντο
θεο
ἀμέλει
μάχαις
##ύροις
##ξενος
παρεστ
##ύλοις
παρέχει
ἑπτά
Δημήτριον
τυραννίδα
Νέρων
Πεν
πῃ
ἦρχε
ᾔει
##ρυμ
##στοῦ
##ῷον
##ϊος
##ῴκι
ἀπικ
ταμι
##στεῖν
##τίκα
παραυ
##άγοι
##γνύ
##σσος
ἀλλήλαις
ἑκάστη
##λειμ
ἀδελφὴν
##φορος
αἴσχ
##ιλίας
ὑπόθεσιν
ἀγνοεῖν
Ἀχιλλέως
τυράννων
στεφάνους
νήπι
Μαντιν
ἄδικον
κατεσκευασ
Ἰλι
##πης
##ώσεις
διερ
τισὶν
διαδοχ
##ῖνι
οὕνε
##κις
μέλη
##ρότατον
##μετρ
##βαλέσθαι
##εῦμα
χαλιν
βεβαίως
ἐπισκό
μεθύ
συμφορᾶς
διδασκαλ
ἁλὸς
ἴσασιν
αἶψα
γιγνώσκειν
Αἰσχύ
φαίη
##ριθμ
Θρᾴκης
θείου
ἡνι
##ολο
##μὲν
δισχιλίους
##στωρ
##στινι
ἀγγελ
##τουν
##παὶ
συμφων
##ψαντος
θάλασσα
παλαιοῦ
ἀφικέσθαι
βάρβα
γάμου
σέο
σμικρὸν
κινδυνεύειν
Σύλλας
λῆ
##υε
##ηκε
##άσθαι
##στρά
##λιπον
##ορέ
κατανο
δεξα
μέχρις
χρυσῷ
πεπαι
##κριτος
καθεστ
συναγαγὼν
μείζονος
παραγενόμενος
μεγαλοπρεπ
Αἰθιοπ
Γερμαν
κλίμα
Φαί
βρον
πτο
πέραν
χέρ
ὦσι
##θαρ
##στω
##τηρίου
##ήνας
θεοφ
ἐμπε
περιι
πολῖται
##ίζονται
κακῷ
τέμν
##χθον
##μνή
συνεβούλευ
πορφύ
δοῦλον
εὑρὼν
ἐπιμελη
Μιλη
Μωυσῆς
Εὐρώπης
##οσιν
##χόντων
ἐκτ
ἀρχαίων
μεγάλους
λίθους
ξένος
οὐρανῷ
ἑταίρους
ἐπιστήμης
νόσου
##ήνεγκεν
πεντεκαίδεκα
κατόπιν
ΗΘ
Κλειν
Χαρί
δρυ
κύνας
ἄδηλον
ᾔδει
##σμένων
##ύρων
##θῆ
πρίν
##εῖραι
διακε
οὔκ
προσφερ
##τρέχ
ἐμφα
ἀναφέρ
φαμεν
εἰσηγ
μόνα
##βολάς
ἀπόλλυ
κάλλει
Ἰουστινι
Ἀθήνησιν
Βοιωτῶν
ζῶντας
φιλοτιμίας
πείθειν
τεύχε
Κλει
##δὶ
##φου
ἐγκ
##θεμένων
##ποίη
βαλλ
ἀμβ
δοκοῦντα
##φρονα
ἐξελα
ὀξύ
Κορινθίων
τραπέζης
Πόπ
ἔτ
ἠγων
ὅττι
##εα
##θουν
##χῳ
##ώτας
##ήν
##ειραν
ἐπεισ
ἀνοι
προστε
ἔχετε
συνελ
##άλους
ἀφίκ
καλά
κατέστη
Οὐολ
εἰρῆσθαι
Ἀχαιοὺς
συναγων
πλείονας
Ταραντ
γεγόνασιν
Φυ
##ζευ
##ώσει
##ίνα
πότερα
συνδι
δυνηθ
τέτ
##μνησ
οἴομαι
νέας
##τῆρι
ἡδονῶν
ἔσχατον
πεντακοσίους
##πτεται
συμμαχίας
ἑβδόμ
ὡμολογ
εὗρον
λόφον
βρ
σῷ
##σιμον
ἀνώ
δυνά
κύριοι
##κησαν
##άρχους
ἐσπ
ἀξιῶν
πράττων
##δύναντο
Ἀχαιοῖς
βραχύ
τριακοσίους
πνεύματι
δεσμω
ἀθάνα
κληρονομ
ὄλεθρον
κρό
τρεφ
φειδ
Ἁλι
##τάγ
##ημένων
πρῴ
ἀποστα
τούσδε
εὐσ
##ήσωμεν
καταφαν
οὗπερ
##ρακας
ἄρχεσθαι
ἀνδραγ
##ρικῶν
θανα
ἁμαρτίας
ἰσο
προστί
ἐλέγετο
δούλους
σιωπῇ
σχολὴν
ἐψηφίσαντο
δόμων
κλά
τάγ
ἔβ
ἡδύ
ὅμι
##δῶς
##θοντο
##εικέ
ἐπισκ
##τημάτων
ἄνθος
ἀφύ
##ρέα
##κάς
##χθω
Εὐρύ
ἀνεπι
μακρο
##ττόμενον
ναοῦ
Φιλι
##ήθεις
τάχʼ
##καλέσας
χθονὸς
ἐκάλει
μαλθα
ταλαιπ
Παλαι
ἀε
ἀΐ
ἦεν
##πηγ
##φαγ
ἐπελθ
αὐτή
προῖ
αἰὲν
σφιν
γένοιτʼ
λαβόντα
φθεί
##ψαντο
Ἑλλάδι
δεσπο
κυνῶν
ἐμποδὼν
λουτρ
Ἀντιγόνου
ἀτεχνῶς
ἀλε
ἔθη
Ὀρχ
ὠκεαν
##εἰ
##πλευσεν
ἐπαι
##λεσε
##λισθ
##λιπε
##ίνοντα
##όμενόν
##υσάμενοι
φθαρ
πένθος
γεγενῆσθαι
γάμους
Κῦρον
φαρμα
μουσικῆς
προσέταξεν
Πελασγ
Βροῦ
ΓΖ
φλέ
χάλ
ἀή
ὀμό
##λωρ
ἐπίδ
ἐνέργ
προδό
προελθ
##ούσ
ἐπιγεν
ἀκρί
τάξεως
##γοντο
##κτως
##τελεῖ
τοιαύτῃ
μῆλα
ἤκουσεν
ἐπιμελεῖσθαι
ἐπιμελείας
μηδαμῶς
Νείλου
Γλα
Μιλ
μόγ
ἐᾷ
ῥεύ
##τάρ
##μείν
##σθείς
ἀνεί
πάντο
##άτως
αἰφ
πέρα
αὑτὴν
γένωνται
ὁρῶμεν
οἴκο
Διομή
μιμη
πολέμοις
ὅσοις
##φυλά
νοη
ἀναστὰς
ἀλλοτρίων
##ήσαιτο
##ειπεῖν
δόγμα
Κίμων
Πάν
πν
ἄστε
ἐσι
##ύσας
##ζουσι
##ούμην
##τηται
παραδε
τινός
##θρᾳ
σφέας
μεγίστη
##ισσα
φίλου
ἄγοντες
τιμῇ
##μουν
γράψας
λεγομένοις
θυγατέρας
##τοῦντα
##κείμενα
φεύγοντες
ἐτύγχανε
δαιμόνων
ἔγραψε
ἱκετεύ
##στρατοπέ
Καππαδοκ
μέ
ἔλαιον
ὑστέρ
##έω
##ρουσιν
##άξ
##δρεύ
##μὴ
ἀποδι
##ήσωσιν
##ησάμην
##παῖς
##δοται
##αῖα
ἀνδρείας
κύνα
δυναμένων
θατέρου
νομίζουσι
θανεῖν
Ἀχαιοὶ
νηυσ
ἁμαρτή
Σπάρτην
παιδείαν
ΙΠ
νὺξ
ἀσθέν
Ὁμ
##τάλ
##ξέν
πατέρες
ἀναιρε
ὑπελ
προεστ
κατη
κατακλ
φύσεις
κοινῆς
καιρῶν
οἵαν
Ἀριστ
νέοι
σιδή
ἐξευρ
##φερον
ὀρειν
Πολυκ
ἐγχειρ
ἄφνω
Παι
βοῦν
τραφ
ψόφ
##παί
##ολί
##θρας
##ειπε
##άνας
ἀπορίας
διαθή
καλουμένων
##τικά
δίκῃ
δύναμαι
ἔπειθʼ
ἀνέμων
θυμοῦ
ἀξίως
πόνῳ
καλουμένη
θαυμάζω
γλαυκ
προσελθὼν
Κυρην
Ἑλλήσποντον
Βαρ
Λού
Ἕκτωρ
ἠγν
ῥε
##όρα
##λεων
κατάλ
##αίρας
##ποντας
αἰθέ
##λλοντες
##πόδων
##όροι
φθόνον
ἐλευθέ
ἐπανορθ
ἱκανὸς
ῥητόρων
Ἑρμό
ἔδοσαν
ξύλα
παρεσκεύα
##γραμμα
φάλαγγος
τουτονὶ
ἀνδραγαθ
Παῦ
γόν
πλεύ
πηλ
Ἰού
ὁτὲ
##ημένον
ἐξερ
##θρωπ
ἐμβαλεῖν
##έλους
##μετρί
μάχας
##όροις
πράξε
σπάν
βούλεσθε
καθαρὸν
συνεχεῖς
φύλακας
Ἱεροσόλυμα
Ἀγαμέμνων
ἐκώλυ
ἐοι
ἴδ
ῥοπ
ἀπεῖ
##τητα
εἴδει
προσφ
##δοῖ
βούληται
Ἀρτα
γεγονότα
νικήσας
βελτίω
Κόρινθον
κιθα
γυναιξὶν
ΕΒ
Μιν
Μυσ
ἠδυν
##νοις
##ίσαντες
##ζοντα
##εῖσι
ἐπικαλ
##ρεπέ
πόλλʼ
##δοντος
##σωμεν
##ήσαντι
τύχοι
πίστις
κελεύων
κίνησιν
στρατοπέδων
τέτταρα
εἰώθει
διενο
συμφοραῖς
ἐπολιόρ
χάρακα
Ῥωμύ
θαῦμα
δαῖ
πλαγ
ἐβο
ῥάβ
##ττει
##ρᾶ
##σημ
##ῂς
τοκ
ἐπεν
ἐπιφάν
ἀπολέσθαι
πόρον
διαφ
##λίοις
##δις
περιττ
Ἀθή
βουλη
χαρίζεσθαι
ζητεῖ
##ιζεν
ἀκολού
γινομένων
ἡγεμόνες
αὔριον
ἀποθανόντος
Μακεδόνες
φοίν
κόλπου
ἐλπὶς
ἐτύγχανεν
Ἀρκάδων
ἑωυτοῦ
Λακεδαίμονα
οὑτωσὶ
Κροῖ
βλα
ἠκολού
Ἴλιον
##πομ
##σουσι
ἐπά
αὐλῶν
ἀπολλ
##τίθεται
προση
καθα
##παξ
##κόσιν
##ρέψας
Ἀρτε
παρέσχεν
ὑγί
Λεων
τεκμη
λάβῃ
Πομπήιον
Ἰωάννης
##ειλημ
ὀνειδί
ἄριστοι
ἴσας
ὕλη
##ύβου
ἀνῄ
παρηγ
ἀποκε
διαφο
λέγῃ
ταῦτ
καθελ
συγκλή
κατεργ
ἀποκρύ
διάθεσιν
ἁρμο
εἰρην
##μεινε
ἰδιω
βουλεύεσθαι
σεαυτοῦ
ἔγραψεν
ὑπονο
χαῖρε
οἴκοθεν
Πρό
ἐτ
ἑτοι
ἠχ
ὄρει
ὅσιον
##έκ
##αξ
##ῶμαι
##δόντες
##γιγν
ποτήριον
ἄλλʼ
##ήσοντας
ἐγκλή
##ρημα
##τρόφ
σώμασιν
νόον
Οὐκ
χρήμασιν
τοιοῦτο
ῥᾳθυμ
κἀνταῦθα
κἀκεῖνο
Ἡρώδου
Δελφοῖς
τρυφῆς
ἀμοιβ
πῇ
##ητέον
##φν
##λείαν
##ίωνι
ἐφέ
ἑαυτῇ
##γγελ
προσήκοντα
χρήμασι
πλούτῳ
φάος
Ἰβηρίαν
Πελοποννησίων
##σμυρίους
ὀρνίθων
παραυτίκα
γνη
φῂς
ἄκων
ἐμοῖς
Ἡφαί
Ἥρας
ἱμ
προϋ
##καλε
χρῆν
πόλι
##ρησιν
##ποδι
ἐμήν
ὑμν
##λευθέρ
ἀγαθῷ
δόμον
ἱερέων
##δόνα
ἴσων
ἵππῳ
ὀργῇ
##μεινών
ὀφθαλμοῖς
ζῴου
Σελεύ
##εγένετο
Ἐπαμεινών
Δαβ
Φάβ
ὧδʼ
##λυν
##ΜΟΣ
τοῖον
##όνους
##όνες
##οῦσʼ
ἀνῃρη
##λέως
##λοχος
##αγόντες
##δαῖς
##ίδαν
φαίνονται
βουκό
##ίλου
##ήσεων
ἑτέρω
κρατερ
θηρι
Αἰγιν
##ύλας
ὑγρὸν
##ηκότες
ἡμετέρ
Νικό
κύκλος
##ώδεα
Τρῶες
Βυζάντιον
μείζους
Λι
ΦΑΙ
θέσθαι
χλα
ἐσκ
Ἐνυ
##ῖδα
##ωσα
##χόμενοι
ἐκπλή
παρελθεῖν
##λιβ
ἐπιγρά
τέθνη
κόρην
ἀναγκαι
φανῆναι
ἀδελφοὺς
ποιηταὶ
##ττόμενος
Αἴας
θαυμά
νεκροὺς
ὀρέγ
χαλκῷ
ἀντίπ
οὐδαμῆ
δεῦρʼ
ἐπίστασθαι
Αἰτωλῶν
δαιμόνιον
παραπλήσια
ἑσπέραν
ἀριστοκρα
φλόγ
##πὶ
##ζοντο
διχ
παρῄ
##ομέ
ἐγκω
εἴω
##θημάτων
##τέρως
##κάσαι
ἀδελφῷ
##γγι
παρασκευὴν
κενε
ὑποκρι
πρέπει
ὑβρίζ
αὐχένα
ὀρχη
ἐτελεύτησεν
ἀληθές
σπέρμα
σάρκα
φρεσὶ
Ἅιδου
Ἐπίχαρ
ἀλεκτρυ
βῆ
Ἀκα
ἐβό
Ἐρε
ἦμαρ
ἱμά
ὁδο
##οδό
##ΐδα
##ῶνι
εἰν
##ρισεν
ἐκλε
ἐπιπεσ
ποιεῖς
δέδοι
ἐστρατο
##σειαν
##ρυπν
οἴκους
ἑκάτερος
##ίονος
ζηλ
##κυρα
ὀξὺ
ὀρφαν
ὠνομά
Συρακόσιοι
κωλύειν
ὑμετέρας
ἀπέθανον
λίμνης
Γάιος
δακρύων
ἠναγκά
φιλάνθρω
Θουκυδί
Χα
ἐρι
ἱμάτιον
##ησθε
##πλουν
##σφα
##χθέντες
##ήτως
ποτ
##υνθάν
παράλλη
συναρ
οἰόμενοι
φιλέ
ἐφεστ
##τήσατο
ὑπερέχ
Εὐμεν
ποιητὴν
δυσὶ
##σύνης
ἡσύχ
ἀνάξι
ἐπαγγελ
Ἀττικῆς
πέριξ
χάριτι
προνοίας
αἱρεῖσθαι
βιβλίον
οἰκουμένην
Μυκ
βίαν
νῶτα
ἴθι
ὁρίζ
##σμένοι
##ία
##άνῳ
ὑπάτους
συνάγ
ἀφῆκεν
οἰκείας
τέλη
Εὐβο
ἀκούοντες
ἀδεῶς
υἱοῦ
ἀξιοῖ
##κειντο
ἀκολα
κατηγορεῖν
##άμβανεν
μαρτυρεῖ
ἀθανά
ὑπομένειν
ἥδιστον
Οὔ
δρῶν
Ἠλεί
##ηθες
##μὲ
##ωτάτους
##θήσεσθαι
ἀνει
##ομί
##στατος
##υσάντων
πεμπ
##άμοιο
##ιστοι
##πτεν
ἀδελφῆς
##βάλλεσθαι
στόματι
θαρσ
νήσων
πέμψαι
σεαυτὸν
πορεύεσθαι
Στω
Τὸ
ἑτε
ἡλι
ἤρετο
ὡρισ
##ομέναις
γεύ
##άγετο
λαμβαν
##τοῦμεν
ὑπερβ
σοφῶν
ἀρξάμενος
ψευδο
εὐεργεσίας
κεχρη
ὑπῆρ
φεύγοντας
ἁμάρ
ὁπλ
##λυκ
##πουσι
##ωβ
##ρισα
##ρίσαι
ἐπιφερ
##αίμην
στρο
##πεσον
δεόμενος
##σοντας
ἐφύ
ἡγεῖται
νέμον
ἀδικίας
Ἀλβαν
ὁρμῆς
Ποσειδ
Καρχηδονίοις
λείπεται
οἰκέτας
σωφροσύνην
Ἰσοκρά
διεφθαρ
ὕπατος
ὀστέα
ΑΒΓΔ
χρύσε
ἴχνος
Ὁμήρῳ
ΖΕ
ζῇ
ἀντει
##ρεον
##στιγ
συναν
ἀγὼν
πλοῦτος
##πασε
καλῷ
ἐφρόν
##δέων
Καμβ
##πλῆ
##σθένους
##τειῶν
ἀπόδει
κάλλους
πόνος
παρέχεται
##κείμενος
δακτ
μηνὸς
εὐδαιμονίας
πρεσβύτερον
ἀριστερᾷ
μαρτυρίας
τολμη
ἐκεί
θεραπεύειν
ἔφερον
Πολύβιος
μόγις
Βαν
πειν
στερ
##ιδος
##οτάτους
##ωτέραν
κακό
καταφ
ἐμπέ
μαζ
ἀληθείᾳ
ἑκόντες
Τιγ
νύκτας
##φῶντος
ἀπέχεσθαι
χειμῶνα
##πτουσι
ἀποστερ
θέατρον
ἔφευγον
τεσσάρων
κεχαρισ
Βιθ
κάπ
ἅγιον
Ἐμπε
Ἐρατο
ἴα
##ισε
##πουσιν
##οψ
##ΤΙ
##ταξιν
ἐνδεί
##ριε
προαιρ
##ρεσβ
τούτοισι
ἀφῃ
##άζοντας
τόξα
##πτώ
##ύμου
##ιζόμενοι
##χώρουν
##φόρον
τείχει
συμφέρειν
ἐπιφανεστ
Καρχηδόνα
ὕπατοι
ἔλθῃ
Τροίαν
##ελάου
Τιβερ
προαιρέσεως
Βροῦτος
φήσας
Ἡγ
##ωμένον
##λεσαν
συνηθ
##λοχ
προσδε
δεόμενοι
οἰκείοις
μᾶλλόν
ἀγαθά
δεινῶν
ἐσπου
ἔγχος
γεγονὸς
πεπόν
κινδύνοις
ψηφι
Ἀντίοχον
ἤθελον
τεθνάναι
Βου
Οἱ
Στρά
φήσομεν
ἀθε
ἀλύ
Ἥφαι
##όπι
##στήν
εἰληφ
ποιήσαντες
##ότεραι
##υσσ
##κοντι
ἀναμι
εἰκόνας
ἐλαφ
δεισι
μαθόντες
γυμνά
πελτα
ὄχλος
ἐχρήσατο
πρεσβυτέρων
Ἀμύν
Ἰουδαίοις
σιδήρῳ
Κυρίου
##κτῳ
##νύ
##ίγνω
##σθεῖσα
ἀνέλ
ἐκόμ
μεθέ
ἐπιζη
##τητον
##ομον
μετώπ
συμφερ
μέγιστος
φίλῳ
##οῖτο
ἑκάτεροι
##ροφὴν
ζητ
##λιπεῖν
φωνήν
εἰρήνῃ
ἐλθόντα
Πλάτωνα
τελευτᾷ
καλέσας
κρατήσας
##ηκολού
Πρωταγ
##όδωρον
Γε
Γλαύ
κοῖ
ἠρε
##έουσι
##ωρισ
##βῳ
βακ
##δίκ
ἀναπαύ
ἐφθ
##βοηθ
ἀπόστο
κυαν
Ἑρμο
φυλάσ
ἄχρη
τοσούτου
αἰσθόμενος
ἡλικίᾳ
ἐλεφ
ἐδήλω
Ἀχιλλεὺς
ὥρμησαν
Ἰουδαῖοι
##ύτητα
Λυσίας
Νύμφ
κῦ
κόν
##εταί
##κυρ
διεί
##ούμεναι
##αρσ
διασπ
ἀγα
οἰκείως
##ρυξ
γνοὺς
λίθος
##πληγ
δυνάμεων
##λασσον
συμφέρει
ἀπαλλάτ
γνωστικ
ὁδὸς
##πέμπει
πολλαπλασι
ἀρτίως
τρω
ἠρέμα
ἤπειρον
##ἐν
##τιθέ
ποθʼ
##είμενον
ἀποπ
##τραν
φιλία
πιέ
##φορὰν
αἰσχρόν
προθυμίαν
καταπλαγ
Μακεδονίας
Δελφοὺς
Βιθυν
τρώ
χρον
ἠκού
ἰθ
ὀπώ
##ρά
##ψάμενοι
##ὴλ
##ΡΑ
ποίη
ἐπιδέ
ἐπιτυχ
συντυχ
##θηται
##έλθ
περιφαν
##βατον
εἰπὲ
πλείστην
Ἀντιόχου
γινόμενα
ἰχθῦς
συμφορὰν
γίγνηται
Νέστο
Ἀλκιβιάδης
δουλεύειν
ἀλογ
ἰὼ
Ἰωσ
ὑστε
##ίᾳ
ἐπενό
##ηνὸς
ἐκιν
ἐκλεί
ἐπιδημ
##υμβ
##ικον
ἀποτρέ
ἀπορίᾳ
θεά
ἀρχή
ἐλάσσον
ἀξιῶ
##βάλλουσιν
Λεω
κέλευ
συνεχὲς
πλοῖον
σκηνὴν
βαλαν
ἡμέτερον
ἐχώρει
##όμεθʼ
ἐλεφάντων
Φαβ
δογ
θει
ἅπας
ἑψ
ἦτορ
##ωθεὶς
##χθέντα
ἐπακ
εἴπῃ
ἐμνή
ἀφῖ
κακίαν
ὑποδε
οἴεσθαι
ὑπερε
##γγειλε
ἐρεί
πράγματι
ἔκριν
ἀξίους
ὅμοιος
μειζόνων
πεδία
νυνδὴ
Ἀπόλλωνι
ἔρρι
προσέταξε
ἑτοίμως
Μιλτιά
Θα
Κόνων
Μί
κᾆ
χάρ
Ἀφ
ἤθε
ἰσθ
##έαν
##τθ
##εων
##άπη
##νιν
##ῶντος
##στιος
##τηρίῳ
καταλε
##ησόμενον
λαθεῖν
ἡγοῦνται
ἔπαινον
##ξειεν
ποιητής
##λαμβάνει
λαμβάνων
ἄκρων
φίλη
βραχεῖ
εἰρημένον
ὀφειλ
πονηρὸν
ἱδρυ
φρόνησιν
διελέγ
ἐπίκλησιν
εὐδαίμονα
βεβου
αἰχμαλώτων
##ειληφό
περιβόλου
Δήμητρος
πολυπραγμον
Μαραθῶν
Τισσα
Υἱ
βίας
ξείν
ἕξεις
##ὰξ
##ρακι
οὐσῶν
ποῖα
##ικοὶ
ἀποσ
οὖσαι
δέξασθαι
κραδί
##ότητας
χρηματι
πρεσβεύ
πεζῇ
ἐξαπέ
μῦθος
ἀσχολ
ζημίαν
Πόντον
Μασσα
Τισσαφέρ
θάμ
λέχ
νάρ
τήμερον
Ὄλυμ
Ῥα
##κί
##ορι
##τοιν
ἐπαί
εἰθισ
αὐτάς
ὑπουργ
προτε
##ήσωσι
ἐγνώ
κατασχεῖν
Καδ
σοφίᾳ
λιθ
πένη
δίφ
τοσούτους
λογισμῷ
μεγέθους
τοξεύ
##βάλλοντες
εὗρε
πτερό
ἡρώ
##λόμην
##όσ
διοί
ἐξαι
##τέλλ
συμπε
ἀρχάς
ἐφή
ἐφοβ
σφεν
τάξεις
εἰπόντα
##κουσα
καρδίας
##δοκί
θέαν
Κύκλ
μνῆμα
ἐδέξατο
Λεύκιος
πάρεστιν
πειράσομαι
ἔνδοθεν
φαυλ
Λυκοῦργος
κεφάλαιον
βάρβαρον
Φιλιππ
νω
Ἀρε
##τρη
##πῃς
##τείᾳ
##στίαν
πόσιν
##ομισ
##στατο
διαλλαγ
παραλαβ
προσῆκεν
μηθὲν
ἐμφ
πετρ
οἷσι
##ραφεν
ἐσμεν
##ρήθη
ἑκατέρῳ
μακρῷ
Ἀγησι
αἰσχρῶς
Σικελι
στάσεως
τροχ
θάτερα
αἰσχύνην
ἐστεφαν
Μενέλαος
ἐλευθέρους
ἐπειδήπερ
Κλέαρχος
χαρακτῆ
Ἐπίχαρμος
Φρύ
λεύ
ση
ἄλογ
Ἀτρε
ῥηθ
##κτων
##σοῦν
##ώτης
πατέρας
##άνοις
##ρίτων
##σανδρον
καταλέγ
καθι
οἶδ
##ήλων
λαβοῦσα
Περδίκ
σοφία
ἴσην
Ἀχα
σχήματος
φίλα
οὐδέπω
κοινωνεῖν
Ὀδυσσεύς
γωνίας
διαφορᾶς
Ἐπίκου
ἐβούλοντο
Περικλῆς
Σέλευ
Βανδί
Δίκ
σά
σμ
ἐτρέ
ἔκλ
ὁδοὺς
##εο
ἐνίους
ἀπάγ
τελεί
ἐπιτί
##ικήν
συνάπ
εὐχα
##ορεῖν
##κοδόμ
##γνῶναι
ὑπολαβὼν
μαλα
ἀπεχθ
ἀνεψι
καρδίαν
ἐνταῦθά
λέξεως
φυγῇ
λαμπρὸν
τρόπους
γραφῆς
ἐνεχεί
διδάσκων
ξύλον
χείρον
Κύριος
ἀπαγορεύ
αὐχέν
βέλτιστον
θεραπείας
##οδώρου
ΔΖ
ΚΑΛ
Πον
##δαρος
##ήκαμεν
##ζομένην
##ᾶσα
##ῴη
##ειπεν
##σιά
##σιόν
##εῖσθαί
διωκ
##στάς
##τησ
##τηδες
ἀγκ
##όγγ
περικα
σφέ
οἰκτρ
μεταβ
Διο
ἔπεισε
ἡδονήν
##όχῳ
ἔστωσαν
συμμάχοις
##χώρησιν
ὑβρι
φιλοτιμίαν
ἀπέθανε
ὄρνις
κλήρου
ἔμμεναι
ἀμείβ
Σέξ
ἀθάνατον
Σάμι
ἀό
##πεις
##οχος
##χες
κασι
##όνιον
ἐκλογ
##καυ
##λιπεν
##ήσοντες
##πεὶ
δέονται
μάστι
ἀκηκο
##λευθερ
τόξον
##φθω
τρισχιλίους
##δέξασθαι
πάρα
Ἑλλησ
πολέμοιο
κινήσεως
##τεύων
##τάτης
##φεσιν
λαμβάνοντες
βάσιν
πέμπτον
ἐπιτηδει
συγγενῶν
προθυμίας
Ἀμφικ
ἄστρων
γενέθ
δένδρα
κέντρον
ὕπατον
προσώπῳ
εὐσεβείας
πάμπαν
ἀμπελ
Ἀλκμ
Ὑπερεί
ἐναντίας
ἀσθένειαν
θέας
πυγ
ἁλώ
##σσης
##ωρον
##στί
προκ
μελα
ἀλλαχ
##όμενοί
##ληψ
ἐξεργ
συνθή
ποιήσω
##τέτα
##όμου
δεδο
##ίζουσιν
διετέλε
λεκτέον
##ότατοι
τοιαῦτʼ
Μακεδό
Ἀντιοχ
Πολι
Λυσί
γαμε
##πτετο
ἤκουσε
θεραπευ
δραχμὰς
##ττόνων
σκεύη
Τυφ
δόμους
πὰρ
Ἠλείων
Ἥρη
ὁμων
ὅσας
##γεται
##ήκασιν
##ῴκει
##τολ
##τευσεν
##ούνα
προσάγ
ἐλά
##πίμπ
λιμένος
τίνʼ
λίθοις
ἀριθμοῦ
ξυμμαχ
Ἀργείους
πυθέσθαι
θέλω
στρατόπεδα
εἰδότας
δυναστείας
Ξέρξης
Σοφοκλῆς
βέβαιον
βρό
δὸς
θρά
ἤπερ
Ἡρ
##όεντι
##ΤΥΡ
##λεσιν
ἀπῄει
##ριάμ
ἐγκα
##δίους
##έλας
δεόμενον
συμπεσ
σφραγ
##ῆνος
παιδε
ἀποκρι
κελεύσαντος
ὑπεκ
ἀπαλλά
ἐδεῖτο
δούλων
πληγὰς
πρεσβύτερος
σαυτὸν
δημοκρατίαν
##ήνεγκε
κασιγν
Σάτ
δῶμα
θείας
λείαν
μύρ
##τᾷ
##τρεύ
##ρὺ
##υῖαν
##χεις
##ῷδε
##ῆες
##ονον
ἐπέρ
##στίας
##μενοί
κατήγ
##ομένοισι
μέσης
φίλτα
εὐθὺ
##βολῶν
ἀνάγκῃ
χειμερ
διώκων
ἰχθυ
ἀσφαλὲς
ἄλσος
Ἀπολλώνιος
ἐπιεικῶς
ὁμόσε
εὑρίσκ
τόλμαν
δόξειεν
Ὀρφ
ἐσθίειν
ἐνοχλ
λέ
λό
μυρ
ἔλυ
ὄλ
ὄρχ
##αιος
διορθ
παρεγ
##ικν
##τηρίων
διαστή
παρακατα
##θρωπος
δεδη
##ύντες
ἀναξ
μέτριον
μεταπεμψ
νόμιμα
πλείστου
Εὐθύ
ἐθάρ
ἀρρω
ἐρᾶν
ζηλο
##οβαρ
παιδαγωγ
ἰατρο
λάβοι
σμικρὰ
ἀπολογίαν
ἰατρὸς
Προμη
Ἀννίβαν
τέσσαρες
πολλαπλά
ὠφελείας
μαρτύρων
ἤθελε
κοσ
Ἀλφ
##ισθῆναι
##λεις
πρότερος
##εῖόν
##νευ
ἀρχαῖς
πρόβατα
ὑπερφυ
##κέως
##λικῶν
ὀλίγας
ἀδικημάτων
##βάλλουσι
κεφαλήν
πεζοὶ
δακτύ
στρατεύεσθαι
ζωὴν
ἐπιβουλῆς
βέλτιστα
παρρησίαν
ἀμείνων
ἤθελεν
##ΑΡΤΥΡ
ἐπιτηδευμάτων
Δά
θεῖα
κιβ
σήμερον
φλεγ
ὡπ
ἐπεγ
διην
αὐτάρ
##ροντα
##ράτης
διαγων
ποιοῦντα
δεομένοις
##άμους
##ισάμενος
##θές
κακὸς
οἴκῳ
σκύ
ἰδίους
νυκτός
ἐπιστρέφ
ἀπειθ
στρατεύματος
ἑταίρας
ὑπομν
κώμας
ἔπεμψαν
πειρᾶσθαι
ὁλκ
Ὀρχομεν
ΚΡ
ἀτα
ἐδυν
ἐδά
ἔμβ
Ἰάσ
Ὡς
ᾤμην
##ρσι
##σπον
##ῖτιν
##ρασι
εἰσεν
παρόντες
στίχ
##λοπ
ἀκίν
μέμφ
κοινόν
συνεξ
##ρώτων
ἡγεμό
##τελὲς
σκῆ
πυρός
τύπον
στάδιοι
ἐνθάδʼ
εἱμαρ
πάτρια
Ἀντωνίῳ
ἰδέαν
πεπραγμένα
ἰδιώτης
ἐτόλμ
Μιθριδάτης
χάλκε
ἠκ
ὕμν
ῥιν
##έην
##ιω
##ίδιον
##φας
##ψευ
##γματος
##ενέ
ἀπά
οἱον
ἐπιτρ
χρώμενον
##δαφος
γενήσεται
##σοντα
μεταβολὴν
##δέα
##φαὶ
##όδοις
λέγωμεν
παράσχ
Παλα
Ἀλεξάνδρειαν
Τίτος
πονηρῶν
βλέπων
ἀστέρων
ζῶντος
νεωστὶ
δωρεὰς
ὀγδό
γενναῖον
κατέλιπεν
θάρσος
τεχνί
Χρύσιππος
Παλαιστ
Μέγ
δάφ
ἁπα
ἐδη
ἥξειν
ὀπι
ᾗπερ
##λπ
##όρε
##γξ
##ήτῳ
##ριστον
##ίνιον
##αρῳ
καταλαβὼν
βαπ
##ηγέ
οἰκία
οἰκίᾳ
οἴκων
ἱερὰν
βασιλέας
##άρχῳ
συνέδριον
πείσας
ἐπιστάμενος
σύμμαχοι
στάσις
Μεγα
Ἀφροδίτη
ἐδίδου
Ἀγαμέμνονος
κλῆρον
ἑκουσίως
ἡρώων
ΔΓ
Φερε
σῦ
Ἀτρ
ἕτερόν
Ἐλε
ἡμαρτη
ὀμφ
ὀστέον
##έσιν
##ρυν
##λέναι
##άστ
##ορον
##μίου
##ζονται
ἐνομ
##λεὺς
##μένοιο
ἐπιδει
καταδε
θεωρη
##τέρʼ
##πασι
##γεγον
##πτως
##θιος
εἰσορ
νομίσας
##σταις
ἀδικεῖσθαι
φωνὴ
μνημ
##λόγραμ
##βούλου
σαφέστερον
πορφυρ
κυρίους
πολιορκίας
Μεγαλ
##χώρησε
Δαρεῖον
καινὸν
νόσῳ
##ότριον
ὄγκον
φαιδρ
ΒΗ
ΜΑΡΤΥΡ
βαι
Ἐπει
ἠερ
Ἴβη
ὅδʼ
##κλι
##κησεν
##ύρω
##ήρυ
##ΥΚ
παρελ
ἐξανα
ἔχθρας
συνεῖναι
πολλάκι
δέσ
ἐμάχ
πεύ
μέθης
##ραντες
ὅπη
βουλευσ
μάλιστά
##δές
δῆτʼ
##ρήσαντο
οἵους
##κράτει
##φερε
χαλεπα
Οὐι
θεράπ
ἐθέλει
Καλλί
βλέπειν
ἔφασκεν
Αἰγυπτίους
Ἀχιλλέα
χάριτας
βιβλία
ταραχῆς
πρεσβευτὰς
αἰτίους
ἑταῖρε
ἀφροδι
πολλαχοῦ
κτῆσιν
γέλωτα
Κρῆ
πεπαιδευ
δριμ
ληφ
πυρί
##ύθη
##θουσι
##ΑΝ
ἐπώνυμον
ἀποθάν
ἐξω
ἀφεὶς
##μηται
τόξ
##ρουμένων
τριχ
δῆλος
μικρῶν
ὅσʼ
γνώμας
σιτία
ἑκάστων
συμβού
ὀξυ
ἰδιωτῶν
Κύπρον
δεδιέναι
δένδρων
ἰδέας
##πέμπειν
Ἰωνάθ
ἀρκεῖ
παραλληλόγραμ
μεγίστας
κεφαλα
Κορίνθιοι
προῖκα
Λέσβ
ἐβά
ἐδύναντο
ἕπεται
Ἰα
ῥεῦμα
##σόν
##όμενος
ἐνοικ
ἐναλλ
μετι
διακοσίους
##σκη
ἑαυτούς
βουληθ
##ήλους
##ξαντας
##λάου
##σμόν
οἴεσθε
ἀναγρά
στρατηγῷ
κινεῖν
κρατη
δυνατὸς
ὀργάνων
πεπλη
τυχὸν
ἐμπειρίαν
ποδὸς
Ἀλλὰ
ἐπῄνε
Ἀστυ
γελοῖον
ἐπιφάνειαν
Βερ
μίσ
ἔκειτο
ἴχ
##ρῆσθαι
##τοῖσι
παμ
συνοι
εὐλόγ
δέσπο
##διόν
ἀμύνεσθαι
##οκλέα
τάφος
πλείστοις
ὀρθὸν
πρεσβείας
νηὶ
δεξιὰν
εἰρημένοις
ὑμετέρων
χθονός
εἰσαγ
Ἑλένην
στοιχεῖα
ἐκποδὼν
ἀοιδ
γλώτ
Ζηνὸς
Μυτι
Κτησι
Ἡρόδοτος
πολεμι
Μῆ
βρώ
ἁν
Ἰθ
##ιξ
##κεται
##κελεύ
εὐλογ
##μολ
##μοῖσι
εἴην
κεκτ
ἐφέρ
##οῖεν
μόνων
##ασται
##γγα
##άνδρῳ
γραφὴν
αἰσθαν
κολάζειν
ἔσπευ
Λιβύῃ
ἀθανάτων
σῴζειν
Ἀπολλόδωρος
μάντις
ἐτύγχανον
Ἀλκιβιάδου
παρρησίας
δόγματα
πάρεστι
Ὀλυμπίᾳ
νομοθέτης
Εὐρώπην
τἀληθὲς
##πλευσαν
Ἰσραη
ἐπειρᾶτο
Τιγράν
δρο
##ύμβ
##ωπο
##ψομαι
##οντʼ
##λλεν
##μαγ
##σθείη
κατάγ
##κεσθαι
χρώ
##ομʼ
##στεῖ
αἰῶνα
##γεγεν
##τοῦς
##θέου
νεώτερον
##πτύ
##κτρα
ψυχρὸν
ἀλλήλας
##αρχίας
φανερόν
φυλακῇ
ἕλκος
συμφορὰς
Φωκέων
τέσσαρας
μεσημβρίαν
ἄπιστον
Χριστῷ
συμπόσιον
κήρυκα
Καδμ
Δειν
Θυ
Λή
μυκ
σὸς
σῆμα
φῄ
φήσαντος
Ἁγν
ἔθηκε
ὀμμάτων
##λῆ
##ηθέντα
##οτέραν
##ίτας
##ῤρ
διάγ
ἀποσπ
##υγμα
ἐμβαλὼν
καθεῖ
δεκά
ἀκτ
δύʼ
εὐθεῖαι
##όρῳ
υἱοὺς
πεντη
ἀξιοῦντες
τοσαύτης
θέλων
γαμβ
Ἀπόλλωνα
μεγαλοφ
ἀπέχει
ἀναλογ
μιμεῖσθαι
σαρκὸς
ἀκοντι
ἔφυγον
ἐπράχθη
Ἀκαρν
ἐπίδει
φῄς
σαρ
φάγ
ἐδω
ὠφέλ
##τυν
##νια
##ήτας
##αιρῶν
ἐνυπ
διήγ
προτέρων
##σαμένοις
παρούσης
συνῆ
συνελθ
θεασάμενος
##τήσεως
νεῦ
τρισὶ
##άλλων
μόνης
ἄρχουσιν
ἔγχε
ναὸς
δαΐ
διαπρά
γεγενημένων
Κελτῶν
ὄμματα
Σπάρτης
τραγῳδίας
Πέλο
μισθοφόρους
δόμοις
προφήτης
τἀνδρ
βέλη
Κηφισ
Ἀντιπάτρου
μεγαλοψυχ
Δικ
Χαρ
γούνα
κισσ
φρα
ἔσῃ
ἡρ
##ττων
##άδ
##δρί
##μών
##βρι
##ζουσα
##ουσίᾳ
τοίχ
##μαθʼ
προή
προτρέ
##σετο
##λέος
εὐκ
πάντη
δέοντα
ἐμβαλ
##έλθῃ
ἀκόλα
οἶκος
##πτόμενον
πρόθυμ
λοιδο
Περι
##στήσαντες
Ἀχιλ
##άκην
μαντεύ
κεφαλὰς
ὁμολογεῖν
πλήθη
ξένοι
μόριον
θέλει
χαλκοῦ
ἰσάκις
συμφέροντα
πεντακι
πέλει
μυριάδες
ἐκπλαγ
μοῖρα
##ήνεγκαν
εὐδαίμων
σύμβολον
ἀμηχαν
Κυζ
τάσ
Ἐλευσ
ὅρους
##ηλα
##ΥΣ
ἐνδόξ
##στός
ἐκκ
##λησαν
ἀποχρ
##ήνου
ἀγαγεῖν
πλό
μέτε
##πτόντων
τέμενος
##φθέγ
##φέρων
δήμαρχ
ἑκάτερα
ἄρχουσι
ἀνεκ
γράψαι
ἀρετὰς
ἔκτι
##αίρετον
Ἰησοῦν
δικαιοσύνη
σκότος
πεσεῖν
κούρη
Οἰδί
λύπην
ἀκολουθεῖν
Πρωτε
συμβέβηκεν
Φοί
θήλ
ξύν
φαγεῖν
ἁμά
ἐσσ
ἑὸν
ἑφθ
Ἰλίου
ὅσπερ
##πέρ
##οχον
##ωσις
##εισι
ἐπίν
ἐνδι
ἐνίκα
παυ
##μένι
παρεισ
συνουσίας
##λίους
##τέρη
##δρʼ
πεφύ
ἀνασχ
##λευσε
##λωνται
υἱῶν
τοσοῦτο
ἀρτι
ὀρθὰς
ἀξιοῦν
φρονήσεως
χειμὼν
ἐπανι
δείσαντες
νῆα
ὁπόσοι
τυχὼν
ἐπείτε
προστάτ
##πεμψεν
ὑπομείν
διαφορὰν
πεῖσαι
συντεταγ
γαῖα
ἔξοδον
ἁλισκ
γλῶτταν
##στέλλειν
ἤγαγεν
πίστεις
Τουτί
Βό
λυμ
σπερ
ἥκων
ἱε
##ηματι
##ύδα
##γεσθαι
##ζή
##ᾶμα
##τετο
##μαθεῖν
ἐνθα
ἀπην
ἀντεῖ
##ίνιος
ἀγν
##άσειν
κεκλη
πανδημ
ὑποδ
Ἀθηνῶν
εἰσάγ
ἄγριον
μαστιγ
ἐπίγραμμα
μεγάλαις
ποταμοῖο
ἐσέ
προσέφη
χαλεπόν
νηὸς
πόντου
βελτίων
στάδια
ἐπιχειρεῖν
Σπάρτῃ
μοίρας
τερπν
ἅλωσιν
βρέφος
Πάτ
θρην
ἁβ
ἱμερ
ὠκ
Ῥηγ
##ιμν
##γʼ
ἐπλή
##σθέ
##είσθω
##ίνουσα
ἐπιλε
χρεία
εὐπό
διατρί
αἰῶνος
περιποι
πιε
ναυτικὸν
κοτ
##μήθη
κομψ
λογι
ἐναντίους
γινώσκ
κέκλη
ἰσημερ
πεντακοσίων
ἐλάττων
ἄστει
πεποίηκε
Ὀδυσσέως
ἕωθεν
##έγραψεν
τεχνῶν
ἕτοιμος
στρογγ
ΑΖ
Τυν
ἐόντες
ἔστησαν
ὤμο
##πτοι
##φάγ
##ταξε
αὐταὶ
##στράτου
##σθὲν
ἀλλότριον
κατέχειν
αὐτοῖσι
εὐπε
διαλεκ
ἀγορεύ
δέους
αἰθέρ
ἀνατρέ
οἰκοῦντες
Αἰθ
##αινόντων
##δόσθαι
στρατηγοῖς
οἵπερ
εἰκῇ
θηρεύ
τύχας
ὅλοις
τρυγ
ἱστοριῶν
ἑνός
κατηγό
θαυμαστόν
γραφῇ
##δέχετο
##δοξος
Ἀττικὴν
μηδεμι
φάσκοντες
λείψαν
περιεχ
ἀνήκε
##ρότητος
ἆθλον
οἱονεὶ
Κυπ
Νι
θεῖος
τέ
ἤρε
ὕπ
##φών
##χί
##ματός
ἐνεστ
δικάζ
##έγραπται
##ομολογ
##αίη
##ῖνας
##ρυθ
##σσου
φυτῶν
##φασις
ἄρκτον
λιμοῦ
θηρ
ἀργαλέ
##ζευγ
Ἰταλίᾳ
Κολο
στάδιον
ἔτεσι
Χαλκ
##στρεψεν
Περικλέους
Γότθων
ἐνόμιζον
##έγραψε
ἐλευθέρων
κιθαρῳ
Ἰώση
ἐνενήκοντα
πολλαπλασιάσας
Βρού
Πλού
κόμην
φόρ
ἔναγ
ὅλη
ὧδέ
##τειαν
##λκ
##άσθη
##δν
##δάσ
##ήλα
##σιες
ὑπεί
διακό
##πολι
##υρίῳ
##τερʼ
φέροντα
##στρατον
φιλοσοφεῖν
σωφρονεῖν
Μεσσηνίων
κρεῶν
θῆλυ
ἑσπέρας
Ἰλλυρι
Σά
λό
φήσει
ἄλογον
ἑλί
ἥκω
##ΩΛ
διέχ
ὑπαί
ἐπιλαβ
στρατόν
αἱμα
##λουμένων
##πίπτειν
##ύμως
Ἀριστα
ἱκανὴν
διανοίᾳ
πόνου
##ηκότων
λειμῶν
ὁμιλ
θέρος
ὕπνου
ἀφικνεῖται
χρῆσιν
ἔννοιαν
σπλάγχν
Τού
λέων
ξυλ
σεῖο
τᾶς
ἀτό
ἅπτεσθαι
Ἱέρων
ὀπτ
##μορ
##ωμένοις
##τεχν
παλιν
##ρίθ
συνειδ
διαφυλ
κατασ
προσπ
##τέρην
##ύτῃ
ἐστράτευ
##γεα
##τάφ
##αινεν
ἐχέτω
μικρὰν
##ψασα
ἡδονῇ
ἀναγκαῖα
ὁμολογίας
βασιλέ
##μέτρου
τοσαύτας
πορρω
Λυκούργ
κυρίῳ
ἔφαμεν
γεγενημένον
ὁμῶς
δίδω
ἄπρακ
τρυφὴν
σκολι
##φεύγ
θορυβ
Βελισα
Θεμιστοκλῆς
ἀκοντί
λανθάνειν
φοβηθεὶς
Λατίνων
διεφθάρησαν
φθεγγ
Ἀθήναις
Τάρ
θνήσ
Ἄρεως
##οὺ
##σσαι
##μὰ
##οῦσί
##σασιν
ἐγκλη
##ρητα
##διώ
ἀκμὴν
##στηρίων
αὖτʼ
συνεπ
##δωκαν
τετραμ
ἀργυ
ἀνδροφ
ἀριθμοὶ
σταδίοις
ἐπείπερ
ἀναστρέφ
ὑγιειν
σκηνῆς
πιστὰ
δυναστείαν
τόλμης
ἀλαζον
ἐχώρουν
μορίων
ἔνεστιν
ἀφείλετο
Ἀντίπατρον
Οὐολού
Πρὸς
φόρους
χελι
χλωρ
ἀτρέ
ἔστη
##εστά
##νουν
##χεύ
##ώσκον
##ανάκ
##ένων
ἐνίων
##ηνα
##ρισε
##άνθαν
ταρα
##λαύν
ἐπισχ
ἀποτ
ἀγνω
κατακε
εἴθʼ
λέγοντι
##τάτας
##τάξας
ὁμοίαν
κἀμὲ
σώμασι
στρατηγίας
ἀδελφοῖς
λοιποῦ
πνευμα
##ηκότα
φράσαι
Τίμων
μισεῖν
δεσπότης
δεδιότες
χρυσίου
Ῥοδίων
κράτιστα
ὑπαρχούσης
αὐτοκράτορα
φαύλως
δημόσιον
παροξυν
ΒΕ
Κολ
Κίρ
ψαύ
Ἀβρα
ὅσσ
##ωρα
προτείν
διαδε
καταλέ
##άζου
##ρωμάτων
ἄρτον
διεκ
κρατεῖ
ἄλλοθεν
ἀρκέ
ἀντιποι
παρέσχε
ἄξιοι
##καλεῖτο
τόνδʼ
γεγρά
##ύσειν
ὄψις
καταστῆσαι
διαπρα
κἀκεῖνον
πωλ
πηχῶν
πλουσίων
παύσασθαι
ὑπῆρχεν
παθὼν
Θησέως
##στρατοπεδεύ
πάντοθεν
ἔναγχος
Θευ
γίν
σοῖς
Ἀπ
ἔθα
ἕξιν
ἥξει
##τά
##ρσιν
##δουσιν
##χομένων
##ξουσιν
καλε
ἐνίοις
διάμε
##μενε
##αλω
##ρηκεν
πλάσ
λαὸς
##ώνη
##δονται
τάχει
δῆθεν
πιστὸν
οἵα
ἀξιολόγ
##άκης
Οὐλπι
τουτου
ἐπαινῶν
##δώσειν
##δέχοντο
ἁπλοῦν
##δάων
Γαΐου
τάλας
ἐπιστολὰς
ἔφατʼ
ἀρίστων
λάθρᾳ
ἀποκτείνας
ὕπνος
ἁρμονίας
Περσέων
Δαμα
Τιβέ
ἄγγελος
ὄφρʼ
διδάσκαλος
Κων
Χάρι
ζῳ
θρυ
φλέγ
φόνος
Ἁβρο
ἐτή
ὁρα
##κρυ
##φοβ
##γρα
ἀνύ
##ριχος
ὑπήκο
προελθὼν
##λιοι
##ρομένου
##σταθ
ταῦρον
δεξάμενος
καλούμενοι
φιλη
##σκετο
##δόκη
Καπι
βοῆς
βαρυ
ποιητοῦ
##γωνα
ἰδίως
οὐδενός
ὑπέσχετο
Λαο
ἔρωτι
φυλάττεσθαι
Μηδικ
μεγέθη
δεδιὼς
εἰσελθεῖν
Ἱππό
δημοκρατίας
Πόντου
δέσποτα
τό
Ἐπεὶ
καύ
##ῶνας
##τιθέναι
##ερῶς
##ρίδα
ἐπισκε
##ομέ
διαπε
ἀγρι
ἀγών
##ποδί
ἀφῆκε
ἀρχαί
##δεια
τριβ
οἴδα
ἄγχ
νόμιμον
##ραφε
ἐροῦμεν
δοκο
βραχυ
##φύγ
τυγχάνουσιν
Ἡρώδην
Θήβ
ἔρημος
ἐπιτήδειον
ἁρμονίαν
Ὀδυσσέα
ἐτελεύτα
νομίσαντες
Βαβυλῶνα
Ἀντίπατρος
πελάγους
Ταρκύν
τετράγωνος
γήρως
Χάρων
δῖος
θώρη
συρ
ἀστρα
ἱστό
ῥήματα
ῥιπ
##ημον
##δρά
##τιμη
##άντι
##έρες
##δετο
##ρεὺς
ἀποδρ
εἴλη
##πολέ
ἀφέλ
μέτα
μέτρα
##γνοὺς
##μησιν
##ακῶν
##θέσει
Ἀθηνᾶν
ἄγουσι
πρόσθε
ἀναγιν
μάχαι
σπαρ
τεκμαί
τέκνοις
##αίρεσις
συμβαίνειν
δεδήλω
ἔνεστι
κήρυκ
##στρατοπέδευ
Μνη
Σί
συκ
ἡσσ
##ίτης
##λεστ
προτιμ
ἐπιδεικνύ
##ομβ
στρέφ
παραδο
συμβα
ἀναλαβεῖν
δοκοῦν
ἀγαθὴν
κατέστησεν
##ουμένως
σχήματα
ἑκατέρα
δοθῆναι
ἐλαύν
παιδός
ἁμαρτημάτων
βιάζεσθαι
φράσω
γράμμασιν
ἀπαγγελ
ἕνδεκα
Αἰγυπτίοις
γεγονότες
ὁμιλίας
##ύνεται
σκυθρωπ
ἀνταγων
διαίτης
##έστερος
πολιορκου
ἐσπούδα
σιδήρου
φλόγα
κεκτῆσθαι
Κλαύ
θύν
ἄδειαν
ἅλις
##ευκ
##υεν
##λυσεν
##σκο
##ωτέρους
##ενεγκεῖν
ποσσ
##σασι
ἐξαιρ
##σίῃ
##τίμως
##λοχον
ποιησ
##θετον
ἐμῷ
##υσον
##δρού
δεομένων
λαοῦ
##ονταί
##πτό
##ευσε
##ξαμένων
ἐπίστευ
ἀρού
χρησι
##τρεφ
δωρο
##δήμου
πραττ
Παρθυ
φάραγ
ἐλπίδων
κρατῆσαι
ἠπείρου
ὀστᾶ
αὐτοκράτωρ
Ἑβραίων
δανεί
##γγειλεν
Βρετ
Καν
δαμ
τρε
φθι
ἀδοξ
ἄμπελ
ἔμπε
ἱλα
ὤφθη
##κόν
##δαρ
##μμων
##θεί
##ΕΙ
##οντά
πρᾳ
ποίαν
##άνῃ
##λασε
##ικά
##ικός
θεὰ
εἴπομεν
##θεύ
##πολ
ἀφθον
##ρέθησαν
γένε
ἐκεῖνό
πάθει
πρόκειται
σώφρων
κρατή
φθόνος
##ίγνεται
ἀριθμῷ
##πτοντες
κλειν
ἐλπίδι
τρέφει
βασιλεῦσιν
κρείττους
Φιλό
ὀνομάζουσι
Συρακούσας
στήθε
γεγένηται
Βροῦτον
Γαβ
ΖΔ
Μουσῶν
μῶν
πά
χίλιοι
ἆρά
Ἄρα
ἠσπ
ὄρθ
ὅλος
Ὁμη
##λοῦ
##ηθέντος
##σμένα
##μῖ
##φά
##βους
##ειστήκει
##εργον
τοῦδʼ
εἰκα
ποίησιν
ἐκπέ
παρουσίαν
διακει
περιστε
οὗτοί
##ισμὸν
εὐθύς
δυναμένη
ἐσή
ἔγκλη
εὑρη
##δύνε
ξυνέβη
##κυίας
ξυμβ
ὑπεξ
χείρους
ἐλεειν
ὥρμησεν
##ληφεν
Πομπήϊον
τυράννους
ἴσασι
γονέων
ἐπιβουλὴν
διαρρή
ἀφελέσθαι
τουτέστι
ἡμέτερα
φαρμάκων
ἐγγύθεν
Ἱεροσολύμων
ὁλκά
ἐλάχιστον
ἰσχυρο
σύγκλητον
ἁλῶναι
Θουκυδίδης
ΓΕ
βδε
δολ
τηλ
ἦμεν
ὀρύ
##ξάντων
##ήμων
##ΑΣ
διέλ
##λεος
##είδι
ἐπιδεῖξαι
ἀποδεῖξαι
ἐξειργ
οἰν
##σοντες
λαφύ
Καμπ
ἀσμένως
πενίαν
αἴτια
##ιστὰς
διάδο
θυμόν
ἁρπα
πρᾶγ
χαίρων
πολίτην
δεύτερα
ἰσχυρὸν
τριακοσίων
πυθόμενοι
πάροι
ἐπιμελῶς
κεῖνος
Γάιον
κλύδων
Ἑλένης
ΔΕΖ
τηλικαύτην
ὡρμη
Θρᾳκῶν
ΕΗ
Μαγ
ΠΩΛ
Τερ
φόνῳ
χύ
ἀχρ
ἄρθ
ἔθετο
ἰὼν
Ἰώνων
##άθων
##όρας
##μίων
##ωσκ
##μενόν
αὐτομ
ἔχοιεν
##άρῳ
##στερος
γενήσεσθαι
τάφρον
##πτρον
πολιτικῶν
δηλον
ἀδελφιδ
ὅση
λοιπόν
προσεκ
##ιστά
χρυσοῦς
##ίγνοντο
##φόρου
ἐπιστολῆς
πολέμια
##έστατος
##πέμψας
δωρεὰν
φονεύ
βασίλειον
παρεκάλουν
ἀφορμὰς
Ἀσδρού
ἔλεγχον
δεισιδαιμον
Δελ
πτην
ῥῆμα
##έοντες
##παυ
##μεῖναι
##ῦον
προκει
##ρονται
ἀγρο
παραλαβόντες
νεὼν
πλείστας
φέρουσα
##κέας
λεχθ
νέοις
ἔπλετο
##βάλλεται
πεισθεὶς
κατασκευῆς
στολὴν
##ίδαο
συλλή
Βοιωτίαν
φωτὸς
Μένανδρος
ἥντινα
Γότθοι
Ἀρίστων
ἐλέφαντας
Ὄλυμπον
Βασι
βήματος
νῶ
σῇ
τῶ
ἁμ
ἐῶ
ὀρέ
##μφθ
##ίους
##τοῖ
##τοξ
ἐπέχ
οὐράν
ἀπέρ
παρακαλῶν
##υχον
ἀμβρο
καλοῦνται
##ίζουσι
##μετρον
##ισάμενοι
παντός
μετασχ
τρισὶν
παιδευ
δίκη
##δόνος
ταὐτόν
ἐθέλω
τοὐμὸν
Τίμαι
Μενε
##βαλλε
Ἑλληνικῶν
γίγνοιτο
ὅνπερ
ἐπιτρέπειν
δηλοῦν
γεγραμμένα
Κάτωνος
συκοφάν
φιλανθρωπίας
Σικυων
ἐπιπέδῳ
ἀπέστειλεν
##ληλύθα
γενναίως
ἠγνό
ἱμάτια
ζηλοτυπ
Κυθ
Τῶν
θάλ
πτέρ
ἔγν
ὑφορ
##έον
##φιν
##ζαν
καμπ
##ανῷ
##λλαν
ἐπιθ
τιθέ
ἀποκτ
##σαιτο
πλουσι
##σκαι
##ευε
ἄρσεν
##πλαν
πληρ
νέμ
νηῶν
μόρον
φοβεῖσθαι
βελῶν
καλλι
##ωσάμενος
σεμνὸν
##πεμψε
κώμην
πλούσιος
Μιθριδάτου
##ήλυθεν
φρενῶν
μετανο
ὁλοσχ
εὐσέβειαν
Ἑλλησπόν
Μεγαλοπο
δηλονότι
Ταυ
βολ
σκα
ἀτοπ
ἤλυ
Ἰφικ
##τῶ
##ωτάτην
##ῆνα
##ζομένη
##άρ
##ΟΛ
##στρον
##ίνον
##ική
ποιοῦν
ἐμπι
αἰεί
μέτω
##πόρ
##βουλον
ἀναγν
ἔπεμπον
θέμενος
##ηκότας
δαψ
ξύλων
δαίμονος
ἀπαγγέλλ
παντοδα
δήπουθεν
γονεῖς
Ἀλκιβιάδην
Αἰσχίνης
θορύβ
ἄκρατον
ἀπολωλέναι
δοκιμα
Βαβυλῶνος
διαφυγεῖν
ἀξιόλογον
ὑπήκου
ἀμήχανον
πεπόνθα
ΗΒ
δύ
δόντες
θεῖναι
##ίμους
##ονας
τοί
ἐπεῖ
ἀπαί
ἀνεγ
χρο
##τησις
ἀποχωρ
##σίη
##διοποι
τίθεσθαι
##άζοντος
οἰκή
##κειαν
σωθῆναι
ἡγοῦντο
ἄρχεται
χάρακος
ναυτι
λεγομένην
Λαζ
μαχόμενοι
##τούμενον
τράχη
πύργων
Ἱεροσολύμοις
Πειραιᾶ
δείπνου
ἀφορμὴν
ᾔσθετο
πρῴην
Ξάν
θαμ
κί
λού
πλακ
ἔδαφος
ἴδε
Ἰακ
ὁμόν
##ηταί
##οθέ
##δῷ
##σμένους
##φήν
##ώσης
διῃρη
ἀνερ
καταλόγ
##ποδος
ἐμόν
λόγχ
μετασχεῖν
##κτην
ἐρεῖς
ἀδικίαν
αἰσχρὰ
εἰδώς
μνησι
ὄψεις
ἐργάζεσθαι
σαφὲς
σύμμαχον
ἀνάθημα
ἐχθρὸς
κἀκεῖνοι
##όμαχος
ἐδέοντο
ἔπραττον
ἰατρῶν
ναυμαχίαν
ἀποκρίνασθαι
ἀσελγ
Ἐφέσ
ἐγκλημάτων
Κύρῳ
κελ
κάτ
λῦσαι
νού
χυ
ἴδῃ
##ορίας
##εισῶν
##ανι
πρότερα
ἀπῆλθεν
ποσὶν
ἐπιστη
##ροτον
##αλί
##τίθει
αἰαῖ
ἀκήκο
νεώτερος
##πόλεως
κόρης
σοφι
ἔπαυ
συνέβαινεν
ζητῶν
ξένοις
ἀξίας
τοσαύτη
ὀξέως
μύθων
##φόρων
Εὔβ
συμπρά
πικρῶς
##πέμψατο
ἅρματα
σημαίνειν
διαρπ
θεραπείαν
ἴσχει
ὑπῆρχε
σύμβου
γεγόνασι
ἱκέτευ
ἔμαθον
ἐπάνω
αὔξησιν
γόνυ
Ἀλφει
Σάμον
μάγει
ἄποι
ἐσμ
##όεσσαν
##σσεν
##μίᾳ
##ξάμενον
##ενέγ
##ρινε
ἀλλοφ
ἀποσχ
ποιοῦντας
##λίδα
προσδεχ
περιρ
##ρέπει
##ξατε
τιμᾶσθαι
στρατιάν
χρηματί
##γγος
πρεσβείαν
ἀμφοτέρας
χωρίοις
ἡδοναῖς
ἄνθρωπε
ταχίστην
μέσων
κέρατα
κατασκευὴν
μῆτερ
κρίσεως
καθεστη
ζῶντες
διδασκα
ὥρμησε
συναπο
##πέμψαι
##λοίμην
Ἰουδαίαν
ἑταῖροι
##βαινον
ἐγγυη
Λακεδαίμονι
νύμφης
##δεκάτῃ
δεικνύ
Σολόμων
πεπιστευ
Λίβυ
ἐνθαῦτα
γο
σκη
σῶσαι
τρη
ἔγγ
Ἐγὼ
ὀμν
ὧς
##ηγε
##ξονται
##βιον
##ΕΣ
##εῖλαι
τῶνδʼ
##ριζον
ἐπικλ
τιμαῖς
##μοῖσιν
παραχωρ
ἐμφερ
περισπ
λαῶν
φιλή
##ηγεν
ἐθερά
##ίσματα
βραχέα
τοσαῦ
ὀνόμασι
πέμψαντες
Ποσειδάων
Λεύκιον
ἄσπε
ἀέθ
ὀδυρ
κατηγορίαν
κατηγορίας
Βακχ
φοινικ
ὄνειδος
Πηνελ
ἐρωτηθεὶς
μάγ
ὅθι
##ζος
ἐπυνθάν
διδό
προκαλ
εἶτ
τιθέναι
συνοί
##άραν
κατασκ
δύσιν
##τικούς
##πιστ
αὑτὸ
##λικὸν
μόνῃ
στρατηγός
γνώμη
δυσα
ἔπαιν
μακάρων
##βολαὶ
ἐξέτα
##πηλα
σημείων
ἐθέλων
δώσει
πολίτης
ἔμπαλιν
δευτέρου
Νικίας
##βεβλή
σαυτῷ
ὀκτώ
φιλόσοφον
Γαλατῶν
διαιτη
Ἕκτορος
οἰκιῶν
εἴδωλον
Ἡσίοδος
Πόπλιος
Βορ
Κλυ
θώρα
##λάσ
##σῷ
##ῖψαι
##ήτην
##ζομένου
##ονες
πρε
ἐνδ
ποσὶ
μεμιγ
##ίναις
κατέλ
##ρεβ
συνεί
πλήρης
συγγένειαν
ποταμοὶ
αἴσθ
ἔπεμπε
Ἀλκα
Παμφ
##ίστατο
##φυγε
πεποιθ
βοηθῆσαι
δαίμονα
ἐσχα
Μεσσήνην
γεγονότος
δύνηται
αἰχμαλω
δηλῶσαι
μισθοφόρων
σπεύδων
γεραι
##όμεσθα
παρεῖχεν
Ἀσκληπιοῦ
Θρασύ
χαριζόμενος
##όγονοι
Κλέων
Συν
ἡλίῳ
Ἡφαι
ὁπω
ὤμοι
##νό
##δησεν
##φώ
##θομεν
##ήτοις
##ζοντας
##24
##ταφ
διήρ
##σθον
πόδες
ἐγὼν
##άλας
ποιῇ
τινάς
##τέχν
καθορ
περιφέρ
βασιλείᾳ
##λλοντο
ἐφύλα
##αθʼ
οἴχεται
ἱερω
ψυχή
Θεῷ
ναυπηγ
πράξας
πράττοντες
κωλυ
σπουδαί
ταὐτῷ
δεξιὰ
θαυμάσαι
ἐνέπ
##στικῆς
Καλλικ
ἀποστῆναι
γράμμα
πρέσβεων
ἐνιαυτοῦ
εὐνού
χειμῶνι
ὑμετέραν
θήραν
ὀνομάζουσιν
γλῶσσαν
##μοσύνην
δανει
ἀναθήματα
Πίνδαρος
Ὑπερείδης
λαφύρων
ἔθεντο
##ατε
##υξ
##ήσας
ἐνῆν
ἀπάν
##λασεν
εὐφροσύν
εὐφρα
ἐγκώ
παρατε
##θηκῶν
ἐμε
ἀνατε
ἀναπεί
ἀρχαὶ
μέσα
ὧνπερ
##μεγέ
νεβ
##τόνων
##στρατεύ
φωνὰς
ἐναντίοις
ἀλγη
δουλείας
ἐπαγγελλ
Δίφιλος
Σεβα
σύμμετρον
στερεὸν
φάρμακα
δικαστηρίῳ
Ἐπικού
Ἄρτεμιν
Θεμιστοκλέους
σθένος
ἄστεος
αἰθέρος
ΕΤ
Θαλ
Κω
Τὰ
κραν
κνή
ὀϊ
##ιχ
##κριν
##πέν
##πνο
##όης
##σματος
##βί
##ζεις
##ζομένοις
##ώρου
##14
παῦ
ποτὸν
##ρεσι
στάσεις
παραλεί
ἀμέ
ἀκηκό
οἰμ
κεκλ
δόξω
ἀπέφην
χώρην
κἀμοὶ
ἐπεδεί
σωτῆρος
ἑτέρᾳ
##λεια
ἴσος
εὖρος
ἀδελφοί
φθιν
ἐπιθυμεῖν
ἔοικας
##μέτρ
πόνοις
ἐρωτῶν
Πλάτωνι
εἵλετο
φεύγει
##ενεχθ
εὗρεν
Σπαρτια
πυνθανόμενος
χρόαν
παραδόξως
σβ
χάσ
ἀχν
ἅλα
ἐοί
ἔμʼ
ἥκοντα
##ηθέντων
##οτάτων
##δουσι
##φεν
##ϊς
##ϊκῶν
ἐπελθὼν
διελθ
ἐπιφέρει
πόθον
ἀγρυπν
περιπε
##πασεν
ἔφησεν
ὑποχεί
ὁρᾶσθαι
ἀπέστησαν
##ρώτα
ἀπεδεί
##αρχοι
##κλησιν
χρυσέ
κομίζων
ὁπλι
ἐπιθυμία
νυκτε
ἐθέλῃ
θυγατέρων
##δραμον
κακοπαθ
κοινωνίας
χορὸν
παρθένων
δημάρχων
καταφρονεῖν
αἰσχύνης
καθήμενος
δάκτυ
Ἰβηρίας
ἐνίκησε
Ἡρακλείδης
πότνια
Κερκυρα
ἆθλα
ἄργυρον
εἰληφό
φιλάνθρωπον
ἐτόλμησεν
Δίωνος
Κί
Πεί
Σου
ἅψασθαι
ὤμων
##ικες
##αζε
##όρον
##ΙΠ
ἐπελ
ποίας
παροῦσιν
##δεσσιν
ἐπικα
##λέης
ἐξηρ
εἴκα
βαθεῖ
καλύ
##άζῃ
##μβον
τέκε
ἀγαθός
##δέκα
κοινὴ
ἀναγραφ
##ρακται
εὔνους
ἐρρήθη
##τελὴς
ἀποκρίν
ἔκγον
κυδοι
##ρικῆς
μανίας
θερμα
δεῖνα
μόρια
πεντακισχιλίους
μηχανὰς
##οῖνιξ
πικρὸν
ἀθροι
Κόλ
##ίστησιν
πέτραν
φαινόμενον
ἀπολωλό
Ὀλύμπου
εὐαγγελ
παντοδαπῶν
πρυταν
νώτου
Μαυρου
ἐμάχοντο
ἐσμὲν
ζῆλον
τμη
ὀσμ
ὅρων
##μματι
##ϊν
ἐκβαλεῖν
##ίνοντος
##σεώς
εἶδες
##υμή
καταχ
θεοπ
##λίαις
προσδ
##κιμον
ἀφιγ
ἀκρω
##λήμων
ὁμοίους
##ξετε
κοινὰς
##υπέρ
κατέσχον
##λειφθ
##ασπι
νότον
ἔπεισεν
ἑκατέρᾳ
##ίησι
ἔγη
##τευμα
χρυσὸς
πένης
δώσω
##ίσταντο
φοβούμενοι
##τινοῦν
μέλλω
δευτέρα
δευτέρᾳ
δουλείαν
φεύγουσιν
βούλῃ
στρατεύειν
κυνὸς
μάρτυρα
τελευτῆσαι
γεγονότας
προσηγόρευ
φιλοσόφου
χθονὶ
τουτέων
διαλύσεις
παραινέ
κτημάτων
##ΙΝΟΣ
ἐπωνυμίαν
Παῦλος
Καυ
μογ
πτό
τέγ
ἄπω
ἔμψ
##όην
##ύπερ
##θως
##ΐαν
ἐπὴν
διῄ
##στῃ
εἰμί
##μένοισι
προδι
##ίνως
##υμνα
ἐγίγνοντο
##δοτον
##οίαις
συγχ
##δέως
ἀναγνώ
σώζειν
εὖτε
αἴτιοι
παρεχ
##ίστων
πουλ
τήνδʼ
ἱκανὰ
φανερὸς
ἀκοῆς
##φιλο
ἐργάζεται
ἐκκλησίᾳ
πεδίου
ἐλπίσιν
χείρω
συναγωγ
##κάλει
τοξό
παρακαλεῖν
ξυγγεν
χαρᾶς
ἔλθοι
ἐλεύθεροι
σοφιστῶν
ἡνίκʼ
ἀπέστειλαν
παρατάξεως
ἀπροσδοκ
παραλληλόγραμμον
πανδημεὶ
Σπαρτιατῶν
ΕΔ
κλαί
φέγ
ἁμιλλ
Ἄρεος
ἧπαρ
##πλεον
##βιος
##ώσῃ
ἀπελθ
ἐκτρέ
ἐκπλη
μεθι
ἐπιτρο
οὕνεκα
##λείφ
ἀκούοντας
μεγάλοι
κρατήσαντες
ἀληθοῦς
ὅσσον
πονεῖν
σπέν
θύραν
θύγα
ἐξαμαρτάν
Λιβύων
πλοίων
κινδυνεύει
Σεμέλ
Λύσανδρος
Μένιππος
θορύβου
πραγματείας
Ἕκτορα
ῥώμῃ
ἄγγελον
Κρήτην
χιτῶνα
πίστει
φιλανθρώπως
ἐγκωμι
Ἀτρεΐ
ἔγκλημα
Κέρ
Μερ
Ταύ
ληρ
μούν
σή
φλυ
ἱμα
##ωμ
##ουσία
##λλῳ
αὐστη
##όντʼ
παῦσαι
ἐπικε
##υμά
διακοσίων
καταλή
##θευ
##θεμένους
ἐμφύ
καθιερ
γενναι
ἀφθόν
ἀμειβ
##ξιος
##ίζοντα
##τήθη
ἱερά
##τερός
ἐπεζεύ
στρατιὰ
νόσος
ἀδελφόν
##δυνον
ἀνδρο
ἅπασα
εἷλον
ἐπιχωρί
προειπ
βασιλεύοντος
εὐνοίᾳ
Ἀμφί
ὠφελεῖν
ἔπραξεν
συγγραφέων
βεβα
παρακελεύ
προσηγορίαν
ἐναντίαν
τάλαντον
ὡπλισ
Εἶ
κν
πταί
στον
Ἐρώτων
Ἔφε
ἴσης
ᾐτι
##ιμος
##ημένοι
##πνα
##μματος
##γους
##11
ἐνεγκεῖν
##άνους
ἀποδιδόναι
πόσις
##ναῖς
καταλαβεῖν
ἐλάφ
μεγα
νεφέλ
##πουσα
ἐπεδείκνυ
δικαίῳ
ἀδελφε
ἰδών
οἵας
τἀκ
διδόντες
χαλκο
δίψ
χαίρει
φοβούμενος
##έβλη
κρίσεις
ἡσυχίας
θυρε
##βαλλόμενος
δεσπότου
λῃστῶν
πυκιν
ψευδεῖς
Κυαξ
Φιλοποί
ὁμοιότητα
Ἰωάννην
ἱππεῦσι
Ῥόδον
φῦλα
προσηγορίας
κέχρηται
σίδηρον
Ἔφεσον
ΕΘ
Λά
Λάμ
Μᾶ
Μίνω
Φορμ
σαν
χυμ
ἧτταν
Ἠλεῖ
ὀδόντας
ὄψε
##έουσιν
##όη
##ξουσι
ἐπό
##στὸς
##μενεν
ἐκφέρ
##λαθ
##ικύ
ἀποδείκνυ
##άλης
##ησομένους
δεηθ
συμπερι
οἷσιν
##ήλοις
##ευον
ἀγαθῆς
ἄγουσιν
##μαρτυ
στρατηγίαν
Ἀρταξ
λίθῳ
σκορ
τέλειον
δημοσίων
στόλου
##ττόμενοι
Ἀριστογεί
χεροῖν
βασιλικῆς
αἰδῶ
μάντε
##ρότητι
διακρίν
φιλόσοφοι
συμβουλεύειν
θρόνον
ἐντολὰς
Κόρ
Πρία
Σαπ
κοπ
ἑτάρ
ἥπα
ἰόντες
##σάκις
##23
ἀνίσχ
ἐπιστά
##ικας
ἐξεί
συνελθεῖν
##αλερ
##ήσοντα
##ήσειαν
καλουμένους
##δοσθαι
##δηλος
ὁμοίας
ἐχούσας
ἀπέδωκε
βαρὺ
##ίστου
ὅλῳ
διάφορον
Οὐεσ
πολιτεία
δικαιότερον
κίνησις
ἐπαΐ
τάχους
μαθημα
βουλεύσασθαι
γωνίαν
κόλπῳ
διαφορὰς
ὑγιὲς
χρωμένων
Φρύν
Ἀρκάδες
κῆρυξ
διέφθειραν
δοκιμά
πράττοντας
ἐβάδι
Πυρ
Ἄττα
ἠμφ
ὠχ
##προ
##οτέρους
##δερ
##ύρου
##βδην
##ΟΡ
##ρασθαι
##ρομεν
ἔχεσθαι
διαλλ
θεοῖσιν
##πολί
καθὰ
##άζον
ἐφόδου
##σκου
##ήλθομεν
ὑποχωρ
ἄρξαι
τρίτη
σύρι
Θεὸν
κομιζ
χαλεπω
##ρίζων
εἰρήνη
ἐλαίῳ
παρασκευῇ
διανέ
γινομένης
βιό
πόντῳ
κέρα
πορείας
νίκῃ
μύθῳ
ὅρκων
τριακο
θεωρῶν
πλευρὰν
δένδρον
Σκύθαι
συγγνώμης
κτήσασθαι
Σκυθῶν
Εὐφράτην
Δάφνι
κῦδος
ξό
Ἡλίου
ὑστ
ὕπαρ
##έι
##λίν
##θός
##ᾶνα
καλοῖς
##ειλή
πράσ
ἐκδι
προτερ
παροῦσι
##δεσι
##δεσσι
ἐπιδε
##στιον
ἀποδο
ἀποσκευ
ἀπομνη
##αλος
ἐγκέ
##ναὶ
προσην
##όμη
συμπαρ
ἀνακαλ
##δημίαν
##τάχθαι
τάξις
##τήρων
μεταχει
ἀνδρείᾳ
##κτόν
##πουσαν
δημαρχ
δύνασαι
ἄρτους
ἐπεξι
##ροφῆς
##ίστοις
τροφήν
βιο
##κείσθω
πεποιῆσθαι
μέλλειν
Λυκῖνε
βασιλεύειν
καλουμένης
λυπη
ὁμώνυμον
ὄχλου
πύλαις
χρεὼν
ἁμαρτάνειν
θέαμα
Ἡράκλει
κἀκεῖθεν
Ἔρωτα
σωματο
υἷα
Σμύρ
ὁππότε
οἰμωγ
Συμ
θλί
σαλ
φής
##ρυγ
##λάμ
##σόμεθα
##ίσιν
##ζομεν
##ζούσης
##ΐας
ἐπάλ
ἀπαρχ
τεθη
ἐκτείν
##ρίη
##ρίης
προελθεῖν
προλέγ
##σασθαί
##λασαν
κατηφ
ἐπιφέρ
##πεμπε
##θρό
##όμοις
περιγ
περιεῖ
ἐλάσ
ἐκείνας
##νησε
##πιπτον
ἐχρήσαντο
##κησιν
κινδυν
φρονήματος
παρέδωκεν
ῥητὴ
τρόπαιον
διδάσκει
##άσειεν
θυσίαις
ἐπαγωγ
εὐνοῦ
Βαβυλ
βέλτιστε
Μέτε
γνωρίμων
φρένα
##δραμεῖν
τέσσαρα
ἐτελεύτησε
κατορθώ
διατριβὴν
φαίνηται
κἄπειτα
ἄπορον
γαστρὸς
τολμῶν
εἰρήσθω
ξύμμαχοι
διατρίβειν
σύμμετροι
ὑγίειαν
ἐστρατοπε
νέμονται
Ἐπίκουρος
Κλω
ΛΥΚ
Μου
Μοῖ
μείν
ἀρα
ἀχα
ἥρως
##ητῶν
##ημένα
##δεῖς
##ῆκαν
##ώτην
ἐπαινε
##στῆναι
ἐκφυγ
κατάρ
εὐφ
διασαφ
ποιέειν
##δίαις
τίκ
καλοῦμεν
δύστην
κεραμ
##ρωσιν
πέλε
αὑτούς
##πτῃ
ὁρῶσι
νόμισμα
λαβόντας
ἐπεθύμ
φανείη
πρώτας
νέκυν
ἀδικεῖ
φθόνου
πλείων
##κεινα
ἔσχατα
##βάσεως
πνευμάτων
##μερος
ῥᾳστ
##φυγεν
κακοδαί
μητρός
γυμνὸν
συμφορᾷ
ἀγαπᾶν
γωνίᾳ
ἑορτῆς
καταλιπόντες
κειμένην
αἰδοῦς
βασιλεῦσι
πρωτο
Κορνή
ἀθρόως
Λευκίππ
τετάρτῳ
ὑπολάβ
Φαρνά
##μοσύνης
τριγώνου
δείκνυται
πλεονεξίας
ὑμέτερον
διδάσκαλον
ζήτησιν
Σκη
Χλό
δῃ
ἐσσυ
ἔρυ
ὄλβ
ὅλα
##λύν
##πτος
##ύλου
##ώδους
##τατοι
πράσσειν
ἀπῆλθον
προοί
ἐπιλέγ
ἐπιβολῆς
ἐπιδεικν
ἐξελθεῖν
συνεσ
συνήθη
συνήθεις
##θετε
##ποτ
πλάτ
ἔφρα
ἀνθρώποισι
τέρας
λαβὲ
ἀληθεῖς
ποταμός
δυναμένοις
##φορᾶς
ὀλίγην
ἀνεχώρησαν
φρονῶν
##ίσματος
παρέλαβε
ὀργι
πείθει
##όχοιο
Ἰταλι
##στικὴν
ἀγῶνι
χρησμὸν
εἵπετο
κάρα
Ἑρμῆ
βουλευτήριον
μείζονι
Μάρκος
ἀνθρωπίνων
ἀναισχυν
ναυμαχίας
ἐζή
ἔπαθον
ἀνεῖλεν
ῥώμην
κάλει
ἐπαύσατο
προσηύδα
Κυζικ
Μαρκ
γυῖα
φευγ
ἔθηκεν
ἦσθα
##έοντα
##οπλ
##γμάτων
ἐπῳ
διάλ
εἰκότα
##ρισται
προθ
##λημ
συνερ
διαπεπ
δέχεται
##πορεύ
##άγη
δύω
##ισμάτων
##σσῶν
πρόχει
χαρακ
ἀρξα
δυνατὰ
##άκος
Ἀγάθων
ἀπόστασιν
θαύ
ἐγγύς
τἀδελφ
λέοντος
ἐπανῆλθεν
εἰδώ
φυγάδας
##λαμβάνων
θεριν
σημείου
λαμβάνουσιν
ἔπεσον
##ρηνται
ὅμοιοι
##χρῆσθαι
μέλλοντας
φρουρ
ζῴοις
προθυμίᾳ
Μεσσήν
λογισμὸν
μουσικὴν
##στρεψε
πεποιηκέναι
Φαέ
τηλικοῦτον
πατρῴαν
##έγνωσαν
Καλυ
δέρμα
Χριστὸν
κρείττονα
αἱρέσεως
Ταρκυν
ἀσπίδος
συγκλήτου
ὠφέλειαν
θείων
ἀρη
Ἀσίᾳ
ἐλεύ
Ἐριν
ἠι
ὀλυμ
ὅρον
ὠθ
##δρίαν
##συν
##ίτην
##ωτέρα
##ῦσαί
##σθείσης
αὐτον
##δεσιν
ἀποσφ
πότον
ἀγορά
θεοῖσι
παραδι
ἐμὴ
τοιῷδε
συμβο
##οίης
##σσειν
##ογώνιον
σοφοὶ
τοσόνδε
ἀδελφοὶ
οὐδεπώ
ὀρθῆς
τοιαῦται
καθάπαξ
ἐξετα
διάστημα
##ροιζ
##ψασθε
Οὐραν
πειρω
στερη
##βάλετο
πεζὸν
πιστευ
εἵποντο
Ἑλληνικὸν
ὁποῖα
τοιαύταις
σκεπτέον
Νέστωρ
συχνοὺς
ἐγκρατὴς
ὑπάρχον
καθεύδειν
ἐντυχεῖν
ἀποικίαν
βασιλεία
πραχθέντα
μαλθακ
Δικαι
ἄπωθεν
Τεγ
Φαν
Χρυσ
νεῖ
Ἀμπελ
ἐάσας
ἕδρ
Ὀν
##ρν
##εϊ
##ύριοι
##λλω
αὐδ
ἐξήρ
##ποντος
ἀφυ
ἔφθα
##δοντο
##πιδος
##δέξαντο
δίκτυ
ἀπέστη
διελέ
μεγάλως
κινεῖσθαι
ἄρχοντι
ἐπέστε
παρέδωκε
λέοντα
ἀριθμῶν
μέσος
κατασκευα
τοσούτοις
ἀγνοίας
Σύλλα
μαρτυρεῖν
πειθαρχ
Αὐτο
θνητῶν
δορυ
κρηπ
κἄν
ἔφυγεν
ποικίλον
καρποὺς
συλλογισ
ἰητρ
Ποσειδώνιος
Φαι
θρη
κληθ
μεῖον
νύμ
τί
Ἄππ
Ἐρετ
ἠρά
##υστ
##όρος
##σοις
##φύρ
##γις
##ξηται
##ταξεν
##αιε
##λλὰ
πρᾴ
παρῃ
παράν
κατάπ
διαγ
δέοντος
οὔποτε
##μάτι
δεομένους
ἔφυ
ἀρχι
##πιον
δοκοῦντες
κύκν
##δικος
ἐρεῖν
παρεκ
ἑκάστους
προσευχ
σκώ
ἔκπλη
##τείνει
παράσι
στείχ
μνημον
οὐδέτερον
μειδι
ἐπιχωρίων
ἀντίον
##λεκται
προφάσεις
συμφορῶν
ἀπιστεῖν
μίμν
μάρτυς
γλυκὺ
##τούμενος
πλευρὰ
Κύπρις
σωφροσύνη
προσθή
σύμμετρος
κρείττω
Μιθριδάτην
χρηστὸς
σιγῇ
γλαφυρ
ξυμμάχων
##ηραρχ
ὠφέλιμον
Ἠλεῖοι
ΛΥΚΙΝΟΣ
Θά
Λαβ
Στρ
κτε
ψάμ
ἀο
ἐζη
ἑσπερ
ἔκα
ὀστέ
ὦρ
##ιαν
##άσαντα
##ξάμην
διωγ
##στῆς
##είρας
προαι
ἐπιτελ
ἐπιεικέ
##σχύν
καταπλη
οὕς
ἀφειδ
μάται
τόσον
οἰκη
δοκούντων
##σμός
##ωρίᾳ
κατελθ
σωφρόνως
κατέσχε
ἐπίτρο
##ασκον
δυνατω
Θεό
θάλαττα
ῥημάτων
ἔπεα
ὄψον
διαφέροντα
σκοπῶν
ἐκκλησίαις
δοῦλοι
ἡγεμόνος
χαλκοῦν
ἀθροί
ὀλιγωρ
προειρημένοις
εὐνομ
δεσμῶν
Θεσπι
μεσογ
ἀλκὴν
τηρεῖν
οὐδεμιᾷ
ὑγιαίνειν
ἐγενόμην
Ἰνδοῖς
Ἐρυθρ
περαιτέρω
συνειδό
ξυμμάχους
Χαιρέας
ὁμονο
βλαβερ
Φοῖβος
ἁπασῶν
Αἰθίο
Δελφῶν
μνησικακ
Λυγ
Τρα
θώ
μαι
σκαι
ἔσαν
ἤθους
Ἰερ
##υπτ
##πʼ
##πλε
##μορφ
##ρισαν
##ίνοντας
κατώ
πόσον
εἴποις
παραδοὺς
##πατη
αἱρετ
##μερα
πέδον
δόλῳ
ἀναγιγν
φιλοφροσύν
στρατηγόν
κινήσεις
ἀληθὴς
ποταμοὺς
προσεποι
##πησαν
κεφαλὴ
κρίσις
ἐπιφανῶν
ὀκτω
Πομπηΐου
χρεών
πήχε
νεμεσ
Πατρό
κάθοδον
Ἐμπεδο
Κύκλω
διαρρήδην
γέ
σέλας
ἀδια
ἔλασσον
ὁδῶν
ὑμεν
ᾐσθ
##τύπ
##οτάτην
##μά
##ύσης
##ὶδ
##ἢν
##ανδρον
ἐκεί
ἐκκλ
ὑπασπι
παρῆλθεν
##τοντα
##ρεσσι
##αρμό
##τίθεντο
##πορον
προσκε
φιάλην
##λείπετο
φαύλων
##θέος
##ᾶνας
χαρίζ
##φοροι
εὔλογον
παρέδοσαν
ποιητέον
διάβασιν
εἷλεν
Ἀντιφῶν
χαλεπώτερον
ὑπάρχοντα
Λυδῶν
μαχαί
Κλεομένης
εἵλοντο
ἀποστόλων
γάμῳ
ἀρίστην
τετρακοσίους
πρέποντα
ξίφη
Ἀριστοτέλους
δάμαρ
μορφὴν
χωρι
παρεῖχε
φεύγοντα
ὁκόσα
προδοσίας
φλεγμα
Εὔβοιαν
Νου
βῆμα
λύειν
ἀθέ
Ἄτ
ἐσα
Ἰδου
ὀδυν
##έῃ
##Οὐ
##αιαν
##ένε
διαρκ
παθη
τεύχ
##ρίην
προέσθαι
προγόνους
χρῶμα
##ησόμενος
##άμν
ἀρχῶν
ἐλύ
##μητον
##λεμος
πάθοι
##φαίνετο
##κέα
ἀνάγνω
προσεδό
##λιπὼν
χεῖρες
λέλη
δείξας
κενὸν
φιλοσοφίᾳ
στοχ
συμφέροντος
ῥήτορος
προστάγ
παρθένους
ἤκουσαν
##γόνοις
Ἑρμῆν
ἔπραξαν
παρεσκευάζοντο
φωτὶ
χαρά
Πομπηίῳ
##δραμὼν
Τροίας
γαστρὶ
στρατοπεδεύ
κατέλιπε
οὑτοσί
κτῆμα
ἀλόγως
ὄργανον
ὑποσχέ
Πυθαγόρας
Θερμο
χρησίμων
σύγκλητος
πλημμελ
Ἀναξαγό
ὑποπτεύ
παλαίστ
οὕνεκʼ
περικαλλ
Πάτρο
ἐθεράπευ
Ἡφαιστ
Οὐεσπασι
Βρεν
Δίων
Πάμ
γόνα
νεί
φυσ
ἀλω
πρη
πρύμν
παλαί
##σαμένῳ
##λέας
χρέος
καταπον
παρατι
ἀναφ
##δοντι
##μελη
τιμήν
φέρουσιν
μιγ
##βολος
κρατε
ἀραι
##αρχίαν
νέκτα
ἀδικοῦντας
ῥητὸν
γεγραφ
ἐλατ
βάλε
πιστεύων
καταστήσας
εἰρηκέναι
μεγίστου
κριθ
Εὔβουλος
πελάγει
ἐλέγομεν
πηγὰς
Πομπήϊος
διαβὰς
ἐπιβουλευ
##βάλλοντα
λόφου
ληφθ
Κορίνθῳ
ἐλεύθερος
δρόμου
φρούρια
διδάξαι
ἰσχύος
Εὐρυσθ
ἠναγκάζ
ἀδυνα
Κάσσιος
μεγίστοις
τεταραγ
διπλάσιον
ΔΑ
Κλεί
Τροιζ
βίων
ξι
ἀερ
ἐστα
ἔριν
##ροῦντο
##ῶλον
##ήκασι
##ζομένης
##ώγ
##ΐῳ
ἐννε
##σθεῖσαν
##άνειν
προφαν
προχει
ταύ
##αρὸν
ἄλλοισι
εὐρύ
δέει
πλω
ἀφῄ
καλὴ
καλός
ἀναπλ
μέσσ
##βαζος
πανήγ
δικαίαν
βοὸς
ἐπέκεινα
σιτίων
##ιστʼ
##μάχῳ
πράττει
##βαίνων
φυγάδων
στόλῳ
Ἀργεί
##κείμενοι
εὑρήσεις
ὁποῖ
κάτωθεν
ἠγανάκ
βαλὼν
πονηρὸς
##ώδεες
Τυρρηνῶν
ἐγγυτάτω
μέλιτος
πεπονθέναι
##ερευν
Τρῶας
δαιμονίου
ἐξέπεμψαν
οἰνοχό
ἀσπίδας
ποίμν
Νεῖλον
Ἀγρίππας
αἰφνι
προϋπ
ὁπλῖται
##κυραν
τή
ἀλφ
ἁλμ
Ἄρει
ἠμ
ὀδύ
##κτοις
##κλέους
##άταις
##νωσιν
##δαις
##σάμενον
##ψῳ
##γέλ
##ώταις
##ΟΙ
ἀνεσ
##ρίσας
μεμφ
##δεω
ἀποπν
συνεγ
καταστα
εἴσ
προσλαβ
##υρόν
##δοί
κεκα
πέμπε
##ύμους
εὐθεῖαν
διεπρά
υἱῷ
##ρήσαντες
ὀρθὴ
γεγονώς
ἔλεξε
##ουργός
εἵνε
δουρὶ
ἡσυχῆ
Σωκράτη
ὕβρει
##τικοί
φροντίζειν
βότρυ
##ίστησι
συλλαβὼν
φαντασίαν
##ελάῳ
λεπτὸν
θύραις
ἄκουε
πραχθέντων
μετοικ
Ἀριστείδης
ἐδείχθη
δέδοικα
δωροδοκ
ἀποκτεν
Βρο
ΔΗ
Πρα
Ποπ
Πνεύ
λάμ
πτώ
ἀστα
Ἀπε
ἕστηκεν
##ωμένη
##ωτάτων
##ώσαντο
##ονι
##λλει
εἰδεί
στρω
εὐω
##σχοντο
ἀγρῶν
##τίον
δέλ
αἰνι
ἀφεστ
σφας
πολυκ
ὑποδοχ
##δειπν
##λουργ
ἀνδρει
##κησε
δικαστῶν
Περσί
σκώπ
εὑρέθη
λέξω
λαμπρὰ
##γέλα
παρέχων
φιλοσοφία
κοιλίας
κἀκεῖνα
Ἀχιλλεύς
βασιλικῶν
τοξότας
Μέμφ
φοβερὸν
ἐπιγιν
τετάρτῃ
διέφθειρεν
κτήματα
ῥᾷστα
μοῦνος
ἀπολιπεῖν
Πελοποννήσῳ
θρόνου
ἐβουλόμην
##γγειλαν
##ελίοιο
Νεῖλος
αἰθέρα
ἀναμιμν
γένεσις
τράχηλον
Γέλων
βρέ
τυπ
ἁγι
ἄσκ
Ἱστο
##άσαις
##ήτης
##ῆλος
##ΠΟΣ
παλλακ
##σθήσεται
##λεμον
ἀπαμ
τεὸν
πολλήν
θεάσασθαι
εἴδους
εἴπῃς
παραλαβεῖν
παρακαλέ
τίθε
##εὶρ
οἶσθʼ
##σμην
##κτρον
ἐπεκ
βούλωνται
ἀπόκρισιν
πράξει
ἀναγκαίως
Οὐαλέ
ἑκκαίδεκα
κελεύειν
εἴρηκα
τροφὰς
οὐρανόν
παρασκευαζ
προσαρ
ὁπόθεν
Λυκό
ἀγοράν
##μανθάν
ἀκριβὲς
στρατεύματι
ἀπιὼν
Ἀνακ
ὑγιείας
γιγνώσκων
ἁγίου
πύργον
πύργους
##στειλεν
Σκύθας
παραδείγματα
κατεστήσατο
ὑπηκόους
ἀκόλουθον
νηυσὶ
ἐγκλήματα
Ἰδουμα
Βρασί
Μὴ
τὠ
ἄστρα
Ἀσω
ᾔτει
ῥῆ
##ττεσθαι
##δυμ
##ζῃ
##ᾶναι
##ἀν
##τεσσι
##έραι
##σασαν
##ίνεις
ἐπιοῦσαν
##άρην
##ήσητε
##σχίλια
ἀγροὺς
##άλοις
##ρητος
##τρην
πλάγ
καθάρ
περιχαρ
##τήσαντος
μεταλλ
ἱερεὺς
##κτῃ
##ειδῶν
φέρον
σύλλ
δυσὶν
ἀριθμ
μανίαν
παλαιὰ
ὑπάρχων
ὀφθῆναι
ὁπόσον
##ιάδης
μύρον
στοχα
μεγαλό
τραπεζ
μηνῶν
κερδα
τετρακι
Μητρ
δύνωνται
Νεμέ
κούρην
φαῦλα
ἀθρόοι
Κορίνθου
ὀδόντων
κείνου
Ἀριστόβουλος
ἀνωτέρω
γαίῃ
Πριάμοιο
πλεονεξίαν
προσηκόντων
διαφθαρῆναι
ἐναργῶς
ὁμονοίας
ὅμιλον
ἐσπουδα
δογμάτων
λέχος
κιβω
Νυμ
Ση
κλοπ
ἄεθ
Ἄβ
ἐτιμ
Ἰδομεν
##υτο
##όωσα
##ωμένος
##χοις
##χαλ
##ξαί
##ών
##ματ
αὐτίκʼ
##ριχ
ἀλλοι
##ληφθ
ἀπολλυ
##ελον
εὐων
εὐώνυμον
ἀγκῶν
δέξαι
αἰκ
##ακὸν
ἀμφιβ
δεῖπνα
πολιτειῶν
##ξαμεν
ἀσυμ
κομί
##φερεν
##σπόν
γινώσκειν
##ιδὼν
ὅρκοις
##γένεια
διαπορ
μεῖζόν
λευκοῦ
ὁποῖον
ὁμήρους
ἀργύρου
ἐγχωρίων
μυριάδων
χρήσιμα
ἑστάναι
Φαρισα
ἀμείνους
δραχμῶν
ἀναπνο
Κρατῖνος
Σερου
λιπὼν
##πλευσε
ἀνυπό
ἀμύνασθαι
ἐρυθρ
πατρικίων
ἀγάπην
εἰσέτι
##πέμπετο
Ἡφαίστου
μηδεμιᾶς
Κωνσταν
Ἐμπεδοκλῆς
Κιν
Μακ
Τρῳ
βίους
σαπ
ψύχ
ἐάσ
ἔμενον
Ῥου
##άπα
##ορίαν
##ίῃσι
προτέρας
ἐπιτάτ
##αλγ
##τρύων
περιιδεῖν
ἀφηγ
συμβαλεῖν
οἰχ
##ρέοντος
μένων
πέπλ
ὑποζυγ
μεταβαλ
φύεται
φύλλα
συγκείμενον
νομίμων
Ἑλλὰς
##βολή
λεόντων
βαρέως
λοιπὴν
ἄξιόν
##ισταμένων
πατρίδας
ὁμολογεῖ
ὁμολογουμένως
ὁπλο
##φόρος
ὀφρ
προφάσει
πρόσωπα
##ττομένων
ἀπολογίας
Πελοποννή
ἐδέξαντο
βόες
ἀναβὰς
ἤρξαντο
##δραμόντες
Λακεδαίμονος
ζημίας
ἀποικίας
Ἄρτεμις
εἰσελθὼν
Ἡράκλεις
ἔβλα
μεταπεμψάμενος
Λυκούργου
Κάρ
Τίγ
γηρ
θάπ
κἢν
ἐοῦσα
ἔσθ
ἔνα
Ἡσι
##ττῶν
##ίοις
##θάρ
##βοι
##ζύγ
##ωνίου
##τομον
##λεύ
μελῶν
παρη
παρω
##λιξ
##ρονήσ
ἐπιφ
συντελ
ποιήματα
##πορευ
βασάν
##όμῳ
##ύνου
ἀκάν
##ύτους
φιλίᾳ
##χθῇ
φιλοφρον
μόνας
ἀπεστ
παῖδʼ
ὅσσα
καιρός
##φαλον
κολο
##φάνη
ἐθέλοι
μισθοῦ
##άθειαν
##σχιλίοις
μονομαχ
φράζειν
ὀφρύ
θυσιῶν
πλοκ
μάρτυρες
γλυκερ
ἀπώλοντο
Βοιωτοὶ
θᾶσσον
ἥδιστα
αἴσθησις
ποθειν
ὄρεσι
συμβέβηκε
συνεδρίου
##ρηγορ
Δαβὶδ
ἀπόδειξιν
Μαραθῶνι
ὀλυμπι
ʼκ
Κιθ
πῆμα
τάτ
χορεύ
ἀλι
ἀλεγ
Ἄμμων
ἔῃ
ἱστα
ὠμο
##ῶπις
##όεν
##δρευ
##θρι
##χυν
##17
##τακ
##τεῦθεν
##τιδι
##όνως
ἐκπώ
προορ
προτέραν
##ρεων
διατελ
κατακα
ἐμφυ
ἐμπεί
##κιμος
συμμε
ἀναφαν
αἱρεῖ
ὑποβ
γένοιντο
##ωρία
φίλην
βουλήν
##λικας
νόος
##άρχοις
γνώσεως
λοιπὴ
ἀπόλαυ
σατραπ
##ηματί
##ρικοῦ
λέξις
ἁρπά
χωρεῖ
τροφὴ
βιαι
ὀνομάζει
χερσα
ὅμοιόν
μύθους
ἀνδράποδα
εἰδότα
τελευτήν
ἰατρὸν
Πέτρος
ἐρημίαν
παρεῖχον
εὐαγγέ
ἱππεῦσιν
παγκρα
Ἀσσυρίων
##βήρων
Κιλικίας
γνῶσις
Αἰσχύλος
ἀντίπαλον
Χαν
βύβ
ἀει
ἄρας
ἐδωρ
ἦρχεν
Ἠπει
Ἵππ
ᾑρη
##ῶτι
##ῖε
##ψώμεθα
##χθέντων
##ήιον
##λαίων
ἐπιθέσθαι
συντι
##πεμπον
##λίης
##λίδος
##θροις
##έλος
πλήν
##δρῳ
μετάν
ἀναμνη
##αινόμενον
κόρας
φέρουσι
μισθω
μικρᾶς
ἀδελφός
##εβά
##ίστους
λεγόμενος
Πέρσῃ
ἰαμβ
μέλλοι
ἀγωνίζεσθαι
γράμμασι
πονηρίας
θαρρῶν
βωμοῦ
νεανίας
ὑπομνη
##διδάσ
βροτοῖς
Μάρκε
##ήσαιμι
##ύτητος
κτείνειν
χθὲς
κορυφὴν
ἀπολιπὼν
ἠξίωσεν
τριήρων
σχέτ
Ἕρμι
ἐπίδειξιν
Ἀμπελουργός
πανήγυ
Πί
ταιν
φρί
ἔρι
ὥστ
##άρια
##10
##ενται
##τεω
δικτ
##στει
ἐκομ
ὑπόμ
παρώ
##λητος
ἀπολαβεῖν
συνήθειαν
λέγουσα
ἀρχηγ
##άζομεν
##υκται
##λάμενος
κατέσχεν
##ραμμα
ἀνέζευ
στασια
##ψαντας
ὑπάρχουσαν
ναῷ
κεκλι
Λεπτ
Σαυν
πέμπτῳ
χείρων
κοιμ
##ίσκος
ἔσσεται
ἡδέα
Μάρκιος
γέρον
Ἰουδαίας
Καρχηδόνος
στεφάνων
ὕπνῳ
δάκν
σύμπαν
δεδοικ
##κολουθεῖν
κωμῳδιοποι
Εὐριπίδου
Μεσσηνίους
ἐνίκησεν
ὑπολειπ
Ξέρξου
τραπέζας
προβάτων
##εγένοντο
ἐπιγραφομένῳ
ἵδρυται
τηλικούτων
θόρυβον
Ἰσραηλιτῶν
Θήβαις
Μᾶρ
Σκηπίων
Φοῖνιξ
Χαι
κταν
ἀταξ
ἂψ
ἄτερ
ἠφάν
##ιμω
##λήσ
καλοὺς
##ειρον
##τικαῖς
ἐπὰν
ἀνʼ
##άνω
προδ
##ρεπε
ἐξο
θεᾶς
ποιῶ
παραθ
παραλόγ
##θρος
##τέραις
οἰόμεθα
πανουργ
##χθων
φύγ
##μαιν
τρισχιλίων
##φαίνεται
βουλόμεθα
##κημα
μεγάλαι
ἀριστ
σχηματι
##φυρα
##ίσου
προσελθεῖν
ναυαγ
##βαίνοντες
κελεύοντος
συμβῆναι
ἁμαρτ
ἐπαίνων
χαλκὸν
τραυμάτων
διαφθεῖραι
μεγίστης
##γένηται
βλάβην
ὑπομνή
ὑπομεῖναι
δικαιοσύνῃ
ἀνθρωπίνης
ἄπειρος
θρασύ
ἀρχιερεὺς
##γέλλετο
μέμνημαι
σύμπαντα
ῥητορικῆς
μακαρι
ἤγαγε
Κρήτης
##γράφειν
Ἔρωτος
μειρακίου
Νίκανδρος
ἐφιλο
αἰχμάλωτον
πραττομένων
χόλον
ἐνέργειαν
Ἐρατοσθένης
συνηθείας
σφενδον
Μούσαις
Πηλ
γλί
κληθῆναι
σιν
φῶμεν
χιλίας
Ἑλικ
##υίας
##άδην
##σόμενος
##σάμην
##ίμου
##θειν
##ζοντος
##οικι
ἐνέχ
προθε
μελαν
ἐπιορκ
ἐξαρκ
##ορύ
##θησε
##ησέ
καθαιρ
τίθενται
##άγγελ
γενομένας
ἀκμά
μέτρῳ
σφαι
##στηκότων
πάθ
ἄγχι
σοφός
##ήρει
αἴγ
μακροῦ
##ιστόν
διέτριβ
Σιμ
δίκαιοι
δίκαιόν
Δημά
ἐπανελθεῖν
Ἀχαιούς
δίω
ἐθέλεις
ἐπαινεῖ
πέμπων
ἐκκλησιῶν
ἰχθὺν
μῆνα
ἀγνοῶν
κυνηγε
βλάπτειν
λογισμοῦ
παραγενομένων
##τούσης
πλουσίους
φιλοσόφους
δένδρε
προσθεῖναι
ἀρετή
ὡμολόγει
κατεῖχον
κοὐκ
Γλαῦ
διηνεκ
ἀφροδισίων
Μην
θυρῶν
μά
τάν
χρί
ψα
ἁθρό
Ἀμβ
ἥπερ
##ρῆ
##ιός
##αρα
##όσι
##χῃ
##βῶν
##ᾶνες
##στροφ
τετρ
##υναν
##σατʼ
##υμαι
χρείᾳ
ἀπολώ
##λίην
προσεί
μηδα
##δίην
##τουμένων
ἀναπλη
##μπεν
##ίζοντας
οἰκοῦσι
ὑπολεί
##ημαι
σεβ
κατεφρόν
δηλα
##ογγ
ἐπεμελ
ἡγουμένων
τρίχας
μικρο
βαρυν
πρώτι
σχημάτων
ἀξιόχ
κολλ
##ιζόμενον
κωφ
ἑκούσιον
παλαιοὶ
ἀξίων
νικῶν
δεξιοῦ
ὀνομάζειν
δρυμ
κέκτη
πονηροὺς
ξύλου
καλουμένου
δεσπότῃ
τετρακισχιλίους
Βοιωτίας
ἀπαλλα
κειμένων
ἀπηλλαγ
διέφθειρε
μαρτύριον
θησαυ
ἀσύμμετρος
ἐκλιπεῖν
στυγερ
Τηλέμαχος
Δημόκριτος
ἐπίνοιαν
Καμπαν
Βού
Μο
Οἴ
Τυχ
φήμη
ᾤχοντο
##ασίας
##όεις
##ωρι
##χαι
##16
ἐπῶν
ἐνύ
##άνθη
##ρίαι
ἀποχ
ἀποκλ
συνωμο
στί
##ρχετο
ποιήσεις
##θεῦ
##ρηκε
##ποὺς
##υσας
περιοί
καλῶ
καλὰς
ἀνασπ
##δησε
##οίμεθα
##ρότης
##ίζω
πέπει
τριηραρχ
εἰσῆλθεν
εὐθύνας
δικαστήρια
ἡγουμένου
εἰκὼν
χρυσᾶ
κομίζειν
τἀμὰ
##ρικὴν
μαντεῖον
θέλῃ
##πτοντα
γραφὴ
ἔδωκαν
μνήμῃ
γεγενημένης
πληγῆς
φοβου
δεσμῷ
εἰργάσατο
ἑταῖρον
φαίης
ἐξαπατ
κωμῳδίας
Κράσσος
ἐξιέναι
Πύρρος
αὐλητρί
Ἀρχέλαος
πολιτεύεσθαι
σώφρονα
λάθρα
ἐπορεύετο
πραττομένοις
ὁμαλ
ἠπίστατο
θεοσεβ
δαψιλ
Γαν
Θέρ
δοι
λέλ
νέα
ἐμοὺς
ἥψατο
ὁκο
##ηρυ
##μίσ
##ῦρον
##άμενος
τερα
##ριτον
##ρίδας
τῷδʼ
εἶπας
##αίᾳ
εὐθυμ
διακω
τίκτει
##δοτο
ἀναπηδ
##ακοῦ
δόλον
##φέροντο
διεστ
ἀρξάμενοι
νέφος
τοιαῦτά
πεισθ
ὀνομάζεται
αὔτως
δεσπότας
βασιλικὴν
σκέλη
πλουτεῖν
ἅρματος
χρήσιμος
λύπας
##οποτα
λόχους
βλεφ
Ἑρμότιμος
ἁμάρτημα
ὀμφαλ
δίδωμι
##ΙΠΠΟΣ
Ταύρου
Ἀρταξέρξ
Σεύ
φῇ
ἰκ
##έμενος
##ίοισιν
##ωτάτη
##18
##30
ἀπέ
ἀπάγειν
προτι
ἐπιλέκ
ἀποστάσεως
συνάρχ
συνουσίαν
εὐημερ
##άλῃ
##τέροισι
περισ
##μισ
καλεῖς
μέμνησ
##μβα
ὁρῶσιν
##ραγαντ
##τωσαν
ὑπερή
ἐπεὰν
παρέξειν
σκή
ἀπόλω
πλήρη
φανερὰν
ἁμαρτίαν
δειμα
##δραμε
ὁπότʼ
προσαγορε
φεύγουσι
##άσειε
προφάσεως
πώποτʼ
Μετὰ
ὀψοφ
νενόμ
κούρης
παρεσκευάζετο
πιστὸς
γεγραμμένον
παραγίνεται
μοίρᾳ
γενναῖος
ἐργασίας
Ἀκραγαντ
ἤγαγον
φιλονικ
θαυμαστὰ
φημί
Αἰθιόπων
ὑποψίας
παιδοποι
οἴκημα
ἀπολλύ
ἑτέρωθι
Κτησιφῶντος
ἰσημεριν
βδελ
ΓΑ
Μίκ
θυρ
κίχ
πιστο
τᾷ
τρεπ
ἑαλω
##υλλ
##άσαντος
##ίτων
##χνα
##ξῃς
##ήθει
##ΥΘ
##ταλ
##ωνα
ἐντα
ἀπῆ
ἐπισκέ
πόθῳ
ἡμίσ
##τίδος
ἐμπλ
ἐμμελ
βασιλι
πεπα
##ύνοντο
##άζω
σφαῖ
##σμυρίων
ὑπερη
##μαρτον
##δείᾳ
##δείαν
δικαίοις
ἡγούμενον
φανῇ
λιβαν
ὀρθὴν
σχο
ἑκατέροις
θηρῶν
##τάτῃ
μακρ
##ύλην
ἐξετά
##καλυμ
ἐπανή
##λαμβάνοντες
##κυῖαν
##γνωμον
Θηρα
ἐδόθη
θύρα
τρόπων
##στικῶς
ἀπειρίαν
ὑψι
μυρίοις
Σωκράτει
ὑποκείμενον
δαίμονας
χιόνος
##διδόντες
σκέψασθε
ἀλήθεια
ἐπίσταμαι
σχολῆς
ὄμμασιν
βάρβαρος
ἀμείνω
ὀλιγαρχίας
Φρυγῶν
ποδὶ
συμβεβηκὸς
Ὀλύμπια
γάλακτος
ἔκτεινε
κρείττονος
Ἴωνες
ἀδιά
ἀγάπης
Κροῖσος
Φάβιος
ἀντειπεῖν
πτερόεντα
πρᾴως
Πελοποννήσιοι
Δίωνα
Κάλ
Φου
ζεῦ
κίον
τμ
ἀλέ
ἐψεύ
ἔρε
ᾠκοδόμ
##γματι
##χομεν
##ενεγκ
ἐνθουσι
##στία
##λεω
ἀνοχ
##είσατο
προφέρ
προτέρου
κατειργ
##ορᾷ
ἐγρά
καταλειφ
καταλῦσαι
πλήρεις
##κοντά
καλῆς
##γελλον
##ρωγ
φαμὲν
πολιτικὸν
##δέος
##φέρετο
δῆλα
μικροῖς
ἀνέθηκε
λιγ
οἵων
νέου
θηρίου
καρδίᾳ
διάδημα
##τεῖτο
ὀργήν
προσέειπε
νίκη
Ἀρχί
πάσχει
ῥήτορες
θαρσα
εὐπραγ
##λεκτον
γέφυρ
ἀλλοτρι
ἤκουον
γεγενημένην
##καρτερ
##όντων
μαθητῶν
ὀψοποι
Σύρων
κούφ
θρασὺς
γέροντα
τάφῳ
ἀρεταῖς
κρέας
φαίην
Σόλωνος
νύμφην
ἐκράτησε
Ἀρτέμιδι
##φόρως
Πεισι
Βελισάριον
Φοινίκων
Ἰνδοὶ
Σιμωνίδης
ἀκολούθως
ἡλικι
Βο
Δε
Δωρί
χίλια
ὀλ
ὁσι
##τνι
##οτάτοις
##δῆς
##σμένην
##μνε
##χομένους
##ΟΤΙ
πρότερόν
##εῖά
ἐπῆ
ἐπηρ
ἐπονομ
διάκ
διδόντος
ἀπάτης
μελά
##κεα
συντα
ἡμέας
εὐσχ
εὐκατα
διαχ
διαθήκας
##σαιμι
θεωρίαν
##τίδας
##άτωρ
##τέως
##άσου
##θηκαν
πλάνης
περιορᾶν
##κιοι
συμβαλὼν
ἀκό
##εσκον
πολύν
μένοντες
##λάῳ
Ἀνδρ
ἐχρη
κατεί
πλείοσιν
ἴσῳ
δυνατοὶ
νέκυ
ἑκατέρας
προσεχ
σκέλος
ἔλεον
##ιζομένων
πλέων
ἔκρινε
Διονυσ
συμβό
##βόλου
εἰσιέναι
νεανίσκον
ἐάντε
νεωτέρων
πρεσβύτεροι
φρόνησις
τρέπεται
ἔπραξε
συλλαμβάν
##πεπτα
σεαυτῷ
πορθμ
δύναιντο
ἀποκρίσεις
ἐννοίας
ἐπεχείρησε
ἐλέφαντος
μεσημβριν
ἀφιέναι
ἄγοντα
ῥόον
Ἀλεξανδρείας
Ἄργει
ἀπορρήτων
τραύματα
Λουκ
δεσμωτήριον
Δαμασκ
Ἕρμιππος
Δείν
Στη
θω
σὰ
ψαλ
ἐθέ
ἔθει
ἠφαν
ὀμω
ὠργ
##άδης
##όσε
##ψονται
##βει
##ουραν
δισσ
δισχιλίων
##στρ
ποία
τεῦ
ὑπαγ
ὑπώπ
##έρχονται
ἐπιδείκνυ
##ροῖσι
συνθε
συνελθόντες
##άλαι
##αγγ
αἰώνιον
##τουσα
περιγεν
##υροι
##κόσ
##άζουσα
##ίκους
οἰκίαις
γένοι
##λογίας
κύρ
Κατα
χαμαὶ
δικαστὰς
τρίβων
σοφόν
δυσε
λέξει
##δύνως
προσήκουσαν
ἐπαινῶ
##φις
##τοῦντι
θαυμασι
ἕλκει
ἐπαγγέλλ
Μεσοποτα
γάμος
εὐτυχίας
ἐνιαυτόν
##έτωσαν
##ψηφισ
δούλοις
ἀναλίσκ
ἀσφαλῆ
διελύ
##όωντες
ἀγγέλων
ἀγχι
ἀγχοῦ
τερπ
ἄδικος
ἐξετάζειν
εἰρήκαμεν
χρόα
ἀντιλέγειν
ἀπολαύειν
κεκρατη
ἐξαπίνης
Χοσρόης
ἡνιοχ
θεοφιλ
Σελεύκου
Γλαύκων
νεῦρα
Μό
πέ
ἀτί
ἐσκε
ἠΰ
Ἦν
ἵκαν
##τὲς
##λʼ
##οπα
##ίσι
##ζα
##ειληφ
πρόγονοι
παροικ
εἶθ
τιθ
ἀποτελ
ἀποδεικν
ἐξέλ
##πεπτω
##τίθενται
παραλίαν
ἀναλαβ
##τῶντες
##γεγρά
##ρέψαι
##ίλει
##δεικται
κοινοῖς
μέρεσι
κατέλε
κατέλαβε
τρίτου
ἀπεστε
φανήσεται
δεινοῦ
##γγυς
ἑκατέραν
κραι
φωνή
φανερὰ
ἐπιθυμίαις
νησι
θέσιν
ἡμετέροις
ἐπαίνου
πολιορκίᾳ
Ἀτθ
μνήμη
τετρακοσίων
##έστατοι
ἄλγος
ἀπώλετο
ἐσθῆτος
ἰδέσθαι
##φεύγειν
ἀσεβείας
στοιχείων
ἀνεῖλε
τριγώνῳ
ἀβλαβ
προφητῶν
Ἀγησίλαον
##λλάχθαι
Δαναῶν
τἀγαθὰ
ἐστρατεύ
προεῖπον
θεάτρῳ
ὀρεγ
τοσοῦτοι
##κινδυνεύειν
ἀπόστολος
σῦκα
Μυτιλην
μέτωπον
ὁμόνοιαν
ΘΚ
Μοί
Οὗ
κώπ
λοξ
μό
Ἐτε
ἡρω
ἡδυ
ἥκεις
ὀρέων
##δᾳ
##ψομεν
##ξο
##ξοντας
##όμενον
##τερά
##τεῦσαι
##σιδος
ἐπον
διῃ
διεῖ
ἀπῄ
παροῦσαν
##λιδος
κατῴ
ἀποπει
##ράκων
##ρομαι
##άργ
θεμι
παρακ
παραπ
παραδ
ἄντρον
ἄνδρʼ
αἰτεῖν
γενομένοις
ἀμνη
##σκος
πολύτ
##δόσεως
πάρο
εὖτʼ
λιμένας
ἰσχν
κρει
ἔλεξεν
χρυσῆν
δυσωπ
ἡδονὴ
##τείνειν
ἱκανοὶ
ταχύ
σπήλ
μυρι
νικήσαντες
τεκμαι
γραφὰς
μαχόμενος
αἰσθόμενοι
χιτ
ἀσθενείας
ταραχὴν
σῴζεσθαι
Καρύ
ἰδιώτην
##στῆρα
τόλμῃ
σαρκὶ
ἀναιρεῖν
Πύλον
ἐντυχὼν
Φοινίκης
διαλεγόμενος
στήλας
μεμνημένος
ἀλλότρια
Παφλαγ
ἀποθνῄσκειν
λαθὼν
Φασ
δῷ
ξύλ
ψύ
ἁλουργ
ἐλη
Ἐφε
ἠγγ
Ἥρα
ὀκ
##εῦν
##ιμοι
##σσει
##μέν
##γού
##βδομ
##19
##ΕΝ
##λλοι
αὐθά
αὐτέ
ἐπιχει
πόλιος
ἐξευ
ἐγέ
ἀγγέλλ
##τίδα
παρατα
παρακα
πετ
κεχρῆσθαι
##λεύσαντες
οἰκήσεις
τέκος
πολεμικῶν
##ξαμένου
φυτὸν
δικαίους
ἄρχει
σταυρ
##κράτην
λίμνη
##μάχεσθαι
δημοσίῳ
ἐπιθυμιῶν
##θήκην
χρήματʼ
##ίστανται
ἐπιστήσας
καθαρῶς
ἀθρο
ἀστῶν
προειρημένον
γελάσας
εὐνῆς
λῃτουργ
κείσθω
ἐγχωρί
προνοίᾳ
ἐνεργείας
αἰσχύνῃ
ἠπείγετο
μεσόγ
κτίσμα
Πύρρον
παιδιᾶς
Πηλε
Ἄλπε
ἐπύθετο
χλαμύ
ἴχνη
ἐσχατι
Βοσ
Μοι
λάρ
μνῶν
σοβαρ
ἑωθ
ἔλ
Ἑκά
ἠλευθέρ
ἰχ
ὅρος
##ροιο
##όεντος
##ίδη
##τοῖσιν
πρό
ἀνηγ
##δευσεν
τιμάς
##αρτον
ἀπορία
πόθος
διαμαρτάν
οὖρα
##τίαις
ἀφέντες
##ρότατα
κακία
νεώς
ὑποθέσεως
##στησιν
κοινὸς
κοινῶς
κύλικα
##δόνας
χώρης
ἐπεστ
λοιπαὶ
κατέστησε
##στήσαντο
Θεοφ
πατρῷ
σιτο
φρονοῦντας
πράγματʼ
ζητοῦντες
κράν
κρῖναι
θυμός
##πεσεῖν
ἀριθμός
##ραπτο
ἐλαίου
πολυτελῶς
δευτέρας
θαρρα
ἔφασκε
προφή
ἀπαλλάσ
ἐνιαυτῷ
συλλέγ
σκότους
ἄνακτος
ἀδίκων
ἔρχομαι
λοιποῖς
μετρήσει
Θετταλῶν
Φιλοκτή
Ἀννίβου
Σπαρτιά
Διονυσίῳ
##βάλοντο
ἔφυγε
κατεῖχε
δημόσια
##πεμπεν
ἐκπεσεῖν
ἄνεμον
Ἀράβων
ᾔσθοντο
γήρᾳ
ἀρχαίαν
ὁδοιπο
φέγγος
ἑωθιν
ΕΓ
Χά
πῖ
ἄτα
ὁρι
ὦμον
##πὸ
##μνα
##ῖεν
##ίοιο
##θρο
##χθέντος
##ήων
##ῆμά
##20
καρχ
##ανός
αὐλῆς
##οῦσά
##ινδ
μευ
παράλ
ἐπισχεῖν
ἐπιτελέ
##τητι
##ρομένων
ἐξάγειν
διαβαίνειν
ἀγῶσι
##μορον
τινί
ἐμῇ
##ησάν
##δησαν
ἔφερε
ἀρχαιρε
πολύς
##πειθ
φαειν
νεφ
##πτόμενοι
ἀνδρεία
ἐχειρ
ἀπέφ
ἄρδην
ἡγῇ
ἀνεβό
μακάρι
παρέσχον
ὅλῃ
##μήσαντες
αἰσχρῶν
πράττουσιν
χειρί
πείρας
Ἀχαιοί
ἀξία
ἐνέβαλε
δόξαντα
##φιλον
θυγατέρες
μέλλουσιν
νίκας
ἐμαυτόν
κλίνης
χαλκοῦς
##γένης
##τώλιον
παραγενέσθαι
ἔπραττεν
ἐθελον
σφετέρων
ἥνπερ
Ἀγαμέμνονα
ἀνέχεσθαι
ποικίλα
ἀποδιδρά
ἀπέδειξε
παμπό
παμπληθ
διδασκαλίας
ἐφρόντι
μετώπου
ἄχρηστον
ΖΘ
ἐλογ
Ὑδάσ
ᾤκι
##αὐ
##αριν
##κόντων
##σσας
##ωλύ
##ωτάτοις
##βιν
##ῆας
##ζόμενα
ἐπελθεῖν
ἐπῄει
##λες
ἐκλήθη
##υνος
ὑπορ
ταξι
κατέ
εὐτε
εὐρυ
καταγν
καταλαβόντες
ποιοῦσα
##τέμν
περιῆν
γενῶν
ἀμύν
ἀκη
ἐστʼ
ἐλάμβανον
##ξεσιν
ἡγήσατο
λιμένι
##φρονι
Ἀρκε
εἰκόνος
ἔπλεον
παρεκελεύ
##ίγνεσθαι
ἐξεπί
διάφορα
##τεῖται
ἀναγκαῖόν
λέκ
ταὐτά
ὁμολογίαν
εἷλ
εἰρήσεται
μυστήρια
Ἀργείοις
μέλανα
ἀγοραν
συνεχῆ
κυρίως
ὄρνιν
ὑπομιμν
δράκων
τελευτᾶν
γλυκύ
σελήνη
φαρέ
ξίφει
Μακεδονίᾳ
σπονδῶν
πλατ
φύλακες
Τελα
ἀναιρεῖ
ψεύδεσθαι
τηλικαῦτα
##τροπῆς
περιττὸν
##τόμως
ἐξέπεμψε
Σαλαμῖνα
Τύχης
Χαρίτων
δεδογ
Ἁβροκόμ
Τίμαιος
ἐπυνθάνετο
λιβανω
Ζε
Ξανθ
Πλ
Τοῦ
Τότε
θήρ
συρί
χεὶρ
Ἠρι
ἰόντι
##ροικ
##ωται
##ωμένοι
##θαις
##ῷτο
##βερ
##ώριον
##λλης
ἐκρί
προχωρ
ἐπιδι
ἐπισκευ
ἀποτομ
συνεῖ
##λοποι
##θεσθε
##αγε
προσπί
##λλοντα
##εύθ
μέτρια
##ρουσα
##ποινα
##χθωσαν
μεταβάλλειν
ἀγαθὴ
ἀπέστειλε
ὑπερέ
ὑπερέχει
ἁπάσαις
γυναικί
χειρω
##ψευσ
πεισθέντες
##ρισάμενος
βαρβάρου
ἦλθες
ἐλαυν
ἐθέλουσιν
ἐπαχθ
##καίρως
καλλίστην
ἀρίστη
προσιέναι
ἀλλοτρίοις
Κόιν
σχολῇ
πεποιημένον
##ττετο
Φαλη
ἀπαλλαγῆναι
νομοθέτην
κυριεύ
ἐνίκησαν
ἐμπεσὼν
γαμεῖν
πότμον
Πυθαγόρου
Ἄργους
Ἴστρον
τεύχεα
δαῖτα
ἐφθέγ
χειμεριν
Στε
Χάρ
θείῳ
φακ
χελ
ἀὴρ
ἠθῶν
##ωτέρω
##ζομένῳ
##όνοια
##στάντες
ἐκτός
##ρίσασθαι
μετελ
##έρειαν
ἡμέ
στὰς
διαλέ
καταφθ
##τέος
βακτη
##θησεν
ἐμὰ
αἰτη
##οινών
##ῆνον
ἐκεῖνός
##ξαμένους
##ξεσι
ἱεροσ
ἱερουργ
ἀκούομεν
στρατηγεῖν
λεπτὰ
εὔχεσθαι
ἐνταῦθʼ
ἰδίου
νικᾷ
Ἰνδοὺς
ὁρῶντας
##λασσε
μητρό
Μαχ
ἀπαγγ
εὐτυχίαν
ἀρίστοις
ἐλέγχειν
ἐδῄ
ἀλλοτρίας
προϊόντος
γέροντος
##ειπὼν
διατριβῆς
πατρῴων
χῶρος
τείχεσι
ἄνεμος
ὄργανα
γήμας
οἴκησιν
Λεοντ
κατάλυσιν
ἐοικότα
Ἀρταβ
βεβουλευ
Σέλευκος
τἀνδρὸς
συμβαῖνον
γέφυραν
Δαι
Πῶ
Σειρ
γυ
δοίη
χὠ
ἀμαχ
ἑωρ
ἠέρα
ἤρα
ἤθροι
ὄξ
ὠφ
##ρῆσαι
##ισα
##λαις
##βοις
ἐπώ
##όνοις
ἐνδεικνύ
##λεμη
ἀπισ
ἀπήγ
κατέχει
ἐπιστε
##ρεύς
##ράτους
συνδια
εὐβου
##μοντο
##στεροι
ποιουμένων
παραλίας
πλοῦ
περιελ
λαῷ
ἐστρά
μέσῃ
δυνάσ
ἀνθρώποισιν
Αἰο
πολιτικῆς
πρόφασις
κόρον
κόρη
Εὐβ
##ξενον
δυσκο
διάκον
θυμοειδ
##ρικὰ
##ρίζει
τροφῇ
μέση
##άχαρ
ἐλθόντας
Παρα
εὑρόντες
μηνὶ
κληθεὶς
προειρημένα
φερόμενον
οὐδαμῇ
πλούσιον
##ενεχθῆναι
πηγῆς
ὑβριστ
πεσὼν
πρεσβυτέρους
κάρη
οἰκέταις
##ύτητι
##ικαῖς
κτείνει
Φωκεῖς
ὄρνιθας
μορφῆς
ὀλιγαρχίαν
ἔπαθεν
ταλάν
ἄκουσον
κατεσκεύασε
προσφέρεσθαι
Βυζαντίῳ
##ώσκοντες
ἐλευθέραν
##εστέρους
θόρυβος
γνήσιος
ἁμαρτήματα
Ἡρώ
συλλήβδην
ἔπαινος
##ΟΤΙΜΟΣ
Κέ
Λιγ
Μοῦσαι
λοπ
Ἅρ
ἕβδομ
ὁσάκις
ᾔδε
ῥυπ
##ρεῖτο
##ιτα
##ῖδας
##12
##τομεν
##ερέ
ἐνδύ
παύσ
##σθί
ἀπόγ
ποθεν
##άνιον
##άνιος
##κεε
ἀποκατα
##ελίου
διασω
ἐγγεν
ἀγαγ
##νασσ
##τίθησι
ποιήσῃ
##ῖνες
καθί
συμφρον
πελέ
ἀκμα
οἰμώ
##τικρὺ
τόσσον
##ίζουσα
οἶμαί
μεταβολὰς
##αιντο
γνόντες
Περσι
##ρακέναι
λίην
##ισταμένους
ἐξέβαλον
φυγὰς
πρᾶξις
παλαιᾶς
ἐλαύνειν
νικῆσαι
ἐνέτυχ
##θεῖσιν
νεκροῦ
διαλυ
ποιεῖτε
διώκοντες
ἀφικόμενοι
ὕδατα
ἐπιστολῇ
κἀγώ
πληγὴν
##πάροι
βασιλικὸν
κατοικοῦντες
θεωρεῖν
δωρεαῖς
ἀχρή
ἀγγέλους
ἑξακοσίους
ἑξακισχιλίους
ὀπωπ
ἐξαπατη
κόμης
σύνεσιν
πτερὰ
Ἰνδικῆς
φήμην
Θεμιστοκλέα
Μάριος
Ἀγησιλάου
εὐλόγως
Ἁγνίου
Ἐρετρι
Ἀπελλ
Γνα
δερ
δόντος
πλεύσας
ἔπλει
ἡβ
ἦρχον
##εε
##υτον
##λῆσθαι
##άου
##άσιν
##δὲν
##ύει
##ίππου
##ωμένου
##ώμην
καπη
ἐνδοξ
διοι
τελεῖν
προελ
προπάροι
##λιῶν
χροι
ἐξαίρετον
##ομένα
ἔχεται
ἔχωσιν
στρου
εὐστο
##ορδ
καταμαθεῖν
##πολλον
##δίω
δεδου
πεφευγ
καλούμενα
ἀναπε
##οινων
##κειμένην
Ἀνάχαρ
##φανον
πλείοσι
φέρονται
ἀναγωγ
διεκώ
βούλησιν
ἡμέραι
##ιζομένους
ἔκρυ
ἐπανελθὼν
Αἴαντος
Σαμαρ
ναῦται
πεδίων
##ολογίας
γεωμετρί
ἀσθενεῖς
ἐδήλου
ὁμιλεῖν
ἐπίσταται
ὑπατείαν
ἐπιγιγν
λαλεῖν
νεανίσκου
νεανίσκος
ἐμπειρίας
πέπρακται
Σαβίνων
σύνεγγυς
καταλαμβάνει
εὐεργέτας
Βυζαντίου
προαπο
##έστεροι
γνώριμον
Ἰλλυριῶν
προσχωρ
πυρετὸς
Κροτων
ἤνεγκεν
ἀτιμά
Πρωτεσί
Δευ
Τρύ
Φίλων
θρία
νά
σόν
Ἐγ
ἠμεί
Ἠλ
ὤτων
##νυχ
##πρω
##δὺς
##ταο
##ταγμα
ἐκλέ
ἐκφέρειν
##λαε
##ούσιος
##λιτευ
κατωρ
##τονος
πόσα
##ράτων
συνεισ
##άροις
εὐζ
ἀγορα
κατατε
οὔτις
##άσῃς
ἐμεῖο
καθαί
συμμί
πεπε
ἔφασκον
##οίην
##ρέως
##ρέσβ
##αθέ
##ώπιον
##σκόντων
##πια
οἰκτεί
##πόρου
##πόλει
Ἀθηνᾶ
Ἀθηναῖον
##λογίαν
##αινόμενος
ἄγεσθαι
λαβόμενος
##δείμαν
##ηθείς
δεινοῖς
πεντά
πενήτων
ἐρρύ
γεγονός
φυγὼν
ἔπεσεν
παρασκευάζειν
Ἀθήναζε
χρησάμενοι
ἄχρις
τοὐπί
ἐξουσίᾳ
μαθηταὶ
καινο
πλευρῶν
πλευρὰς
ἐπιτρέψαι
μάντιν
ὑπῆρχον
φύλακα
ἐπίκου
τάφου
ἀφαιρεῖσθαι
κἀκείνους
ἄφαρ
σοφιστὴς
Σύλλαν
ἀπαντᾶν
Ἀγαθοκλῆς
δαπάνης
ἀσύμμετρ
εὐπορίαν
ἐρρωμένως
ἠθέλησεν
ἐπολιόρκει
ἀθανάτοισι
ʽοὐ
Κρίτων
ΝΟ
Φά
βόρ
θρε
μενε
ἅν
ἰξ
ὀβολ
##νησεν
##σματι
##μίῳ
##φῳ
##ωτα
##χειρ
##ΤΟΣ
ἀντερ
ἀνάκ
ἐκδε
ὑπάτοις
##σεαι
ἀποθέσθαι
##ομένοισιν
παραφυλ
##άσματα
ἀρχομένων
ἐφοί
##μελε
οἶδας
##ευεν
##δέσθαι
ψυχῶν
ἀπέδωκεν
##θυμος
ἴσους
χρηστέον
ἐσόμενον
##φορὰς
παρεληλυθ
ἀνδρί
πεπρω
εἴρηκας
μετέχει
πιστεῦσαι
καθαρὰν
ἐπισημ
πονηρίαν
τάλαινα
##σητε
ἀδύνατα
μνημονεύειν
δίδου
δράματι
συμπλέ
σκέψαι
λυμα
ὑβρίζειν
τυράννῳ
κείμενα
λήψεσθαι
γέροντες
μάντεις
μανθάνω
Τηλε
ἐγγυτέρω
κεῖνται
κολακεύ
ἐνόμιζεν
ἀφροδί
παρανομίας
ἐρευν
ζωγρά
Κάσσιον
φήμης
πανηγύρ
δορυφόρων
εἴδωλα
θεσμο
εἰληφέναι
συμφερόντων
φλεγμον
Μορ
Νικα
Παύ
Τή
Χαβ
ζώντων
θι
θῦσαι
χλι
ἀσω
Ἄρατος
ἕκτῃ
Ἥραν
ὑδα
##υρα
##άται
##ίσατο
##ωθέντα
##ψά
##τείων
ἐπλη
##λεχ
ἀνάσ
τεταρ
ἐκπι
περιν
παρουσίας
παρέργ
κατάσ
##υμάχ
ἀποκα
ἐξεῖ
##σταται
ἀγο
##λομεν
##ποδες
προσά
καθύπερ
##πασα
πάθεσι
πάϊς
ἀσυν
ἑκάτερ
##λικῆς
ἐπίφθ
ἐπίσκο
κρατῶν
ἀρτη
πληρω
λιμὴν
ἁπτο
παρεκά
##βολι
ἀπόχρη
διέτρι
νομίζεται
δυσκό
##φάνους
##ρισμα
##κυῖα
νικη
δώματα
βιώ
Ἀπόλλω
μέλλοντες
βασιλεύσας
εὐχὰς
ὁμώνυμος
σιωπᾶν
Αἰτωλοὺς
αἱροῦνται
Συρίᾳ
μηδέπω
παθόντες
##ήτουν
χαρίσασθαι
σύμβολα
ἀπωτέρω
ὑπάρξαι
ἐκράτησαν
ξυλλ
Τιμόθεος
ἐξευρεῖν
ἐκινδύνε
νύμφη
ἀνάγνωθι
γηραι
Μουν
Νομά
κάν
κτεῖναι
νι
χῶμα
ψόγ
ἄχθ
ἐρομένου
ἑστη
Ἔν
ὠκυ
##έονται
##έοντο
##ρύτ
##ηχ
##ημένους
##ύλον
##βελ
##ΗΘ
##ΜΑ
πορε
προγεγεν
μεστὸν
##σανάσ
ἀπολειπ
πολλή
εὐρυχ
διαφαν
διαβολῆς
καταδί
λέγετε
##άττων
ποιήσεως
##λίαι
δέπας
προσγεν
προσβολὰς
ἐμνη
γενομένῳ
ἀφό
##ίκης
##τικώτερον
σφαίρας
##ακος
φαμέν
##ευσαν
##κλος
ψυχαγωγ
βασιλέος
##όρᾳ
##ζοντι
δυνατ
ὀλίγαις
αἴτι
##κράτειαν
##ίημι
##ισταῖς
κάλλιστος
ἰδίαις
ἔσχα
##όπης
##δραμεν
καταστῆναι
σκοπεῖτε
μονὰς
Λαμπ
μαχομένους
Αἰγύπτιον
ἐπιφανείας
μαθημάτων
ψηφίσασθαι
πλούσιοι
##τούμενοι
εἱστήκει
τῆσδʼ
##ττεται
ἀρχιερέως
##έγραψαν
διπλοῦν
Βαβυλῶνι
ΕΡΜΟΤΙΜΟΣ
Θέτις
κυβερνήτης
ἐοικέναι
Μεγαρέων
ἐτράποντο
ἀρχαίας
ὑπελάμβανον
Ἐρεχ
ἐναλλὰξ
Βρετταν
πρᾶγμʼ
ἐστρατοπεδεύ
Βεν
Δέ
ΕΚ
λείας
φάτ
χλευ
ἐᾶσαι
Ἔφορος
##άτοιο
##μίν
##ίσταις
##ήμεθα
##μένες
##ηντο
ἀπάτην
μελαγ
παρῳ
παρορ
ἐπιόντα
εὐμαρ
##στατοι
καταμαθ
##στείας
##λίδας
παρασ
παρακολουθ
οὔτοι
##δοὶ
ἀναθημάτων
##λευε
μήλων
δυνήσεται
##στοὺς
πανοῦ
ἔνδειαν
τέτα
Αἰμι
Αἰκαν
δήμων
σωτῆρα
ἀκούετε
ἐπίτηδες
ἀντιβολ
θηρίοις
##τελοῦς
##βοσκ
ἐξελεγ
δολιχ
ἐπανελθ
θερμοῦ
ναός
πεζὸς
##φωνον
##φωνος
ἐργάσασθαι
μαθήματα
δρᾶσαι
κατάστασιν
παρέχεσθαι
ὁρμῇ
κυρίαν
βωμὸς
παρθένου
συναγαγεῖν
βίαιον
Συρακοσίους
γωνίαι
ἀσφαλεῖ
ὁμιλίαν
ἔρχονται
θεραπαιν
συγχωρεῖν
ὄρνιθες
θήρας
πυκνὰ
τεκμήρια
πυνθανόμενοι
συμβεβηκός
ἀπολέσαι
Κρονίων
Λοκρῶν
Ῥόδιοι
φῦλον
θερμὰ
ὑποψίαν
ἔφερεν
Εὐφράτου
ἔθνεσιν
παρῄνει
ὁδοῖς
χάλκεον
λείψανα
Ταρκύνιος
φευγόντων
Πλει
Χείρων
βλη
ζόφ
πίσ
σπλ
τρύ
φρέ
φαῖ
χη
ἀλώ
Ἀδείμαν
ἐτρ
ἐδείκνυ
ἤματι
Ἰσχ
Ὀλυν
ῥέων
##ερα
##υλί
##κτὸν
##λοισι
##πικ
##σσαις
##φόρους
##ωθέντες
##θίων
##θῶσιν
##ξείν
καὐ
##τεσσιν
ἐπόρθ
προμη
##κεὺς
##λέον
εὐλάβ
διαλέκ
ἐγρηγορ
θεωρίας
προσόδους
##τρόπ
περιεργ
περιμένειν
ἀναβο
##λευσιν
##σκους
##ρουμένους
βουλοίμην
ὑποθέσεις
συγγ
ὁμοί
κατεπ
ἀπέθ
##δόνων
##δόντι
Διοκλῆς
τιμὴ
σοφοῦ
ποταμοῖς
ἀνεπί
ἀξιοῦσιν
Ἀρμέν
Ἀρτά
ἐρᾷ
##καιρον
##ξειε
ἐγγρά
πείσεσθαι
##τείνας
ὁμολογῶ
φανεροῦ
ἔπεμπεν
##φύρας
θαυμάσας
βιαίως
Τιμ
Τιμα
##πτοντο
ἐπιστραφ
σύνθημα
ἔδοξαν
προειπεῖν
##στοιο
ὑποκρί
##βαλλεν
##ττομένους
ἐξελεῖν
ἀπήλλα
τεταγμένοι
##φεύγει
φυλάκων
κεκτημένος
Κράτης
ἕτοιμον
θυγατρὶ
Ἀμαζ
Κριτό
φθορὰν
τούτων
ἀμφοτέραις
κελευόντων
Κάδμου
εἰώθασιν
Χριστιανῶν
ἀλεξ
Ἀκαδημ
ἁνὴρ
τάσδε
Θερμοπ
ἀλεγειν
Δολο
Λί
Μουσ
Μίνως
Χαιρε
βάσεις
θρα
θάν
κλε
νί
ἀρό
ἤγ
Ὀκτα
ῥαβ
##ηδὸν
##ύριον
##βᾳ
##βῃ
##ώμενα
##ωνος
##τεία
##λλοις
##λλιος
##τιῶν
ἐκτήσατο
προτέρῳ
προαίρεσις
##σαμένης
συναπ
##άρειαν
##αία
εὐε
εὐπα
διαβεβ
κατασπ
βαθυ
##άγου
##παρε
ἀνασ
ἀναχώρησιν
##υκτο
##ρωται
##ρωμένων
##ίζοντος
##πιος
οἰκοῦντας
##ῆνας
##ρωνος
ἐκεῖναι
##μόνως
κατέσκα
υἱεῖς
##στήκεσαν
ἐσφ
ἀνέβη
ἀξιοῦσι
πράξειν
##ρικόν
στόλος
##όχους
##σίονα
νεκρῷ
διαλογ
σωτηρία
δέκατον
Ἀρχίδα
μεθυ
εὐχαῖς
πρασσ
ῥήτορα
πανταχῇ
προφήτου
βωμοὺς
εἰδότων
Δαρείῳ
περιεχόμενον
Ἡρώδῃ
ἐμποδί
ἠπείρῳ
πονηρὰ
ἰδιώτας
ἑταῖρος
διαφθείρειν
διασώ
στέφανος
γερόντων
##βάλῃ
Κορινθίους
Περσέως
προστάξας
τείχεσιν
γυμνάσια
σφέτερα
ὀπισθ
Σαπφ
Γάλ
ΜΝ
Νά
Πνε
κἠ
Ἀρέ
ἑλι
ἕξις
ὄβρι
ὅθʼ
##τᾳ
##τὼ
##υλλος
##ηθέντας
##σμοὺς
##ίῳ
##γαν
##γγες
##ῇσαν
ἐνή
προάγ
προέχ
προμάχ
μεμι
παροιν
##τονται
εἶπαν
##ροίη
ἐξῆλθεν
συνιστ
οὖς
καταγέλα
θεω
αἰπό
##όμαν
τίσιν
περιπέ
ἀμύνειν
##δοῖς
ἀνακλ
ἀναφερ
ἀνακομ
ἀναζεύ
##οφυ
##μητο
##ρωμα
δοκέει
εἰπόντες
κατεστρατοπέδευ
Καύ
##ύμῳ
φέρουσαν
φιλοτι
βούλη
φανεῖται
δυνατῶν
δυναμένου
ἀνεχώρησεν
πενθ
γνώμαις
ἑκατον
ἑκατόμ
ξυνι
νομίζεις
σπουδαι
Δηι
ἡδονάς
τρέχ
ἀκοὴν
κεκρυμ
δρᾶμα
χαλκὸς
Ἀρχελάου
εὐχῆς
μεγίστους
##σημον
μηνυ
γάμοις
πολέμιος
Πτολεμαίῳ
ὑπομον
κατοικούντων
δεσμὰ
Ξενοκρά
##ψειεν
τολμᾶν
οἰκέτην
πεποιημένος
τέτταρες
ταυτὸν
ληψ
αἰτίαις
συνήθων
##λάβῃ
τουτέστιν
ἕξουσιν
Μωυσέως
ἀληθέστατα
δειλίαν
Σκιπίωνος
Ἀσσυρί
ἐναπο
αἰγῶν
Πάρθων
ἐλάττονος
ἀποθνήσκειν
πάντα
Λούκου
Ἐπαμεινώνδας
παράλληλος
Πλούτων
ἔγνων
Δή
Δομ
Οὕ
Πιερ
Τειρε
γη
Ἄπολλον
ἕδρας
ἕστηκε
ἤματα
ἱματί
Ὀδυ
ὡσπερ
##τῶσιν
##ητοι
##οδο
##δόμενος
##μεῖς
##χιν
##βειαν
##ᾶραι
##ΚΛ
##αισιν
##τεα
ἐπω
οὐθέν
εἰδῶν
ἀπραγ
ἀνάρ
##ριφ
ἐκρα
εὐδοξ
διαλεί
##ήνασθαι
εἴχετο
γεραί
##ποδας
##θρώπ
##πονον
αἰε
##δροι
##άγγ
##λλονται
##ξιον
μέλα
##γοντα
δυναίμην
##μβρο
κακούργ
ὑποζύγ
##λογος
##χεσθε
##ύχων
##βουλί
##ρόνησον
ἀκούσῃ
##ουμένας
ἀνευρ
συνέσει
ζητη
##τεινε
ἀδικῶν
πουλύ
κωλῦσαι
ἑκών
ἐπιθυμῶν
ἐλαττόνων
δίφρον
οὐρανὸς
δεξιτερ
τυχόντες
ἔμπης
γυμνὸς
##ηκώς
πηγὴν
ἔλεγες
τειχομαχ
πρωτεύ
ῥαψῳ
##πτολέ
βραδυ
ἐστεφάν
ἀηδ
ἀνδριάντα
δεικνύναι
Πεισί
τέταρτος
ταφῆς
θησαυρ
Φωκέας
διετέλει
ἑβδόμῃ
εἴωθε
Ἥφαιστος
λόχον
προοίμιον
ὑπόμνη
ὑπώπτευ
Γέ
Κίν
Σο
Σάμῳ
γηγεν
θείᾳ
κυσ
κλιν
ἄκοντες
ἅγ
ἑῷ
ἴδον
Ἰορδ
ὁμή
ὄφε
##ρήν
##οθε
##σομένους
##ῖσαι
##ζέ
##ΐδος
##15
αὐτόν
ὑπαν
##ρίδων
##ούρων
##δεος
##ροντας
##τοντας
ἐπιεί
ἐπιβο
##έγραπτο
##κετε
##κεύειν
ἐξί
ἐξελθ
στρεβ
##τίθησιν
##ποὶ
προσερ
προσφέρειν
##άσηται
περιγενέσθαι
##ίζεσθε
ἀνθρώπινον
δοκοῦντας
##κλεῖ
##τρίας
πρόστα
βουλομένου
##ήσεταί
διεφύλα
ἑτέρως
ἀρή
δεινά
νέμε
ὑφηγ
λέβη
γεγα
τοσαύτῃ
λαμπρο
ὀνόμασιν
κοινωνία
φυλακὰς
εὐχὴν
δῶκε
βωμῷ
λυπηρ
##κάλουν
##σαίμην
πιστεύσας
αἰδὼς
ὄμμασι
##εθρον
ἀποστεῖ
Τεγε
ἀρχιερέα
Ἰβηρίᾳ
##φόροις
ηὐξ
Κικέρωνος
συσκευ
ζυγὸν
Ἀλεξανδρείᾳ
##ζόνως
διεφθάρη
Σαλαμῖνι
ἀτρεκέως
Κιλικίαν
ἀγέλας
Παυσανίας
ξύμπαντα
Ἰσαῖος
Εὐβοίας
ἡγεμόσι
Παλαμή
μάχαιραν
θρησκ
ἐκείναις
Δαί
Μάριον
δον
ἀί
ἀκε
ἐέρ
ἐθι
ἐσκευ
ἑὴν
Ἡλι
Ἰσμην
Ἱκέ
##έστερα
##ρὴ
##εμ
##ωμένην
πρι
πρᾷ
πρία
##μένω
ἐκβαλ
ἐπιόντας
ἀποκό
##ροποι
ἐξώ
ἀγαλλ
ἀγαγὼν
κατακό
βαστ
βαδι
##τέρης
##ύντα
ἀναλαβόντες
##θαῖς
##ωροι
##ρότατος
οἰκοῦσιν
##ξανδρί
ἀπέσφα
##ύμῃ
##ήσασιν
ὑπερβαλλ
φέρω
ἀναγνω
λεπτο
##οπραγ
ἰδού
ἀνέστη
εὔχομαι
ἔκπ
##μένοισιν
ἀμφοτέρωθεν
##ήγει
δείξω
ὁμολογεῖται
περίε
χειρός
σύνοι
πέμπτῃ
ὀφθαλμὸν
δωμάτων
πεποίην
##κριτον
Μενελάου
πολιορκεῖν
γῆμαι
στρατοπέδοις
λογισμοῖς
πηδ
Ἀναξανδρί
σκότῳ
θεωροῦντες
αἶγας
λύπη
ναυμαχίᾳ
αἰτίᾳ
εὑρίσκεται
κατιδὼν
φαίνοιτο
ὀφείλειν
στοιχεῖον
κλήρῳ
φοβηθέντες
ἐκράτει
##τροπὴν
παραγγεί
ἐτόλμησε
ἠρώτα
ἔταξε
Κλεοπάτρας
πυνθάνομαι
θαλατ
βλεπ
πλεονεκτεῖν
πράξεσιν
ἄγχιστα
##δέκατον
Πνεύματος
γλίσχ
Παγ
Σκα
βάκ
μεῖναι
ναιε
ἐόντων
ἐῴκει
ἥκομεν
ὠκύ
##οειδέ
##σημα
##μυθ
##29
##25
##ἐκ
##ῶνδε
##σιας
ἀναίρεσιν
αὐτοῖν
##ληγ
ἀποστέλλ
συντόμως
ἀγρίων
ἀγνώ
εἴχομεν
παραρ
##τέλει
βαθύ
##θημερ
##τρυν
ἐμπλη
γενησ
##εύεσθαι
##ρωσε
##ίασι
##ήσασθε
σωτήριον
##λικος
ἀκούεις
ἀπεφήν
νέῳ
ἑκατο
τύχαις
ἰσχυρί
##ρικῶς
##λαμβάνεσθαι
σημαν
ἀκολά
χερσίν
πόνοι
Σαμο
τοιοῦτός
χαίρε
νοῆσαι
στομάτων
ἀθλι
ἀδύνατος
##πεμψαν
διαφορὰ
ἀπηλλάχθαι
Μαρδόν
μηκέτʼ
Λεύκο
βραβ
ἀφελεῖν
σκυτο
ἐρωτᾶν
Βάκχος
Κάτωνα
γέλως
Ὀλυμπιάδος
δύσκο
στρατοπεδε
κατεσκεύασεν
Πειραιεῖ
##ψύχων
καθιστάναι
Σολομ
Σελιν
ἴδωμεν
προείρηται
στῆθος
Χριστιαν
Ἰουστινιανὸς
ἐνέργεια
ἡσύχα
χρύσεον
Κρῆτες
ἐφέρετο
Τουτίλας
κέκληται
Βρούτου
Κλαύδιος
Ἐφέσῳ
μέμνησο
βλο
κόγ
λώ
νει
ἀοί
ἀκατα
ἁμα
ἅπτεται
ἑνί
ἔλη
ἴδοις
ὀλισθ
Ὀξ
ᾤκουν
##έουσα
##άσθω
##δομαι
##θορ
##θεις
##ήρα
##ᾶσθε
##ᾷν
##ΤΑ
##28
##ειδίου
##αισι
##τείχ
##μαζε
##σθων
##ηνίκα
##λιμ
##τησάντων
ἀποτο
ἐξεβ
ἐγκατέ
##ήνωρ
ἀγρὸν
##τίθε
προσκ
πλίν
πεπτω
##άζεις
ἐφαρμό
##εσκε
πολυμ
##λείφθη
αὑτῇ
##χθείς
##φθαλ
τρισ
τριπλα
εἰσφέρ
κατεκ
##φαμεν
##δόνες
##ύμης
Δια
ἀσώ
##ήσεσιν
δικασταὶ
κραται
δεινὴ
Θεὸς
##λαια
Ἀριάδ
ἐρυμν
παρέξομαι
κομίσασθαι
κελεύεις
ἐπιθυμίᾳ
λαμβάνουσι
Θησεὺς
ἀκοῇ
δώρων
διαφέρων
Σατ
##πτονται
φυλάσσειν
##άθου
κατασκευάσαι
Καλλίας
μέλλοντι
αἰσθήσεως
ἐλπίσι
στενάχ
μαθητὴς
διηγούμενος
##αζεν
Μετα
κερά
λῃστ
νόσημα
νενομισ
##ύνετο
θνητὸν
οἰκέτης
λήψεται
ἐξηγη
Ἰωνίαν
κτήσεις
τάφους
Ἰωάννου
βελέ
σκευοφ
ἀλαζ
μέλιτι
##δάμας
Γότθους
ῥητορικὴ
Χριστὸς
Θησέα
ἀνάπαυ
ἀπεκρίν
αἰδοῖ
ἐστρατή
ἐλάττονα
##ηράρχ
στηλῶν
μακάριος
Αὔγου
τέθνηκεν
Νέστορος
##ληλύθαμεν
τρηχ
οὐδεπώποτε
Φού
γᾶς
δός
λήθην
μή
ἐὸν
ἔβαλλον
ὁν
##ετό
##όμον
##δαλον
##ῖτις
##ωδέ
##ήμονα
##οντές
##ῶντι
οὐραγ
ἀπῆλθε
ἐκκομ
##τονον
ἐξά
ἡμάρ
ἡμισ
ἀγάπη
παρασί
##θεϊ
##θεμένου
ἀφει
κελεῦσαι
##ευθ
Ῥωμαϊκ
ἀπέβη
##ήσασι
##θυμον
δῆλόν
ἀλλήλοισι
##κηται
##κές
βοὴν
##λικῶς
τρίτης
ἀπεσταλ
##οπώ
##ίχου
##λακος
ναυτικοῦ
διάφοροι
ἐξέπλη
σπουδήν
πολυτελέ
περίβολον
δεξιᾶς
ἐνέπλη
θύουσι
Λυαίου
##στικόν
ἄριστε
ῥήτορας
κινδύνῳ
βούλοιντο
##αιρέσεως
##όντες
συμπλοκ
σιωπῆς
ἐραστὴς
ὑβρί
πρεσβύτατος
##βλέψας
ἁγίων
πήχεις
ἀκουόντων
τροπῆς
Τρώεσσι
μολεῖν
Ὑρκανὸν
ἐρέω
ἐπερω
ῥώμης
ἀφικνοῦνται
ἡττηθεὶς
δικάζειν
λεχθέντα
λεχθέντων
ἱστοροῦσι
Μασσανάσ
ὑπακούειν
ἀνάξιον
σμύρ
Ἀστυάγ
γλώττης
Μεγαλοπολί
ἐστράτευσεν
Λάκ
Ναύ
Σειλ
γόνον
νό
σὴ
ἄλυ
ἅτερος
ἐτη
ἠρέ
ἶσον
Ἰχθ
Ἰβήρων
ὀΐ
ὑφα
ὦκα
ῥι
##τή
##παλ
##ύος
##ίσαντο
##χάρ
διελθὼν
##σθμα
ἀνοίας
##ρικοῖς
ἐκκό
προῆγεν
μελέων
παρῇ
κατθαν
##ρονομ
αὐτομό
ἀποστο
διαφυλά
καταδου
θετέον
##τίζειν
παραδιδόναι
##δρυ
στρατη
ἀκμάζ
μέσας
##οφύλα
##ρουχ
##στοὶ
οἶος
ἔννε
##πτην
##υρίδα
##κλυ
δήποτε
##δικον
φιλοτίμως
νόθον
ἀνέθεσαν
μακάριον
##ύλης
##ώτατε
ἀπόκρι
τοῖα
ἐξέσται
##εστέραν
##φωνα
διαφέρουσιν
κεκρι
Λυσίου
νοεῖν
ἀγνοοῦντες
αἰσθήσεις
εἶπες
καρποῦ
στενοχ
φάσκειν
κώμη
ἀνθρωπίνην
ἐλπίζων
κεχωρισ
ἥδεσθαι
ὑπολαμβάνειν
κυβερνη
ἕξομεν
ἐνίκων
ῥητορικὴν
δοκιμ
ὠνόμασεν
ἀπιστίαν
φιλανθρωπίαν
φρεσὶν
ἰχθύες
διαίτῃ
ἔμαθεν
πανηγύ
Γαλιλαίας
μεστὰ
ἀκροπόλει
πτολί
θράσος
##όρευσεν
δέσποινα
ἀτρέμα
πτέρυγ
Μεσσήνιοι
πανήγυριν
Γανυμή
τεκμαιρ
θρίαμβον
Πνεῦμα
Εἴ
Ζακ
Τό
ηὑ
θνῄ
θριάμ
πνέ
σμερ
σάκος
φήσεις
χόρ
ἐόντος
ἠπό
Ἰφι
ὑσμ
##έμενοι
##τήσει
##ιδι
##νέων
##ππε
##οδοι
##ύας
##ύγων
##ωτον
##13
κακοπ
καλοὶ
##οιτε
διῳ
διαιρε
##άνθης
προκε
μεσσ
ταλα
##σεφόν
ἀποτυχ
ἔχοις
στρώ
εὐκαι
εὐτρεπ
##σχιλίας
##τίθετο
##ποῖς
##δρω
βασιλη
οἷοι
ἐστὲ
κεκό
ἐφικ
μήκι
ἐλοι
##ρόσω
οἰκτί
##λήθησαν
##χθήσεται
##ξαμένη
##μφθη
σοφοὺς
υἱοὶ
ἔπεισαν
Ἀχελ
ἀνέμου
ἰσχύν
λίθοι
κυμα
χειμα
πειρασ
ξένου
ὀνομάζεσθαι
Ἰνδὸν
αἵδε
Πολυν
βεβιω
σωτηρίᾳ
ἀγνοεῖ
Κλεων
δαίμονες
ὕβρις
προεκ
Κῦρε
ἀπολογεῖσθαι
πνεύματα
Βοιωτοὺς
πεσόντος
ἐπίστασθε
Παναθ
κέρδους
Μήδους
κτεν
ἀρετῶν
ὁπλίταις
Περικλέα
δειπνεῖν
Ξέρξην
##ήλυθε
Ἀρμενίας
κατέλιπον
τυραννίδι
μῆνιν
##τέρα
ἀρέσκει
ἐπιτηδεύματα
θεράποντες
ἀποδημίας
ἔμφρον
ἀθάνατοι
ὅμιλος
πράξεσι
ἐπενόει
Μίλητον
Μακεδόσι
Μακεδόσιν
ὁλοσχερ
ἀπόλαυσιν
παρώξ
ΒΖ
Γν
ΖΒ
ΖΚ
Κᾶ
Πῶς
Στα
γηρά
δεν
θείαν
σῳ
φλα
φρικ
ἕψ
ἤμε
ἴωμεν
ὁρό
ὕλῃ
##ητὸν
##όσιν
##ογεν
##ρακο
πρήγ
αὐξαν
δισμυρίους
παίζειν
##ηνον
##ροδό
συνῆλθον
##αλώ
εὐκλε
καταπα
καταλαμβαν
εἴης
προσῆκε
μηροῦ
συμπαθ
ἀμπε
ἀνακε
λαοὶ
##ρωσεν
ὅπλον
##εγρά
τέττι
##πέμ
##κηρυ
Εὐβουλί
λεκ
##ηθῇ
##σθημεν
##τριαν
##ιστέον
ναυτί
Ἀγορά
εὑρέ
ἔκτο
λεγομένη
ὑφέ
ἑκόντα
λογιζόμενος
##ττόντων
πεζοῖς
ὑπόλοι
ἐπιστὰς
##στικὴ
κακοὶ
ὕδασι
φυλακήν
μετεπέμψατο
πεντακισχιλίων
ἐπαγόμενος
##ριζόμενοι
ἀσθενῆ
##ήφθη
Συρακοσίοις
πληγεὶς
τριακόσιοι
μίμημα
Βοιωτοῖς
τύραννοι
βόας
##σκονται
ἑστίαν
κυβερν
διατριβὰς
διοικεῖν
φαντασίας
ἀνταπο
##όρευε
φαρμάκου
Σοφοκλέους
ἀνεῖλον
ἀποδεδειγ
σκάφος
ψηφίσματα
χρύσει
συνεδρίῳ
ἐθαύμαζον
πόλιν
πεμφθεὶς
ἱκέσθαι
ἐπορεύοντο
πρόσεστιν
ῥεύματος
##σημέραι
Ἠλείοις
Ἰσοκράτης
Ἀμφικτύ
Πέλοπος
δήμαρχοι
διαπεπραγ
αὐτονόμους
Κομ
Κυκ
Παί
βάσει
τά
ἀδείας
ἄχα
ἰὸν
ὁσημέραι
ᾄδειν
##τάρχ
##οδ
##χόν
##ειμι
##ενα
##εῖπον
ἐπέ
ἐπήρ
ἐπῆλθε
ἀπλαν
ἀνιστ
##ριαν
ἐκήρυ
##εῖναί
##ρίδος
προῆλθεν
ταλαί
παρεν
##δεκά
ἐπιλεί
ἐπιβά
τιθα
ἐξάγ
διακρι
διαγωγ
ἐγκύ
καταψηφ
ποιν
ποιούντων
##θρέ
##έλθοι
##ησίαν
##ησάμενον
στρατός
δεδώ
πεπί
ἔφθη
ἀρχομένου
##πότης
##θια
πολεμοῦντες
##ειδῆ
Κασπ
ὑπεροψ
κόρ
φέρεις
##ογόν
##ραφον
ἐπίδοσιν
χρηστήριον
ἀντιτα
ἐπέδει
ἀξιο
ἀξιούντων
εἰκάζειν
δυσθ
φθάσας
τοῖος
πατρίων
##φεσι
ἱκανόν
λογίζεσθαι
κεκιν
θύουσιν
μέλαιναν
μειζόνως
ἑλόντες
ἔλαθεν
πάσχουσιν
Νικο
Νικάν
συγγενείας
ἕλκων
λυπεῖ
ἀρίστου
Δαρδαν
βουλευτῶν
προσιόντας
γονέας
ἀναισθ
##βάλλοντας
εἴποιμι
σεαυτόν
καθήμενον
ἰδιώταις
πέτραις
ἐπιεικεῖς
ἀφεστη
ὑψηλοῦ
ὀφείλον
νεανίσκων
ἕτοιμοι
ἐκάλεσεν
Περσέα
καταβὰς
Κεφα
ἐγγύτατα
ἐπιδείξω
κονι
δικαστηρίοις
##εναντίον
εὐεργέτην
ἁρπαγὴν
ἔνδοθι
Ἐκκλη
διετέλουν
ἐδίωκον
σπλάγχνα
ὕπερθεν
ἐβασίλευσεν
διαφόρους
Ἀρτεμι
εὐχαριστ
ὑπομνήματα
χρησιμ
νεῖκος
ΔΙ
κὰ
κάκ
κτύ
λῦ
φῶ
ἕτεραι
ὁμη
##τύν
##φὴν
##ωνι
##ειαι
##αιναι
ἐπαμ
ἀνωμα
##σεῦ
##ρεσσιν
ἀποφυγ
εὐστ
ἀγαλ
##ναβ
κατασκε
παραλιπεῖν
προσβ
βασ
##όμως
μετρη
περιβεβλη
ἀναθή
##δοντας
##σκοι
ἐλάνθαν
οἰκείου
νεώ
##ρωνα
γνοίη
##ειροι
ματα
δικασταῖς
σώζεσθαι
##ηθείη
δεινότατον
##φαλος
ἀξιοῦμεν
δοκεῖτε
νομίζει
δολο
τέχναι
φυγάδες
ἁμαρτω
βάσαν
ἐνέδρας
χαίρουσιν
μέλας
σκοπὸν
Θηβῶν
θαυμαστὴν
κρίνεσθαι
Τίς
δακτυ
τρομέ
Εὔπολις
##νυσθαι
κατοικοῦντας
τρέφεσθαι
ἐπινί
σφετέρας
ἐσθῆτι
πείθομαι
πέτρης
ἐρημίας
ἱκετη
ὑψηλὸν
Ἑλένη
ἀλκῆς
εὐλαβείας
Θρᾴκην
τριγώνων
παραγγέλλ
οἰκονομίας
ἐλάχιστα
παρακελευ
χάρακι
στήλην
τελευτῶντες
ξεῖνε
ᾠδῆς
τύμβον
σιδηρ
ἀτάκτως
κλίμακας
βακχ
συνθήκαις
ἀνήκεστον
Ἑλλησπόντου
##σπόνδους
πεποίηνται
Αὖ
Χρυ
θῆκε
κλει
Ἄρατον
ἔρις
ἡσθεὶς
Ἰόνιον
ᾀδ
##ρὴν
##υσα
##σσεται
##ξοντα
ἐπιδρο
τιτα
ἀποκαλ
##ράμ
συνῴκι
στάχ
εὐεξ
διαμένειν
##πετε
παραδειγ
ἐμβάλλειν
##δρους
ἀφῃρη
##κονται
ἀρχόμενος
αὑτὰ
##πτους
Αἰολί
εἰσφέρειν
##χετʼ
ἐχόμενοι
ἄρτος
ἐπεβούλευ
##ήσεσι
φιλοφρόνως
πιθ
πιὼν
ἀκούει
σύκων
ἐσμέν
παρέλαβον
φθόγ
κρᾶ
πράττουσι
κωλ
πείθων
δείξομεν
συμβῇ
πολυτελῆ
παρασκευα
πολίχν
Ἡρακλεί
λύσιν
ἡμετέρους
ἐπαίνους
ἑπομένων
συγγενῆ
ἀστέρας
Ἀφροδίτῃ
ἐλέχθη
ἀπώλειαν
##πτουσα
νόσους
ἀπαρα
παρανόμων
Ἐπὶ
εὔνουν
Θετταλίαν
ὀστέων
ἀφαιρεῖται
ὑπατεύ
Τροίᾳ
λανθάνει
ἐλευθέροις
δόξειε
Ἀρμενίων
ἀναχωρεῖν
Φοινίκην
δηλώσω
προδοσίαν
ὑποκειμένων
ὑμέτερα
υἷες
ἔταξεν
ἐσελθ
Φοίνικες
Ἴστρου
ἤνεγκε
Καλλιρρόη
##θῆκαι
αἰφνί
ἠδυνήθη
δακτύλους
##ίγνωσκε
ἐμνήσθην
Φοίβου
Ἰώσηπος
δοκοίη
##βεβλήσθω
ἀπάνευ
##βίβα
μηδαμοῦ
ἐνταυθ
ὀμωμο
Δολοβ
Κνί
Τραχ
δῖον
κικ
μὰν
ἄδικα
ἐΰ
ἐάσω
ἔειπεν
ὄκν
ὠρχ
ὠνομα
##τὶς
##τῶδες
##ισον
##λυγ
##πὸν
##οτέρων
##λετʼ
ἀπελθὼν
ἀνέγ
ποσὸν
τελῶν
ἐκφαν
ἐπιθεῖναι
##υμέ
##υμον
##ληψις
διαπον
διαδό
##θητε
##υχος
συμπαρα
ἀναθεῖναι
μέτρων
##ίκην
##τανῶν
##ίλῳ
ὑπομεν
ὑπολαβ
##στηρίου
ἀνδρεῖον
##πίοις
φέροντας
ἅπαντος
κατέλαβον
ἐπίπ
μικρά
ἴσοι
Θεαί
##οπλί
λιμὸς
πατρῷον
θηλείας
φθόνῳ
πλέοντες
διάλεκτον
ὑγρῶν
ἱκανοὺς
ἔθνει
##θωνα
οὐδέποτʼ
ὑπόκειται
μόθον
Σαλα
Σατύ
##στικῶν
ἀκριβῆ
μέλλεις
δεσμοῖς
μύθοις
ὅρμον
τοὔμπ
ἐπιστολήν
ἀπορρί
Δημοσθένην
ἀπαγγέ
στενωπ
Αἴγιν
ἐσχάτων
τρυφερ
ἔσομαι
μίμησιν
ὀνομαζόμενον
προσιόντες
σκηνὰς
πειθόμενος
ἔτεα
##πόνως
ἐσθῆτας
φονευ
βιβλίων
πεποιημένα
##ψυχον
ἀφελόμενος
γεγραμμένων
Μενέλαον
ἐναργέ
χρηστὰ
κόμας
συμποσίῳ
θυγατρός
μεσημβρίας
ἐρήμου
ἐμπίπτει
παρήγγειλε
Συρακούσαις
γέλωτος
ἐρώμενον
προαιρέσει
τετραγώνῳ
ἐπύθοντο
Νέρωνος
προκρίν
αὐτομάτως
ἐγκώμιον
ἀπομνημονεύ
εὐαγγέλιον
Τυχιάδης
Δευκα
Πολυνεί
Κλα
Μολο
Σκυ
Φθ
κλεί
λο
λάλ
νυ
τλ
τᾶν
φλ
ἀλά
ἀβου
ἔσκε
Ἐλ
ὤκν
##τὀ
##άσαντας
##σόμενοι
##σηται
##ωτέρας
##ῆθεν
ἐντύχ
##ριός
##ινε
μεμην
ταὶ
##ούσιοι
ἐπιτελεῖν
πόρε
ἐξῆλθον
συνθ
ποιοῦμεν
γεφύρας
μητρο
αἰκι
καθο
τίμημα
μετή
δεξ
##ύτῳ
##ώνους
##ακας
μεταποι
##μνῳ
τριχῶν
##σμούς
ἀνδρεῖος
##κτὰ
κατελύ
πρόσει
κόκ
δῆριν
τρίγ
ἀνεστ
πενίας
πενθερ
ὀρθότατα
ἀξιολογ
πλῆρες
##ισταὶ
ἱκανὴ
συμβήσεται
ἀκοσμ
ἐσθλὸν
μέσοις
ἁμαρτεῖν
ἐνέβαλεν
νῆσοι
μισθοὺς
##νουμένων
ἀκριβέστερον
δωδεκα
##ηκότος
Κλεομένους
Νικομή
παρακαλοῦντες
γνωρι
ὁδός
κτείνας
διάνοια
πρεσβευτῶν
ψήφῳ
τεσσαρε
φθονερ
λελυ
Ὀλυμπίαν
ἐπεχείρει
Σκιπίωνα
βάλλειν
ἔκτεινεν
Λακωνικῆς
ἀπεκρίθη
σπουδαῖον
κυβερνήτην
ἀπολελειμ
προσεῖχον
σπορά
παροιμίαν
Πηνει
δεσποτῶν
πολλαπλάσιον
σκῆπτρον
Καλλίμαχος
κατασκό
Κολχ
ἄρθρον
προσεκύν
ἔρυμα
ΕΥΘ
Λικ
Τοι
ζῶσιν
πόντος
φῶτα
χόν
ἀσαφ
ἄμοι
ἄφεσιν
ἔθους
Ἰάκ
ὀλε
ὅμη
Ὀρόν
##δνα
##σβε
##μμασιν
##ίλα
##αιρον
##ρατι
ἐπηκολού
##όνοι
διερευν
αὐτονομ
προοι
προάγειν
μετεῖ
##ίνος
##ίνουσαν
εἶμι
ἀποδί
##ροσ
στέν
##οργ
##άττει
καθεί
δεόντων
μάθ
μάθοι
ἀκρι
οἷσπερ
##ώνῃ
##σκω
##ρωτο
τόθʼ
ἔνδοξον
δοκοῦντος
ὑποδέ
τέκτον
##χθεῖσα
γνά
χαμαι
ἐπίστε
ἐπίπεδον
στρατηγοῦντος
τετύχ
ἀδελφὴ
ἀνέθηκεν
σχεῖν
ἔπρασ
συνέσεως
ἀποκλεί
κυλιν
##τεῖα
μαντικῆς
μνησθ
ῥηθέντων
παλαιὰν
πολυτελεῖς
ἐθέλουσι
δώματʼ
βάθους
ἔδειξε
ἀλγειν
ὀρρω
σύνοδον
κατασκευάζειν
ὑπέμενον
κακοὺς
ὑπερα
φορεῖν
ὀφθαλμοὶ
μυρίας
Τίτον
πονηροῖς
ἀστρά
ἑταίροις
ἀτεν
μηχανῇ
Ἀχιλλεῖ
##όμαχον
τελευταῖα
προσιόντα
καλέουσι
Νεο
σφεας
ἰατροῦ
χρωμένοις
ἀπείργ
βαλεῖν
στέρνα
κοσμίως
σκοτειν
φαινόμενα
προσδοκᾶν
τιμωρήσασθαι
ἀπονέ
ὑπολει
κυκλ
Πύρρου
φαρμάκοις
Ἀρχέστρατος
συνιέναι
Παλλὰς
ἄφθονον
Ἐρυθρα
μεμαθη
ἀκροπόλεως
βοσκημάτων
##ρεσβεύ
Σάμιος
διάδοχον
ξόανον
ἀπαμειβ
ἐνύπν
Ἄλπεων
ἀποστεῖλαι
πρίασθαι
Ἀγοράστης
Πορ
Πρου
λοί
σπει
ἀστο
ἆρ
ἱρὸν
ὀβελ
##τῆσθαι
##δρες
##ωμένῳ
##26
ἐναυ
ἐνια
ἐνεγκ
δικαν
εἰκάσαι
ἐκό
προῆγε
ἐπικλη
##ροπος
συνόντας
ἀγκύ
καταλυθ
ποιήσαντα
ταῦρος
προσκα
προσδέ
##θημι
ἐμός
καθίστασθαι
περιεστ
περιουσίας
συμφυ
πελαγ
ἀναδ
ἔφαθʼ
ἀμφότεραι
νευρ
##κειον
##λής
δόρ
κατεχ
κύβος
πάππος
ψυχροῦ
δηλω
πρόθεσιν
φιλότητι
##μαρτεῖν
ἀκούουσιν
καιρούς
ἱππικὸν
παρέστη
ἁρμάτων
Σαμου
διαλόγ
Λαμψ
μέλλουσαν
καθαρὸς
##δής
ἐξουσία
πέμψαντος
πληγαῖς
κόλπος
πύλης
τυράννοις
Μαρτ
διανοεῖσθαι
τραγῳδίαν
πιθανὸν
ἀηδῶς
ἐκπεπληγ
ὑπηρετεῖν
ἐμπόριον
ἠνάγκασε
ἐπῄνει
Σαμίων
ἐπηγγεί
ἐξενεγκεῖν
στιβαρ
Γαλάτας
Μιλήσιος
ἦρξεν
μεγαλοπρεπῶς
Κίμωνος
νηυσὶν
Ἡγήσαν
ἀπαλλάττεσθαι
ἔλυσε
πορρωτάτω
πραττόμενα
ἀπολωλότων
Κυζικην
κρειττόνων
ναιετά
Δωρίων
Κεντα
Σό
Τέ
ψε
ἀδο
ἀλεί
ἀδό
ἁδρ
ἄρου
ἐδέχοντο
ἔαρ
ἠῶ
ἤσκ
ὀδυ
ὁδεύ
ὄπα
##έϊ
##εως
##ηλον
##σμαι
##ύμενοι
##θοιο
##ζοι
##ωνίῳ
##ειάν
##ανέ
##ενες
ἐνστ
##στὰ
ἀνθε
προκοπ
##ρεω
##κελον
ἀποφαν
ἀποδέχ
ἀποδοκι
πόλη
συνθηκῶν
στροφ
πολλάς
εὐψυχ
διακρί
διαβολὰς
ἀγε
ποιουμένους
αἰπ
καθῆσθαι
ἀφο
συμφ
##κότως
##οκλεῖ
σφων
##οφάνης
##ίδᾳ
δοκοῦμεν
κατελ
φίλαι
δηρὸν
Καβά
ἀπέλιπε
κόσ
ἀπελα
##στήρ
##ρήσεως
ἀνέῳ
πατρὶς
##τειον
θηρευ
##ίστως
παρέλαβεν
##οβό
ἀναγκαίας
ἀναγκαίαν
πίτυ
μαντε
μαρτυ
##χωρεῖ
##όπην
αὕτως
θύσας
Λυκα
μαχομένων
ἀγνοῶ
κρείσσων
ἐπαγαγ
ἑταίραν
γελοί
φερόμενος
κάθηται
ἐχθροὶ
ἡδὺς
θάψαι
ἔρρε
βαδίζων
παρρησίᾳ
συχνοὶ
ἄφες
χαρίεν
Γαλατίαν
Μελάν
Ἱεροσολυμ
ἐπαινέσας
ἀνατολὰς
ἐξέπεμψεν
γείτονα
πράττοντα
ἥρμο
Λυκοῦργον
ἀνδραπόδων
κηρύτ
κραυγῆς
εἰώθασι
σίδηρος
ἐπισκή
ἀκρίβειαν
ῥεέ
χαρακτῆρα
Οὐολούσκων
δεδήλωται
δηλαδὴ
Γύ
Θρη
Κοί
ΛΑ
Λέγ
ἀδόξ
ἄχος
ἄκοντα
ἄλφ
ἑῴ
Ἥρης
Ἰούδα
ὀχε
Ὅτι
##μῶ
##ωτο
##ωδῶς
##ύς
##ΕΡ
##τολέ
##σιππον
##έντι
παλι
##λεται
ἀπηρ
ἀνέγνω
ἀνέρες
προπ
##ίνο
##ίνοντι
ἐπιδεῖν
##λές
ἀπολυ
##ρομένη
ἐξικν
συνήθης
##ομαν
προσειπεῖν
καθῆ
μετρίου
περιο
περιβαλ
##κοντʼ
##τοῦσα
##μηχαν
##μαινε
συγχωρη
##αινομένων
ἐχαρί
ἄρτων
δῆλός
βοή
βοτάν
ἔπειθεν
##ξαιτο
πρεσβύτης
ἐρρί
ἀδικοῦντα
μακράν
χρυσόν
##νιγ
ἐπανῆλθον
φυγὴ
ἐποιησάμην
ῥητέον
τυγχάνω
κακοδαιμον
##ήθουν
ἐπείσθη
βλέποντες
Σωκράτην
λυπεῖσθαι
φερομένων
πλείονες
βίο
Μάρκου
Αἰτωλοὶ
Μιτυ
ἀπήλα
Φιλοσοφ
Ἰωνίας
ἀποφαίνειν
λαγω
φυλασσ
ἀνόσιον
οἴκαδʼ
##ιππε
ἐρήμους
σάρκας
κόλασιν
φθορᾶς
ἀντικει
Δημητρίῳ
##ώσκομεν
φαυλο
πρυτάν
##ληλύθει
νεωτερι
ἀνανε
Κασσίου
Καλλιρρόην
πάμπολυ
ταλαιπωρ
ἀήτ
βουληθεὶς
φίλτατε
δάφνης
βαπτί
μνημεῖον
Βελισαρίου
##μαρτυρη
Ἄτταλον
Κορνήλιος
ἐσσυμένως
ἐζήτει
Αἴγιναν
Βά
Βασ
Φρά
Χει
δρι
δῖα
λιν
πίνων
ἐόντας
ἐδώ
ἔμεινεν
ἰώ
ὀσφ
##έεσσι
##άξας
##σμένοις
##μίδ
##φʼ
##ψʼ
##ψιος
##θῆναί
##ξης
##ῆϊ
##ειρα
##σιός
##σιριν
διω
ἀπεν
ποίει
ὑπόνοιαν
προαν
προκείμενον
ταρί
##λιε
ἐπιλέ
τιθεὶς
χρώμεθα
ἀποδοχ
συνιδεῖν
πολλοῖσι
##οῦναί
εὐδαιμόν
διαφων
διακομ
εἴων
ποιήσομαι
##τέθη
##ησίας
τίθησιν
πεμφθ
##δηλα
μέτρου
ἐφόν
##ρέψαντες
##πιστον
##ήλως
τέλεον
πρόσχ
βοῇ
ἀπεγνω
κινεῖται
λεηλα
##γγων
δυναμένην
Θεοδό
ἀνέπει
λιμὸν
ἄνθρωπ
θηλυ
##ούντως
##ιστῶν
δοξα
##τυπον
λέξεις
μνησθῆναι
κελεύω
ἐπιθυμεῖ
##μέλη
##όχορος
βιάσασθαι
ὀνομάσαι
##θεῖσι
Ἰνδοῦ
χαίροντες
Σωκρα
ὑπέμειναν
ἀκριβείας
κοινωνὸν
φορᾶς
ἰχθὺς
προσαγαγ
##ωθῇ
Λακεδαιμόνιος
στέλλ
Ἰωά
πειρῶ
ἀπατη
διαβάντες
Μέμνον
φύλαξ
Θετταλίας
##πέμπων
ὕπνους
σκοπι
##γραμμάτων
Ποσειδῶνι
ἐρωτᾷς
ἀμελεῖν
Μεσσηνίοις
##γνυται
σπέρματος
ναύαρχος
##μένων
ἐπαινέσαι
Ἀρκαδίας
θεάτρου
κάκιον
αἰσθάνεσθαι
παρεμβολῆς
ἤλπιζον
##σκοπος
πλευραὶ
ἀπόλλυται
εἴωθεν
γυμνάσιον
δίφρου
θεράπων
μέτεστιν
Ἀρισταγ
##ρέπειαν
βαθεῖαν
ἔμψυχον
διακωλύ
ὑπερηφαν
ᾔδεσαν
ἀπαμειβόμενος
Γωβ
Φύλα
δίζ
ζῶ
θλιβ
κτι
κηλ
μέν
ξειν
φὴς
φωτῶν
ἕκτον
Ἰλίῳ
Ῥόδῳ
##λῶ
##φρ
##τολμ
##ειεν
αὐλὴν
ἐνδει
ἐνδια
ἐνθεῦ
τοῦτόν
πατέρʼ
##λετε
αὐτέων
##ριδι
ἐκόλα
προδε
προειρ
προσθεὶς
μεμαρτύ
##ίνοι
ἐπιπλή
##κελος
πόσῳ
ἐξαλλ
συνῄ
συνῆν
##άρη
##ήσωνται
##πεὶς
##ήνορος
ἄντυγ
τοιου
πεπν
##ίκει
πρῶτόν
ὑποδεί
πολεμῶν
Αἰμ
εἰσῄει
ἐχόμενον
ἀσπά
ἅπαντʼ
##σθένην
σύστασιν
##ουσαλὴ
ἀνέστρε
ἡμέρης
Ἀρσιν
##ιβάσας
##πωρον
ἐποίησας
κομίζεσθαι
χωρίς
πράττοι
Δηριά
ἑκόντας
δημοτῶν
οὐδενί
##στέλλων
γέγραφεν
φόρον
μισθῷ
Λεπίδ
##έβληται
βεβι
ἐνεπίμπ
κατασκευάσας
ὑπέστη
μέλλῃ
μέλλουσι
τεθνή
φρουρᾶς
πεντακόσιοι
ἕλκειν
Παρθέν
μαθητὰς
παντοῖα
ἄλγεα
πειρώμενος
διαφοράν
μουσικῇ
κειμένη
Αἰτωλοῖς
ἐπιτήδευ
Μαρσύ
Κυμα
ἀποφαίνει
δύναιτʼ
σῖτος
προσαγορεύειν
σαρκῶν
αὐτοκράτορος
σπεύδοντες
δυσχερῆ
πατρῴας
κρεῖσσον
Ὀλυμπιάδα
ἀναπαυ
Πειθ
Σερτώ
ἐγκαλεῖν
ἐτόλμα
εὑρεθῆναι
Μυρτί
νοῦσος
ὄμβρων
γνώριμος
βλασφημίας
Ἁρμον
τραύματος
Ὠκεανοῦ
ἐπιχώριον
ἐπιχώριοι
ἀποδώσειν
διενοεῖτο
πένητες
Διοσκ
Σάτυρος
Φερεκράτης
πάροιθεν
ἐξεπίτηδες
Παύλου
ὑποζύγια
Δευκαλίων
##ουσαλὴμ
Αἶ
Ζα
Πακ
Σύρ
λύσ
μορ
νήφ
πτύ
συχ
ἄγνω
ἠνε
ἤχ
ἤθεσιν
ἤνυ
ἥβης
ὅτ
ῥάχ
##τμη
##άξαι
##όσδε
##μεῖ
##ίον
##χὶ
##34
##ταῖος
##ειλεγ
##τεκν
##λλο
ἐντός
διτ
##στέραν
εἰρε
ποῖος
τετυχ
ἐκλέγ
παρῆλθε
##ράκ
ἔχωσι
συννο
##ργασ
ποιήσετε
προσάγειν
##τέθει
##τρώ
ἐμη
ἐμιμ
πλοῦς
περιέχει
συμμετρί
ἀμυ
##ώνας
σφό
##ιστοῦ
##τήματα
παντί
ὑπογ
ὑποδεχ
ὁρᾶται
εἰσποι
νομι
ὑπερηφ
##στήρων
ἐσομένην
##ρήσθω
ἐγέννησεν
ταχέων
ῥηταί
παλαιοῖς
προσήκοντας
##λοιπεν
ἔδειξεν
μετέωρον
##θεῖεν
καταστησάμενος
θέμενοι
τεκεῖν
σύμμαχος
ἐπισφαλ
ἰσό
μεταξύ
ἔλαθε
εὐχερ
ἐπιστολῶν
##ηκόντι
τροπα
παρθένοι
##ριζόμενος
ἐσχάτην
πληγῇ
λογισμῶν
ἑορτῇ
εὐεργεσίαν
ἀκολουθεῖ
κτᾶσθαι
λίμνῃ
ἐπιτηδείους
Βάκχου
Ἀρίστι
γλῶσσα
ἀμπέλου
γαμεῖ
ἑτοίμους
θαυμαστῶς
διαλεχθῆναι
ἐπέτρεψεν
ἐτόλμησαν
ἀπεργάζεται
ἐγχειρί
ἐπολέμουν
παρεμβολὴν
##πίπτοντα
##πίπτοντες
θεσπε
ἑάλωσαν
φιλαργ
Θρᾷκες
διαδοχῆς
Ἁλικαρ
Διομήδης
ἠναγκάσθησαν
ὑπῆρξεν
Στράτων
ἀρούρης
ἔγγιστα
ἀφθόνως
πρόχειρον
δίκτυα
εἴσοδον
ὡσπερεὶ
ἐνθεῦτεν
Γεν
Γηρυ
Στέ
ΤΙ
Φαλ
Χῖος
λυχν
Ἀττ
Ἆγις
ἐβι
ἔτικ
Ἔτι
ἦρος
ἵκοντο
##νιος
##δρίας
##ωλ
##ώγι
ἐντι
ἐντει
ἐνώπιον
ποσ
ποθέ
##ριστο
##ριζε
ἐκπίπτει
##λισσα
##σεταί
ἐπιβα
ἐπιβολὴν
ἀπογραφ
συνῳ
συναθ
##αίης
εὐταξ
διατι
διαχει
ἀγῶσιν
εἴπα
ποιήσειεν
##θερα
##θεὺς
##θεύς
δέδωκεν
##δαλα
##θηκα
τίθεται
δεξάμενοι
βασιλευ
ἀναθυμ
##ώνιοι
ἐφάπ
σφα
ἐλάμβανε
##λείαις
ἑαυτὸ
##πεια
##σσʼ
ἱερὸς
ὑπερβάλλ
τιμῶντες
ἄρξας
ματρ
κἀπὶ
##μοισι
δικαίας
βοᾷ
τρίγωνα
νόῳ
ἀρρ
συζυγ
ἰδοῦσα
γράψαντος
λιθο
##φρονες
##ίστῳ
κρᾶσιν
διέβη
λεγόμενοι
κυλίν
γιγνομένην
##ρικῷ
##ρίζοντες
πυρῶν
ταὐτοῦ
παλαιὸς
ἐλαίας
ἔπεσε
μέσους
ξυμβαίνει
ἐλθών
πεζῷ
δρῶσιν
ἐπιστάμενοι
Φιλα
πέμπουσιν
ἐπακολουθ
χοροῦ
διδάσκαλ
κολάσεως
Δημοσθένει
ἐσχάτης
κώμης
Μελέ
ἠνέ
ἑορτ
Ἀναξι
ὀνομαζομένην
ἀδίκημα
νόσφι
##κινδυν
Κύπρου
ἄπειροι
##λεύθερον
ἁρπάσας
κέντρου
φυλάξασθαι
θοῶς
Ἐπιδα
Ῥοδίους
##μαρτεν
ὀπίσσω
χρεῶν
Φιλόχορος
Εὐριπίδην
ζημία
Φρυγίας
κοῦφον
σκάφη
ὀνειδι
δικτά
ἐπικουρίας
ἠρώτησεν
ψηφίσματος
κάθαρ
πρόσεστι
ἑτέρωθεν
ἐβόα
ἐβόων
ἐπιφανεστάτους
ἡγεμόσιν
Μῆδοι
Καπιτω
κατασκά
τοξόται
Δάφνις
ἄσκησιν
Ἱστοριῶν
Πέρσῃσι
Χαιρων
εὐκαταφρόν
Κνω
Κυρίῳ
Σὺ
δᾷ
κύ
λυθ
τμή
ἀρθ
ἀτελῆ
ἐυ
ἔστησε
Ἐλα
ἥμερον
ἰόντα
ἰδόντα
ὅσια
ὕμνον
##τᾶς
##ρῇ
##κλα
##άλι
##άμεναι
##ίσθησαν
##γμένος
##βαι
##ῆσθαί
##ματοι
διηρ
διττ
ἐκφ
προχο
##τηκεν
συνδέ
##ομη
πολλαί
διαβολὴν
##ργα
καταβαίν
καταθέσθαι
καταπολεμ
ἐμμε
περιοικ
##μιδος
ἀναμε
ἀναμφ
ἀκμῇ
##δηγ
##θαὶ
ἀρχαίοις
μέζον
##βαζον
##ξασθε
κύματος
Καρίας
##φανος
συνεστη
χώρῳ
ἄρκτους
ἀπεδί
πλησμον
ἐσκό
κρήνην
κομίζοντες
##τεῖαι
λέλεκται
θερμῷ
##τρέφ
Ἀντιόχῳ
χαλεπὴν
σπουδάζειν
##εστάτην
οὐρανῶν
##φιάλ
##θεῖσαι
σχετ
νύξ
πορν
ἐκκλησια
μητρυι
Αἰγύπτιος
λευκὰ
ἐποτρ
ἀπώλεσεν
##ήσαιμεν
στέρν
μιμούμενος
##όωντα
πραγματείαν
κῆρ
##στειλαν
κεῖνον
κτήσεως
ἀνάλογόν
##καθαρ
περιέχοντος
##δεκάτῳ
Ἀρμενίαν
ἄγγελοι
ὁκόταν
Πριάμου
ἐφεδρεύ
ἠξίωσε
ἥττων
θεάτροις
ἠέλιος
φιλονεικίας
μνηστῆρες
πορφύραν
ἐμφαίνει
φαρμακ
διαθήκην
προσφιλ
πολλαπλάσια
πεπληρω
μίσους
Τυνδά
Τιβέριος
σκορπί
Σού
γλω
ηὗ
σοὺς
σπι
τέν
ἐμαρτύ
ἥσθη
ἱμεί
ἵκετο
ὀθ
##αμεν
##πηται
##οτέρας
##οτάτη
##συρ
##ψῃς
##ᾶσαν
##ΐν
##έρ
##οντάς
ἐπῃ
ἐπαιρ
ἐπάνει
ἐναλ
παλί
ἀπεναντίον
ἀνάλω
πομ
ἐκαρ
ὑπεύθ
προκό
##ούρους
##λέξατο
χρήσεται
ἀποκαλύ
ἀγέν
καταπι
λόγιον
καθὸ
τίκτειν
τίμιον
##λευσαν
ἀρχαῖα
##εύει
σφίγ
ὑποτι
μεταλαβεῖν
##σμύριοι
ὁμοίοις
ἐχούσῃ
ἄγα
##ύμνα
Διὰ
στρατηγούς
ἐθῶν
τετραπ
νόημα
βαρὺς
ὀρθή
Ἀρείου
καρκ
##φυλον
λοιπὰς
δυσσεβ
χεῖρε
##ριαμβ
τέχναις
ὁμολογοῦσιν
Αἴαντα
δυνάμεσι
Σικελικ
νεκρόν
τεκοῦσα
κατασκευῇ
κακοποι
δόξαις
ἀπειρη
κρίσει
μεθύων
λυπεῖν
λευκόν
συλλεγ
ἀνελπί
κρίνων
ἐλέφας
ἐραστὴν
##κλήσεως
πονηροῦ
τεταγμένος
πρεσβευτὴν
ψήφους
ἑρπε
τετάρτην
##γελλε
ἀξιώματι
Σαρδ
Σαρπη
Φρυγίαν
ἄθλιον
φαύλους
Ἱπποκράτης
Φαρν
ποῖόν
σπέρματα
ἐκράτησεν
ὠνόμασται
ἐγγύθι
πάγου
ὄφεις
Πιττα
θεραπεύων
χιτῶνας
Ἀμφιτρύων
ηὔδα
ἡμίσε
ἡλίκον
δημαγωγῶν
ὑπεναντίων
Ἀκαρναν
ὠνομάσθαι
κοῖλον
ἔκρινεν
κᾆτα
Δίκη
αὐχένος
ἀποθάνῃ
ἀκόλαστον
ἄμπελον
κελαιν
μάγειρος
Ἡσιόδου
Δείναρχος
παραδειγμάτων
ἀρρένων
Γελί
Ναρσ
βρω
θέσ
κνη
νάπ
χώ
χέρας
ἀδη
ἀταρ
ἀρωγ
ἅμιλλ
Ἐφέ
ἠδύνατο
ἤλθ
ἤχθω
ὄρεσιν
Ὀυ
##κλου
##κοιο
##πτης
##ήμεναι
##ώνα
##ύσας
##τεροί
αὐθα
ἐνθύ
##σθιον
##ριπ
ἐκοι
ἐκπον
##λαγγ
ἐπιθέ
ἐπιτυγχάν
##αρν
##ράστου
ἐξην
ἐξελθὼν
ἐξόδου
τούτω
εὐτύχ
εὐδοκί
##τίς
ποιήσαντος
παραδέ
παραδιδ
μηκ
##δαὶ
ἐμεῦ
πλάνην
μετόπι
περιηγ
περιεῖναι
δεήσεις
συμπα
μάθημα
##δοτε
λακ
ἑαυτήν
##τήθησαν
##χθείσης
μάλισθʼ
φυτεύ
##ήσασαν
πλείστης
μαστ
##δωκα
ἡγούμεθα
ἀπεχώρησαν
λευγ
##φορῶν
εἰκόνες
ἑκατέρους
ἀργὸν
δυσπ
##τυρες
δώροις
Αἴτ
δυνάμεσιν
μισθόν
καταστὰς
σύνηθες
φυλὰς
μονον
φορὰν
κρίνεται
ἐπισημα
χορὸς
Λιβυκ
ἀναστήσας
συγγενέσθαι
ἐλπίσας
στρατεύσας
ἰσχυρὰ
κυνηγέ
ἐλέγχ
##νυται
πρέπειν
ὑμετέροις
πιστεύσαντες
φροντίδος
φιλοσόφῳ
##πτωκεν
σπονδαῖς
ἀγγεῖον
κέντρῳ
ἑωυτῶν
##σσετο
Γότθοις
ἐζημ
ἐξηπά
Σαρδαν
ἄθλων
μολπ
εὐαγγε
διδασκάλους
γραφαῖς
γλώσσης
Θρασυ
ἐπικουρίαν
σώφρονος
τέλειος
ἀπελογ
διεξιὼν
τἀγαθὸν
εἰκοστῇ
βασιλείοις
κρατίστους
θεράποντας
τανῦν
ἐβουλεύοντο
σφαλερ
γειτόνων
ἴδῃς
Ῥωμύλος
ἑτερο
Ἰωσή
πολυπραγμονεῖν
τουτουὶ
ποσσὶ
Πρίαμος
Οὐαλέριος
πάροδον
ἐνταυθοῖ
Ἡγήσανδρος
Βορέ
Λεσβ
Πινδ
Φρα
θῆκεν
κτήν
μού
στεῖ
Ἀψ
ἔαρος
ἦχον
ἴτω
ὀτρ
##εον
##ασα
##ημένην
##άμενός
##ύταις
##ίτιδος
##ψάμενον
##ώματος
##ΙΔ
##ειρος
##σιμος
##ματο
##στῆσαι
ἀντο
τεμν
τεκν
##είροντο
προθύμ
παρόν
κατενό
αὐτομο
ἀποδύ
ἀποδεχ
##ρομον
##ομος
εὐα
διακόσια
οὖρον
ἀγεν
προσπε
##ώνειαν
##μηθῆναι
##τανον
##κειμένης
##λουμένους
##κλεισ
πάθεσιν
##φασι
ὑπερβολήν
Διό
κόπ
μιαι
Περγ
Περίαν
ἀληθής
συλ
δεινότητα
ἐσομένων
ὀρθὸς
Αἰγι
##ωγραφ
παρέδωκαν
λίθ
κοτε
θατέρῳ
κομισθ
ὀργὴ
κελεύοντες
θανάτοιο
Πολλ
χαλεπὰ
μυστηρίων
##εστάτους
Ἀριστοβούλου
διανομ
Πασι
##δραμόν
τρόπαια
φοβοῦμαι
ὑψόθι
ἰσόπ
φράσον
ἀποστρέφ
πεντακόσια
ἀπορεῖν
ἰσχυρὰν
συμφοράν
ἱππα
##λαντος
νεωτέρους
πύλην
πιστεύοντες
ἀπώλε
συναμφ
ἀλλοτρίαν
ἐπίστανται
προνομ
κρατήσειν
ὑπέρκειται
ἴσχυσεν
γιγνώσκω
σωφροσύνῃ
τεταγμένους
βραδέως
Ἀρκάδας
καταλύειν
ἀντέχειν
ἄσμενοι
ἡμέτερος
τροπὰς
ἐνόμιζε
ἐργασίαν
σοφιστὴν
παιδιὰν
εἴασε
θάρσει
ΕΡΜΗΣ
Διογένους
ἀδυνάτων
ἐψηφίσατο
ἀπόρρητα
παιδείᾳ
τεχνι
ὑπηρέτας
τούτοις
δημηγορ
παρείχετο
προεῖπεν
Κλεοπάτραν
ἀναίσθη
πυνθάνεσθαι
Λυσιμάχου
ὁππό
ἄργυρος
##ένειμε
πεφυκέναι
ὑπεροχὴν
θεοφι
Μιλησίων
ἀθάνατος
ἑτερό
κόνιν
διαστήματος
δακτύλων
εἱμαρμένην
διήγησιν
Ἀχιλῆος
δύο
Ἰακώ
Βορυ
ὑποχείριον
προϋπάρχ
ὁντινοῦν
ἀγαλμάτων
ἤλθομεν
ΓΗ
Δεσ
ΗΖ
Κεκ
Λάχ
Σισ
Τρίτων
κλον
λύτ
πνο
σεί
ἔδε
ἔζη
ὤμους
##άσασα
##όεσσα
##ύμενος
##ίταις
καλο
##ειος
αὐθημερ
διεγ
διθυ
δικῶν
εἰρων
ἐκέ
παρερ
##ρεϊ
##ήσηται
διαδέχεται
διαμάχεσθαι
##σίγν
καταλειπ
θεὶς
λέγʼ
##κοψε
ποιέεσθαι
παραδοξ
##θετος
προσοί
##δαο
##δαῖον
τοιάν
περιδε
##άγησαν
δεηθεὶς
ἀφαι
ἀφιστ
πεδι
καλύπ
ἀναπεπτα
##λευκ
κεἰ
##ισμοῦ
ἀνθρώ
οἶον
##ήλυθ
##κειμένους
οἴχεσθαι
κοινοὺς
##φατον
##πλῳ
ἀκούσατε
##σθένη
Περσεὺς
##ασάμενον
συζ
ἀνέδην
ἀνέστησαν
δυνάμεθα
θηρα
φθάν
κρού
ναυτῶν
ἔλεος
τἀλη
##στρατηγ
ἅπασαι
ῥηθέντα
ἱστορίᾳ
βραχέων
περίοδον
θαυμάσι
γραφή
χρησμὸς
Πέρσης
ἄχθος
Μαρίου
καλουμένῳ
κληρουχ
κατηγορῶν
πλοίῳ
κάτο
πλεονάκις
ἀνελὼν
τελευταίαν
προσηγάγετο
Κύπριδος
ἀνιαρ
φάλαγξ
τεταγμένον
στεφάνοις
βραδύν
καρτερῶς
##άσσοντες
γαστὴρ
εἴασεν
ὄρεξιν
Ῥόδιος
ὑποσχόμενος
ηὔξ
Πολυδεύ
μυθολογοῦσι
κατασχὼν
Ἀραβίας
Τυδε
καταισχ
##όμοιον
Ἀντιπάτρῳ
λύχνον
ὑστέρῳ
ὠνομάσθη
Χαρι
ὑπῆρξε
ξυμμαχίαν
εὑρίσκω
ὑπερφυῶς
ὀγδόῃ
ἔγχεϊ
ἐστράτευσαν
βασιλέως
Βελισαρίῳ
##πτόλεμος
ἀκηκόατε
ἔγημε
ἀολλ
λέληθεν
Πραξι
κικλήσ
Σπεύ
δραμ
θολ
νιφ
χοι
ἐδι
ἐών
ἐοῦσαν
ἦτε
ᾔεσαν
##ευσεν
##ιππον
##οὔ
##οτέρα
##θήσονται
##γμένον
##ώδει
##ΙΑΙ
##36
##ανν
##εῖτʼ
##όντιον
διά
##μέναιον
αὐτουργ
ἐκλύ
ὑπαντι
προτέρᾳ
τιθέμενος
##ληπ
##τητο
##ροπον
ἐξῆ
συνί
συναλλ
εὐκό
ἀγαυ
οὔθ
οὔσῃ
προσῆν
ἐμὰς
##νεσιν
τίθησι
δεόμεθα
##μιόν
ἀναμν
ἔφοροι
##άζουσαν
##υκος
##ρέοντα
πολυγ
μεγίσταις
##λεύειν
##πιπτε
##ίλοι
##αινέ
πολιτικὰ
##σσόν
αὖθι
ὑπερεῖ
τιμῶσιν
ἐπίσκοπος
τρίβ
κινεῖ
##γγέλλ
ἀντιστα
λιμένων
αἴθο
συνέστη
μακρᾶς
ἰσχὺς
Ἀγρι
##μήθησαν
##οικοι
νομίζομεν
γιγνομένης
##σποιν
πίπτει
θάλαμον
ἑκόντων
Ἀντιόχ
πολυτέλειαν
παρασκευάζεσθαι
διανα
περίβλε
βάλλοντες
χρήματά
δρᾷ
νεκρὸς
νεκροῖς
Σαοῦ
χαίρουσι
θέλῃς
ἀλέγ
σκοπῶμεν
Πέρσην
αὔξειν
φράζε
δαπέ
βλέπει
ξύμβ
λάβε
ζῶντι
##βαλλόμενον
καλουμένας
πολύμη
παντοίων
διηγεῖσθαι
λῃστὰς
##ανθρωπ
φρόνιμον
νενομ
πειθόμενοι
διαβῆναι
δωρεῶν
αἰτιᾶσθαι
Ἱππία
ἀσκεῖν
βεβη
##ροῖο
φαῦλος
δρόμος
ἀέρι
ὀφείλει
ἀποδείξεις
χορηγίας
κορυφῆς
παριέναι
διδάξω
ἐπεχείρησαν
δειλίας
ὑπάρξει
Ἕκτορι
λυσιτελέ
Κρόνος
ἔκτειναν
στρατεία
ἄρρενα
πέπονθεν
Κρητῶν
Καππαδό
Τύχη
τυτθ
μεστὸς
ἡττᾶσθαι
οἰκοδε
κήρυγμα
καλλίστων
ἐπιγενομένης
##καλεσάμενος
ἠναγκάσθη
πένητας
βαπτι
οἰκήτορας
##πηλακι
ἐπεζεύχθωσαν
Μέτελλος
λάρνα
τοὐπίσω
Αἰμίλιος
λευγαλέ
Δερ
Τεῦ
γοη
δήσας
πῶ
πνοι
φαγ
ψή
ἀσιν
Ἄρχ
ἐτα
ἠρι
ἤθει
ᾠκοδομ
##ρήσας
##εἶ
##οχε
##δέλ
##ίως
##ξαις
καπ
ἐπαυ
##οῦσ
τετολ
##λατ
##ούλου
κατάγειν
##σεσθαί
ἐπιμι
ἐπιφοι
τιθέμενοι
##ρεσις
##τηρίοις
ἀπολή
ἐξώρ
στῆναι
##οῦντά
διαβάλλειν
##σίγ
καταθ
καταδύ
θεμελ
##άττετο
παραί
##θησάντων
ἐμφορ
αἰδε
περιτυχ
##δοξα
ἀκόντων
ἐφόρων
τόποι
##ρουμένοις
κακός
γένωμαι
πολεμίαν
ἀγαθοί
ἱερεῖα
φιλῶ
κινη
νόσων
δεινοὶ
ἀντιπαρα
ὀλίγος
ἀνέκα
ὀρθογώνιον
Ἀρσ
##ύρᾳ
##ρεύειν
ζητοῦσιν
σκω
διέφυγον
λεγομένης
ἐγγράφ
##στρατε
δημοτικῶν
ἁμαρτιῶν
προσήκοντες
βιοῦν
Ἰνδ
ὁρῶντα
κεκραγ
##δραποδί
τυγχάνεις
πέμπουσι
σαφῆ
ἀφικομένων
μαχόμενον
Κύριε
##βαλλόντων
ἀπαγγεί
κορύμβ
διηγήσασθαι
τριακόσια
σκεψώμεθα
γλυκὺν
πηγὴ
ἐγχέλ
ἐνδεχ
διελὼν
κέρως
##εθρα
φάρυγ
ὄρνιθος
ἀσχημον
ἄσμενος
κἀκείνων
αὐλὸν
φαύλοις
παρασχέσθαι
Ἑβραίοις
ἐρέσθαι
Ἀλεξανδρε
Κρονίδης
νουμην
ὀκτακοσίους
δικαστηρίου
προφήτην
ἱστία
σπείρας
τείχεος
ἀπήντα
ἐπειρῶντο
συμβουλευ
ἀγλαΐ
ἀποθνήσκει
ὠμότητα
ἀνδραποδι
παραμυθίαν
Ὀρέστην
λειπόμενον
σύμμετρός
ἀπροσδόκη
ἐπισκόπῳ
Γλαυκ
Ῥωμύλου
ἐκείνου
Βανδίλων
ἀλλαχοῦ
πεντηκο
ἐνυπν
βασιλέα
Ἀβραὰμ
κήρυκος
ἱματίων
προειπὼν
τἀδελφοῦ
δορυφορ
ἐστασία
προσαρμό
κέκτηται
Ἀντιόχειαν
Γελ
Κλώ
Κλαυ
ΛΜ
Μούσας
βάπ
θιγ
Ἄγ
Ἐξ
Ἐρασί
ἠελίοιο
ὗς
Ὑστ
##ρεί
##ηκα
##ηκας
##όπη
##σσατο
##μάν
##μφα
##ύσθαι
##φιον
##ωτάτου
##ήκατε
##ζουσαν
##ϊδίως
##έσθαι
καρα
##σιγ
πρότεροι
ἐνέγ
παίγν
παίζων
##στάτους
##λεῦσθαι
εἰλικ
##οῦτε
ποτοῦ
ἐκκε
##άναις
προφερ
##έρεια
##λητε
##ικώτερον
##τητε
ἀπογ
διαμέν
διατά
διαπολεμ
ἐγᾦ
καταδ
##δαρον
##διμος
##ησομένων
καθυ
καθόδου
περιμέν
καλοῦντες
λαχάν
##άζοντι
##υκέναι
ἐλάβ
##ίζομαι
##τήσαντα
οἰκου
##βασις
νεαρ
ἔνει
δεῖγμα
##χθην
##αινόμενοι
##ξασθαί
φυτὰ
πάχος
##φαντ
ἄγρια
Διί
τιμῶσι
σωτὴρ
Εὐκτή
ἀπεστέρ
ἄλλοθι
υἱέα
ὅσος
φροντι
Αἰγυπτ
μακρῶν
θαλλ
κομίσαι
ἐγγραφ
##ήγησιν
κάλλι
διδόντων
Οὐεργ
ἀριθμη
##ρίζεται
μαντείας
φανερῷ
ἐθέλοντα
βραχὺν
ὄψεται
##φοραῖς
ἐνέβαλον
καταστρε
σύνθεσιν
σύνολον
λύραν
εὑρήσετε
μύριοι
ἀπειρο
ἐπαφ
τραυ
Νικίου
εὕροις
εὕρημα
ζῴῳ
νοσήματα
βλάπτει
συμβαίνοντα
##κάλυ
ἀφανῆ
πρέπουσαν
καινὰ
ΘΕΟ
ὀνομασθῆναι
γεωργῶν
κειμένους
Κύπρῳ
Αὐγού
συγγραφεῖς
δαιμόνια
δάμα
δυναστεύ
συχνὰ
μισθοφόροι
Ὀδυσσεῖ
δυσχερὲς
ἐγκρατεῖς
ἐπιβὰς
ὄγδο
ἀνδριάντας
φαρμάκῳ
πλησιοχ
ἀνωφελ
ἔκτεινον
παραγγελ
παραγγέλ
διαλεχθεὶς
##σχηματι
ἀπόρρητον
ἀθλητῶν
ΒΑΓ
Καισ
Φωκε
συστρατευ
ἰατρικῆς
ὑψηλο
Ζήνωνος
ἀνῃρέθη
Κλεινία
πόλισμα
διελέγετο
πετρῶν
##στεῖλαι
μέτεστι
Νιό
θορύβῳ
Παμφυ
ὁπωσοῦν
ψαμά
Ἀρκεσί
στρουθ
ἐμηχαν
ζέ
ζῶσι
πίονα
χυλ
ἀϋ
ἀτερ
ἐρετ
ἐψηφισ
ἠμὲν
ὑὸν
ᾠκ
ῥαγ
##τραφ
##ασίαν
##λὰ
##ῶτιν
##οσί
##δουν
##ῖφος
##ίμως
##εντ
ἐπρέσβ
διέχει
παπτα
ἀπρεπ
##εινται
προῆλθον
ταμίας
##λικό
ἐπικατα
συνάγειν
διατα
διαθέσεως
##ήνιος
καταδρο
παραλογ
παραδώ
οὔποτʼ
προσλαβὼν
##υχα
##υστο
##τουσαν
περιεί
περισχ
##παζον
ἀναβαίν
σφάλλ
##θέμην
ὑποχει
μεταβάλλει
τριηράρχ
πολεμίας
ὁμοφ
εἰσό
εἰσῆλθε
##ειδίας
Κατάν
ἀπέδοσαν
πρόδηλον
κόρα
διεπ
κατέφυγον
ἐπίθεσιν
ἡγουμένους
##λειῶν
ἔπειθε
ἀντιδί
Θεόδωρος
##φρονας
νέμειν
φρονήσει
##φυρον
προσεπι
ἐποίησα
##οῦσαί
ποιημάτων
ποιητὰς
ποιητῇ
##ψαντι
##κεινται
δημοσίας
ξένῳ
ἐσθʼ
δεξιῶν
ταύρου
##πτοντας
τεκνο
ἐκκλησία
διώρυχ
ἀποθανόντα
διαφθορ
ὠνείδι
κολάκων
μερόπων
##ριζεν
##ωκὼς
πλοίου
προθυμότερον
πλεονε
καταφρονήσαντες
Μάρκον
πεσόντων
τρέπεσθαι
##χυσιν
Κελτοὶ
θεραπόντων
μορφῇ
πρόσοδον
παραγγελλ
σκευῶν
παλίν
ἀτελείας
Ἀρίστα
ἐγκρατῶς
Σόλωνα
ἀνόητον
ἐμπεσεῖν
Γαλατίας
νυμφί
διπλῆ
ἐπεχείρουν
ἀπολιπόντες
ἐκπολι
κατεῖχεν
ἀνωτάτω
αἰσθητῶν
πομπὴν
##ίνωσκε
ἐκαλοῦντο
Πειραιῶς
χρῆσις
ἕρκος
δεκάτην
λαχὼν
ἀπίκετο
παραλληλογ
παρείχοντο
πανηγυ
Παυσανίου
ἦρξε
Κάδμος
κολακείαν
Ἀγρίππαν
γειτνι
ὠκεανὸν
ὄλβον
##ψευδ
Ἰωνάθην
διατρίβων
ὑπήκοον
Καπιτώλιον
ἀκήκοας
θύγατερ
Πατρόκλ
μετάνοιαν
διέτριβεν
Βενια
Δολοβέλλ
Βάρ
Γάλλ
ΖΓ
Σάμου
Τοῦτο
θύων
κελά
ξύλῳ
τεν
ψῦ
ἀζ
ἐδυ
ἔβλε
ἕδος
ἕποντο
ἤμην
ἤρχετο
Ἡροδό
Ἰλλ
Ἴδης
ὠμό
##τὰν
##πνε
##δρι
##ώμασι
##47
##σιμα
##λλῃ
ἐνη
ἐνδο
διάγειν
παριστ
τετάχθαι
ἐκτή
##ινος
##έρω
εἶς
εἶχες
##κεος
##ικούς
συναι
στύ
στόμ
εὐγένειαν
εὐμορφ
διατηρ
διακοσίας
οὖδας
καταμε
καταφερ
##όγενες
ποιούμενον
ποιείτω
##άσσει
##δίαι
##δίης
ἐμμένειν
##μάσαι
τίσι
##ολος
ἀρχαῖοι
μήκους
##ρανον
##ισμένον
πανοπλ
ἀμφα
ἔνερ
Αἰθί
ἀγαθῇ
εἰσῆλθον
σεῦ
##ειδὲς
νομίσματος
συνετά
##βουλευ
πλείστη
ἀσέβειαν
ἐπεκρά
##δείπν
μεγάλοιο
λεον
σύγγ
ἴσοις
βαρὺν
μακρὰς
φθάσαι
νομίζεσθαι
πατρίους
διδῷ
γιγνόμενοι
ὑγρὰ
ἀριθμοὺς
ὁμολογίᾳ
βασιλῆος
πολιτείαις
ὁπηνίκα
λαμβάνοντας
σπιν
ἄκρου
##μέμφ
σπουδὴ
φόρων
μισθὸς
τυχόντα
Θηβαῖος
ἔδοξέ
##τίωνος
τεθραμ
ὀφθαλμοῖσιν
ὅροις
##άσαιτο
μετεπέμπετο
κυρία
δαίμονι
γέρα
κυνηγ
ὕβρεις
συναγαγ
##καρτέρ
προεστη
πωλεῖν
κεράτων
Μεσσήνης
πάρεισιν
ἄνακτα
ἔπραττε
ἐπίστασαι
προϊέναι
πρεσβυτέροις
σκιὰν
Ἀπολλώνιον
διεξελθεῖν
ἑξακοσίων
φυλάξαι
πραγματευ
νεανίσκους
ἐζήτουν
ΕΖΗΘ
ὑπολή
ἀπολωλε
ἐπεχείρησεν
ἁρμόττον
Ὑρκανὸς
συνοικεῖν
Πόντῳ
ἐρήμῳ
πάγχυ
εὐδοκιμεῖν
παρειλή
Κρήτῃ
τράπεζα
παντοδαπὰ
ταλαιπώ
Ἀριστείδην
εἴπωμεν
οὑτωσί
πεμφθέντες
βρέφη
λειτουργίας
μεγάροισι
μεγάροισιν
ἔθνεα
ἐβασίλευσε
Πυθαγο
ἐξαπιν
τοσοῦτόν
Συρακουσίων
περιιὼν
ἀφίκηται
ψόφον
γλαυκῶπις
σπάνιον
συγκλήτῳ
καταπλαγέντες
Μιλτιάδης
Λυσίμαχος
βαιὸν
διαπραξάμενος
νυκτεριν
πτόλιν
Ἡράκλειτος
μνημονευ
ἀφειδῶς
ὀκτωκαίδεκα
ἐκπώματα
σμερδαλέ
Χρυσί
Ἰάκω
Μον
Που
Τὸν
Χίον
γηθ
σὰρ
φευκ
ἀτέλειαν
ἕλε
Ἐλευσιν
ἠλι
ἡρῷ
ἥπτετο
ἴδιόν
Ἴσιδος
ὄφις
##τήσεις
##εαι
##πλο
##όραν
##δάς
##μμασι
##ωμένης
##ωτάτῳ
##γμασι
##ξοντες
##ήκεσαν
##ζης
##ῴου
##ταῖον
##ταρχος
ἐνδείκνυ
##στήσας
ἀνευ
##ούμενός
##ροντι
##κεσσι
ἀποβαλ
ἀγεί
καταλυ
εἴθισ
##διαν
##έλγ
##υρὰ
καλῇ
##τῶντας
##ώνια
##υκὼς
##ίκῳ
σφετε
τόκον
##νησιν
ἀμφε
δεῖξον
##φθαρ
##άλλετο
##σσομαι
##υρίδος
εἰσάγει
εἰσπρά
ψυχαὶ
ἀπέβαλε
ἄγεται
νόμιζε
##πλό
στρατιὴν
ἀκούσαντα
##ασάμην
συβ
##τεύεσθαι
ἐσβ
λιμν
λοιπὸς
παρέξει
##βάλλετο
##ψατε
##σοφος
φυγήν
##στινας
δίδα
λαμπρὸς
διαφέροντες
θέλειν
##μίαι
σύνταξιν
μονομάχ
ὑπεραί
εὑρήσει
καθαρὰ
στρατιώτης
αἰσθέσθαι
τραῦμα
ὠνομ
ἐλπίς
ἀστραγ
ὄρνε
πελει
διδαχ
πληγῶν
ἑορταῖς
ἠγάπ
χιλίοις
ἀδίκου
πέλεν
γεωργίας
ἑστίας
Μαρκέ
σῴζεται
ἀσκήσεως
ἀμφισβή
γραμματεῖον
Μιθριδάτῃ
ἀποκρίνεσθαι
δραχμάς
παλμῷ
ἐξαπατᾶν
νομοθέτου
γείτων
χολῆς
Τιμολέ
στρατοπεδείαν
ναύτας
μελέτην
πολλαχῇ
καθέστηκεν
γέλωτι
ὀλέθρου
προσπεσόντες
δείπνῳ
ἐπαύσαντο
ἀσύμμετρον
ὄργια
συμπόσια
μαγεί
Σαλαμῖνος
Σπαρτιᾶται
τετραγώνων
τετραγώνου
σατράπην
Ὀρέστης
κοιλίην
Ὠκεανοῖο
Χερρονήσ
μνηστῆρας
Πόπλιον
##ρᾶχθαι
πρεπ
Μαυρουσίων
Καυκ
Φρύνι
Ἄππιος
ἔκπληξιν
Στρυμ
ἐδωρήσατο
Μάρκελλος
ὁμαλῶς
μακάριε
δριμύ
σὰρξ
Δῆλον
ΗΚ
Μαντ
Χίων
γνα
χεύ
ἀι
ἐτι
Ῥαβ
##αρον
##υσι
##υσις
##οτάτου
##δαυ
##γῳ
##ῷος
##ΙΛ
##ϊα
##τανε
πρῆ
πατρι
ἀνθερ
ὑπάγ
ὑπάτου
προρ
προπηλακι
##ίνομαι
##ροντος
αὐτοῖσιν
ἐξέχ
ἔχῃς
συνόντων
συνεὶς
##ήνῳ
##ήνατο
καταπο
##στερόν
προσδέχεσθαι
##θητο
##δίῃ
##τέρῃ
ἐμή
ἐμβάλλει
ἐμβαλόντες
ἐστέ
##γεγ
σφέων
##ίζῃ
οἰκούντων
##ποιο
ἱερᾶς
ἐχόμενος
φιλεῖσθαι
εὐθύ
##μοισιν
διεδέξατο
ἡγησάμενος
##ήρμο
ἔπαι
##μήσθω
##όφρων
ποιηταῖς
ἐξέλιπον
ἐγγέν
##ψαμεν
ὑγρο
##φάνου
θερμόν
##ρισκον
##δωρος
ἐλαύνων
νυκτῶν
##θωνος
βάσεως
γινομένην
χαίρω
πολίτευμα
μειλί
χρηστοὺς
##ώσκων
δωρη
φόβους
νυνί
εἵματα
αἰχμη
φρουροὺς
ἀνάκειται
στρατεύματα
ἀσθενὴς
ὄχλων
παιδίων
γενεᾶς
αἰδεῖσθαι
##έβηκεν
γέροντας
κιτ
στεφάνου
ταυτί
κέντρα
Τελε
ἑξακι
παθήματα
ἔσωθεν
Κάμι
κτύπ
μορφήν
ὑπολαμβάνων
##στέρους
κἀκείνοις
συμποσίου
ἔπασχον
Θρᾴκῃ
διαιτ
Φαρναβ
φοιτᾶν
κρυφ
κεραυνῷ
γάλακτι
οἰκονομίαν
γλώσσῃ
ἠνάγκασαν
συμφοράς
ἠρώτων
ἀνηκέ
Γοργίας
##πέμπεται
μοναρχίας
Φερώ
ἔθνεσι
ψέγειν
καθίστατο
ἀκινδύνως
γνήσιον
κωμικὸς
πάμπολλα
βοσκήματα
προστεταγ
φλέβας
##γιγνώσκειν
ἀθανάτοισιν
Ἠλείους
Ἀμύντου
ἔκριναν
ῥηθὲν
ἀποκριθεὶς
στήθεσσι
Κλωθ
κατώρθ
βότρυς
περιχαρὴς
Αὔγουστος
πεπνυ
ἅμιλλαν
Βη
ΓΘ
Γνά
ΓΟΡ
Κρε
Κίλι
Λοξ
ΝΞ
Σιβ
Ταν
Τὴν
Τροφ
θεί
κεῖτο
σικύ
φί
ἀίδιον
ἃν
ἄφι
Ἀστε
ἑστή
ὁρά
ὄσσε
ὕστατον
ὡρῶν
ᾧπερ
##τί
##κτης
##λῷ
##ημένοις
##φθησαν
##βλημα
##ήτω
##ΤΗ
οὐθεν
ἐντεύ
εἰδω
##ριστος
προτέροις
προχεί
παρελθόντες
##λιχον
ἐπιὼν
ἀποστά
ἀποδεικνύ
ἐξῄει
εὐαν
##ορηγ
καταγωγ
##πολλ
##διμον
##ησίν
μετρίων
ἀφεῖ
##μιοι
συμπλη
ἀκή
ἀκόντι
οἷʼ
##άζομαι
μέθην
##σκουσιν
ἐλάσσων
##πιπτόντων
##πτρα
Ἀθηνᾷ
##μνος
ἐκεῖνʼ
##δόθη
κατεπλάγ
κύματα
##δόνι
χαλα
εὐθειῶν
Εὐκλε
ἐπίπαν
μικρολογ
τοσοῦτος
ἀνεχ
ἀνελέσθαι
ἐπέστησε
##μήσεως
λεγομένου
##πηδῶν
##πηχυ
ἡδονή
ῥητὴν
στόματα
ἐπιθυμη
ἐναντίως
οὐρανόθεν
ἐπαινοῦντες
διαφέροντας
##τοῦνται
Λυαίῳ
##χρυσ
μύθου
##γράψαι
φόβων
γραμματι
λάβωμεν
Ἑλληνίδας
βίῃ
διηγήσομαι
μείζονας
ἀριστερὰ
Μάρτυρες
##ήσαιεν
τρέπονται
αὐχμη
ἀποστείλ
πορθμὸν
ἐπίκλη
ἀνήχθη
εὐδαίμονας
ἀρετάς
κοίλην
ἔξοχ
τουτέοισι
Βάκχ
ἀπαλλαγὴν
Κράσσον
ἐκπεπτω
τολμή
Ἑβραίους
ἄγοντας
ὀλέθ
ἐτόλμων
ἥρωας
τεθνηκότος
ἀντικρὺ
ψιλῶν
ἱδρύσασθαι
ἀσφαλέστερον
ἀγωγῆς
πλημμ
Βαβυλωνίων
##μνήσθη
συνεβούλευε
τέτυκται
Ἰσοκράτους
ἴαχε
Ῥαδάμ
Ἀμφικτυ
Δάμις
ἠκρο
νούσου
ἐξέτασιν
ἱερωσύνην
εἰδώλων
##μάτων
ἠμύνοντο
παρωξ
Μᾶρκος
εἰλικριν
Αἰθίοπ
Βελλ
Κιλί
Μύ
Σφ
Τεύ
γειν
γίνε
δειρ
κάλα
ἠθά
ὀλβ
ὁτου
##έαι
##εω
##κλον
##κτά
##λοιο
##ητέων
##πλι
##μες
##φοί
##ξόμεθα
##ώρους
##ώτερόν
##σιωπ
πρόνοια
ἐπῆλθεν
οὐρὰν
##στάτην
##λείδης
εἰλα
ποίων
ἐκτα
ἐκίν
ἐκολ
προτέρους
##έρου
##λαγον
κατῆ
ἐπιδ
##αίρειν
διαπερ
##μοσιν
παραδώσειν
ἄνθη
##αγκ
##υσκ
περιβ
περιβαλὼν
ἀφαιρέ
##ύντας
ἀκρά
λατρεύ
##ρότα
##ρουργ
##πόρῳ
ὑποσχεῖν
##πτεις
##λήματα
##στημάτων
ὁρώντων
συγκαλέσας
ὁμοίου
δόρατα
##κλειαν
κατελθεῖν
ἀναγράφ
εὐθαρσ
ἀλλήλοισιν
τρόφι
##θανε
κατέδυ
ἐπειδάν
βούλευ
σοφοῖς
υἱοῖς
νόστον
δυναμένῳ
ἐσώθη
ἀνεῳ
ὀρθο
ἐπέκειτο
ζητοῦμεν
ὅλας
ξυνηνέχθη
ἀπόλλ
νομίζετε
πλεῖσται
ὀργίζεσθαι
##αιρεν
εἰδῆτε
πυρέ
λογιζ
Ἰουστ
##ρίωνος
χαλεπὸς
περίμετρον
δικαιότατον
ὀνομάζων
κεκμη
##κευασ
ὁρμήν
ὁρμώμενος
διώκει
γράφουσιν
τοὐν
ἑπόμενον
μεγαλή
καλλίω
γελοι
κορυ
ἤκουσας
φιλότιμον
Ἑλληνίδων
##όντος
συμπλεκ
βουλεύματα
ὥραις
πηγαὶ
δυσχωρίας
φρόνιμος
παραγενόμενοι
ἀπαραί
προσηγορεύ
σαυτόν
εἱρ
διανοούμενος
πορθμοῦ
ἐπιτήδειος
εἰσαγγελ
κτίσαι
βραδύ
διαφθείρει
χορευ
δάκρυον
μελλούσης
ἀκρόασιν
ἀξίωσιν
ἐμπόρων
Ἴωνας
Λυσάνδρου
##οδώρῳ
δείπνων
ἱστοροῦσιν
ἁρπαγῆς
προαστε
προσηκούσης
προσηκόντως
ἀμφίπο
μειρακίῳ
ἐπάνοδον
Χαιρέαν
##πίπτοντας
ἀπέδειξεν
ἤλπιζε
##όδωρε
μοναρχίαν
Ἡσίοδον
##ξένου
πλεύσαντες
κόνις
κραδίην
σαρκο
ἀκόλαστος
ὑποδήματα
Ἰώσηπον
σπλάγχνων
πορρωτέρω
ἀστραπ
διδόασιν
Πάμφιλος
εἵνεκεν
σύλλογον
ὑποζυγίων
Πηλεΐ
ἀποδοχῆς
τοιάνδε
πολύμητις
Μίλων
Σωσι
θοῦ
θνα
θριαμβ
λαί
λεῖον
ξιφ
τόνον
χαν
ἀρο
Ἀλέ
ἐψ
ἠλί
ἥκουσιν
ὀλι
ὔμ
ὠνη
ὡσε
##έμεναι
##έεσσιν
##τωρί
##ρᾶσθαι
##κέν
##άρα
##μῆ
##ήεντα
##ῦσα
##τερὸν
##μαζεν
ποτηρίου
ἐκπέμπει
##ρίδες
προῄ
ἐπιούσης
ἀποστέλλειν
συνδοκ
συνίσταται
εὐκο
εὐμε
πάντ
##ργου
καταπλή
παραβό
παρακομ
ἄνοιαν
γευ
καλήν
ἀρχόμενον
ἐφο
τάριχος
##ρωσαν
τόφρα
##πιπ
##βαῖς
##στοῦν
μεταβαλεῖν
τρισχίλιοι
πολιτικὴν
##πίδα
πάθῃ
βασιλεῦσαι
ἡγεῖσθε
ἄλλοτʼ
ἀντικα
ἀξιοῖς
ζηλώ
##τεινεν
ἀδικοῦσιν
ποιητικῆς
δοτέον
ἕνεκʼ
Οὐί
ἁρμα
θερμό
παρασκευήν
καταστάντες
γραφήν
ὁρμήσας
δαιτυμ
ἡσυχῇ
ἀστρολογ
πύλαι
συμφορὰ
##ολογίαν
κατηγορεῖ
ἀπέχειν
Ἀμφιά
ἐποποι
γίγνοιτʼ
τετρακισχιλίων
κρίνω
ὥρμην
ὀνομαστὶ
Μάρκιον
ἀλλοτρίως
Νεα
φιλοσόφοις
Ἀμίλ
φοβερὸς
δημοκρατίᾳ
ἴσχειν
ἀποκτείνῃ
πεπραγμένοις
γραμματε
Φωκίων
συντελε
στερεὰ
πορευόμενος
##ϊκῶς
##φόροι
θάρρει
δεκάτῃ
δυσμενέων
ἀπίθαν
συγγράμματα
ἐπιπολῆς
μεμνημένοι
##στρατοπεδε
ὑπηκόων
Θρᾷκας
##μείνας
παραδεδ
ῥοπὴν
ἐδήλωσεν
Κόνωνος
Σέλευκον
##τέτακτο
μύρμη
ΜΑΡΤΥΡΙΑ
διάμετρος
καύματος
τεκμαίρεσθαι
ἠράσθη
ἀθροίσας
Κιθαιρῶν
διεκώλυ
εὐλάβειαν
μήκιστον
Φιλοσοφία
Τεῦκ
Αἱ
Δίδ
Θού
Κτή
Λῆ
Φαῖ
γόγγ
ψυκ
Ἀσπα
ἔσεσθε
ἕκτῳ
Ἐρέ
ἤκ
ἤγετο
ἥκουσι
ἰτα
ὀθον
Ὁμο
ὑε
ῥιζ
##έμενον
##τραγ
##υδρον
##νιον
##ίσθαι
##γοντες
##ώτου
##ἀγαθ
##37
καυ
##τασιν
##ειλέ
προι
οὐσίᾳ
ἐνδέ
ἐνετε
τοῦθ
πατά
ἀνεν
ἀντά
μελοποι
παρῆλθον
##ίνηται
ἐπιτα
τιμαὶ
αὐτοσχε
χρέα
ἀποφρά
ἔχεν
εὐρώ
διαυγ
##μοῖ
καταφεύγ
εἴχοντο
παρατυχ
προσομ
προσβλέ
καθότι
δεδοι
γενοῦ
ἀφοσι
ἀκράτου
##άζοι
μήτ
##οφόν
οἰκεῖ
##στοί
τέφ
##χθείη
μεταλλά
μεταβολὴ
συγκρί
##υρία
κατελάβ
Ἑλλάν
ἐπετί
μικρὰς
σοφῷ
κρατούντων
σύστημα
πληγέν
βαρεῖς
##οπαγ
ἀνέρα
ὀρθὰ
σαβ
##ροισιν
χειμάρ
πείθεται
πεπυσ
ὁμολογῶν
ἔθρε
ξένης
Ἀντισθένης
##εστέρων
παρασκευαῖς
ὑπόσχε
##τοῦντο
νεκρούς
ὁπόσαι
διαλύειν
σύντροφ
ὑπέλαβον
ὁρμὴ
πεποιηκὼς
ἐπαίνοις
ἀποθανόντων
στοᾶς
βασιλεύων
ἔλαθον
πάσχοντες
εὐχόμενος
ἐπιστολαῖς
μάρτ
Βοιώ
καρπὸς
μερί
μηχανὴν
Εὔξειν
βλάβης
ὁποῖόν
δράκοντα
κρίνας
καταλιπών
ὠφελεῖ
ἄπαι
κείμενος
θέρει
δωρεᾶς
θρασὺν
##τελέσαι
Λύσανδρον
ἡττω
ἀρχιερω
ἀμφιέ
ὕψους
Ῥοδίοις
φάλαγγι
δημιουργὸν
συνήθους
ἐπιτηδείως
βιαζόμενοι
Λευκαν
κεκτημένους
##άσσοντο
κείνῳ
βαθὺν
πυνθανομένου
Τιμοκλῆς
Ὑρκανοῦ
Πελοποννησίους
τοιγάρ
Ἀγαθοκλέα
ἠνάγκασεν
κόλαξ
θερμότητος
οἰνοχο
ἀνομοι
κατεστρέ
καταπεπληγ
Αἰνείας
Κροίσου
σπανίως
κοιλίης
ἀπηλλάγη
##εἰς
Καππαδοκίας
Βαρλα
ἐπολιόρκουν
Ἀρτεμίδ
ἐξαπέστειλε
σηπ
ἁλώσεως
κατήγορος
κοσμι
συνοικει
ἁμάξας
ἀπαίδευ
Σεμέλης
##άμνειν
εἰδείη
Οὗτος
ζωγράφος
ἐκόσμ
Μελέαγ
τἀληθές
Ὑστάσ
ὡσεὶ
ΕΑ
Μέλ
Μάγων
βαν
βρύ
τώ
ἀλυ
ἄδην
ἄτιμον
Ἀκε
Ἀμπ
Ἀκτα
ἑῆς
ἠέρος
ἡτοι
ὀθόν
ὁτῳ
Ὀσί
ᾠὰ
##υτ
##λούς
##ητὶ
##άρε
##άδʼ
##άονος
##νῆ
##όον
##όλους
##μέων
##ύλη
##ήτοιο
καἰ
κασίγν
##οιτιν
ἐνί
διαίρεσιν
παθημάτων
ἀνίσ
ἀντέλε
μελῳ
τακ
ταμ
παράγ
κατέρ
##ληπτέον
χρει
ἀπογν
ἀποπλη
ἀποδοὺς
##ρολόγ
συνδε
##ελος
διαμένει
ἐγκράτειαν
ἀγυι
δέησιν
προσόδων
βασκ
##θηκας
τοιόσδε
δεδί
δεομένου
ὄνομά
##είνων
##τικάς
##ίζεις
##μεσθα
##ακίν
##οινον
ὑποτεταγ
##λάκ
##σκεύ
##σκετε
συγκατε
##ραγωγ
Αἰσ
κατεγ
κύλιν
##φασί
ἄγουσα
ὑπερβολῇ
λαβόντος
ἐπεθύ
##σθένει
μικρὸς
ἀρρή
λιπο
ἡμέρην
νέεσθαι
ἰσχύειν
θαλάμ
προσέειπεν
πεισθῆναι
ταχεῖαν
παρασκευὰς
βραχίονος
##έβης
##τινʼ
ἑλόμενοι
χορῶν
φρουρίου
πονηροὶ
ἐχθροῦ
ἰσχυρᾶς
μηνός
συμμαχεῖν
γεγενημένους
μαθηταῖς
δούλου
ἔσοιτο
ἐδίδοσαν
ἠγαπ
δεσμὸν
πηγῶν
πάρεργον
πειρᾶται
ἐνδεεῖς
ἐπινοίας
αἰτιῶν
##βάλλοντος
σκιᾶς
προσώπων
ἀμφιπό
Μένιππε
Ῥοδαν
ἀπαιδε
ὑπολαμβάνοντες
καρτερεῖν
συλλαβεῖν
Κορινθίοις
κυκλώ
μειράκια
παιδιᾷ
##μοσύνῃ
ὀκτακισχιλίους
ὄφιν
διδασκάλου
φιλανθρωπίᾳ
σταθμὸν
ζωγράφ
ἐπέτρεψαν
ἀπήντησεν
Δαυίδης
Μιλήτου
Θουκυδίδου
ἕλκεα
παροιμία
Χερρόνησον
Ἄρηα
Σινώπ
νῷν
περιπεσεῖν
νυμφίον
Ἥφαιστον
ἐρείπια
ἔρριψεν
ἐνδόξων
Κολοφ
ποσσὶν
ὄρθιον
διακειμένους
ἀπεδείχθη
ἐπεξιέναι
ὀργισθεὶς
νέκταρ
Βρασίδας
Ἀσωπ
παμπληθεῖς
ὄξος
πανηγύρεις
γεγαμη
Γωβρύ
ὀθν
ἐζημίω
τεχνιτῶν
ΑΚ
Δέλ
Κραν
Τά
Φόρ
ξυρ
πί
σπηλα
Ἀρετ
ἐων
ἔμειναν
ἦμος
ὁσίως
ᾠήθη
ᾤκει
##ετι
##υδις
##κὸν
##ωργ
##ψαύ
##χρο
##άς
##ᾶτος
##ΙΚ
##ὡς
##εῖταί
##ερῶν
οὐλ
ἐνεγ
ἀνθη
ἐκομί
ὑπην
##λαμπ
τιθέντες
##κεον
##τησα
##ράτην
ἐξομ
συνυ
συντριβ
διαφόρων
##πετʼ
##σχῃ
καταλί
λέγοις
λέγῃς
παραλαμβάν
##θεωρ
δέχονται
##τέρος
##διῶν
αἰδέ
περιόδους
πεπλαν
##δοποι
ἀναλαμβάν
ἐφεί
ἐφέλ
##θέας
##θέειν
οἶκτον
κακὴ
κακὴν
κακίᾳ
νεὼ
δοκέω
##στησι
ἱερέα
ψυχρὰ
Κασσ
τιμωρη
ἐπεβάλετο
φιλοπον
##κηρύτ
##ρακτο
##λειον
ἀντιστ
ἀντιπέ
ἀντιτεταγ
ἡγεμών
λοιπῇ
##ίστας
##κοπτον
ἀποκρυ
χρυσῶν
χρυσᾶς
##ριαδ
##στρατι
Δηριαδ
γιγνομένοις
Οὐαλερ
##πεσὼν
πεπηγ
φωνήσας
##ρίζετο
##ζετε
##χειρί
παλαιόν
##μέδων
ξυμπ
μειρακι
ἐκκλησι
ἔμπειρος
εὑρήσομεν
##χρήσατο
κλίνην
χαλκῆν
γυμνὰ
καθεζόμενος
ἀστέρες
ὑποκριν
νοσημάτων
γεγενημένα
τρυφῶν
##ψειε
λάχαν
λάφυρα
Λύκων
Τυρσην
Λεύκ
ὑπατείας
προσδοκίαν
Αἰσχίνου
πίνα
ἀγανακτεῖν
ἀθρόον
κἀκείνῳ
Κιμ
παραινῶ
Ἄνθειαν
νομοθετῶν
νομοθετεῖν
καταντικρὺ
Πειρί
##ίνετος
ἐκπεσὼν
σπονδάς
μέλανος
οἰωνῶν
Κρόνον
ἐπάναγ
κλῆρος
τριήρη
Μυρμι
ἁλίσκεται
ἐβουλήθη
κομισθῆναι
ἀγέλην
ἐπιπολ
ἐδίδαξεν
Μεγαρεῖς
ἐπισκοπεῖν
τηλικούτοις
πεπονθότες
ἐτράπετο
πεπεισμένος
νομιζόμενα
ἀπέλυσε
Θρᾳκ
Σμυρ
ἐδίωκε
ἀκόλουθα
δρυὸς
ἔτλη
Φάβιον
Τιβερίου
##ειληφότες
Ἀτρεί
Χαρμ
ἀρκέσει
Οὐλπιανὸς
οἴδαμεν
Λίβυες
Ἐπικούρου
ἀχνυ
ἀρχιτέ
ὀστέου
δίωξιν
σφαῖραν
Στησί
ἀναλίσκειν
σπήλαιον
Καρύστιος
πειρασόμεθα
ἐπηγγείλατο
καραδοκ
Δάμι
βίη
ἀτελεῖς
ἕξεως
Ἑκ
Ἱστι
ὁλό
Ὄσιριν
ῥοι
##ρῆς
##ετ
##εσθʼ
##υλος
##οβα
##δρη
##σκοντες
##ῖός
##ῖδος
##ψάντων
##θείας
##γανον
##χεῖν
##ξου
##ήμου
##ήεντι
##ῆμαι
##ζόμεθα
##27
##ΥΛ
##54
##τακτο
##εικε
##ανε
##μασί
παθή
##σθῆναί
ἀπρό
ἀπῄεσαν
ἀνέρος
τετρω
##ταιν
ἐκτί
ἐκπί
##ρίτης
κατάρχ
χρώματα
ἀποβαλεῖν
ἀποδόσθαι
ἐξορ
τῇσιν
τούτοιν
ἔχθος
διακόσιοι
ἀγκάλ
##άλαν
ποιεύ
##θεί
δέσποιν
οὔρεα
##ποθʼ
##όμβρο
##έλῳ
##ησέν
οὕστινας
ἀφθ
ἀφίστασθαι
συμπέ
πετρα
##ύνοντες
ἀναζη
ἀρχομένους
μέτο
ἐφη
ἐλάμβανεν
ἐκείνως
##ρουσαν
##πιμπ
οἰκεῖος
ὑπολοί
ὑποσπόνδους
##λάκων
ἀγαθούς
δόσιν
##έωνται
Κατὰ
δήμους
##δωκας
ἅπαντι
νότιον
χρηστῶν
ἐπέεσσιν
πρώην
δυσαν
φρονοῦντες
ναυσίν
Σιδῶν
ἐξέβαλεν
ἐξέπεσε
ὑγροῦ
ἐπανῆλθε
παράταξιν
δημοτικὸν
ῥητόν
ἄκροις
νηὸν
μόσχ
Πασίων
ἔστησεν
γαλε
τυγχάνῃ
ἐπιχεί
Πολυπέρ
λύκος
κατασκευαζ
χρηστοῦ
μῆλον
ἑλκύ
Κλεομέν
μεθύειν
πονηρο
συγγενὴς
βοηθῶν
κολοι
λευκῷ
νοσεῖν
συλλέ
τριακοσίας
σκεῦ
ἑορτήν
βασιλικοῦ
ἡδέων
λείπεσθαι
ἄπαις
ἄπιστος
##πτουν
προσιόντων
ἀριστεύ
ἄπειμι
παρακαλῶ
ἐνεργείᾳ
Προπον
κιθά
Κυλλ
λόφων
λόφος
συγχωρῆσαι
λαγχάν
γυναιξίν
φθονεῖν
κατακλεί
γλαῦ
χαρίτων
μοχθ
##πυλον
κρεμα
κροκό
Ἀριστόδημος
ἀβελ
στρατείαις
τύπῳ
Πυλά
δικαστηρίων
Ἀγαμέμνονι
ἀρέσκειν
Ὑπερβ
ὀλέθρῳ
δεκάτῳ
ἠξίωσαν
συκοφαντεῖν
Ἀντιγόνῳ
##κτήσατο
ἤλαυνεν
Ἀρκαδικ
γείτονος
Νηρη
Πάρθους
##νησκον
Κλεοπάτρα
ποίησον
κολακείας
ἠδίκη
αἴσχιστα
Αἰθιοπίας
ἀφύλακ
ἐοικότες
τέθνηκε
ἐπαγγελίας
διετέλεσαν
σφραγῖδα
ΜΑΡΤΥΡΙΑΙ
μεγαλοφρο
ἀγνοίᾳ
διαδεξάμενος
Λαοδί
Φιλοποίμην
κακοδαίμων
Ταρκυνίου
διελέχθη
Ἀργείοισιν
θησαυροὺς
ἐπίσκοπον
πρόσταγμα
Τόξα
βίοτον
Φύλαρχος
Γαρ
Γρηγ
Γράκ
Θρά
Θάσ
βάσ
δρακ
ἀλί
ἄψ
ἄξον
Ἀπα
ἐσω
ἕπονται
Ἑκατα
ἠμύ
Ἡσα
ὀρώ
ὀβο
ὁποι
ᾔδειν
##έεται
##τωμα
##ροισι
##κλέα
##πωσιν
##όκερ
##σμένη
##μᾶ
##θῇς
##γημα
##ώτιδος
##ΙΟΝ
ἐπελθόντες
οὐθεὶς
##όνικος
διέγνω
διχο
δισχίλιοι
##στρυχ
##λελειμ
ὑπήν
προτειν
προκειμένων
μεμψ
##σαγ
παρέλ
παρορμ
##σεύ
ἐπιτά
εἶπέ
##ικοί
χρῷ
##τημό
ἀπορῶν
ἀποδημίαν
##ροπα
εὐδό
εὐμεγέ
διαμε
διαμαρτ
διαγνῶναι
##σχέ
##σχόμην
##ήνορα
ἀγροικ
καταξι
καταβαλὼν
εἴδομεν
ποιοῦμαι
αἰωρ
περιουσίαν
δεομένῳ
συμμέτρου
ἀναφέρειν
ὄνων
##ρέας
##αθος
##μησις
##ποιτο
##άλλει
##ύχημα
ψυχάς
πρόρ
βασιλέι
εὐθείᾳ
βασιλείων
ἐθισ
λεχθὲν
##οπτολέ
ἐσόμεθα
γνώσεσθε
##φυλα
λοιπῆς
ἀδικία
##ιστὴν
##ώτατόν
διάθεσις
ἐξέβαλε
πράως
ἕνεκά
παράκειται
κελεύουσιν
συμβάντα
εἴρητο
ὑπάρχουσιν
ἐθέλῃς
ἐλθοῦσα
τρόποις
κέρατος
##νουμένους
νύκ
ὑπέμεινεν
σύμπασαν
Μαριάμ
Κλεό
τοὔνε
##ωσάμενοι
ἐπιφανεῖς
εὕρεσιν
Ἱεριχ
καλουμένῃ
πώγων
στεναγ
Παρθεν
γεγενημένοι
φερόντων
πλείονι
θεραπα
παιδίου
κώμῃ
ἠνώ
ἔρωτας
πυθομένου
σκέψασθαι
ἄλγε
πεσόντα
ἐνδεὴς
προϊὼν
Χαλδα
εὐεργεσιῶν
γέροντι
χρυσα
φωρα
ἀχάρι
Εὐρυμέ
δημιουργῶν
διασῴ
Λευκίου
κυκλω
ἀνοσι
συμβεβηκότων
ὑπηρετῶν
τραπέζῃ
ἐπιβουλεύειν
ὠνόμασε
ἀκρασίαν
λυσιτελ
ὀνείδη
εὐγενείας
καθηγ
παχύ
##ΙΑΣ
Ἀγαθοκλέους
##σχημον
συσσί
φθέγγεσθαι
ὑπισχνεῖτο
κήρυκες
γείτονι
σατράπης
ἀμηχάν
ἐπιτιμῶν
ΜΕΝΙΠΠΟΣ
ἐπισκώπ
ὀμόσαι
ἀνδραγαθίας
ἀκολασίαν
ἐδήλωσε
ἐπακού
βεβουλεῦσθαι
χείρονα
ἀμείβετο
Ἡρῴ
ἀκίνητον
γεγράφθαι
διάμετρον
ἐξειργασ
μεγαλα
κερδαίνειν
ὑπομνημάτων
Κροτωνι
Ἀναξανδρίδης
κυλινδ
διδάσκαλοι
Δοῦ
Λαρ
Μαλλ
δί
δαλ
δότε
δρέ
ιβ
μῶ
μύρῳ
ξύλοις
πτι
τυμ
ἄτ
ἐελ
ἔναι
ἠϊ
Ἤδη
Ὠρω
ῥιγ
##ρῖναι
##εδρον
##λπί
##οσμ
##φλε
##έναι
##ῴην
##λλυντο
πρήσ
ἐνδείας
##λεόντων
##λαμψ
παρεγένοντο
##λιόν
##λέστερον
ἐξακ
διακινδυνεύειν
ἐγερ
ἀγροῦ
καταβαλ
κατασκα
θεμέ
παρακαλέσας
καθίσας
περιπλέ
γενόμεναι
##κιλ
ἀναστα
ἀναπν
ἀκτὴν
##λευθ
ἐφρού
##υκεν
ἀνθρωπο
##οιντʼ
βουκο
ἀμφὶς
##κειμένου
##λουμένου
ὁμοία
γνώ
##σσῳ
κατεκό
ψυχρόν
ἄρξασθαι
φέροι
Εὐαγό
βοὴ
τρίχα
τετμήσθω
##κληρον
πενίᾳ
ἁπάσῃ
εἰκῆ
φρονεῖ
##ότατόν
ζητεῖς
##απτο
λίμ
ἀπόφασιν
κυλί
##στρατευ
γιγνώ
Οὐλύμπ
λέκτρα
δείλην
ταχὺς
##ρίωνα
μουσ
κατηγόρει
αὐτόματον
ἐθέλοντες
ἐλθόντος
ναοὺς
ταύρων
##στικὰ
Φιλώ
χρησμῶν
γράφω
γέγονας
χείλη
προειρημένου
προειρημένην
ἀγαπῶν
συμπάσης
κωλύσει
ἠνεί
Ἀντί
##ύναις
##γιδος
Μηδίας
ἐρασθεὶς
ἀδίκους
θνητοῖς
εἱστία
##λεύθερος
ἀναβῆναι
εὔνοια
πρεσβευτὴς
πέτραι
παρρησια
τεσσαρακο
ἐρωτῶ
##γαθέ
ἀμυνομένων
κεκτημένον
ἕξουσι
Γοργόν
ἱππομαχ
κυκλο
Μελαν
τεύξεσθαι
ἐκεχει
ἐπισταμένους
Κικέρωνα
ἠρόμην
ἐκβια
γήρα
ἀστερό
διαστήματα
γνώριμα
ἵσταται
δημηγο
ταρσῷ
τετελευτηκότος
ἀλλόκο
ἠθέλησε
κεκοσμημένον
μακάριοι
φλογὸς
##ποίητο
Ἰούδας
ΦΑΙΔ
ἐμπέσῃ
Πρωταγόρας
περιφανῶς
Μιλτιάδου
Ἀγησιλάῳ
πρόθυμος
λοιδορίας
Ἐλευσῖνι
διαφυλάττειν
κήρυκας
ἔμπεδον
νῶτον
ἀναγνοὺς
σύμβουλον
δάκτυλον
ἠναγκάζοντο
ἡμίσεις
διελύθησαν
ὑπομιμνήσ
ἀναζεύξας
ἐσκευασ
αἰφνίδιον
σύγγραμμα
ΔΘ
Κύνου
Μῶ
Φθι
βρε
ζε
θείη
νέρ
νενε
φει
χή
ἄθρ
Ἄδων
ἕλη
Ἐργ
ἤθεσι
ἥλω
ἧττόν
ἴμεν
Ἰκα
Ὁρ
Ῥήγ
##ρῶσαι
##ιαι
##οτῆ
##μφθῆναι
##λλους
##τινι
ἐπαρχίας
διῴ
##σθης
##λεσθε
ἀνῆκεν
ποτήρια
ἐκδοῦναι
ἐκβαλὼν
ἐκβάλλειν
##άντης
ὑπεν
προελθόντες
##λισκ
##σελθ
πόρους
τῇδʼ
συνανα
συντελεῖν
εὐποι
ἀγγέ
εἴθε
##τίδων
##άττεσθαι
ποιμένα
προσκρού
##τέμ
καθίσταται
οὕσπερ
ὑμέας
ἀμέλ
##οφορ
##νησαν
ἀνθρώπινα
##σειας
μεταδι
τριη
Ῥωμαῖος
##φέρεσθαι
κατεπεί
παιδα
Καπύ
ἄρτου
πιπρά
κρατοῦντες
##ηθείας
χρηστόν
##οσκό
ἀνέμοιο
νέαν
##καιον
##ίσματι
κρήνη
δοθείσης
##τεῖτε
γιγνόμενος
##ψαμένη
##ρικῇ
λέοντας
φυγα
κεφαλαι
θανὼν
ἐλαττ
ἔπεσι
ἐθέλοντας
ξυμφορ
βάδην
Ἰνδὸς
διαφέρουσι
νοήματα
τυγχάνουσι
τυχόντων
πορφ
ὁρμώμενοι
Λαομέ
μαχη
ἡγεμόνι
μύρου
ἀγωνιζόμενος
ἔλαφον
##τράσιν
πονηρόν
##γένοιτο
ἰσχυρότερον
κοιμω
κληρω
γεγενημένος
##καρπ
##κρίτου
τελευταῖος
γενέσεις
τολμῆσαι
παρακαλεῖ
τρυφῇ
συγγραφεὺς
ὀρχήσεως
ἰδιώτου
##ώδεσι
φαινομένων
ἥδεται
φαῦλοι
τέρμα
ἀκουσίως
Κράσσου
ἀποδείξας
γεννᾷ
μενοιν
Ἄννων
ἐκάλεσαν
ἑπτακαίδεκα
ἄθλιος
ἐτίμησαν
ὀλοφυρ
ναύταις
ὠνόμαζον
##μείνα
Ἀριστόξενος
περιβόητον
κτησάμενος
ἀγάλματος
ἀπαντήσας
δόμος
ἀμαθίαν
Ἀρχέλαον
ἐνοχλεῖν
ἀποβλέψας
Πάρις
ἀνάπαλιν
ἥρπασε
εὐπορίας
θαλασσ
τουτονί
ἀπαθεῖς
ἐβουλεύετο
ἀγαπητὸν
Αἰθιοπίαν
τάγματα
καθελεῖν
Ἀλβανῶν
ἀπόδειξις
κεχαρισμένον
Μέγαρα
##ώσκοντας
ὅσσοι
ἀδελφιδοῦς
ἐπιστημῶν
##κρινεν
πουλὺ
ἠΰτε
ἐμνημόν
κονιορ
ἄλφιτα
ἀντιπέρας
Βαλ
Δρύ
ΚΘ
Τάντα
Χίου
ζῶσαν
θῆλ
μίγν
ἄπε
ἐσκέ
ἔβη
ἔλλα
ἕστα
ἡβη
ἤπει
ἤλεγ
ὀρει
##ρᾶν
##άσεται
##πλου
##πάσας
##σόμενον
##σοβ
##μάσ
##φραγ
##ζέτω
##ώσειν
##ΟΓ
##38
##ρασιν
##τικαὶ
ἐπόρ
ἐνεί
διῆλθε
##λευμάτων
ἀπέγνω
αὐτόπ
πορι
ἐκδικ
ἐκδεχ
ἐκβαλόντες
ἐκόσ
##άνεσθαι
ὑπόπ
μεδί
##ούλευ
##λιχος
κατην
ἐπιπλ
##έγον
##ληπται
χρέεσθαι
τούτοισιν
στρό
εὐδοκ
##ορφον
διασκε
##στελλον
προσβαλὼν
##ησος
##άγος
δεδα
ἀφνει
##μισθ
ἀμερ
καλούντων
φιάλας
##άζοιτο
μέτριος
ἐφορ
##ώπων
##τάχα
##σκουσι
πολύχ
##γονον
οἶσθ
μεταβολαῖς
##φθι
πολεμικοῖς
ὁμογεν
##αινʼ
##αινόμενα
##χετε
ἱεροφ
##κτὴν
ἐχειρο
κατεσκ
πάππου
πρόκλησιν
##κέλευ
##σθέντι
ἀρρεν
ἔπειθον
δεινὴν
ὀλίγη
ἀξιοῦντος
τύχωσι
προσελ
##ύλοιο
αἰσχύνεσθαι
οὐδένʼ
##στάτη
πυρὰ
ὁμολογοῦσι
συμβαινόντων
βαρβάρῳ
ἐλασσ
βραχίονα
μαθών
φοβεῖται
καταστρέ
ἑπομένους
ἔδωκα
ἐπιστολὴ
δακρυ
θυσια
Κύριον
##βαλλόμενοι
Ἑλληνικοῦ
πλοίοις
##ήφθησαν
εὐνὴν
φυλάττων
κατοικεῖν
ὀψων
πειθομένους
χρήσιμοι
πλατύ
σκιρ
ῥέεθρα
στέργειν
σύγκειται
δημοκρατία
κεχην
χαρὰν
ἑξακισχιλίων
ἀρχιερεῖς
ἀφελὼν
δόγματος
κοίλης
συστήσασθαι
ἐφαίνοντο
##ράτουν
πορευθεὶς
##όρευον
κορυφὴ
οἰκειότητα
##γνυσθαι
##μαρχος
##πλάσιον
ἐλέφαντα
συμβεβηκότα
κοῦφα
Ἀδρι
αἱρεθεὶς
ηὐλί
ξυνεχ
Ζηνὶ
Σίμωνα
δαπάνην
αἱρέσεις
διαιρεῖται
λευκό
ἤλασε
Πυθαγόραν
παραδόξου
ἀμαυρ
σῶμά
εἰωθότων
ῥίζαν
φείδεσθαι
ἀνῃρέθησαν
Κορίνθιος
διδασκαλίαν
Ταραντίνων
τοκῆος
Κροῖσον
ἠκολούθουν
Ἐνυώ
εἰναλ
ὡρισμένον
ἀσχολίας
ἀσχολίαν
Οὐιεν
ἐδωδ
πρόθυμον
##μῖξαι
ἔπαυσε
θώρακα
Φορμίων
Αἰθίοπες
ὑμεναίων
τὠυ
Ἄβυ
προθεσμ
μόνον
πατρῷα
λέκτρων
προπάροιθε
Ὀδυσεὺς
ἀπεκρίναντο
ἀνθερε
ὁτουοῦν
μεγαλαυχ
Γλώ
Δᾶ
Κέβης
Λέν
Ποι
Τῇ
Φύ
Φοι
Φρί
βίοις
θεία
κτάν
λοφ
σύ
σικ
τλήμων
φλοι
χλο
ἅλας
ἥκοντας
ἰόντας
ἴδη
Ἰον
ὅσης
##κή
##κόμην
##όριον
##σός
##σπό
##σέων
##σκοντα
##μίοις
##ωμένα
##ωθέντος
##θρε
##θίς
##γοι
##ῆνες
##ζʼ
##Καὶ
##εντε
##τιμε
ἐπάγει
διήλθομεν
τετιμη
##είρα
##υνθαν
ὑπωρ
προξεν
προαιρε
προῄει
προγεγον
##ίνητον
κατέγνω
κατειλημ
ἐπιλογ
ἐπιχθον
##έγκατο
##υμος
ἀποτί
ἀποδίδωσιν
πότους
πόρεν
##ράμενος
ἐξαιρε
στειν
στῆσαι
ἀγόντων
καταπαύ
##στείαν
εἴληφεν
##άττοντες
ποιήσομεν
παραδόντες
μηρὸν
αἰτῶν
αἰζη
##ησάμεθα
##νεῦσαι
περιτε
περικε
συμμο
ἀμυγ
##εσκεν
##ίδαι
##ίζομεν
ἔνοχος
πολεμίου
εἰσή
ἀπέπλευσαν
ὑπερβολὰς
Διδ
##μαρυγ
κατέλαβεν
μόνως
ἐθν
##λυτον
##μινον
ζητοῦσι
σκῦ
αἰσχρο
πείρᾳ
θυμια
λογοποι
θερμο
Θηβα
ἐσθίει
θυγατρι
Ἰταλικῶν
Σωσί
μέλειν
ἐπιστροφ
ἐλευθερι
ὁρμὰς
ὅρκια
ἡμετέρου
συνεχὴς
Τίτου
ἐχθρούς
μεγίστῳ
προφῆται
Ἀττικῶν
προστάτην
ἀτραπ
σμικρόν
##νῶναι
ἐπιχειρῶν
ἀφανὴς
φυλάττοντες
ἠγάπη
πρεσβύτατον
τυραννὶς
ἀπαξι
σφετέρους
Κελτοὺς
Πανὸς
##στρεφ
βιβλίῳ
ἀναβάντες
σῴζει
διακεῖσθαι
γνωρίμους
δάκρυσι
ἀσχαλ
Ὀδυσσῆος
Βάκχῳ
ἀμυνόμενοι
ἐδεήθη
κλύειν
ἐπιτελε
συνεργὸν
στασιάζειν
Κεφ
Ἀδρίαν
πλησιάζειν
βάλλει
δοξάζειν
τύπος
διδασκάλων
##οὐκ
ἠρν
##σπορον
χρόας
ἀτιμίαν
ἐπέτρεψε
δείκνυσιν
Ἀλεξανδρέων
ξηρὸν
ἐντυγχάνοντας
πέπονθα
στιβά
ἀγέλης
κῶμον
ξεῖνος
τετράγωνα
ἀπόλλυσθαι
##ΐδαο
Τισσαφέρνης
οἶδμα
ἀγκίστ
ἀποκρινα
ἐφέροντο
Βρούτῳ
##θείσῃ
ἀφθονίαν
Ἀσδρούβαν
ἤλυθεν
μάγειρον
ἥπατος
Βρεντέ
ΝΟΜΟΣ
ἔκπωμα
πτολίεθρον
ἐπιτήδευμα
σπινθῆ
ἐξαπιναίως
Λεύκτροις
ἐπάναγκες
Γαλλ
ΔΙΑ
ΙΩΝ
Κύρ
Μύρων
Τῷ
Φαιν
ηὕ
θρι
σηκ
φύ
ἀεικέ
ἄκοντας
Ἄμφ
ἕδραν
Ἔστι
ἠελίου
ὀρό
ᾑρέθη
##ρότερα
##κτοι
##ητ
##φειν
##ὴφ
##χιον
##ήεις
##ώματι
##22
##ΕΛ
##τασις
##ειε
ἐπίνει
αὐλεῖν
##μασε
διδόντα
ἀπό
ἀνέρ
ἐκυρί
ἐκάθ
ἐκβολὰς
##λασιν
πόποι
##ράτε
ἔχωμεν
συνω
συντέλειαν
διαμ
διατρι
διαφύγ
πάντοτε
##τίαι
##λίβ
παρασπον
##δίη
##δρός
ἀφίησιν
##μιμ
πετάλ
ἀνατι
##τῶνται
ἐλάλη
##θέοντες
##θέμενον
νεώτεροι
##ίλος
τρισμυρίους
##υρίαν
##δόκει
##ειδεῖς
φυλῶν
διεληλύθαμεν
στρατιῆς
μέρεσιν
μάχονται
ἐπίσκε
ἡγοῦ
ἀπεχ
κινούμενον
λελέ
Θεοπ
ἀνέκρα
##ξωσι
ἐπέσχε
ὅσαπερ
πρεσβύτην
##τῃσι
ζητούμενον
μακρό
φθί
σατρα
λέοντες
ἐπανόρθ
##κυον
φόρου
ἁμαρτία
βάδι
κενὴν
διαφέρον
διαφέρεσθαι
κεκομισ
Φιλήμων
μειλιχ
πορείᾳ
ἐνεδρεύ
λύρας
λύσας
ὁρμῆσαι
Καλλίου
αὔξεται
ἑπομένοις
καλλίστη
ὠνεῖσθαι
Μενελάῳ
ἡλικίαις
πραΰ
ἀντία
ἀστρονομ
ἐπιφανεστά
κοιλίαν
Παρνασσ
κερκ
ἐχθὲς
ψευδὴς
ἁλῷ
πλευρᾶς
θέρεος
φροντίδα
σφετέροις
ἑωρά
θνητὸς
οἰκέται
πάτρης
αἰσχύνομαι
ἤρκε
θεραπείᾳ
στεφάνῳ
ἐπιεικῆ
εὐδαίμονες
βιαζόμενος
ἔξαρ
Βάκχον
Ξενοφῶντα
ποικίλων
διέφθαρ
Ἀκρο
νύμφαι
κατεσκεύ
θῆρα
συνάψαι
Ἀλκμα
τυφλὸς
Λακωνικὴν
ἐθαυμ
Ἄλπεις
Σίμωνος
ἔμαθε
Λέπιδος
ἔφευγε
ἀναγκάζει
συνειλεγ
συστρατι
Πατρὸς
προσανα
ἀπολαῦσαι
οἰκοδόμ
##ανάκτει
Νομαντ
ἐφόδιον
Λητοῦς
κατακλυσ
βλαστ
##πομνη
Εὐμενῆ
ἐπαγγελίαν
ποίημα
διαστήματι
τερπνὸν
ἐπιδεικνύμενος
Θρασύβουλος
κυδοιμοῦ
προσδεῖσθαι
ἔγημεν
φλυα
Ἀμφίπολιν
βιότοιο
εὐνοῦχος
συμβολαίων
ὦρτο
Οὐεσπασιανὸς
Εὐρυσθέως
συνεγγ
ὀφρῦς
νενόμισται
Μίκυλλος
νέκυς
ἀπαγγεῖλαι
Ἀνάχαρσις
φρέαρ
Ὀκταου
Λούκουλλος
ἁμαξ
Ἀρτεμίδωρος
ΗΓ
Θό
Πᾶνα
Τῆς
Τρί
Χῖοι
βίην
κοχ
πνιγ
σαγ
σειρ
τὶ
ἀτρ
ἀδραν
ἠλέ
ἥκοντες
ἦρι
ἰόντων
ὅρια
ὑὸς
ὑλακ
ὑδρο
ὑμέναιον
##έτην
##αμος
##υδ
##υλον
##οτάτῳ
##δόμην
##σάτω
##ῖοί
##ίῃσιν
##ίδεω
##ωθέντων
##βίου
##ώδεκα
##ἄν
##56
καλι
##ουσά
##τελε
πρην
##τιμοι
ἐποπ
##ερῷ
διορ
πατάξας
##λεὶς
##ηνοχ
##ρινα
##είμενα
ἐκράτουν
##άντιον
##ρίς
μεμπ
##λαφ
παρών
κατήκο
ἐπιβαλ
ἐπιούσῃ
ἐπιφέρειν
ἐπιτίθεσθαι
##κεύων
συντόν
##στασθαι
διαβολαῖς
διακείμενος
ἐγγεγραμ
ἐγίγνω
##μοσι
καταβαλεῖν
ἐμπν
αἰνί
##δρύ
περιῄει
βασιλί
βασιλή
ἐλθέ
##τήτων
##τήσασθαι
φατε
φασκόντων
οἰκῆσαι
##θέσεων
πρῶτός
νεότητος
ἔντο
μέγιστόν
ὁμοεθ
##σσὸν
##δόσεις
νομίσαι
νομισθ
δηλῶν
##ήσασθαί
##μόνων
##ρόνιον
μια
πιστόν
φανέντος
##ηθεῖσα
ἀδελφούς
ὅσου
ἀντιπρά
##λυθέναι
ἐπέστη
##άκιν
καρδία
φρονεῖς
##ίονι
ἀδικήματα
ναυκλή
ἐξέπεσεν
ἀναγκασθ
πεπλασ
μυελ
τοσαυ
δόξαντες
Σαμα
##φημι
διώκοντας
ἀπειπ
μῆτιν
τηλε
μεθο
ὀφλ
πάσχων
ἀναστάτους
τοὔργον
ἀστυγ
Πυθοῖ
μηνί
Ἀττικῇ
χιτων
Ὀλυμπίων
βωμο
εὕρω
ἀνδράπο
στενὰ
παρεσκεύ
μηχανήματα
##καρπον
λογισμὸς
λογισμοὺς
κόλποις
σελήνῃ
νόσφιν
Αἴγυπτος
ταπεινὸν
ἐθελῆσαι
Καρμαν
ἀποκτείναντες
γραμματικὸς
θορυ
ἔγραψα
##ψηφίσασθαι
ὑπολαμβάνω
Ξενοφῶντος
τετάρτου
Τρώεσσιν
ἐμπειρίᾳ
νομοθεσίας
ἐκάλεσε
ἐλέφαντες
ὑστεραίαν
Σκιπίωνι
κομιδῆ
καταναλ
Κρατερ
φῦναι
συσσι
ἰχθύσι
Δαυίδου
δορυφόρους
ἐμποιεῖ
Παφλαγον
προαγορεύ
προΐεσθαι
πολυχρον
συντάξεις
Ἄρηος
ἐλευθέρας
Ἑρμότιμε
μετώπῳ
ἐλάσσονος
Περδίκκας
ἐτρέψαντο
ἀκηκοέναι
Εὐθύδημος
δακτύλιον
Λέσβον
Βερεν
Μυτιλ
Χαλκίδα
θῆλυς
αἱματό
Μνησί
Ἀριστογείτονος
ῥᾳστώνην
Πάτροκλος
Χαναν
κωμῳδιοποιὸς
δένδρεα
θύραζε
Ἀρχίλοχος
ἐνδεικνύμενος
ἀφροδίσια
καταμαθὼν
ὑπόμνημα
παραγγείλας
ἀπόκριναι
κτύπον
ἐκπολιορκ
ὁτῳοῦν
θῆλυν
Βρεντέσιον
Βι
ΒΚ
Λαί
Σοῦσα
Τυρίων
βρά
σπό
τυγ
ἁβρο
ἅς
Ἀζ
Ἀσι
ἐβεβ
ἕσ
ἠφ
ἠπει
Ἰαπ
ὀλλυ
ὥπλι
ᾖς
##εθʼ
##λοισιν
##σοῦ
##46
##οντός
##ανόν
##τείαις
##τιδας
ἐπῆγε
ποτί
προύχ
προβεβλη
##σασαι
##σαντές
παρο
παρεγένετο
κατήν
##δετε
ἀποδίδωσι
##ρομένους
στάσει
##οῦντές
καταφρόν
καταδικα
εἴγε
παρακλη
οὔρων
προσγ
προσημα
##ότερός
##υχας
##τουμένου
περιστάσεως
ἀφρόν
συμβαλ
πελα
ἀκτῆς
##λευρον
##ώνοις
##ώνιε
μέτροις
τάδ
πολύπ
τόκους
πόλεώς
##θέῳ
πέμ
πέτρα
ἔφησθα
ὑπολαβεῖν
δεῖμα
οὐχί
μεταλαμβάν
μεταλαμβάνειν
ὁρμι
##λουμένοις
ἐκεῖνόν
##ρινον
κατερ
Καπε
κόραι
κἀξ
##ογος
φιλομαθ
τρόποι
ἀκούσιον
##λειπτο
##μφθεὶς
ἀρκε
δεινότερον
εὔστο
##ξωσιν
ἔπλε
ἀνάγκαις
φρονοῦσιν
μακρά
ἔγχ
ἀργίας
##βαίνοντας
γιγνομένου
ταὐτό
δημοσίοις
ἄκρᾳ
##όχων
ἐνέμοντο
γινομένου
μετέωρος
μετέπειτα
ὀξὺς
μέλαινα
##φημον
θέλουσιν
ὀρθαῖς
μονάδας
ὑπεδέξατο
##ήθως
σύμφυ
ὀφθαλμούς
μύρων
##δοξοι
Κλεόμβρο
ἑπόμενος
ἀναστάντες
κρείττο
Ἀττικήν
μηδενός
καρπῷ
καρπόν
στενῶν
μισεῖ
##οῖντο
δεσπόταις
Συρακό
ἐσχάτοις
διηγεῖτο
συλλόγ
καινὴν
μίτρ
##φάλου
δύνωμαι
ἁλούσης
γεωργεῖν
Κύπριν
κούρῃ
Μαρδον
ταραχὰς
φοβερὰ
ἡττήθη
διακριν
τάφρου
δημιουργὸς
κατιδόντες
πορευόμενοι
##ϊκὸν
##μαρχον
ὄπισθε
ναύαρχον
παρανομίαν
κροκο
ῥυθμῷ
ἅλμης
κτῆσις
σέβας
τἀνθρώπ
εὐμενῶς
ἐκώλυσεν
ταρβ
Ἰσθμὸν
ὠμότητος
τύμβῳ
Αἰνείου
κρημνῶν
ἐπωνυμίας
ὀδύνη
ἀληθεύ
εἰλήφθω
ὁδοιπορ
νήπιον
νήπιος
ἀνῄρουν
Καμβύ
Ἰωσὴφ
ὕμνους
εὐπετῶς
ἐπισχὼν
πραττόντων
δεισιδαιμονίας
θαμὰ
διελθόντος
ἀπαρχὰς
στοχάζεσθαι
διεπράξατο
ἄεθλον
κράνος
Νομάδων
Ἀρχίδαμος
ἔννεπε
ἐνύπνιον
Λαμψακ
Ἱεροσολυμιτῶν
Βασσα
Χειρί
Οὐίττι
ΓΜ
ΗΕ
Μύν
Πὰν
βρωμάτων
δρεπ
πτ
χοῖ
ἁλοὺς
ἄφυκ
Ἀξι
Ἀβι
ἔασιν
ἡδίων
ὀμ
ὁδί
ὑδρ
ὤμοις
##έης
##έτης
##ρείας
##ρότερος
##νύναι
##όου
##ψύ
##βίω
##ήια
καυχ
##λλας
##ένης
##τιδες
##τινον
ἐπέν
##λεγεν
εἰκά
##ηναίων
ἀπόνοιαν
ἀνάμ
ἀνθέ
ποδο
τεθῆναι
##είσῃ
ὑπηγ
##ινθ
##ίναν
##ίνομεν
##έγε
##τηρη
ἀποκοπ
ἐξαλ
διαγρά
κατασβ
εἴσῃ
εἴκειν
ποιῶμεν
παρακλ
παραμένειν
##θρύ
##άσσετο
μητέρες
##διά
##ποντι
περιορ
περιεσ
συμπεπ
ὄνος
##άμας
##εύεται
ἐφόρει
##ίκλεις
##ρές
φαλακ
βουβ
οἶς
##κεια
μέγισται
μέγιστοι
##μνου
συγκομ
##άλλου
κύρια
παισίν
##τόλ
ὑπερβαλ
ὑπερβολὴ
τιμή
μαται
φιλοῦσιν
ἐπετή
ἐπεποίητο
Εὐφ
δικαστὴν
##λικὴν
τρίποδα
υἱων
ἀρξ
ἀνέτρε
ἐπέθεντο
##μινών
καρήνου
τύχωσιν
ἱππῆς
παρέσται
ἀποκτιν
εὑρετ
##ιζόντων
πείσειν
πείσεται
##στάτοις
πυρὰν
μαντευ
ὁμολογοῦντες
ἱστορίαις
θανόντος
Ἰουλι
##ίνωνται
ἔπεσιν
σπουδαίων
αὐτόμο
παρασκευὴ
##λοιπό
λαμπρὰν
πυρετ
βέλους
Συβα
σταδίου
ὀρύτ
σκοποῦ
Λαέρ
ὀφθαλμὸς
ἐπισυν
ἐξαπο
Ἀρχελάῳ
##δευσε
καλλίων
καλλωπ
Νικίαν
γράμματος
δαφ
ἐλπίδες
κυρίας
τοὔν
ῥήμασιν
θυη
Πυθία
ἀπαγαγεῖν
παρθένοις
μερίδα
μερίδος
προειρημένος
ἀδύνατοι
ἀείρας
ἀγαπᾷ
δράσας
βελτίστους
καλέσαι
ἐνδελεχ
ῥέει
κιχ
τρυφᾶν
ἐπικυρ
μαλακίαν
κράτιστοι
στέφανοι
μισθοφορ
ἀντέχεσθαι
τραπέσθαι
κεκτημένοις
τιμωρεῖσθαι
προσταττόμενον
ἔμφασιν
Μελί
ἀπωλείας
Ἀριστόβουλον
Θεσσαλῶν
προσκυνεῖν
γύναια
γύναιον
ἡντινοῦν
ἐφεστη
ἐρώτων
νεοτ
ἄρρενας
δείκνυσι
αἰγιόχοιο
ὄλεθρος
Ἐπαμινών
καταφυγεῖν
χιλιάρχων
Ἀριστείδου
μελήσει
ἐρρωμεν
ἀπέδειξαν
ἐτέθη
Κασάνδρου
ὠφέλιμα
##ένειμεν
ῥεῖθρον
Στρατον
Λάκωνες
πῆχυν
Σινω
αἴσχιον
ἀνώμα
ῥεύματα
Καππαδοκίαν
Μυσῶν
ὑγίεια
συναρμό
ἠκούσατε
Μασσαλι
Φιλιππικῶν
ἐπιτρόπ
τεχνίτας
Ἐπειδὴ
γλώττῃ
Θυέ
ἀντεῖχον
ἄρθρα
Κλυται
ἐπεζεύχθω
δίψος
ἀχαρί
κατάπλη
Βρεντε
##εβάλετο
Τελαμῶν
Καύκα
πρήγματα
προειρήκαμεν
θαυμάσιε
τυτθὸν
πτισάν
Κύνουλ
Θεοπόμ
Δήλῳ
Νυκ
Σκό
Φερα
γλυ
ζευγ
θεῖ
κτα
κυμ
νωθ
ἄσθ
ἄφε
ἑλλην
ἔασι
Ἑλί
Ἑσπερ
ἠπιστ
ἡτοί
ἤχθη
Ἥβας
ἴστω
Ἰλ
ὀι
##ροῦν
##ατʼ
##κρυμ
##δῶ
καλοκ
τοπ
τοίν
##τοίη
##τιδαν
ἐπάγειν
οὐρη
##μασεν
ἐνικ
##ηνοῦ
##ηνοὶ
ἀνηρ
ἀνεῖναι
τεῆς
ἐκφερ
ἐκπέμπειν
##ινίου
προῃ
προῆγον
προθέσεως
προτρεπ
προκινδυνεύ
προάστ
μεμυ
##καμπ
παράκ
ἀλλοῖ
ἐπισι
ἐπικλή
εἶτά
αὐτοφυ
##λέειν
ἀποπε
ἀποβαλὼν
ἀπογνοὺς
##ελέγ
##ελθε
εὐφή
διαλλά
ἀγρῷ
##ναται
καταριθμ
εἴσεται
##άλει
##άττουσιν
ποιοῦντος
παρακρου
γεωγραφ
##ρησις
δέδοται
##άσματος
##άσσατο
αἰτίων
##ησόμενοι
##άγῃ
ὄνον
μήτι
πόλεμοι
βουλευμάτων
ἔντευ
τρισκαι
συγκατέ
##σσους
εἰσάγειν
εἰσέρχεται
φυλλ
συνεξέ
ὑπερέχειν
ὑπερβαλέσθαι
ἀναγνῶναι
κατέπαυ
κινήσει
πληροῦ
##ηθὲν
ἐσά
ἐσύ
ἰδὲ
ἀνεχώρουν
ἀνέμῳ
εὔχεται
ἐπέθηκε
σχηματί
φρονούντων
ἀδικουμένοις
ἱππό
ναυτικόν
##δύσατο
Σιλην
δορί
πράξαντες
πίτ
πεπρᾶχθαι
στεροπ
πλεῦσαι
μαρνα
μνησθεὶς
##χειροτον
συμβι
Μακεδὼν
ἐναντίοι
ὑπάρχοντος
πολυφ
οὐρανίων
διανοίαις
προσήκοντος
δειπνο
θαυμάζων
ἐργάζονται
πυργ
πολίτου
ἐλευθερίᾳ
λύει
καθαρῷ
ὕδασιν
ἡμετέρᾳ
γεγεννη
φρουρὰς
ἀνάβασιν
ἡσυχίᾳ
##ωσκον
##τώμενοι
ἐπιστήμῃ
##βαλλομένων
κριθῶν
νήσοις
καρπαλί
πώγωνα
στενὸν
γεωμε
λευκὸς
εὐτυχεῖν
ὄχλῳ
ἀφανῶς
πειρώμενοι
γενέσθω
Κόριν
Νεοπτολέ
αἰδούμενος
ἰδέα
Θεσπρω
ἀπείρους
ναυμαχεῖν
Καρχηδόνι
##όωντο
καθήμενοι
ἐπιεικὴς
Φαρα
ἀποφαίνεσθαι
ἀσεβεῖς
##ενναν
ἀπαιτεῖν
##βαινόντων
ἀργυροῦν
σιγᾶν
κόμη
ἄμμι
δειλὸς
ἁρμόττει
ἐμφανῆ
τηλικαύτης
ἠναγκα
προσέχων
ζωγραφ
κλαυθ
ἀλόγων
##σσυτο
ὑπισχνούμενος
ἐπηγγέλλετο
Καισαρ
πειρατέον
εἴργασται
Ναβου
Γαλάται
κάκιστα
Τύχην
ἀσφαλές
Μάξι
Δωριεῖς
μηνύει
δεδωκέναι
αἴσχιστον
Κλειτο
ἴδμεν
τεκμηρι
##ομένων
Καμβύσης
ἐνδείξασθαι
ποίησις
ἰατροὶ
Ἰάσονος
ἠκόντι
πλόον
σπερμάτων
ἄπρακτον
ἐοίκασι
προαισθ
##γέλθη
Ἄμμωνος
ἐχειρώσατο
παρέργως
βάσανον
αὐθημερὸν
τετολμη
Βελλερ
τὠυτὸ
τοίνυν
Βαγ
Δανά
ΚΜ
Κάλλ
Λάγου
Σπό
Φορ
γαῦ
θέντες
κών
μωρ
πηκ
τόν
φών
ἄσχε
ἑκη
ἑτοῖ
ἕλοι
ἤγει
ἥδʼ
ἦς
Ὀμφ
ὧραι
##έου
##έοντι
##υῖαι
##δέν
##ωρο
##ωτοποι
##θοιτο
##ήσεται
##όμενοι
##ΕΥΣ
##σιε
##λλιον
ἐπευ
ἐπαρχ
ἐποχ
αὐτε
##μαράγ
διῆλθεν
ἀνία
##ρισιν
ἐκκα
ὑπαντ
##κασθαι
##ούμενόν
παρήγ
ἀλλαγ
ἀλλοί
##λιά
##λιδι
##ληθεὶς
ἀποπέμψ
ἐξεύ
ἐξεγ
συνο
συνταρά
##αλογ
διαβό
ἐγκλ
ἐγχεί
ἀγρευ
ἀγροῖς
##λίως
παραπε
προσπέ
προσῄει
μητέρʼ
αἰό
##όμιος
##ότερʼ
καθορᾶν
γενοίμην
ἀφῆκαν
πελι
##δηλ
##θαύμα
##άζης
##εύοντες
##εύσας
##γεστα
##μησα
##γονται
##λείποντο
##ισμόν
##ρουμένου
πέρατα
##στοργ
##πτωσιν
##ημος
##αινομένου
οἴκοις
ἐχυρ
κατεγνω
κύστιν
κατέβη
##ήσειας
ἐθή
ἐθορ
##ροφον
##κλητος
ἀδελφήν
δεινότητος
βαρεῖαν
##φορὰ
δυώδεκα
συνέθεντο
πρεσβεύειν
χρυσοῖς
δίκαιʼ
διάφορος
##ισταμένου
προσέθηκε
προσέθηκεν
##ρικὸς
πίθη
πεπλή
δημοσίου
μνηστήρων
##σύνῃ
ἐναντίου
σπουδάζων
Ἀθηναίη
καταστρέφ
γραφῶν
λύσις
μαχαίρας
ἄχθεσθαι
ὅρκος
Ἀρχιδ
φράζει
συγγενὲς
λάβωσι
στρατεύσαντες
ὀλιγάκις
σεμνότητα
Παρρη
μηχανῆς
μισῶν
γεγενημένας
κάθη
δράκοντος
μάρτυρι
θάπτειν
τρέφεται
ἅρματι
ἅρπαγ
πειθὼ
γενεαῖς
Ἐπιστο
παύεται
ἐπιμεληθῆναι
##σκοντας
φωτός
##καλέσατο
Καρῶν
ἐπικρύ
Νέαρχος
##παθείας
ἐστερη
##δραμόντων
παραπλήσιος
Κορνη
γυναιξί
χοροὺς
κατισχ
κατιδεῖν
ἀποφάσεις
συγγνώμη
ἀπολείπει
διπλῆν
φοιτ
συνάπτειν
συνάπτει
ξυλλα
Κερσοβ
λάθῃ
φεῦγε
Τύρον
ἀνηλω
ἵστατο
ἔταξαν
στρατευομένων
πεφυλαγ
δεδεμένον
Ναυπ
ὀδύνης
σθένει
κοιλίη
καθίσταντο
συνεβούλευον
δυνάμενα
δεσμωτηρίῳ
ἐγχειρεῖν
αἰθέρι
κεχρημένος
Ἐμπεδοκ
Νύμφαις
γενέθλης
δεδηλώ
ἐνομοθέ
φόρτον
διάδοχος
νέμεσθαι
Ἀλκαῖος
χάσμα
ἐπιτροπε
Ἀναξαγόρας
ἐξετάσαι
Κόιντος
ἀλώπε
ἡμισείας
βοήθεια
ῥάχιν
Σπεύσιππος
ἐγᾦμαι
Εὔξεινον
σκεῦος
καλοκἀγαθ
Κερσοβλέ
Γιγ
Δου
Κρό
Κλεῖ
Πάλ
Στυμ
βοι
δό
δαρ
σπε
σίγ
φροῦ
χοί
ἁφ
ἄει
ἄστεως
ἄραντες
ἄκαιρον
ἐσί
ἑώ
ἔσει
Ἐρ
ἧχι
ἴδεν
Ἰξ
Ὀλύν
ὠτει
ᾅδου
ῥῖ
ῥεῖα
##έριον
##έοντας
##ιλος
##θοισι
##χθέντας
##ξʼ
##βλητον
##ΗΝ
καί
##οντό
##ραμβ
πρόμος
ἐπᾴ
ἐπώνυμος
ἐνέρ
διαιρέ
διδόντας
ἀνί
τευθ
προειδ
##λικες
ἐπιμνη
##τημένον
ἀποχώρησιν
πόσου
ἐξῄ
ἐξῇ
συνν
συνδειπν
συνθῆκαι
##ελκ
εὐσταθ
διακο
διακοσμ
ἐγκαλῶν
##σχες
καταψεύ
##κοψεν
παραβαλεῖν
δέδι
δέοιτο
##δίδα
##ησʼ
##τουμένους
καθει
γενει
ἀφρα
##κοντί
ἀκέρ
##ωρή
##σοντο
##τάταις
ἐλαι
τόξων
##πιπτεν
οἰκεῖοι
##κειμένη
ἔφησε
τέτρα
##άλλειν
πολιτικὸς
πολιτικοῦ
οἴνο
ἱερείων
ἱερεῦσι
κύριε
##φανὴς
ἀπέλιπεν
πρόβλημα
Διόδωρος
ἀναγεγ
ἐπεμβ
ἐπεπόν
##δωρον
διεληλυθ
μιμου
βασιλείαν
##ρώμενος
Περραι
στρατηγοί
συστα
ἀντιβ
ἀνεπ
ἀνεπαύ
##αμίας
ἐπέσχον
ἔπλευσεν
σταφυ
##ῆλθέ
##ύλαις
σκί
διέθετο
δυσφορ
##πηλακ
πράττω
τἀργ
διδούς
γιγνομένας
ταχυ
χαλεπώτατον
ἄκριτον
ἀκοὰς
περίοδος
ἁμαρταν
γινόμενος
βιω
χερὶ
ὁπόσους
ἐπιστάμεθα
##ιάδες
θέλημα
##λασσεν
μονάδος
##δέχονται
ὑπέμεινε
ἑπόμενοι
αἰσθήσει
αἰσθήσεων
βασιλεύοντα
ἀποστάντες
##δήμῳ
Μενοι
λάβωσιν
##φῶντα
γελωτοποι
##γαμον
Ἑλληνικῆς
Μηριόν
λῃσταὶ
τυραννεῖν
ἔχοιμι
μουσικήν
πειθοῦς
φάλαγγες
κύκλα
ὁδούς
κοσμεῖν
λόφῳ
προσέταξαν
ἐρημίᾳ
προσαγορεύσας
συχνὸν
ἀμφισβητεῖν
κράτιστος
μέμνησαι
σύμπαντες
σύμπαντας
τροπὴν
κεκτημένοι
ἀνακρίν
παραπλησίαν
ἐζώγ
κείνων
παραινεῖν
πορεύεται
ὡμολόγησεν
διδάξας
παρασχὼν
πέπλον
ὠνόμασαν
προφητεύ
πάγον
ἀμετα
ἀμετά
σπουδαῖος
ἐμπόδιον
προφήτας
Κριτίας
Συρακούσ
παρίστησιν
ἀνατολῆς
ἀποδειλι
Ἀστύ
ὑπηρέται
στήλῃ
ἐγενήθη
ἔφευγεν
προκατει
Ἁρπ
στυγν
Κτησίας
ἐπιτηδεύειν
σατράπας
φλεβῶν
Αἰνείαν
ἔλεγχος
πολυτελείας
εὐφημίας
διαδοχὴν
τέμνει
λουτρὰ
ἐστρατοπέ
ἐσπουδά
βακχεύ
σφέτερον
βουλευσάμενοι
κεφαλαίῳ
Καδμείαν
θήλεια
##τάφιον
ἄσπετον
ἀναγνώσεται
πειθαρχεῖν
ἐνθουσια
θεσμοθέ
κὰδ
ἀνέκαθεν
Βελλεροφόν
10
ʽἐ
Δανι
ΕΠ
ΗΔ
ΚΖ
Σαυ
βάν
γρ
γάν
λισσ
μνα
τάρ
χλαν
ψοφ
ἀήρ
ἐώ
ἐρικ
ἐόντι
ἠργ
ἤιε
ὀσ
ὅμορον
Ὁκόσ
Ὑπ
ὥρη
ῥωμα
##ττας
##δήσας
##ωπι
##ξοδον
##ῆμʼ
##σιαι
προικ
ἐντί
ἐνδιδ
εἰκότων
##ηνεγ
ἀνῆ
προδοῦναι
μεμά
##σαμένην
ταριχ
##καϊ
##τοντο
ἐπιφα
ἐπιθεὶς
ἐπιστεύ
ἐπιπλέ
ἐξορμ
συνίστασθαι
συνιδὼν
##άρους
ἡμικ
στω
στίλ
στρεφ
##μολόγ
##στελλ
ἄντα
##θεμένη
δέχ
δέλε
προσλαβεῖν
##τρέχειν
περιαγ
περιγραφ
##πατον
καλάμ
λαθρα
##ξιμεν
##ίκη
##τοῦτο
##ραντο
πολυσ
αἱμορ
μεγά
##μευ
##ξαντι
##δειον
##ευόντων
μεταβολῇ
##δόασιν
##κλεις
αὖθίς
ἀπέβαλον
συνεμάχ
ὑπερδεξ
##μαρτή
ἡγούμην
##ήρως
##ρήδε
ἀνέμους
##αμίαν
##μαχέ
εἰκών
##φυλακ
ἀπόρων
διέξει
ἐξεπλάγ
ποιητήν
ἐξέπεσον
##βαίνοντα
ὑγρῷ
ῥητῇ
θανάτους
ξένια
Ἀθηναίοισι
ἐσθίων
ναῶν
##λοιπ
ἐνέδραν
γινομένοις
Λεπ
διαλῦσαι
ὀρφ
ὀρνέων
Ἀθήνης
##ώσκει
ἀπειλη
##πής
ἀγνοεῖς
ἀναστρέ
κυρίοις
θυσίαι
ἰσχυρὸς
##τώμενον
Μεγακ
ἐπιστήμων
κριὸν
Ἑλληνικὴν
φάσκοντος
φερόμενοι
μνημονεύων
Μελι
Μετέ
οὑμὸς
##ενεχθέντα
βελτίστου
γεγονότι
θεωρῆσαι
πειρῶνται
κειμένοις
ἑωρακέναι
κάρηνα
χρωμάτων
ὁρῶσα
##λεῖφθαι
στέρνον
ἴσχυσαν
Πομπηΐῳ
λίμνας
εὐδαίμονος
Εἰρ
προσαγορεύουσιν
φάλαγγας
χοίν
τόλμα
βαθείας
εὐνοϊκῶς
γεγόναμεν
χολὴν
ἐντολὴν
μολὼν
##άσιμον
##φηνεν
Σαβίνους
ἱππεύειν
ὁκόσοι
Ἡρακλειδῶν
ῥόδα
προστάξαι
συκοφαντῶν
ἐπῄνουν
ἀσπίδων
Δήμητρα
Ἰσραὴλ
διεξιέναι
##ηνέχθησαν
μειρακίων
ἥττης
λευκο
ἤλασεν
παραλληλε
ἐδίδαξε
καρτερὸν
Σπαρτιάτης
γνῶμαι
φιλάνθρωπος
ὄνειρον
Ἀνδρομέ
ὑπεναντίους
βάλεν
ἡδίω
Χοσρόην
περιπεσὼν
ἱκετεύω
διαφοραὶ
ἐπιφανεστάτων
διοίκησιν
ἄλογός
Ὀρφέως
Ἐλεάζ
πεντακισχίλιοι
λείψανον
ὑπαίθρῳ
τρεψάμενος
Ἑλλησπόντῳ
πεπόνθασιν
τοσαῦται
Θαλῆς
Κέρκυραν
εὐφραν
Μαρκίου
ἀνέζευξεν
περιοίκων
ἐμμελῶς
μητρόπολιν
δύσκολον
κακοπραγ
τεσσαρεσκαι
Αὐγούστου
ὥρμηντο
τοιγάρτοι
ΑΝ
ΖΑ
Καρκ
Μαλ
δρε
χρι
ἄξειν
Ἀμύ
Ἄϊ
ἔλλει
ἠμέ
ἵκηται
ὅκου
Ὀρθ
ῥῖψαι
Ῥόδου
##τται
##εὐ
##αἰ
##υλα
##φαρ
##ίνεται
##θαλ
##θείσας
##ῷν
##ζου
##ὲξ
##ΠΟ
##35
ἐπόμ
οὐσίαι
##μένʼ
ἀπρά
ἀνήλω
##ριτος
ἐκοινών
##ρίῃ
##καίων
##αρτυ
##τημο
ἐξαιρέ
ἐξαίρε
ἐξόπι
συνὼν
συνῆγε
διαθ
καταλάβ
κατασκοπ
##άλυ
##κοψαν
παραγεγον
##ποτέ
##θρυ
βαφ
##τρό
ἐμβα
αἰθερ
##υσάμενον
τοιῶνδε
πεπό
κευθ
##ρωτῶν
##γοντος
##ισμὸς
##θέμεθα
κακῆς
##κειμένῃ
ὑποτε
μεταβολήν
συγκείμενα
##άλλεται
ὁμοίῳ
πολιτικοὺς
##σσουσι
ἱεροὺς
ἱερεῖον
ἱερέας
κοινά
ἀπέδοτο
λαβόντων
κόρυ
βοᾶν
##τυχε
σοφοί
κρατῆρα
τοσάδε
ἀρσεν
οἵῳ
σχοιν
φρονήματι
σκῶ
σατυ
δολι
##βαίνουσιν
γιγνομένους
##πεσόντες
ἐκέκτη
μαντικὴν
λαμβάνοντα
πολυάν
οὐρανοῖς
τοσαύταις
ἐλθόντων
##τροπα
Σικελῶν
ὀξὺν
ὀξύτητα
θέλοι
καταστήσασθαι
##στικὸς
κατάληψιν
παρέχουσι
ἐλευθερία
πεδίοις
κλίνας
ἰδιῶται
ἔλαχον
πεντακοσίας
##δρομος
##γένους
ὀλιγοχ
προστυχ
##ριζόντων
νεανίαν
ἐλέγοντο
εὐδαιμονία
παντοίας
Ἑρμῇ
ἐάνπερ
##βετʼ
ἀφανοῦς
ἀπολογίᾳ
Σελευκ
##ενεχθεὶς
ὠφελεῖσθαι
παρανόμως
φιλοτιμίᾳ
τοξο
ἀθανασίας
Θήβης
πεῖρα
ψήφου
Καλλισθένης
ἀποφαίνων
προσδοκῶντες
θήρα
Πελοπίδας
ἐμπρη
ἀμυνόμενος
##δάμαντος
ἀργυρό
ἀργυρᾶ
##βάλοι
ἐδεδί
νεανίσκοι
αὐλὸς
ἀνόητος
ἔπαθε
φοιτῶν
σέβειν
θεραπεύοντες
ἀμαθίας
Σερτωρί
ἀφείλοντο
##ΙΣΤ
ἀσπὶς
συνεστήσατο
Παλλάδος
ἀπήντων
ἐπολιτεύ
ἥρωες
ἐπιπέδων
Τιμόθεον
μελετᾶν
κανόνα
αἰδοῖα
χιλιάρχους
ἑσπέρ
περιφερείας
προεῖπε
ἐγχειρι
ἰατρικὴν
ξεῖνον
ᾠδὴν
ἱδρύσατο
κακουργεῖν
Δωριέων
φθεγ
σάλπιγγι
ποικιλ
Σαλώ
Νέρωνα
προστίθησι
φλέβ
ἐλευθέριον
ζητεῖτε
παρηγορ
θαυμάσιον
Νύμφαι
##σιάδης
παιδεύειν
Ὀρφέα
ἀκίνδυνον
δριμὺ
Ἀκαρνάνων
φόρμι
##οὺλ
##στρατοπεδεύσας
σπαργ
Ἀρίστωνος
σκαφῶν
λόγχην
ἀπροσδοκήτως
Ἀτρεΐδης
ἠμφι
Φαρνάβαζος
Κύκλωψ
ἐλύπει
προσεδόκων
ὑποσχέσεις
πρύμναν
Ποπλικό
Ἵππαρχος
πρώτιστα
βλεφάρων
θεμιτὸν
Ἠριδαν
ἐπίφθονον
εὐμαρῶς
τέτακται
Θερμοπύλας
ἐπιείκειαν
Λεύκολλος
τιταίνων
ἐναλίγ
εὐαγγελι
οἰκοδεσπο
Γλώσσαις
ΚΑ
Καθ
Τλη
Φενε
αἲ
βέν
γίγ
κτεῖν
λῷ
σός
φό
χέων
ἀετο
ἀεθ
ἁλύ
Ἀππ
ἐτύχ
ἑοῦ
ἑτέ
ἔθεσι
ἕλος
ἠσκ
ἥσ
ἰάμ
Ἱμερα
ὀισ
ὁρίων
ὗν
ᾤκησαν
##οτέροις
##δοιο
##ῖπτον
##ίτου
##φαινε
##ωτέρων
##ψόμεθα
##θνή
##θῶσι
##χνη
##ᾶτʼ
##ΩΣ
##ῴων
καμά
##ουρ
##τομαι
##ενακ
##λλίου
##τιόνων
οὐσιῶν
οὐτιδαν
##μασθαι
ἐνοπ
ἐνενό
πατρο
##λεγε
τεμένη
ἐκλεκ
ἐκφέρει
ἐκωλύ
ὑπά
προτὶ
ἐπικαι
ἐπιβολαῖς
##αρρη
ἐξῄεσαν
##ομένω
##οῦντʼ
εὐη
εὐκαίρως
##ήνιον
ἀγέ
καταβο
καταστήσαντες
παρασι
παραλύ
παραχωρεῖν
προσῆ
προσκατα
ἐμμέν
ἐμίσ
ἐμβό
ἐμβεβλη
##μάζειν
##πασιν
ἀφεῖσθαι
##μιξε
συμβάλλεται
καλή
ἀκραι
ἔφαγ
παννυχ
νεφῶν
δοκοῦσί
μεταμέλ
μεταπεμπ
##θιοι
##λογεῖν
##σμου
##σσόμενος
οἴστ
##υρίδας
##ειδὴς
##αῦτα
Κατι
Καρίαν
πρόβατον
ὑπερβάλλειν
τιμᾷ
##οῖσδε
κατέστρεψε
ἀδελφῇ
δεινοὺς
ἀντικατα
εὔκο
γράψαντες
##ττοντες
ἐπέστειλεν
γνώσῃ
σχολα
θηλυκ
ἀνάγκας
##άκῃ
φρονήματα
τύχοιεν
ναυτικῷ
διέκειτο
δίκαιός
κομίσας
πατρίς
πείσονται
##στάτας
##ρίζοντας
##τρεχον
χαλκεί
Ἀλεκ
πολιτευμάτων
##κυλί
ὁπότερον
σημείοις
Ἀχαιὸς
ἐναντίος
χαλεπὴ
##ύσων
δίοδον
βραχείας
βραχέος
##τροπον
λαμπρότητα
κεκλή
διόρθ
νοτι
λύκοι
ἔμπρο
ὑπέστρεψεν
φορτία
ἔδωκας
ἀνάστασιν
κρείσσον
χείλεα
πύργος
διαπρεπ
συναγαγόντες
ἀείρων
εὐδαιμονεῖν
##ττομένοις
##λαντο
Αἴγισθ
δεσπόται
ἐτείχ
παιδίσκ
##νυτο
πλεονέ
σκεπ
ἐμέλλ
ἡμερέων
ἐραστῶν
χιλίαρχοι
γενέσει
διελεῖν
##έβηκε
πεποιημένοι
ἐπιβουλήν
Φρυν
ἀθανάτους
πεποίηκας
τραχὺ
Διόνυσε
κουφο
λόφους
##ώδεϊ
Κάσανδρον
προσδοκῶν
μαλακῶς
πίνοντες
Ἐπιδαυ
μέμνησθε
τέρψιν
ἀποκρίσεως
δυσχερῶς
χορηγίαν
##καθάρ
παριὼν
Ὀλυμπιάδι
μοῦνοι
Τρωσὶ
σφαγὰς
ἀσπίδι
Ὀλύμπῳ
συνάψας
Σύλλᾳ
μαρτύρια
##νῃσκον
ἀληθινὸν
Ἀμαζόνων
κεραυνοῦ
παραιτη
παραιτεῖσθαι
ἐξανέ
ἀποτελε
ἐπήγετο
ἀσπασάμενος
λαχεῖν
Φωκα
πεντεκαι
Ἰνδικὴν
ἀτρεμ
ἀκατά
ἵστασθαι
##κόσιαι
τούτου
ἔννοια
Φοίνικας
ἐπολέμησαν
κεφάλαια
Γαλιλαίαν
Περσικὸν
ὕπερθε
παιδικὰ
πολυτελῶν
σάλπιγγος
κεῖθι
ταλαιπωρίας
διενοοῦντο
περιττὰ
Νικόστρατος
διείργ
ἰσθμὸν
Ἀντιοχείας
Τιγράνης
ὤμοσεν
πλάσμα
Παρθυαίων
στήθεσσιν
Σικυωνίων
χροὸς
διδόασι
ὀϊζ
ἐπεδείξατο
φλυαρ
παράσιτος
Νουμήν
ἀκάνθας
Δεκε
ἕβδομον
ῥυπαρ
καθύπερθεν
προμηθ
πριάμενος
ἡσύχαζον
##ράμμῳ
ἀπάνευθε
καθείρ
ἐχαρίσατο
ἤχθετο
Ἰωσήπου
μούνη
ἐδυσχ
ἔξοχα
Κιλίκων
ὑπόσχεσιν
ἐπίνειον
ʽκαὶ
Δρυ
Δαμ
Κέκ
Μάλλ
Συρ
Τορ
Φώ
Φυλ
δόντα
ποντο
σολ
χέρα
ἄκαν
ἄλει
ἄσυ
ἐταρά
ἔθʼ
ἔμεινε
ἔμενεν
Ἐρω
Ἐφιάλ
ἠτυχ
ἥκοι
Ἠπεί
ἰλύ
ὄλω
ὤμν
ὤπασε
ᾔδη
ῥομ
ῥόπ
##τμή
##ρωρ
##υσθαι
##λότα
##άσεων
##όος
##δάν
##ύγε
##φω
##ψωμεν
##θοντα
##θῶμεν
##γλώ
##χόμην
##ξὶ
##ώμασιν
##έξαν
##ταῖοι
##τοῖο
##αιτή
##τετε
##λλι
##όνη
##μαζον
διῆλθον
##σθήσεσθαι
ποτι
ποτά
ἐκβάλλει
προπό
προκρι
μεμαρτυρη
ταῖ
##σαντά
παρεὶς
κατῴκι
ἀποτυγχάν
##ράμβ
ἐξέρ
ἐξισ
στήσας
πολλο
διακείμενον
διαλιπὼν
διακείμενοι
καταληφ
ποιησόμεθα
ἄνθεα
δέω
προσέρ
προσδι
προσάπ
προσωτέρω
##άσωμεν
ἐμά
ἐμπεπ
ἐμισθ
αἰτεῖ
##έλοις
##υσά
##υστος
τίθει
δεηθῆναι
ὑμέων
πεφρον
μάθησιν
ἀνατείν
οἰστ
κελα
κεδν
##αθον
##ώπου
##αῖσι
##αῖσιν
μένουσιν
δυνά
δυνήσεσθαι
δυνηθεὶς
##χθοντο
φύσιος
##θιζ
συγκλη
##ξεσθε
ὑπερφρον
λαβέ
τιμώμενον
κόρακας
ἄρκτου
φέρʼ
##υπος
φιλοχρη
βασιλείας
μόναις
##λειφθῆναι
λεληθ
σοφιστοῦ
ἀληθεῖ
υἱέος
δυναμένης
ἐσώθησαν
ἐγέννησε
ἀνεπή
ἀνεχώρησε
ἡμέρῃ
ἔπινον
τελευτῇ
ἀδικούντων
διέσω
##ρίζοντα
παράδοξα
πλεκτ
##ειλάντων
ὁμολογῆσαι
ἑκὰς
##ττόμενα
σημείῳ
γεγυμνα
τροφῶν
τροφὸς
προσαπο
ξυμφέρ
ἐπαινοῦσι
Ἀργεῖος
Πατρο
θέλοντες
##στικῇ
##μίς
μέλλομεν
κοινωνίᾳ
##ιδόντες
καθαρόν
γέγονα
Ἀρχε
ἑπόμενα
στομάχου
Γαδεί
μετεωρί
πάσχοντας
πολιορκούμενοι
Ὀδυσῆος
ἑταίρα
βωμόν
εὕρισκον
μηχαναῖς
συμπάντων
ἠνία
ἀφανεῖς
βασιλικῶς
σκέψιν
ἡδέος
ἁλός
γενεὰς
γενεὰν
προσηγόρευσεν
κειμένου
τολμᾷ
Χαλκη
Χαλδαίων
εὐεργετεῖν
ταραχὴ
##ψυχος
ἀποστερεῖν
Πελλ
ἄτοπα
ἀσεβῶν
εὑρίσκειν
ἑωυτῷ
κἀκείνου
τετάρτη
##τομίας
ὑποστῆναι
κἄπει
ἀποδείξεως
προστασίαν
διενεγκεῖν
προσελθόντες
ἀκρασίας
ἐρεθ
Πελοποννησίοις
##πάτωρ
ῥόδον
ἀμαθεῖς
ἰχθύσιν
παραστῆσαι
ἄρρενος
Βακτριαν
ἀμύμονος
διαιρεῖν
μαγει
Ἀρκαδίαν
θεράποντα
Σελήνης
στρατιωτικὸν
κῶλον
πυρετοὶ
τανύ
πυραμὶς
ἠέρι
Ναυσι
Ἀπολλωνίου
παλάμῃ
ἀναγκάζονται
ἐδείπν
φείσασθαι
Τηλέμαχον
Λουκού
ἀγωνιζομένων
νεύρων
παίδευ
Στρατο
ἐπειγόμενος
Συρακουσῶν
πτολέ
##φυλάκων
πνεί
##στρατοπέδευσεν
ἀναιρεθῆναι
ἠκολούθει
ἑτοιμ
Εὐμενὴς
ἐλάσσονα
ἀφῖχθαι
ἐδημηγ
ἔκτισαν
κατηγόρουν
ἀνήκεστα
οἴδατε
Κλαύδιον
σκηπ
ἀπέφηνε
Πείσων
Κόλχων
βιότου
ἐγκέφαλον
Μέτελλον
τἀδελφῷ
Τραπεζ
Ἀργείοισι
αἰφνιδίου
τίθεμαι
Ἀμβρακ
Πεισιστράτου
Ὀλυνθ
ἀπεφήνατο
Κεφαλλην
ἐπινίκια
σφόδρʼ
Σαοῦλος
ἐγγένηται
ὀλισθη
σαββ
κατεστρέψατο
Ὀσίριδος
κροκοδεί
Ἀλεκτρυ
Δύ
Δαν
Λαι
Παλ
Φέρ
δᾳ
δρύ
κεύ
λίνου
μόρ
ἁψάμενος
ἄρο
ἄβατον
ἄλοχον
Ἥρᾳ
Ἰδοὺ
ὅμ
ὡδὶ
##έριος
##ρέ
##ρξε
##όοιο
##όπωρον
##σγ
##σμένου
##σμασι
##σκιον
##θέν
##θαρος
##χω
##ῤῥ
##έννης
ἐπέρχεται
##λεῦ
ἀποι
ἀπλη
ἀπωθ
ἀπόρους
ἐκθ
ἐκβο
ἐκπέμψ
ταξί
##σαντʼ
##λαλ
παρέ
παροῦσα
παροψ
ἐπιγεγραμ
##λησα
##στιοῦν
πόλον
##ράων
ἐξῃ
ἐξελθόντες
συνορ
διασκευ
ἀγκυ
καταρχ
καταπλ
ποιμν
ποιούμεθα
ποιήσουσιν
παραχει
παρατεταγ
##θεμένοις
οὔρεος
προσδια
ἐμπερι
ἀναπέ
ἀναβαίνειν
ἀκά
ὄνομʼ
ἀρχόμενοι
##μηθεὶς
##στοῖς
ἀμφότερον
τέκεν
##σσουσιν
##σσουσα
ἱερὰς
κοινολογ
##βησε
συνεχώρησεν
ὑπερβάλλον
τιμω
ἄρκτων
μιῇ
λοιπαῖς
Εὐθ
Εὐμένους
Εὐξείν
μάχεται
ἀπεδίδου
##λειπται
σοφώτατον
φανεὶς
##ηθήσεται
δυναστῶν
ἐσσι
ὀλίγης
εὔδηλον
ἔγραφε
ποιηταί
##τυφ
πράττῃ
##αβος
ὀργὰς
##στρατή
πυρκαϊ
ἱκανῶν
κελεύουσι
##χειρα
αὐτόχθον
##θής
βραχὺς
Ἀλέξαν
δεξιόν
βιασάμενος
##δραποδι
Ἀλεξάν
Φιλη
ἀγῶνες
τεκέων
##μνημόν
γράφοντες
πεπολιτευ
ἰσογώνιον
φράσας
μετεσχ
πάσχα
ἀναστῆναι
ἐλάττο
##ωθείς
##λεκυν
##τώδη
χιόνα
προειρημένας
##ριζόμενον
μαθητής
ὁποῖος
##θυμα
εἰδότι
διηγεῖται
τετρακόσιοι
κρίνει
πηλί
γλυκὺς
ἐρασθῆναι
ὀψέ
ἀπώλλυντο
βροτοῖσιν
γονάτων
καλέουσιν
σκηνῇ
ξίφους
##λευσάντων
φιλοτιμία
σχολάζειν
τἄλλʼ
φονέα
ξυγχωρ
##ρῶσθαι
πέτρᾳ
θαυμάζοντες
ἀσχο
Τυρρηνοὶ
κατορθοῦν
ψεύδεται
γενναῖε
κλύων
ἀτυχίας
θρήν
ἀλκῇ
νομίμως
Κεραμ
φυσικὴν
τράπεζαι
παρακελευσ
κατεσκεύασαν
προσπεσὼν
εὐμενῆ
παραδείγματος
προστιθεὶς
χιτῶνος
πτερῶν
διαστρέφ
ἀπίκοντο
ἀπεκρού
ἄγνοια
μηδαμῇ
ἀγλαὰ
πεφυκότα
κῶλα
ἀγάπῃ
ἐπεξελθεῖν
τετελευτηκότων
ξύμπαντες
ἐμποιεῖν
παλάμῃσιν
αἰχμάλωτος
πολιτευομένων
παιδικῶν
Σάρδεις
λουτρὸν
Πελασγῶν
προδότας
Παῦλον
ἠδυνήθησαν
ἐβοήθουν
ἀλύπως
ὀπώρας
##έλθωμεν
Υἱὸν
ὁμωνύμως
στίχας
συμβούλους
ἀναγράφει
βρώματα
μεγαλοψυχίας
μεγαλοψυχίαν
Τυνδα
Ἰφικράτης
ἐπικλύ
ὁπωστιοῦν
ἐοίκασιν
ἐπάλξεις
ἐπίτροπον
ἐπίτροπος
στρωμν
κλοπῆς
ὀλυμπιάδος
ζεῦγος
ἐγχωρίοις
Δαιδ
ἑκάτερθε
Πεισίστρατος
Ἰορδάνου
Σαμοθρ
ἐπίπροσθεν
Σκυθέων
ἄνθρωπός
τροπαῖον
σχετλι
Πραξιτέ
ὑποχειρίους
νυμφίος
ψῦχος
Φρύνιχος
Φαρναβάζου
βούλευμα
ἀνεῳγ
Ἑλλάνικος
##έγεθες
Γό
Δεκ
ΜΗ
Μνα
Μαντι
Νάξ
Το
Φλάκ
ζοφ
ζώνην
νᾶ
πταῖ
σακ
ἄπλη
Ἀαρ
ἐσταλ
ἐτέων
ἔωσι
ἔβαν
Ἐὰν
ὁδηγ
Ὀψ
ὤλε
ᾔτησε
ῥαθ
##υτοῦ
##ηλος
##δῆ
##δὴς
##σμένης
##σωνται
##μώνων
##ύσιον
##ωθέντας
##γῃ
##χοῦ
##ξωνται
##ἦν
##ουσίαις
##ραίων
##εῖμαι
##τισμα
ἐπεύ
ἐποικ
ἐνεῖναι
διῆγεν
##λεσχ
##ηνό
##ηνοὺς
ἀπάτῃ
ἀνθέων
ποτηρίων
##ρισκ
##είλετο
ἐκχ
##υνόμενος
##άνησαν
κατῳ
ἐπιστέλλ
ἐπιπόνως
αὐτομολ
##κεσι
ἀποφέρειν
ἀποδέχεσθαι
πότου
πότερος
ἔχονται
συνευ
ἡμέων
πολλόν
##οῦντός
εὐξάμενος
διατελεῖν
διαβεβη
##σίῃσι
καταγραφ
θεάων
##στεύειν
εἴτ
##τίην
ποιμα
παραλία
παραλαμβάνειν
ἄνθεσι
προσεν
μητρί
##θημεν
καθίστησιν
##δροις
περιόδου
ἀφαιρῶν
ἀμει
ἀναδε
ἀκοῦσαί
ὄντʼ
##λλοντος
##άζηται
##άζετε
μέλε
κεκαλυμ
##ρέος
σφʼ
ἐλήλυθεν
##λεύς
##θέστερον
ὑποτοπ
##ρυτον
##ημέρ
##πέος
Ἀνδοκ
φύλλων
ἐκεῖνοί
πάλης
##υθον
##φαντος
##θοντος
χώματος
δύναμίν
ἀσέλγ
##λικοῦ
##δυνα
πρώτως
##λλαξε
φρονιμ
λοιπά
σκύλα
εὑρόν
ξυνα
ἀργύρῳ
πένητα
συμβάντος
συμβαίη
ἄκρῳ
##μέτρῳ
##φύρου
τουτί
κενῆς
Τιτ
ἐπιστρέ
##ιάδος
ῥᾳδι
σύνταγμα
Λυκίων
ὑψόθεν
ἐπισκο
ἀποθανόντας
ἰσότητα
Ἀρχι
Ἀρχιλ
##σσοντες
φυλακὴ
διδάσκοντες
φρουρᾷ
γυμνοὺς
ῥήματος
βοηθήσειν
χείλεσιν
κηδ
γέμον
κορύ
ἀσθενέστερον
ἐνιαυτοὺς
ἐλέγχων
συλληφ
γίγνωνται
κερδαλέ
ἀναλύ
γωνιῶν
λογισάμενος
σκεδα
ἠγανάκτει
τελευταίας
ὁμιλίαις
μουσικὸν
αἰδώς
Κελτοῖς
κάρτος
παρεσκευάσθαι
μετρείτω
Θεσμο
βέλτιστος
##ειπών
διεφθείροντο
τάφρῳ
Εἰς
παρρησι
Ἰωάννῃ
κῆτος
παραγιν
συμβουλεύω
##ησίς
ὑψηλὰ
ἐνόμισαν
ῥᾷστον
ἀτυχίαν
συμποσίοις
ἀξιώματος
Πύλου
ἑπτακοσίους
Τρωικῶν
ἄμυναν
συμβεβηκότος
ἐντολῶν
πέπαυ
Καλχη
Ἡρακλείδην
##φευγον
ἱκέτην
δραπέ
δημόται
δεικνὺς
Ἀλλʼ
ῥυθμὸν
θύρσον
τύπους
ἄπιστα
##μένου
ἐλάχιστοι
σέβεσθαι
Πιτ
μηδένʼ
λιπεῖν
ἀπόροις
Ἰσραήλ
Λέπι
συστρατεύ
ἡμίσει
συγγράμματι
ἀμφοτέροισι
Ἰσθμοῦ
ἐπιτιμᾶν
τύμβος
Ἀραβίαν
εὐπρεπῆ
ἀγαπητῶς
Μαυρού
παρεστήσατο
##μνήσθην
πηλοῦ
Ῥωμύλον
ἐκπλήξεως
Υἱοῦ
ἐξαπέστειλαν
Τισσαφέρνην
νωθρ
παραλαβών
Φρύγες
τελείως
ἐλάφων
γούνατα
Τούτων
φλέγμα
πολιορκουμένοις
ἀτοπίαν
κατέλυσε
ἀνίσχοντα
ἐπιστάμενον
ἠναγκάζετο
Ἀνακρέων
Φαρισαῖοι
##μαινεν
ἀξιόχρεων
τμῆμα
κατεστρατοπέδευσε
ὀΐω
πρόσχημα
Ἀρίστιππος
Πουλυ
πρῆγμα
Λῆμνον
Κιμμερ
Τόξαρις
##τάχατο
Λέντ
Μύρ
Νάρ
Σθεν
Φιν
δμω
δῖαν
ζῆλος
κνέ
πῶμα
τω
χιον
χριστ
ἄμε
ἄκος
ἄτιμος
ἅλω
ἐβιά
Ἐλευθερ
ἠσ
Ἥλιος
ἴσχε
Ἰε
Ἰσσ
ὀπω
ὡρί
ὤρε
ῥεῖν
##έεις
##ττουσι
##ρρο
##ιτον
##λαντα
##δνον
##σκομεν
##ύμενον
##ίμῳ
##ψων
##γμασιν
##βὸς
##ᾶσδε
##ύν
##ῒς
ἐπί
διισχ
δισμυρίων
##λεγον
##ηνὸν
ἀπήγαγεν
ἀνῆκε
ποίῳ
##ριτῶν
ἐκπλ
ἐκαθέ
προῆλθε
##σαο
##σατέ
κατέγ
ἐπιόντος
ἐπιστρατεύ
##ληφε
χρήσαιτο
ἀπολυθ
συνέρ
διαβεβλη
##πεκ
ἀγόμενος
ἀγγε
καταπέ
καταστή
καταβαίνειν
##τίμη
ἄνισον
##ρησα
##τέρι
##μάζων
##υσσε
περιό
περιβαλεῖν
γεννω
συμμέτρ
ἀνακα
ἀρχαῖος
σφῷν
##τοῦσαν
##λείῳ
##μεθ
νεφέ
ὑποθ
ὑπολαβόντες
μεταδοῦναι
ὁρμαῖς
Ἀντα
Ἀντικ
##πανταχ
φυτοῦ
αὖθʼ
Καπαν
ἄγω
μαρα
φιλομ
##ογρά
##ωπλισ
##κέες
Περσεφόν
κρατοῦντας
ἀρξάμενον
δυνατοὺς
ἐσομένους
##ξωμεν
ἐπέεσσι
##σθενες
συνέστηκεν
παρεσχ
πουλυ
ξυναγ
ἀπόδος
χεῖλος
χειρουργ
ἀναγκαζόμενοι
##φεσαν
παράδοσιν
μανι
τυρὸν
ὁμολογούμενον
πλήθεσιν
συμβεβ
ὑπάρχοντας
Ἀθηναίου
οὐδέτερα
Σαούλου
ἐπιστρέψας
διαλυθ
##μίξας
σύνδε
πέμπτην
κατασκευαῖς
##τάνων
ἐπείθοντο
ἀπειργ
ἡμετέρῳ
φρουρῶν
κολάσεις
ἀπιόντες
κρίναντες
Μηδίαν
ἐρατειν
τιμωρίᾳ
ἀπώλεσαν
καταφρονῶν
βροτοῖσι
δυσχρη
παραγενόμενον
ἐλπίζοντες
πλευρὸν
κειμή
μῦς
##φρόνων
ἰατρός
##φυρος
ἐνεργεῖν
ΑΓΒ
##καλέσασθαι
Πευκ
ἐνθυμούμενος
τεταγμένων
ἑξακόσιοι
##τέλεστον
Ποσειδῶνα
ἀγανακτῶν
στερεοῦ
Σκύθαις
ὑποστρέφ
ἄποθεν
ὡμολόγησε
ἐκάθευ
νύμφῃ
κατέχων
αἰνὸν
ἐπιμέλεια
ἱκέτης
ἀφροσύνης
ἐρήμην
##φόρῳ
πολλαχῶς
φυσικὸν
σάρκες
Θέτιδος
Ἔρωτι
ἀνατολὴν
πολιτεύματος
##πηδήσας
ἐπιγραφὴν
Ἀμφιτρί
##γινώσκειν
##κλιναν
ὡραῖον
Ναξ
Ἁρμό
ἀποδιδόντες
αἰσθάνεται
Παυσανίαν
παρατάξει
εὐρὺ
ὠδίνων
ἀσφαλέστατα
ἦρξαν
εἰργασμένον
καπνοῦ
Μάγνη
Ἡράκλειαν
ἀσελ
τέμνειν
ὀρεινὴν
σπάνιν
ἀπεῖπε
περιττῶς
βουκόλος
Γεωργ
διαλλαγὰς
διετέλεσεν
παράσχοι
##κράτεια
ἔσπευδε
ἱερα
ἐνεστώτων
ἀναστρέφειν
Χάριτες
καταλόγῳ
ὀμνύ
σύριγγα
ἐπέστελλεν
παράνομον
Ἄρειον
Σερουίλιος
ἐξαρκεῖ
κραιπν
Σπαρτιάταις
ἐφθέγξατο
δερκ
ἠμείβετʼ
θρεμμάτων
ἀνάπαυσιν
ἄλυπον
τεκμαιρόμενος
##κηρυκεύ
ἄχαρι
ἐπίστευσεν
Ἰωάσαφ
Ἀττάλου
ἐνθύμημα
Πινδάρου
Αἰθίοπας
ἀβελτε
##λευθέρων
ἔντευξιν
τοξοτῶν
Γίγ
Θρή
Κν
γαυ
δμῶ
λημ
πώς
τλή
φηγ
φόνων
χοῦν
ἀρύ
ἀδοκ
ἄμου
Ἀταλ
Ἄδρα
Ἄνυ
ἐῶν
ἕπε
ἕξω
ἠθροι
Ἤπειρον
ἴῃ
ὀρί
ὁσίων
ὄστρε
ὅροι
ὕστερος
Ὧραι
##ττουσιν
##λᾳ
##ημά
##όωσι
##δοῦς
##μόρ
##ψηται
##ῆρες
##άτων
##ὼβ
##ύειν
##ειμ
##ρασαν
ἐπέχει
ἐννα
ἐνάτῃ
διωρισ
ἀπαυ
ἀπειρ
ἀνέ
##ριαι
##ρίτου
προσθε
προεξ
προπηλακ
μετη
##λικι
##ικάς
##ικάδε
ἀποκν
ἀποσβ
ἀπογόνους
συνθέσθαι
εὐγνω
εὐπειθ
##ήσομαί
διαθέσεις
διαβάλλων
ἐγχώ
κατασφ
καταστάσεως
##υγα
ἄνισ
δέδοκ
προσεῖναι
τίπτε
περιή
##άγια
δεδέσθαι
##παῖ
ἀφίημι
ἀναπει
ἀκμῆς
οἰομένων
##ῦνον
ἔφθει
##οίδε
ἀρχαίου
μέθυ
ἐφιστ
ἐφυλ
ἐλύπ
τόδ
μένοντας
##λείσθω
##ισμῷ
##ακτον
##ρουμένην
φαίνῃ
##τανεν
πρῶται
οἶν
ὑποτείν
##πτόν
##σειδον
##στηρίῳ
ἄνδρε
φύεσθαι
##λουμένην
Αἰσον
##αινομένης
πολιτικοῖς
##δέας
##κλεια
ἐχέ
ἐχόμενα
κατεφ
νομιστέον
ἄρρην
##υπτο
φιλότητος
κατέπλευσεν
ἀκούουσι
ἐπίπε
##ασάντων
##ότητες
συῶν
δεινότητι
Θεοκ
Θεοδώ
ἐσομένης
εὔπ
πατρώ
##εβάλ
##ότατʼ
##πωμεν
μακρότερον
ὅλους
ἀπόλ
πλέοντας
ἐξελη
##χανόντων
ἐξέστω
δοθὲν
χαλεπό
λέμβ
πίθον
παράκλησιν
μανία
βασιλῆα
παλαιοὺς
γεγηθ
ἐλαφρο
γέγραφε
νικῶντες
φίλιον
ὄψων
θαυμάζεσθαι
ὑπόθεσις
αἵρεσις
##πτοντος
κέαρ
Ἡρακλείας
καταστάσει
##στικός
ῥᾳθύμως
τυγχάνοι
πέμπτος
σαφέστατα
μαχιμ
##ήθητε
ἀποθανὼν
##δήποτε
εὐπραξ
ἐπαγγει
ἐπιφανὴς
βωμῶν
στενωπο
λευκὴν
κατηγοροῦντες
ἐλέγχει
ἐλεεῖν
ἠνορέ
βελτίονος
ἐραστὰς
ὀψι
ἀπώλεσε
προσιὼν
Νεμ
γενεῆς
βόστρυχ
ἐπιτρέψας
Αὐτό
θρασέως
Ἀμμαν
##λοίπει
αἰσχύνη
ῥέοντα
Δελφούς
σύγκρισιν
Μήδοις
εἰργάσαντο
εἰργάσθαι
##όωντι
γιγνώσκει
##ώδεος
ἀρκούντως
ὁμοιο
ἀθρόα
κολακεύειν
Ὀλυμπίασιν
ποικίλως
Ἐνδυμ
σκληρὸν
ὑπομένει
Μωυσῆν
ψῆφος
ἕτοιμα
Τρωγ
διοτρεφ
κλήρους
Ἑβραῖοι
Ὀλύμπιον
ἀπολέσας
μελέτης
εἴασαν
κονίῃσι
ὄρεος
ἐγκαταλεί
τηνικάδε
τοιγὰρ
μεγαλοπρεπέ
ἥττους
##οειδῆ
μαγείρων
φοινίκων
βασιλείου
Θερσί
ἡμίσειαν
ἐγείρει
ἀναίσχυν
ἐπολέμει
κηδεμον
ἀπαθῆ
ἀπέλυσεν
ἐπαναστ
##όγονον
Πίνδαρον
δυσχεραίνειν
δωρει
μακάρεσσι
Μαντινεῖς
τάγματος
προελθόντι
πηλῷ
φοίνικος
διαφοράς
ἡμετέρης
πελταστὰς
κᾆτʼ
καταλελειμ
χείρονος
Λυσίμαχον
Ἰθάκης
γαμβρὸν
ἀναλογίαν
Οἰδίπους
Ἰλλυριοὺς
ἀπαγγέλλειν
ἐνέπρησαν
κεκλῆσθαι
Κερκυραῖοι
μάντεως
Συμπο
ἐκφυγεῖν
μεσογαίᾳ
Λυγκεὺς
ἀλφίτων
Περσίδος
ἀναμιμνῄ
ἐπιλέκτους
Εὐβοίᾳ
ταλάντοις
φιλοτιμου
χαίρετε
κεκόσμη
Θεαίτητε
Σατύρων
τοὔμπροσθεν
ἀκριβο
Περίανδρος
ψήφων
βάσκαν
Δοῦρις
Ῥήγιον
Ἄβυδον
ἀναγεγραμ
Δάρ
Δωρ
Κού
Μνή
Σπι
Τελ
Τοῖς
Φό
βρι
γαρ
κυμβ
μύσ
φυκ
ἁψ
ἄφρων
Ἀλω
Ἀσπ
ἔλει
ἱρὰ
ἱστὸν
ἱλάσ
Ἰδαί
ὁδε
Ὀκτά
ῥοῦν
ῥόδων
##ιμώ
##ητόν
##πίου
##δουσα
##σώ
##σὸς
##ύρας
##ῖδι
##ίσει
##φοις
##ίκα
##χολ
##ξη
##ήλιον
##ζόμεναι
##ΡΙ
##έα
##ταρον
##αιτο
##οισί
##εῖτό
##όντε
διφ
διέρ
παίει
##λεῳ
εἰλ
ἀπλή
ποθὲν
μετεῖναι
ταγμάτων
##δεες
ἐπιτο
ἐπιλεγ
ἐπιγνώ
χρήσεσθαι
##τησας
πόαν
ἐξομοι
ἔχαιρε
ἔχαιρον
συνόντες
διαπέ
διαγεν
διατειν
διαθέσει
διαφόρως
ἐγγενέσθαι
καταπεπ
καταμανθάν
##τίδι
##λοίη
##κοποι
##λίζετο
παρατηρ
##θεοι
##ῖντο
προσβάλλειν
##δαῖος
##όμβ
##υσέ
καθειστήκει
δελε
δεόμενα
##ύνθη
λαλι
##γνωσιν
τάξας
ἐλπι
τόλμ
##γοντας
ἑαυτὰς
οἰκείᾳ
##βατος
πέλεκυν
##λήσαντες
μετανα
συγχέ
ὁμοφύ
Ῥωμαϊκῶν
##ξεω
ἱερέως
φυτοῖς
χώματα
χώρει
τιμώμενος
δύνασθε
φιλτάτων
κἀπι
διεχ
διεγνω
φιλοστοργ
Εὐσεβ
πιμελ
ἐπίπεδα
ἐπίπλουν
ἐπίσημον
Περγα
##τυχον
σύρ
σύριγ
##ότητά
##ότητός
δεινότατα
##οπλι
##φοράν
ἀνέρας
##λυσιν
ὀρθόν
##τειραν
νέμων
ἐρει
προσεύχ
κρείων
Ἀγχ
Ἀγαύ
λεγούσης
νομίζοντας
##μάχη
κυπα
##ήγειν
##ψακον
μυθεύ
##όχρο
νικῶσιν
ἐσθλὸς
Ἀλκέ
κενόν
μετέσχον
κεκοινων
ἐρωμένην
Σαοὺλ
γαίας
γαμη
##βούλῳ
##μαντο
παρέχουσιν
##άτωσαν
τύπτειν
κράμβ
ἀκριβὴς
εὑρήσειν
γράφουσι
ὅρκου
ἀκροᾶσθαι
##κριται
φρουρίων
ἀναστρεφ
δαϊ
ἡσυχάζειν
βλέψας
πανταχῆ
πανταχόσε
δακρ
σεμνότερον
ἐπιστήμας
καρποῦσθαι
Ἱερώνυμος
ἀδύνατόν
Ἑλληνικοῖς
Φιλίππ
κάπη
ἐδάκρυ
ἐσχηκέναι
δράματος
ὄχλοις
ἔσπει
οὑν
ἑορτὰς
ὑμετέρους
λυπου
δεσμοῦ
ψευδόμενος
ἄνακτι
##ληφέναι
παύσῃ
ἰδέαι
κεραμε
Σκή
##λενος
ξενίαν
πρωτείων
ἀπήλλακ
ἀπήγγειλεν
ἀνήκο
συγχωρῶ
διαφερόντων
ἁγίῳ
Κορύ
πύργου
ἁρμονία
ἀναιρεῖσθαι
ἑωυτὸν
πρόσφορον
κεῖνα
ἀποφήνασθαι
Εὐρώπῃ
ὡμολόγουν
Ξέρξῃ
ὑπακοῦσαι
Πηλέως
Κυρήνην
παρήγγειλεν
Ἀβύ
Πολύστρατος
πομπῆς
συγκλεί
γραῦς
##θησόμενον
προσποιούμενος
λαιὸν
εὐμενὴς
θησαυρὸν
ἀτιμίας
ἁγνὸν
εὐφυῶς
ψηφίσματι
ἐναργῆ
φρένες
δεδεμένους
ξύμπαν
Ζήνωνα
πεπειρα
αὐγὴν
αὐγὰς
Χαλκιδε
##πέμπεσθαι
ὕποπτον
αἰγιαλὸν
Δάφνιν
##ομάχου
ξηρὰ
καπνῷ
πλευραῖς
εἰλήφει
Σάρδις
Πόσειδον
ὠκεανοῦ
Ἡφαίστοιο
ζηλοῦν
Ἀρεοπαγ
ἐτρέψατο
Σάμιοι
βρόχον
Φερεκύ
Ἰωνάθης
ἐπῄνεσεν
Ἁβροκόμην
Ἐφέσου
μεμιγμένον
διήρπασαν
ᾐτιᾶτο
ἥπατι
ἐπέστελλε
Ἰεροσ
##Οὐκ
Μέμφιν
κιβωτὸν
ἀπολώλε
ἐψεύσατο
δεδογμένα
καὐτὸς
Τιμάρχου
ὄβριμον
ὑπολειφ
Λεπίδου
ἠνέσχετο
ἐπάνειμι
##ήλυθας
Δίδυμος
Κολοφώνιος
Δέλτα
ἠνώχ
ἠμφιεσ
Ζέ
Λητο
γουν
δρώ
θρῃ
λεῖ
λυσ
λάχ
νούσ
σόφ
τῦ
τυμβ
τλῆ
φῆσαι
φθει
φενακ
ἀεν
ἄμαχον
ἄτρω
Ἀρή
ἐρασ
ἐτέλε
ἕξετε
ἠύ
ἠρί
Ἤλιδος
Ἥλιον
ἰδόντας
Ἰτύ
Ὀνη
ὠλιγ
##τλ
##ιʼ
##κεῖν
##οἰ
##μέγεθες
##ίμοις
##ζας
##ώπα
##48
##ὸξ
##ΑΜ
##ηνι
ἀνθύ
ποίους
##ριχον
ἐκδο
ἐκχέ
ἐκγόνων
ὑπνώ
προγεν
προγραφ
προῃρη
μετων
παρῆ
παρείη
ἀλληγ
ἐπιόντων
ἐπιλή
ἐπιδιώ
τιτρ
ἀποσταλ
πότερʼ
##ροῖσιν
ἐξέ
συνῴ
συνωρί
εὐξ
εὐγνώ
##ήσαις
##σταντο
διαμαχ
πάντεσσι
##σαιντο
##ρχίας
παραβεβλήσθω
προσφι
προσενέγ
##άσωνται
##τέροισιν
ἐμμεν
##υσίαν
καθέλ
περιβλέ
δεχόμενον
##κιμοι
ἀφίησι
ἀκάθ
ἀρχαίους
##θέντʼ
##ξια
##γεσαν
ἐφορμ
μήποτʼ
##ρέον
##μπλα
##ίζουσαν
δυνήσονται
##ρουμένης
Ἀθῆναι
##λήτου
γένυν
γένοιο
γένεια
συγγραμμάτων
##υρίας
ἀνδρείως
##υθείς
##κτὸς
##πίῳ
ἀπέπεμψε
συνεχώρησαν
μασχ
μαίνεσθαι
φιλῶν
ἀσπι
ἐπεκαλεῖτο
ἕκατι
ἀδελ
ἑτέρην
##όρης
σοφίης
##οπλον
##λυβ
ἐπέμφθη
τοιαῦθʼ
ζητήσεως
##ίστης
χρυσο
##οικος
λεγομένους
δυσεντε
δοθέντα
##καλοῦντο
ἐπανά
εἰδῇς
ἰδίῳ
συμβὰν
σημει
##ύσου
ἐσθι
ἐπαινούντων
χρήσεως
ἔδεισε
ἐνέδρ
ἐνέπεσε
γινόμενοι
ὑπόστασιν
##υφέ
ὀξύς
νεκροὶ
Κοΐν
τυχόντος
μοναχ
μονογεν
διώξεως
ἀπειρε
ἀπειλῶν
μυρίοι
ἀγωνίσασθαι
γυμνοὶ
εὐχερῶς
ἐπιστολάς
λάβρον
χείλεσι
ἰσχυρόν
σεμνότητος
κριθῆναι
προειρημένῳ
μηχανὴ
βλάβη
βλάπτεσθαι
ἀσθενὲς
πολύγωνον
ὄχλους
δούλῳ
ἀπολογήσασθαι
ἱδρὼς
μίσει
ὀχλη
ψευδῶς
##πτουσαν
προσιόντος
ἔρρω
ἀνθρωπείων
πειθοῖ
κρύπτειν
Αἰτωλίαν
αἱρεῖται
ἰατρῷ
θρασυ
Πανὶ
κλέπτειν
παρακαλούντων
βιβλίοις
ἤρθη
##λυθον
ἀποκτείνειν
γιγνώσκεις
Τελαμ
παθών
ἐλλογ
μαλακὸν
πίνουσι
σπεύδειν
διεσώθησαν
φαίνεταί
Ὀλυμπίου
ἐγκρατείας
ἀπολείπεσθαι
διορι
σφαγὴν
ποδός
ἐγεγόν
κροτά
περιβόλῳ
ἀληθινὴν
μοιχείας
κυρίου
πέρδι
Ἀβδη
ἄπιθι
κατεσκεύαστο
τείχεα
παραστησάμενος
κάλυ
ἀνυπο
Ἀμφιαρ
προσαγορευομένην
περιστάσεις
γήμαν
ἐπηρε
πινυ
περιπατη
περιπατεῖν
ἀφορμῆς
ἴχνια
εὐρὺν
ἀχθόμενος
αἰχμάλωτοι
ῥίζας
πρακτέον
Οἰνομά
ὄχθης
ἐνόησεν
πληθυν
πληρώσας
καθίστανται
ἔμφυτον
Βασί
ἀνείλετο
ἐσκομ
διχῇ
ἐπιπεσὼν
δρῶντες
ΑΒΓΔΕ
χρύσεα
Τιβερι
ψηφισαμένων
Σέξτος
ἀκηκοὼς
παρεγγυ
ὁλκῷ
ἐδυνάμην
συνοικι
Ἰσραηλί
ἁλισκομένων
Τιβέριον
ἐπίστευον
χροῒ
δυσαρε
πεποιθότες
ἐπιτροπεύ
σωματοφύλα
δύστηνος
διάλυσιν
Τεγέαν
ὁποῖός
βρέτας
ἱσταμένου
δεδοικὼς
ἰκμά
σκήπ
ἐγράφη
ἐχρημάτι
χλαμύδα
δεδουλω
Τρύφων
Ἀδείμαντος
ἀοίκη
ἀποτομή
δενδρ
φλὸξ
κατελύθη
Μυρτίλος
ἀναμεμιγ
κτύπος
βαναύ
διαμπερ
ἀνδράποδον
καρπαλίμως
Μετέλλου
Σαμοθρᾴ
Λέπιδον
ʼγὼ
Γραφ
Ζῆνα
Κάν
Λημ
Μειδίου
Νό
Πρά
Ποσ
Παντα
Σκο
Τῖ
βυβ
γηρα
δάμ
ζήλου
θά
θήσει
κό
κέλ
κυμάτων
πάσ
σέλ
ἀϊ
ἁπανταχ
Ἄμα
ἤχθοντο
Ἡλίῳ
ἰν
ἱέρα
Ἶσιν
Ὅταν
ὤφελ
##ιεν
##αίας
##υος
##κό
##ημένης
##ητὴς
##άδου
##σπι
##ῖκαι
##φίλου
##θοισιν
##γχ
##ᾶσθαί
##ΥΤ
##ΐων
##ἀλλὰ
##33
καμάτων
##ουχὶ
##οιτό
ἐπήγ
ἐνέ
διωρ
ἐκτι
ἐκκαλ
ἐκγόνοις
μελικ
ταὔ
##δεϊ
##τονα
ἐπιψηφ
αὐτοφώ
##κεσσιν
χρῶ
ἀποκτειν
ἐξῆλθε
ἐξόδους
ἔχρῃ
συναλγ
διαθέσθαι
διακειμένων
ἐγχωρεῖ
##ναῖος
κατατείν
καταλειφθ
εἴπας
##ρχοντο
ποιέει
παραπέ
παραβαίνειν
παρακού
παραπλέ
##τέτ
αἰῶνας
##μάκων
##νεὺς
μετάρ
ἀφῆ
ἀφειδέ
ἀμὴν
##δοσις
ἀναζ
ἀναβλέ
##λλοντας
μηδείς
μέτρι
##οκτον
ἐφρά
##υκτον
σφαί
##σκοις
##μπρ
##ίζοντι
μένον
οἰκεῖται
αὑτήν
μεταμελ
μεταδιδόναι
##πέων
Ἀνθε
τριήκοντα
Αἰή
ἱερείας
##κτός
ἀπέλαυ
ἀπέλιπον
βουλομένη
κἀμοῦ
ἀσύν
##κνυνται
βού
κατέκ
μόναι
##ρακὼς
##άρχας
ἀντιλεγ
##ταίῳ
ἀνεμ
εἰκόνων
φρονέων
παρεχόμενος
##δουλώ
λοιπῷ
πλῆθός
ξυνοικ
κοτὲ
διέφυγε
ἐξεῦ
ἔκλα
ἀργίαν
λεγέτω
ὀργάνοις
πείσομαι
ἀναγκαίου
μαρμαί
κελεύθου
ἐπιθυμοῦντες
ἐλαίης
δίδοσθαι
αὐτόματοι
Ἀθηναίης
##ρηντο
Ἀλκιν
βάθει
πεζοῦ
ἐπαινοῦσιν
δειλα
οὐκέθʼ
λαμπρᾶς
μετέωρα
Πατέρα
##γέπως
χαίτην
##στικοῦ
τυχόντας
##μίλιον
σαφὴς
ἐνεθυμ
κακοπα
Πέργαμον
μαχομένοις
Καλλίκλεις
τεθαρρη
στρατιώτην
γραμμὴ
ἀκροβολι
συμφέροντι
ῥήματι
καρπούς
βωμός
καλουμένοις
προειρημένους
ὁμίλου
ἀπέχθειαν
εἰδόσιν
Αἰγυπτίου
ἠναντι
νεωτέροις
ἐλέλι
ἡδὺν
ἡδεῖαν
σιωπῶ
ἀλήτης
πηγή
ἐλπίζειν
γενεᾷ
ἔτεκεν
ἐνδεδυ
σφετέραν
πρεσβυτέρῳ
αἱρήσειν
δωρεάν
θνητὰ
δένδρου
ἑστὼς
φωτί
χαράκ
ἐνθυμουμένους
ἐπίκει
Θετταλοὶ
Πέτρου
ἀμφιλαφ
λαγὼς
γυμνασίων
γυμνασίοις
Μενέλαε
κρέσσον
ἀμελῶς
κεῖνο
σκευὴν
συλλαβόντες
ὀφείλων
ὀνομάζοντες
Φοινικ
Ὀλυμπιὰς
περιέχον
περιέχοντα
θέατρα
φεύγοντι
αἰνίγ
ἱκέτας
Κερα
θαυμαστὸς
κρυπ
ἀποδεξάμενος
ῥυθμῶν
Πελοποννησι
ἀπολῦσαι
βέβαιος
ἀποτεμ
καταλείπει
ξύμπασαν
ἐρῶντα
κλαγγ
ἀπήντησε
Ἀγρίππα
περιστάντες
ἀστεῖον
Θερμώ
Δαυίδην
Νείλῳ
ἱδρύσαντο
[...]
